#version: 0.2 - Trained by `huggingface/tokenizers`
e e
▁ k
a a
h a
a r
▁ s
i n
▁ p
▁ m
▁ ha
a n
▁ b
i s
▁ha i
y a
▁ d
▁ a
o n
t a
▁ j
▁k a
aa r
▁m e
h ee
e n
▁k e
▁ l
a k
▁ n
▁me in
c h
a i
▁ r
▁ v
▁k ee
o o
▁ is
g a
aa n
▁ t
u r
a l
a t
▁ e
▁ h
▁s e
▁k ar
▁k o
▁p h
▁a ur
▁ aa
i k
e s
a d
i ya
a m
p h
aa t
a s
i l
a h
▁p ar
▁ha in
▁ ya
▁ g
aa l
p an
▁ 1
i e
▁ ga
a b
▁ u
c ha
o r
i t
e k
ha n
▁ in
▁ ta
▁h o
▁ya h
t ar
▁n e
i y
▁b hee
r ee
▁j a
a ta
e t
i m
▁ 2
r o
▁ka m
▁n a
▁ y
▁l ie
▁e k
▁s ak
aat h
l e
▁ ch
▁ph on
aa d
an e
▁k i
ph on
aa m
m aar
am en
pan ee
▁s aath
ak e
a ha
0 0
▁ 5
aa s
▁ hee
▁ 4
▁ 3
l ee
▁l a
▁s maar
▁aa p
▁k h
▁s h
ha r
a p
▁ga ya
ai k
▁j ee
▁ o
d h
j ee
▁smaar ta
▁smaarta phon
▁k iya
aa ya
aa v
ar a
a y
▁is amen
aa p
t e
in g
b ee
▁kam panee
▁b h
a in
u k
▁t o
u n
at e
▁v aal
t ee
an a
ah in
▁d iya
is e
d ee
▁b ad
▁p r
cha r
▁n ahin
▁ka im
i v
▁k aar
▁m o
l a
▁a pan
▁ta k
u p
g ee
at ee
▁p hee
aan e
▁v a
y oo
i r
ik s
o l
▁is ake
e j
▁m a
p al
en d
▁j o
s h
▁bh aar
m at
e ga
▁kaim ara
ai m
▁d ee
t h
▁e m
ak ee
as e
▁kee mat
▁s am
▁hai ,
e d
▁ 6
▁ an
▁ 8
▁y oo
▁ cha
is h
▁phee char
▁r up
▁d il
▁p ro
▁kar ane
j ar
▁jee bee
▁p aha
s han
▁u n
h en
▁na ee
en t
▁apan e
▁ga ee
e l
o k
i p
iks al
o g
aar ee
▁m il
aa k
▁h on
es h
an t
▁a b
▁h u
tar ee
▁t ee
aa ta
▁s ab
▁r a
ai l
hee n
p ee
9 9
▁sak ata
▁u s
▁b ai
▁dil lee
▁l on
▁l ek
▁d is
j an
aa b
u t
g e
▁s t
▁lon ch
u l
aa j
s ar
ai t
o t
oo r
ch h
▁bhaar at
▁s ee
e m
aa y
a v
▁p ad
o m
▁j is
ak a
▁b an
▁sak ate
ay e
▁r aha
▁e p
i d
▁u pal
▁v e
▁upal ab
▁rup aye
▁b aad
▁bai taree
▁s k
▁ (
▁j ar
▁ 7
▁upalab dh
▁ end
aav a
▁y e
▁k aam
it ee
s ee
▁r ak
iy ar
d a
g aap
ek t
▁d en
gaap iksal
s ha
▁t ha
▁vaal e
ad ee
▁ho ga
ee ch
is ee
▁kar en
▁m aik
▁d o
▁d e
▁j aan
▁me gaapiksal
▁t ar
▁b a
or t
▁paha le
▁r ah
▁in ch
▁k ha
ak o
iy o
ee d
▁r aim
▁b aar
b ar
k a
▁a l
▁ 0
v ar
iy on
▁kar ata
u j
▁ph r
▁ka ha
▁yoo jar
▁b l
es han
ch ch
▁b aat
▁o p
s es
ai p
▁is e
▁k u
▁ra hee
▁aa ee
h e
s t
▁la ga
v ee
k ar
r a
▁b e
▁r an
▁in tar
▁maik ro
00 0
u s
▁lek in
▁pheechar s
▁ha m
aan ch
oo p
y ar
o d
aan ee
▁s ha
▁ga e
▁m ai
▁st or
▁is akee
ses ar
▁a panee
▁g r
▁m aar
▁k an
▁la is
i j
▁k v
ta m
▁intar an
▁aap ako
k i
a is
y aad
▁ku chh
u d
▁pro sesar
oo t
▁bad h
i b
▁j yaad
▁phr ant
▁sab ase
▁d ek
▁tar ah
▁rah e
ga l
▁r iyar
▁hon e
▁2 0
▁1 2
ha t
p ha
aar a
▁j ab
r i
▁s ap
▁d oo
o p
▁sh ur
▁al aava
i ch
g ar
n e
▁dis p
▁s ar
▁jyaad a
▁ek s
▁disp le
▁v ar
▁p l
▁d iv
es ab
▁kh aas
▁kaar d
▁l en
▁v ah
▁l og
▁l aanch
han e
aap hee
▁d a
▁s aal
▁a p
as an
v a
▁em eech
▁k isee
aaya d
▁hu e
e gee
▁s a
ree n
▁na ya
▁ch aa
▁ka ee
- k
▁la g
h o
▁be ha
▁mo d
▁b aik
▁cha l
▁hain ,
▁ja ega
▁ja ise
▁e s
t ha
▁s p
ap ee
ri ent
o j
▁mo b
▁r oop
▁vaal a
▁d ie
▁m ain
▁pad hen
▁d in
h on
▁v ik
aat ee
aan a
▁vaal ee
as et
▁na e
▁t hee
▁ ‘
▁1 0
▁h aal
▁sam ay
▁d on
▁ph il
▁e cha
an ee
in d
▁kar ate
2 0
▁mob ail
r ik
ai d
▁p a
oo d
▁kar ana
▁stor ej
▁ko ee
▁ho ta
▁se l
▁n ir
▁end r
or ee
▁div ais
▁4 jee
▁a dh
▁is aka
▁don on
ree j
▁ch aar
▁sk reen
l ar
ha k
▁sak atee
▁endr aayad
en ge
o on
▁kan ekt
▁p ee
▁b at
▁p ha
▁1 6
▁sap ort
▁a chch
▁a ise
t o
▁ho gee
▁u t
▁b ana
▁yoojar s
▁see reej
▁1 3
▁intaran al
a ee
▁p aav
▁s en
▁ph ot
▁s an
es t
te m
aat e
▁pr at
▁shur oo
▁ 9
t i
▁ en
▁is ase
▁d ik
▁n aam
r ai
is a
▁ c
oo gal
▁mai ch
▁is tem
▁jar ie
▁istem aal
▁ma uj
aa har
▁in d
▁k ie
▁hain d
▁ ee
▁apan a
▁j ise
▁v ai
▁b al
▁p esh
ta k
ya d
▁s im
r e
▁b ee
as h
iv itee
▁20 1
▁b ik
aak h
u al
▁a gar
▁3 2
▁bhaar atee
u m
▁tee m
▁g oogal
▁haind aset
▁j aata
▁end ro
ak aar
pee es
▁ve rient
▁m ad
▁doo sar
▁bhaaratee y
▁padhen :
▁echa dee
▁in jan
▁d h
▁b ah
▁aa s
▁lek ar
▁paav ar
▁adh ik
▁k aaphee
ak ar
jee bee
▁v an
▁kanekt ivitee
▁a m
▁l ee
sha m
i ph
v an
▁hu a
▁den e
▁s o
▁r o
ek s
iy aan
ar s
ha l
▁ha r
99 9
oo th
▁t r
▁rup e
▁v ish
▁s is
▁v o
▁mod al
- pha
▁ on
▁va heen
is t
oo ree
i g
▁de ta
▁sis tam
b as
▁baar e
▁endro yad
▁aap ake
▁d ij
or d
▁bl oot
▁b ata
b al
e p
▁em apee
an d
▁j in
▁kha ree
ad aar
▁u p
ha te
▁p iksal
hon ne
y on
▁badh aaya
ad e
▁s n
▁v eed
es adee
▁me m
oo l
▁sab hee
han a
▁s u
8 0
ain d
▁bah ut
▁ko l
esab uk
▁g ee
▁aa dh
▁v ee
▁maikro esadee
▁g han
▁ch h
▁m aan
▁e l
▁sen sar
ak aaree
aan ki
la ish
oo m
▁s aam
▁a isa
asan g
▁mauj ood
▁1 1
▁2 5
▁bik ree
aa h
aim asang
aa ph
g an
▁ho tee
▁k l
y aan
▁bloot ooth
▁veed iyo
-k or
▁ph laish
▁1 5
▁mad ad
▁un honne
▁ka lar
▁haal aanki
▁log on
ar e
▁l aakh
▁ph esabuk
iya m
▁d et
▁mem oree
▁j al
▁ x
▁s aimasang
▁k ya
▁sn aip
▁ il
▁b r
▁p ich
▁jaan akaaree
▁s pee
a g
t j
▁b aaj
▁ka p
aay ar
d i
▁gee g
- s
▁l e
ut aab
an ka
▁s ir
▁m uk
ara ph
ar ee
▁d ual
▁pich ha
utaab ik
▁jar oor
▁baaj aar
ta i
ta l
▁t he
ib al
▁ve bas
▁ta tha
▁m utaabik
▁va ee
ha ta
▁roop e
▁beha tar
▁vebas ait
▁bad al
▁maar k
e yar
▁p oor
am bar
▁sh ree
▁ch uk
▁un hen
b ha
▁e d
▁ma heen
▁ind iya
▁g l
▁6 4
▁ba j
▁n o
v al
▁yah aan
▁ab hee
▁ko r
▁op har
▁ aane
ol d
▁da ur
▁geeg aahar
ise j
ga t
▁d ar
▁ -
▁nir m
▁ f
u sh
m a
▁ph ir
▁kv aad
ya k
▁mo tar
as t
▁d esh
▁chaar j
▁c heen
aa g
g b
▁bad ee
▁kharee d
▁pichha le
▁kaim are
, 000
ik eshan
a j
k h
▁phil m
▁kaar an
yoo l
ee ,
1 0
▁an y
▁p aas
ibal et
▁e lee
▁tee n
▁aadh aar
▁kaha ,
▁ph l
chh e
ar et
v o
aa hak
▁l anka
▁sir ph
▁geegaahar tj
▁s ta
▁ta iy
v id
▁kh el
ee n
, 999
ak i
▁is ee
r on
▁d un
la g
▁ph ree
▁phee s
aak ar
▁var jan
▁sar v
▁us e
▁p o
▁p aar
ro l
▁sh aam
▁m eed
▁k yon
aay an
▁bl aik
▁il ekt
▁ban aane
▁a ga
5 0
is han
▁g har
▁jab aki
ap r
aan s
▁ it
▁j aatee
om ee
▁a k
al ain
▁ghan te
▁kh il
▁gr aahak
▁r ej
aar e
p hee
▁s v
▁ph ul
▁ta ibalet
▁1 4
▁s th
▁t ek
al e
esab ee
▁snaip ad
▁l o
▁p ah
▁g ail
▁b o
▁t e
og r
▁vaee -pha
▁ta hat
ak sh
▁a lag
pal e
▁bal le
▁jis amen
▁dh yaan
in t
▁intaran et
▁mil ega
s ep
b h
▁dis pale
▁kh ud
▁un ake
▁van ade
d ar
▁bat aaya
▁m an
▁maheen e
▁p ree
ph t
ai r
▁shaam il
▁n ik
un t
▁elee dee
▁j aane
▁smaartaphon s
▁m aha
▁ or
▁ba chch
ek see
▁achch hee
▁spee d
▁vik et
▁kam p
▁nirm aata
▁o k
▁p ata
▁d v
ol o
▁dun iya
ol yoo
▁p le
▁pr ad
▁achch ha
▁maark et
ok s
▁paha lee
▁gail eksee
▁aa j
aas h
▁ im
▁jal d
▁e yar
▁o to
▁kv aal
▁daur aan
▁phees adee
▁o ph
▁k r
▁sh aan
▁pl as
▁sp es
▁aaee phon
ak t
▁m ah
▁d aal
▁doosar e
ee b
▁pah un
▁jaroor at
ah aal
▁ i
▁y oon
ha ee
▁h is
▁ha maar
as ee
▁v h
▁t araph
▁ aar
▁u m
▁n ot
- b
▁phot ogr
▁balle b
▁r il
t an
al p
olyoo shan
▁dv aara
▁ran g
▁ma isej
▁r ed
▁kha bar
un a
▁12 8
ka unt
▁kh e
▁chaa h
▁p et
▁aa ya
▁g end
ha m
ai j
▁vaheen ,
▁us ake
a ph
▁p aaree
ee k
r iya
▁photogr aaphee
▁phil ahaal
▁d aava
iph ikeshan
▁b eech
aad ee
▁ z
▁sel phee
en ,
aal ee
▁a s
▁l ai
▁hu ee
s ara
▁kyon ki
▁d yool
ar d
▁3 jee
▁ka b
▁vik alp
▁s ah
▁m in
▁on alain
vid ha
▁shur u
j ah
▁ aan
▁kar aaya
▁ho te
▁j aaree
at op
▁paha la
i o
▁phot o
▁rak hee
▁ta im
▁da un
▁shaan adaar
▁8 0
▁ja ga
▁b ha
▁kam pan
▁jee peees
▁su vidha
▁kar ega
▁ta ur
s ,
aan d
▁aap akee
s a
iy an
▁prat i
▁taiy aar
en j
▁ke val
▁g old
▁ho on
▁ut aara
▁va jah
▁t est
▁m aat
▁3 0
us aar
lee p
aat sep
▁ap ad
▁kvaad -kor
or m
iy ant
▁ja egee
h it
al ie
▁kar atee
▁se k
ab h
▁bad ha
▁k ul
▁apad et
▁is alie
▁s on
▁kl ik
j aar
▁b ar
▁l ok
▁chaah ie
m ent
▁ch ho
en s
▁rak ha
▁graahak on
▁aa ge
ek shan
▁b har
iya t
b an
al od
▁jar ooree
▁pheechars :
▁maar sham
▁j en
ak om
▁tee vee
rai gan
anee k
1 2
▁an usaar
aayan s
ay og
▁tak aneek
▁e ph
▁ w
al a
▁mo to
▁ne ta
▁p aanee
▁ya di
▁muk aab
▁rej olyooshan
▁daun alod
j a
▁s un
▁n ok
▁sarv is
- -
6 0
ail o
▁s ur
▁p ur
▁t um
▁ilekt rik
▁s as
▁j u
es ha
▁jaga h
▁4 g
ree r
▁jis ase
▁l aip
e cha
leep op
▁l et
▁sha reer
▁yoo esabee
▁g h
▁maarsham ailo
r am
▁ta b
o s
in a
▁lo leepop
▁vaee-pha ee
▁hon ge
▁dij ain
▁h aar
▁pro d
▁jaan en
▁1 00
▁laga ta
▁gl aas
▁aa ta
▁ban aaya
▁o es
▁snaipad raigan
▁vh aatsep
▁p ooree
▁kap t
▁na jar
▁k ant
▁p asan
▁c hee
▁neta var
ing ar
▁p ain
▁len e
▁aadhaar it
▁l iya
n a
▁n ambar
▁chaa hate
▁r ip
▁bad a
▁pl aan
oo s
ya s
▁d aata
▁kar ake
▁op aret
▁tek n
▁jis aka
▁netavar k
▁ph ingar
▁v ind
▁v id
▁ja e
aik s
▁jis ake
▁ba ch
▁a v
ok as
- p
▁l ait
▁m uj
▁r ik
g r
aa jee
▁un akee
▁jee t
▁ril aayans
▁pahun ch
g l
▁sha tak
▁khaas iyat
m ee
▁va jan
▁kar od
yoo tar
▁sam aj
▁beha d
▁aas aanee
▁j aate
▁pee chhe
▁ro hit
▁laip atop
d aan
▁lee tar
apr int
▁a isee
aas t
sha k
▁g ho
▁balleb aaj
ha lee
▁sam as
▁baj at
▁ran on
▁aa y
e r
o vo
oo vee
▁k har
▁a ch
▁sa hee
im it
▁saam ane
▁chal ata
▁kar eeb
il a
▁2 1
▁o var
▁phingar aprint
ar char
▁l ik
▁det e
▁us akee
olo jee
▁samas ya
c hee
aas ha
ain k
ol ar
▁kvaal akom
im ee
▁y u
▁phl ip
▁b uk
▁k it
il t
▁var sh
▁vai rient
▁kamp yootar
akaar t
▁oparet ing
▁aga le
▁muj he
▁kar egee
▁chee j
▁bana e
▁ha jaar
▁doo sara
bha g
▁meed iy
▁m aam
▁dik h
▁s up
▁ka hana
▁op shan
▁n yoo
▁h aath
un d
aad h
▁sh ik
m eed
ik al
▁sth it
▁1 8
▁b ina
aad iyon
▁rak hane
▁badal aav
▁nok iya
▁pasan d
▁jis akee
▁dek ha
l ab
t r
▁j io
▁khil aaph
▁j an
▁ok ta
▁m as
▁sk or
/ 2
▁80 2
3 0
▁no gat
▁s uj
▁prosesar ,
▁ap archar
iy e
a ch
▁201 7
▁v yak
▁g em
▁1 9
imit ed
▁s in
▁bal ki
ta v
or k
ut i
▁kaar on
t iv
▁m ee
▁ko halee
▁sta ind
▁in amen
▁aap aka
▁tekn olojee
u th
aat ek
▁um meed
▁g ar
▁ma uk
▁din on
l d
▁rak hen
▁s l
▁j ed
▁v ol
d e
▁vind oj
▁b il
▁t v
▁meediy aatek
▁s il
▁j iyo
bha v
p o
▁aa aip
▁ban d
▁phlip akaart
ab l
▁in ab
▁bat an
▁kh oo
▁jee pee
▁d rai
al ee
s o
t oo
▁bh ej
r iyant
▁min at
sha l
▁spes iphikeshan
ga ment
it ar
▁ta ip
▁p har
▁h ed
▁4 000
▁to p
la jee
sar e
▁ja isee
ej an
▁se gament
▁k on
▁d ega
▁d oor
▁ko sh
ata lab
sham ata
d am
ah aan
▁det ee
shan a
▁p at
▁ma j
▁d ha
▁hon da
▁inab ilt
m aiks
t ing
▁kab hee
▁gho shana
▁ oop
▁ga y
▁s al
in k
▁ ’
▁o t
▁la gee
▁sak enge
▁am e
▁a ip
▁ka in
it el
iv aar
▁poor e
atee ee
▁yoo j
▁k shamata
▁1 7
▁l am
▁j ahaan
ay oovee
▁kampan iyon
iya l
▁aa kar
▁bad e
▁am ejan
▁prod akt
ed aaree
r en
▁s har
▁in st
▁okta -kor
- d
m p
▁d olar
▁sh eyar
▁jee van
▁poor a
▁it ana
▁s aab
▁pad he
▁2 4
▁dek h
-pha i
ya l
▁ham en
h y
u jar
▁m al
uk ee
▁doosar ee
t v
▁prat is
▁tr aans
▁rip ort
i ta
▁s ait
▁g an
▁sh o
▁h aas
oo k
▁bachch e
▁2 00
▁smaar t
▁p ort
▁t aak
▁e pal
▁aaee peees
▁aan k
ib h
▁beha taree
d ra
aa han
uk h
▁lonch ,
▁pet rol
▁ame rik
y an
ha h
▁oop ar
▁5 0
▁bachch on
▁ph es
▁es ayoovee
k e
▁ba cha
▁vyak ti
t eks
▁k il
▁m i
▁do st
▁t aata
▁aa v
, 4
▁st aar
▁maar uti
too bar
▁behataree n
▁ja en
var ee
▁vai -phai
▁saam aan
▁son ee
a phon
▁m u
jee n
▁an tar
▁ak toobar
▁prad ar
▁sup ar
▁haas il
m el
ab ee
ate l
▁shuru aat
▁b ol
▁d am
▁hon a
▁chuk ee
k ee
har e
▁o d
▁yoon it
▁gend ab
▁m ahin
▁aa di
▁ja enge
e pha
▁ta s
▁maikro maiks
▁pha il
▁meed iya
▁ ar
▁dek hane
▁mah ila
▁an u
▁s te
▁ka ise
▁in gl
▁kapt aan
p s
▁v aap
▁laga bhag
t m
▁tas vee
an ga
▁t ork
▁ya hee
▁to k
▁mo t
va cha
i jan
▁l ist
▁ga l
aat aar
▁mahin dra
i tal
▁t ej
▁ch un
▁3 000
k aar
▁b aink
amen t
▁ed ishan
▁k rik
▁t vacha
▁es a
▁v aahan
▁lag aataar
▁pradar shan
▁t ho
▁p aanch
▁t h
▁2 8
am ee
▁4 0
la ee
▁tee sare
▁kar a
▁1 ,
99 0
▁kant rol
ak or
▁t ul
▁hamaar e
▁ot om
▁y aad
▁an t
▁suj ukee
▁kosh ish
▁gay ee
v aar
▁e lajee
▁ingl aind
▁m aim
▁ka s
▁len ovo
/ jee
t on
▁ga ur
▁maat r
ta ph
▁ma us
abh aav
5 00
▁aa ega
b aik
▁ep s
▁khe le
▁saab it
ee j
▁b aahar
▁baik s
▁la in
▁maha j
▁lag aaya
en jar
▁r aaj
▁v aayar
▁a kaunt
9 0
is ha
▁j e
▁ch ip
▁dek hen
▁a ph
▁l uk
▁ta ch
▁r enj
▁dis kaunt
ich aar
▁tul ana
/jee /
▁ "
▁t har
pan e
i tam
j al
▁pratis hat
▁un aka
▁maich on
▁mukaab ale
▁in teks
▁eyar atel
so pht
▁od iyo
▁pro t
▁ham ane
▁aas aan
▁so shal
▁kha tar
▁ka l
da gee
▁karen ge
▁sha omee
▁es adee
▁maim oree
lee k
te l
▁up ayog
▁aa d
▁mil a
▁chaarj ing
▁rik ord
▁krik et
▁j ud
b o
▁a t
▁sam et
▁ach chhe
h aan
p ar
▁nahin ,
▁t el
▁mil ee
▁kol ing
▁kh aane
▁s oo
▁ha l
▁n i
y o
▁v akt
▁so ch
ik a
▁pree m
▁sthit i
▁par esh
▁5 00
▁an dar
tak ait
▁m aana
▁jo d
s e
▁b ra
▁kh ul
▁bh aasha
▁kar av
aat ar
▁badh aane
▁vish v
▁2 2
▁kas tam
y or
▁aa e
- 1
▁r oj
▁u d
▁op po
r ed
▁ch una
▁ki takait
▁la ge
▁bo dee
ta p
▁r ok
▁gr aam
▁po st
▁drai v
4 0
▁j im
▁dik haee
▁b es
▁pr am
▁raim ,
▁se va
▁g b
▁chuk a
▁ra hane
▁sah aare
yoo j
▁tha ,
▁te jee
▁preem iyam
▁mauj oo
▁maikro sopht
end r
ban dh
▁maam ale
i h
m ak
l as
ch aar
om ars
▁k ro
▁t oo
▁us aka
▁gr e
a ,
- in
g h
▁ char
as aik
▁vo yas
▁aph ree
or oom
▁khareed ane
▁dha van
p ort
▁2 ,
▁maj ab
tee see
▁be cha
▁motar asaik
aar an
al ag
▁na v
▁phon s
m ah
▁aa m
as aan
▁main ne
y e
▁ iv
▁r is
▁sam bandh
▁r itel
▁par s
▁sam bh
▁motar s
- m
u tee
▁ka ip
▁n uk
▁an al
▁sar akaar
6 7
▁s m
▁ep pal
▁aphree ka
▁lag aane
▁j ana
▁mai daan
▁lam b
k il
▁b aal
▁b ane
aap t
▁dij ital
o b
▁k ool
▁cha le
▁mil egee
▁tar eek
▁sta il
▁nuk asaan
▁k is
-k omars
t ree
▁dee jal
▁ra v
iph t
▁khel ane
▁alag -
▁pr abhaav
3 5
▁jana varee
▁cha it
▁ham esha
▁oto ph
▁yu va
▁2 3
▁gr aaph
▁vah aan
▁alag- alag
y oon
▁p ais
ya m
▁d ab
ak sha
▁mauk a
▁maujoo da
b har
▁ ik
en )
▁s ik
▁g or
abl yoo
▁s aare
▁m aas
▁chal ate
▁nik aal
▁a i
hee re
▁eks ap
at ar
▁k imee
ak shan
▁g iyar
st r
▁jeepee yoo
▁ka heen
▁r ee
▁v y
▁lai ph
itam bar
s ap
ha it
▁p ai
▁us ane
▁0 ,
/jee/ en,
e bal
i dee
▁l aksh
▁g aadee
ait ik
▁2 6
▁bl oo
▁l ad
▁v it
▁chal ane
▁bee maar
▁p ak
ap oor
▁b as
il la
▁ho m
▁ch e
▁mutaabik ,
▁his sa
▁l aaya
▁kharee da
▁aakar shak
ta on
▁y aanee
▁sak sham
▁echa teesee
▁chh od
▁sas ta
, 990
▁sap hal
▁nik al
v en
▁k yoo
▁201 6
▁jin dagee
▁s itambar
▁cha hal
▁thee k
▁blootooth ,
jeen en)
▁ab h
▁buk ing
ek tar
▁in hen
▁sak e
▁pr ak
sh et
omee tar
▁s tar
▁v hait
▁eks apee
r t
ree m
▁ha ee
▁ch om
▁sar ch
▁vish esh
▁jim m
▁graaph iks
▁l imited
-- --
▁anu bhav
▁staind ab
x y
▁aga st
- see
▁em em
▁gor illa
▁par aph
▁pl us
▁aaaip har
▁maus am
▁k shet
▁taak i
▁j am
▁v hee
▁thar anga
h aar
i on
in al
▁n iyam
▁r aid
▁sa uth
▁kvaal itee
r an
eech e
▁mal tee
▁2 9
▁kam ee
k ul
▁s ad
ik t
▁jo on
▁mil ane
▁sek and
o jan
▁ga la
▁pr ayog
el iya
▁sk ain
▁m ush
▁n eeche
▁ph it
▁g ir
▁mush kil
▁d han
▁jee tee
ya v
▁aa kh
▁g aadiyon
▁( jeenen)
▁eph /2
aap at
tan am
▁mukaab ala
▁sur aksha
o la
▁a il
▁u tha
aas a
▁spee kar
▁kh aana
▁em abee
▁ep ha
echa dee
▁shar ma
▁dam adaar
str eliya
r eshan
▁aa ut
aakh aapat
▁vish aakhaapat
▁vol tai
▁vishaakhaapat tanam
e ra
▁t aaree
▁na ye
▁baik ap
2 5
▁s aaph
▁p y
▁d ig
▁3 1
▁kh u
yoo esabee
▁haalaanki ,
▁vaee-pha ee,
▁s itee
▁o pan
te d
▁prot ekshan
▁aa te
▁gala xy
▁j aakar
▁e j
ap le
▁let est
▁mot or
▁staindab aay
▁ka un
▁r e
▁v ir
cha na
▁an g
av aal
▁raha ta
ar t
it h
adee p
▁jaan a
▁aa tee
▁g una
▁ek va
phon ai
▁vaal on
▁piksal )
j ed
▁s aij
▁ph aaya
▁ve riyant
▁201 8
▁chuk e
▁cheen ee
▁taiy aaree
▁amerik a
oo shan
▁pha is
▁lai v
▁me re
ur u
▁dil ee
ha tee
▁j aik
en o
ai g
oo tar
▁dek hate
ya h
ai ga
▁kaar en
▁em atee
▁ra j
ul ar
▁pain al
▁tv itar
a cha
▁u th
▁kha tm
▁ro yal
▁r et
▁mil ata
aaj a
▁spesiphikeshan s
▁otoph okas
▁p oo
▁v ibh
aav ana
yoo m
sh ip
th it
▁7 20
▁br aand
▁im ej
▁s aaj
aam ee
▁len s
oj ana
▁ee -komars
▁so ph
ab oks
▁o streliya
aak ee
-s pee
▁kul adeep
▁chho te
▁p an
ag red
▁pram ukh
▁h el
▁us amen
▁eks a
tav eyar
▁laksh y
▁phaaya da
▁ 99
▁kar v
▁bil kul
▁25 6
1 9
dh e
jee e
▁cha m
▁cha la
▁paha ch
▁ap agred
▁desh on
▁a sar
▁2 000
le j
▁pr ash
▁see t
d esh
q u
ai v
▁sh op
▁oph is
▁kampan iyaan
m b
▁p or
▁m atalab
▁sak ega
▁nav ambar
▁iv ent
▁k aal
▁red iyo
1 1
b r
▁n ee
▁aa pane
▁ta y
▁ja isa
80 x
▁tareek e
▁ka dam
hee r
▁y ojana
▁um r
▁rang on
▁ap r
ik on
▁em a
▁tr aik
▁kil omeetar
▁ph aayad
▁kh ol
ara v
▁maikro -
▁aas us
▁me tal
▁t an
▁e see
jee peees
▁pr aim
▁d ok
▁tak kar
araph ul
▁khoo b
o ch
ak am
ch it
▁sth aan
▁khe lee
▁sek end
aiga ship
ak l
av aar
▁phl aigaship
▁maha tv
▁pur aane
▁padhe ,
▁soph taveyar
▁ph aast
le d
uk t
▁va ise
▁kaimara ,
▁raha te
▁kaha te
▁ilekt ron
▁bar aab
▁vir aat
s un
▁in tel
kh ya
▁red amee
12 80
▁sur aksh
s k
▁d as
▁d im
▁chh oot
▁3jee ,
▁shik har
ar ad
▁ph okas
▁g o
aas on
▁de r
▁ee mel
▁ple taph
▁his aab
as al
▁smaartaphon ,
▁gr up
▁len a
▁motarasaik al
▁ka var
oo ph
▁an d
▁disple ,
▁25 1
▁gal at
n ing
aa ha
▁h aan
dh aar
▁dis ambar
▁khar aab
▁sin gal
s p
aar ik
or ai
▁jeepeees ,
ar eshan
▁s ain
▁t heen
▁se v
▁se ting
av aree
▁hoga ,
▁san khya
▁vaap asee
▁n oo
▁laga tee
▁khul aasa
▁jimm edaaree
▁sk ootar
▁rak h
▁sa und
▁vid iyo
▁sil var
▁p op
▁l aane
▁u tar
ap hee
▁doosar on
▁paar iyon
▁hamaar ee
▁dost on
▁pahach aan
- ph
▁b aind
▁jab arad
▁el atee
▁no tai
sh it
aab h
▁den a
▁de gee
▁sha har
▁maat ra
▁p han
▁me ree
tee v
▁kan ek
▁bee /jee/en,
▁muk hy
▁balleb aajee
1 7
cha n
▁karv d
o es
r d
ap las
▁hon gee
▁haar d
▁baraab ar
▁b it
▁pa han
▁kl aas
▁apr ail
▁jabarad ast
▁b oks
▁ja v
▁rak hate
▁br ek
▁let e
▁khar ch
aksh in
▁aad at
▁ko m
▁chip aset
▁majab oot
▁s avaal
▁p and
▁t ur
▁suraksh it
▁d aaya
aat mak
▁in akee
▁raha tee
▁kv od
▁thee ,
▁otom aitik
▁j it
av as
▁sa ph
▁201 5
▁h d
▁g un
ap ar
▁6 0
aava j
▁jen aphon
▁p aaya
▁m yooj
▁d akshin
▁ko d
ip s
▁jaan ate
▁dar asal
▁gendab aaj
▁d r
▁r om
es hak
▁g ujar
- jeepeees
▁a ham
en shan
ad h
▁bh u
▁bad hane
▁us ase
▁rak hana
▁pa enge
▁san k
▁eksapee riya
b d
▁l aava
▁n eks
▁ta m
em apee
ho on
▁sp ort
▁lok apr
▁samaj h
e ph
i a
eshan al
▁pahun cha
▁ka h
et s
em es
▁( 4
▁ju laee
▁m aadh
ya yan
▁paav araphul
▁sik yor
b ord
▁b aavaj
en gee
ph te
im p
▁saath -s
aik t
▁kaar yak
oj it
▁ghan ta
gh z
▁baavaj ood
ha kar
▁a d
▁r aat
▁r ish
▁sh re
▁maar ch
▁el ateeee
tree y
k al
▁ka il
aar m
el oo
▁sha bd
hal ain
▁s aaree
aan on
▁kh ush
▁bee es
▁32 jeebee
aash treey
▁tho da
▁kastam ars
aason ik
▁jav aab
▁saath-s aath
s oos
▁p i
▁ha phte
ta il
▁6 5
aak or
▁maik s
▁adh yayan
▁van aplas
▁maha soos
▁ju dee
▁at ir
▁motor ola
▁pand ya
kar s
▁main ual
b ah
e le
▁ :
▁o l
aav e
aav ar
- sh
7 20
f i
r aam
▁v ichaar
▁pr aapt
▁che hare
▁atir ikt
▁v ij
▁in s
▁mil enge
▁vai riyant
bal e
▁ghar eloo
▁jed a
▁bhaasha on
an es
▁a y
▁j ad
▁ho ,
ma ch
▁khil aadiyon
▁bra ujar
▁maadh yam
p aad
▁3 3
▁tee sara
▁jal dee
▁kapt aanee
epha see
▁giyar aboks
aphee ld
i dh
▁yoo t
▁pro j
▁aav aaj
▁m um
▁d aayar
▁4 5
▁un ase
om i
▁eks akl
▁mu pht
▁myooj ik
▁hai ?
▁d hon
▁n ish
▁pr av
▁pad ata
oos iv
▁gar m
▁jud e
▁ay yar
a jee
l ai
▁p aane
▁ph or
aad a
jar ee
▁op halain
▁sa ch
▁not iphikeshan
▁lok eshan
▁eph em
ia omi
▁r es
▁i phonai
echa jed
o da
in n
aay ee
▁ku m
▁vaahan on
▁vaayar al
▁pak ad
aa hee
▁se t
il itee
▁kam aand
ant r
av ard
▁ut aar
▁so cha
▁pars ent
th e
▁dij aayar
▁gl o
▁kro m
▁anal imited
a isej
▁s tee
▁a ind
ak on
▁br aind
▁phar avaree
▁h in
ord ar
▁ok t
▁jen aret
▁paraph orm
l o
▁s aha
am ishan
▁ta ib
lee v
▁laga e
▁padhen ,
bas oor
▁lamb e
- v
r ip
s hee
t ik
▁p en
▁l ink
▁2 7
▁mil atee
▁div aisej
▁prad aan
▁mahila on
leek eshan
▁taaree ph
▁eksakl oosiv
▁m aah
▁j aap
▁ma han
▁lag ane
▁x iaomi
▁yoonit s
▁rav ivaar
▁kum bale
d ha
e ree
▁me n
▁kar iyar
iv ars
▁mil akar
▁en apheeld
▁vish es
▁saph ed
1 00
▁a id
▁v iv
▁en em
▁khoo basoor
▁shop ing
▁s aat
▁me ra
▁aa g
iya omee
am aan
▁main ej
▁maikro- yooesabee
aa pan
▁p aik
aaya k
▁snaip adee
▁inst ol
▁gendab aajee
▁chale ga
▁saphal ata
▁kshet r
sun g
3 7
▁ ent
▁p al
▁aa k
▁ta cha
▁2 jeebee
▁pr akaar
▁stor s
▁ut paad
ist reshan
▁traans ap
19 20
▁b en
em ent
▁chho tee
▁prash n
▁vishes hata
) ,
e ,
▁ oor
aa phon
▁p ej
ta s
▁par eek
▁1 jeebee
▁kh aan
yoo b
▁dis aple
▁chho ta
▁cheej on
▁khatar a
teev itee
u g
▁p air
ed aar
av ar
▁chaa hen
mee tar
5 5
x 1280
▁se ph
▁g hat
ata im
▁3 ,
▁jaan ch
▁saamaan y
▁paresh aan
▁kvod akor
▁snaipadee l
k at
▁b aata
▁see k
aay aam
▁pa ise
▁py aar
▁tur ant
▁mum bee
▁d aam
▁3 jeebee
▁sl ot
▁sambandh it
▁kanek teevitee
o el
▁ ij
▁t han
▁par era
▁ran anee
▁en ephasee
▁lee k
▁15 0
-in ch
oo v
aal a
▁ki r
▁kaar ban
▁yoo ro
▁us ee
▁ep leekeshan
▁ve b
us hee
eks a
gr aam
▁r og
▁v aid
▁5 dee
▁el idee
ee y
▁j or
▁r ai
▁kee bord
ik aarik
aam in
▁ma ee
▁7 0
od aaphon
▁chaa hatee
▁4jee bee
▁av as
▁skain ar
aar es
▁v isha
▁8 jeebee
vee n
▁dar d
▁kain avas
t ra
u b
▁p ement
▁hai k
▁ek tiv
▁8 5
▁ban aate
▁kr am
▁lokapr iy
aar k
▁ko mp
▁ph orm
ata ur
▁em aee
▁karen ,
▁rah en
▁en tee
▁aadh ikaarik
▁hamaar a
▁shuru aatee
▁sambh aavana
e ta
▁ha d
▁e van
aav at
▁sam sung
▁rananee ti
▁aa ait
▁3 00
▁cha n
▁tar ee
▁jin amen
,4 99
▁cham mach
▁ha va
aar on
ab aig
ree t
▁9 5
▁aakh ir
▁k aan
▁m id
▁in ta
▁bh ojan
ej a
▁im ph
abh ok
▁tan aav
d ai
aa hat
▁b ijan
▁se van
aat r
pht aar
▁gend on
ard ha
▁hed aphon
sk reen
▁taree ka
v aan
v ish
▁ q
▁hai d
▁a tha
▁maheen on
apoor n
▁oor ja
▁atha va
▁ph oks
▁5 12
▁4 9
▁rupaye )
▁jyaad aatar
▁pee es
▁vee oel
▁maan ana
▁paas avard
▁aay ojit
▁ant im
▁ni jee
▁dig ree
▁hin dee
▁ent ree
- l
1 6
in ee
▁r im
▁4 4
ay aan
▁sk oda
▁kv ik
▁kor iya
▁ak sar
▁mee tar
▁kon t
▁tok ataim
▁tacha skreen
aa ga
▁l aal
▁l aag
▁v odaaphon
vee t
▁up abhok
▁soo chana
▁glo bal
▁baata chee
▁b el
▁l aabh
▁v ot
▁aa u
▁in ake
▁ch hah
▁sh oroom
▁baat en
▁be ch
▁te bal
▁spes hal
▁b ayaan
▁j h
▁cha uk
▁cha inal
▁ban ee
▁ban aakar
▁sp in
▁lik ha
▁gan v
▁okt aakor
8 00
as th
▁4 00
▁lonch ing
iyon ee
▁su bah
▁eyar abaig
▁vy aayaam
▁dhon ee
▁baatachee t
, 9
▁y o
er aatee
▁dikh aaya
▁maas eraatee
▁sikyor itee
b iya
o y
▁m ish
▁ma is
aim p
▁rah ega
▁div aalee
▁pa e
re jee
▁jin hen
▁aar aam
▁haath on
▁jeepee aares
▁mahatv apoorn
- vee
1 4
▁s ai
ro s
▁ra phtaar
ra gan
▁vaap as
▁gaur atalab
aaran tee
▁niyam it
▁shre yas
on ai
ad a
ro d
▁pr as
▁sk ool
tai x
▁ril eej
▁vishv aas
m i
y og
▁b aakee
▁va hee
yo ta
o ,
et ed
ing ,
▁aaee oes
▁10 80
▁pain aasonik
▁baal on
-spee d
- j
▁j iyaomee
▁par ivaar
▁5 000
ent s
▁pahunch e
▁tasvee ren
▁raj istreshan
ha d
▁a sh
▁a qu
▁j iyonee
▁l iye
cha i
▁den ge
▁jaan akaar
▁bha vish
▁paresh aanee
▁phais ala
▁laag oo
p ai
▁k la
▁ha n
▁kh ushee
▁pha l
▁traans amishan
e lee
ta b
▁ka it
▁h t
▁se hat
▁ho kar
▁sh oot
▁phr em
▁sha imp
▁kor ning
▁it anee
▁ang rejee
1 5
▁m ar
▁ph yool
▁bhee tar
ap aid
▁baat on
▁bana ee
▁sas te
▁staind ard
▁vit aamin
- ch
i ree
m m
▁n iyant
▁to yota
▁dij aayan
▁cheej en
▁tho dee
sap p
▁m aal
▁l aid
ak al
▁n am
har a
▁jo dee
▁ra hana
▁dis k
▁f /2
▁kvaad akor
▁z ain
▁badha tee
▁chuna utee
▁k heen
▁v ig
am e
▁pr ay
see see
▁doo ree
▁tum hen
ichaar j
▁m on
▁m ir
▁a us
▁g aij
▁3 5
tee n
▁pr aiv
▁an k
hat sapp
▁poo ch
-sh oroom
- t
p at
▁r ichaarj
▁v yav
▁aa kaar
ol ooshan
▁sam bhav
▁gaee n
ip ee
av a
▁sen tar
▁phot oj
▁maan en
▁sensar ,
▁poor v
▁sho dh
▁aank hon
▁aus at
is thit
▁r eno
▁ta iks
est or
ash ip
▁vish esha
▁phul -
▁vaayar as
▁prabhaav it
▁bhavish y
aa gar
▁ka isha
ad on
▁ku maar
▁philm on
▁khabar on
▁phit anes
▁ematee 67
▁vibh inn
br id
n ee
ha bar
▁s ant
▁m ich
▁hai brid
▁is ako
▁kar anee
▁ko ch
es ee
▁12 80
▁mas hah
▁mashah oor
- 3
har m
▁‘ m
ti ph
▁snaipad ragan
▁padhe :
▁bijan es
aa bee
▁ko st
▁aa i
ah aar
▁par isthit
▁2 jee
▁kam aj
▁3 4
aap a
▁bh aag
▁al tra
k shan
▁ ana
▁m ool
pan a
▁ch hak
▁dik kat
▁vai-phai ,
i tai
o jee
p aid
▁m imee
▁n een
▁v in
ab uk
▁u l
▁sha uk
▁blaik ab
▁min ee
▁pur aanee
▁tum h
- 20
▁s id
▁p aate
▁aa th
▁y aat
▁jee echajed
aab aad
▁dek hana
▁kain sar
▁prak riya
▁noo biya
v in
an g
▁d heere
▁kar aane
▁sh aadee
▁pr es
▁lag ega
▁mauk e
▁ris ar
▁pais enjar
g yaan
an al
▁l g
▁in taix
▁ch in
▁o on
av ai
▁tar bo
▁raid mi
▁m it
aan t
▁mil e
▁modal s
▁w hatsapp
▁sun dar
▁dekha kar
▁phes ing
▁kaisha baik
▁l tai
oo j
▁aa id
▁ek ses
▁laga te
▁mai lej
▁san s
▁dik hane
ash yak
▁kaaran aam
▁bha ro
▁kaal e
i z
o led
▁ka ta
▁r ij
ik char
▁kaar y
▁bhaar ee
aata k
▁padhen -
▁paar tan
▁gh z
▁tasvee r
d hata
as it
▁hee ro
▁4 k
▁hon ar
em aee
vee jeee
▁kan j
▁badh o
▁sel s
▁baj e
▁pletaph orm
is tar
▁me t
▁mil iyan
▁( eks
▁jin akee
▁kap il
▁taip -see
▁kaip char
▁badho taree
s ak
aar d
▁r aas
aas tav
▁pro graam
▁rak hata
▁var ld
▁mad h
▁anusaar ,
▁sal aah
ren o
-d heere
▁dok tar
▁risar ch
▁ro shan
▁jeepeees /
ach enj
▁mich ro
k ing
▁ph u
end ar
th y
sha tak
▁khel ana
▁khil aadee
asee dee
▁kit anee
▁nyoo j
▁gal atee
7 0
▁ ardha
ee em
▁p ush
▁m aap
▁jee es
▁mil ate
▁laga en
▁vee ikal
▁daal en
▁maisej ing
▁rakha kar
▁saaj h
▁dim aag
▁klaas ik
▁inta jaar
▁vishesha g
▁dheere -dheere
u da
y u
▁m aalee
▁d esha
▁na u
aap ha
ain t
▁see m
▁see ee
▁sha k
▁pha in
▁maan g
▁his se
▁vhee l
▁ht ch
v e
▁s aav
▁m un
▁d es
▁( 2
▁eks achenj
▁ind ast
▁the ,
▁ed reno
▁gold ,
▁neen d
▁bharo sa
▁ardha shatak
b it
ha s
an ,
▁v el
aal ay
▁kh aate
un dee
▁6 00
▁bo le
▁yoon ivars
7 7
f onai
y olooshan
▁ka dee
▁8 00
▁doo dh
▁es emes
▁vik asit
▁vai gyaan
▁badha kar
▁shik aar
▁prodakt s
▁kaaryak ram
3 2
▁g uru
▁in ph
▁ma gar
▁ban ane
▁ind iyan
▁su dhaar
▁el aseedee
ram an
▁varsh on
▁pop ular
j ie
in o
▁d uk
▁d he
▁r ing
▁v ip
▁t veet
es ajee
▁3 60
▁tr en
▁nirm aan
▁pree -
---- ----
▁b aay
▁kh oj
av eyar
▁jis apar
▁skreen ,
▁khe la
▁dilee t
▁khoobasoor at
▁blaikab eree
▁kaaranaam a,
, 500
- 6
▁t im
▁ya k
▁jee p
▁16 jeebee
-s im
▁yaad av
▁rai ad
▁kla ud
▁saajh edaaree
3 00
▁m orai
▁ka haan
▁v aarantee
▁bh ool
th aas
▁ban aana
▁ap p
▁nir aash
aar th
en ament
▁l ih
▁g aane
ap aas
▁kaim ar
▁an ok
pha il
▁25 00
▁po thaas
ach aar
▁sin h
▁beemaar ee
80x 1920
-jeepeees ,
▁paartan ar
▁kanj yoom
y aapan
il ee
pha ee
▁aaj akal
▁traansap har
▁visha y
▁ganv aane
e la
ee m
▁p eed
▁in tee
▁8 2
▁upalab dhata
uj av
▁aas apaas
▁dar j
▁teen on
▁kant ent
▁karav a
, 2
e ch
▁b ur
▁d ham
ad am
dh i
▁pl estor
▁32 gb
ep ar
▁blaik ,
▁desha bhar
p r
▁ha t
ik an
ata m
▁sam aan
aak a
▁see dhe
▁phr end
kar eeb
▁kv ol
▁rahe gee
▁vik aas
▁vee l
▁tek st
▁kit ana
▁yoot yoob
▁tebal et
▁morai :
6 5
e gaapiksal
t ikal
▁me d
▁y ujav
▁ut tar
▁en esajee
▁rej yolooshan
▁char cha
▁pai da
▁yujav endr
a 2
b aara
ai ch
▁r as
ab hee
cha baik
et ik
▁dee lar
▁pro phail
▁adhik atar
▁ju da
▁haan ,
▁bhu gat
▁ash vin
▁ha ra
▁me ham
ro port
▁3 g
▁aaee pee
▁kv och
▁chaa he
▁up ay
ag aar
▁baj aaj
▁ophar s
▁sad as
▁jeetee es
▁yak een
▁kvoch roport
p ur
▁l oom
▁ph ord
▁aa ipee
▁pro ph
▁see see
▁up akar
- 2
- r
▁p ol
▁v ist
▁hain ?
ro yad
la ga
ish iyal
▁un amen
▁te leek
▁man ga
▁kr ed
▁sas tee
echa pee
▁gendabaaj on
▁seph tee
▁mais enjar
, 7
n al
▁b ud
▁hai chabaik
▁d it
▁j hata
▁r oo
▁r aah
aan v
▁ta l
▁y og
▁bad hat
▁rak t
▁9 0
▁maark it
▁gh oom
▁aav ashyak
ih aas
▁ilektron iks
pai ri
▁kamaj or
▁lih aaj
▁s om
▁n id
▁aa ie
am p
▁6 7
em and
▁san gee
▁po var
▁pata la
▁his s
▁rikord ing
▁elatee ee,
▁chin ta
▁n is
▁e sh
▁aa egee
▁1 000
▁u chch
▁4 2
▁( 20
▁do baara
▁vai b
▁sv aas
▁sv asth
▁prod akshan
▁amerik ee
▁jad eja
avai gan
▁seeee o
▁an il
▁sab j
▁dillee )
akar aar
aree j
▁bar akaraar
▁bach aane
▁pareek sha
▁shaimp en
▁kred it
/ 1
ar al
▁d ot
▁a j
▁ka ich
▁h end
▁h yoon
▁mo ta
▁tee 20
▁7 5
▁bataaya ,
▁drai var
mb heer
▁jeepeeaares /
k s
l anka
hee l
▁v aastav
▁ga mbheer
aad ha
aaya t
ant ree
▁ab hy
▁jar iye
▁nir bhar
▁san desh
▁dik ha
▁shree lanka
▁rakha tee
▁jaap aan
▁nam ak
1 8
r it
v as
▁s vee
▁b yoo
▁r od
▁sh od
ej al
▁em oled
▁kaha tee
▁bana en
▁jin ake
▁nok i
ob ail
▁ben gal
▁pray aas
▁bhugat aan
a gar
i -
▁m aip
▁b ain
▁n on
▁n iv
▁ph in
oor n
▁ro b
▁it ane
▁sv aip
▁tab hee
▁lain ovo
▁zain fonai
▁yoonivars itee
▁teleek om
▁jhata ka
▁abhy aas
ar ,
▁sak en
▁kh o
▁jee ta
▁cha yan
▁see dha
▁( s
▁sap t
re gan
▁haindaset s
ist aan
▁su v
▁le val
-b it
▁pet eeem
▁anal ok
▁shahar on
▁ij aapha
▁upakar an
▁s aid
▁v aatar
▁t ik
as ik
▁bh oom
▁pad ega
▁ban aatee
▁chaa hata
▁vee vo
▁x pairi
▁bhar apoor
▁staar t
▁ilektron ik
▁chauk e
▁yo ga
▁hyoon dai
i ,
v aas
aa ch
▁m ak
▁st reem
▁adhik aaree
aag raam
▁lam bee
▁abh in
▁des k
▁sapt aah
▁r ek
es hee
ab aik
tar s
▁3 7
▁ma ja
▁see kh
▁‘ k
▁im ojee
▁aaaip shan
▁vhee kal
▁vig yaapan
▁roshan ee
▁loom iya
laga bhag
d iyon
ha iya
ha id
▁p ul
▁a pal
as ap
▁in ap
un ik
up ha
▁‘ s
▁ut s
▁ed av
▁it ihaas
▁ar ab
par k
▁pais a
▁k in
ar aah
▁a im
on ,
▁e g
▁se tap
▁prat y
▁le ta
▁baj aay
▁paar tee
▁taak at
▁sambh aal
▁jit ana
▁seem it
▁nis aan
▁s iy
on s
▁j oom
ai ai
it en
▁jee 4
▁( lagabhag
▁kap ade
▁64 -bit
▁philm en
▁mu haiya
▁bes d
▁kool apaid
▁voltai ,
▁indast ree
▁hend aset
- cha
l s
▁k endr
am ain
▁par y
it v
▁in aka
iy aab
ir ai
▁bai tha
▁( kareeb
▁lad ak
aavar an
▁aaipee es
▁som avaar
▁s adee
▁b et
▁v yoo
as on
▁ch ek
▁sh aayad
▁ma ch
▁sam park
▁bai the
▁pad hane
▁jaan ie
tam ent
▁vo ch
▁as us
gl ai
▁kont ekt
▁bhoom ika
▁apal od
▁inap ut
/ bee
v ig
▁m p
il ai
▁na ino
tee jee
▁pr ais
▁sam b
▁( 720
▁ee k
ash t
▁aan and
▁ballebaaj on
▁esa 6
▁gujar aatee
▁svaas thy
▁p ed
▁p aak
▁b um
▁4 ,
▁jee mel
▁em b
ra ee
▁bloot uth
▁daal a
▁let ee
▁sal aamee
▁inst aagraam
epha tee
▁yooro p
▁shod hakar
▁bum araah
g et
r iyar
▁k aab
ha ree
ar aashtreey
▁m ana
▁ka d
ak s
▁r iyal
▁v ail
▁kam ar
▁pr er
▁8 4
em eech
▁pee dee
▁khabar en
▁phan kshan
▁guru vaar
aa jan
▁p aid
▁b ord
en el
te bal
▁8 20
▁mil aakar
▁en j
ist ent
▁saam ana
▁64 jeebee
▁dun iyaab
▁snaipad regan
▁pur ush
▁vid esh
▁21 5
▁phaayad emand
▁paraphorm ens
▁phul- echadee
▁kata utee
▁b old
am par
▁echa pee
os port
▁antar araashtreey
▁sm ith
▁saaj ha
▁sport s
▁komp aikt
▁duniyaab har
s itee
u ch
aa gat
▁m areej
an dh
▁b ail
▁d ast
▁j ade
▁v ent
▁y aan
aaya m
aaya tee
▁ma x
aaree rik
▁pad aarth
▁end ar
▁pa ud
▁bee echapee
▁shik aayat
▁gem s
▁visheshata on
▁phoks avaigan
▁k lee
▁p epar
▁m anee
▁ha ta
▁d ava
▁j asap
▁n ai
▁r am
▁t on
▁h undee
▁aa tm
▁o dee
▁em ai
hen ge
▁hu aave
▁tee ephatee
▁nir n
▁bat aate
▁lik vid
▁hal ka
▁vaayaral es
▁sangee t
▁jasap reet
- g
4 9
d ablyoo
i cha
z al
ee ph
▁s 8
▁s oor
▁s heer
cha ee
▁4 gb
dee da
▁cha k
▁jed ateeee
▁je b
-m egaapiksal
▁veeoel ateeee
i gar
l us
r et
▁s ara
▁v il
al ait
▁sh aareerik
▁jo da
▁hon or
▁st ok
ot enament
▁see n
▁jar m
▁hogee ,
▁pasan deeda
▁jeet ane
▁th is
elee dee
w w
▁b ij
▁t ool
▁aa l
▁aa haar
ab aar
▁ta tv
▁jo de
▁dee zal
▁saal on
▁ghan ton
▁ovar on
▁phes al
▁ret ing
▁phaayad e
rip shan
▁desk atop
▁praty ek
t har
an j
▁hai kars
▁d ho
▁d harm
▁l akshan
oo glai
al on
bee es
▁( 10
chch ha
▁intar aph
▁kalar s
▁f l
▁kr oo
▁kit ane
ion aiai
▁opan ar
▁proj ekt
ya ta
as tha
▁3 gb
▁to ,
▁see jan
▁rak ta
▁badal ane
ma x
▁dab aav
▁beemaar iyon
▁neks as
▁tam aam
▁vist aar
▁phin ish
g en
▁p aal
▁d itel
ab ar
uk ing
▁kan ekshan
▁jaega ,
▁phees ad
▁samaj ha
▁dekhen :
▁aakh iree
,9 00
▁endar asan
6 2
b a
m aan
▁s oot
an aak
▁b est
▁d ablyoo
▁v rd
▁aa shan
am a
▁g ionaiai
▁in aph
▁pro ses
eshan ,
▁op tikal
▁laga ee
▁dek ar
▁var ana
▁lag jaree
▁jen areshan
▁kit aab
▁bacha ne
▁sheer sh
6 00
j ab
o dee
▁s ail
▁n aak
▁ph old
▁g ol
▁2 -1
▁ch aal
▁la ind
▁sh u
▁us en
▁tha k
▁de val
▁prat ib
▁maan asik
▁mas heen
▁gar mee
▁chun aav
leev ud
▁mish el
▁yaat ra
▁aaid iya
▁ring ing
▁phesal ipht
5 4
u ta
ad ablyoo
▁ne vig
▁pr a
▁8 35
▁yoo z
▁den sitee
▁chaar jar
akaar d
▁kol ak
riya l
▁lok al
▁mahila en
rd ay
oov ebal
▁aashan ka
- en
r esh
x ail
▁p e
▁p ent
▁me k
en see
▁n ait
aan ak
▁ph ood
▁y ukt
▁sh ot
▁kha en
▁eks at
▁da ud
▁up achaar
▁test ing
▁re g
▁jaanakaar iyaan
j e
▁ *
▁m aay
han d
▁3 9
▁to d
▁pr ab
▁sab sak
▁pad a
see e
▁nir aasha
▁201 4
▁f rai
▁yu aan
▁jeepeees/ e
▁edav aans
▁sadee ra
▁paak istaan
▁this aara
▁bij alee
h aav
o shan
v ik
▁d hee
▁j on
aan g
▁ek adam
▁4 8
▁la v
▁bh aav
▁6 2
ul at
▁bl ad
▁mai th
▁bee ta
▁vo is
▁il aaj
▁phree dam
▁vid eshee
▁jan areshan
▁karav aaya
▁720 x1280
▁praiv et
▁paristhit iyon
▁kvol akom
▁yaan i
b ol
f t
v aad
▁ ip
▁ aara
▁me han
▁t aap
▁h rday
▁aa ikan
ro m
▁6 ,999
▁en gal
▁jin honne
▁64 gb
▁kor s
▁plaan t
▁19 20
▁aank ade
jeen iyar
▁tasvee ron
▁shabd on
▁kram ash
▁dit ekshan
▁s aik
▁s aans
▁e /bee
▁sh uk
▁smaarta vo
▁pr ast
og e
esh var
▁sa pana
▁bal eno
▁chh aatr
▁supar abaik
▁dilee varee
i- fi
▁kolak aata
▁k re
▁me l
ak ta
▁t es
▁ph est
han ee
▁ch ha
aim ps
▁vee aar
▁daur e
▁bada ulat
▁pars anal
▁vibh aag
▁pletaph aarm
▁spin ar
▁sant ul
/ 3
g ai
n d
s al
▁d ur
▁ka hee
▁r aash
▁aa yar
▁3 10
▁keemat on
▁dis ha
▁16 gb
▁9 ,999
▁am aree
▁gl on
▁hoon ,
▁vairient s
▁jan aret
▁tv in
▁bhej ane
▁draiv ing
▁yuva on
▁vy aap
▁kyoo echadee
▁gir aavat
▁apagred ed
▁pi xail
▁ghat ana
▁kramash :
a 1
▁a ir
as ar
as en
▁g ha
▁g ro
▁g us
▁in jeeniyar
▁7 4
aip lus
▁aaee paid
tam aan
▁pa ee
▁9 3
ist ree
-b aar
▁nyoo tan
▁proj ektar
▁jeees atee
▁bengal uru
e tar
u on
▁k iye
in aam
▁p ita
▁m ait
ta ir
▁l akam
ga b
ga j
▁e ch
▁aa enge
iy ok
▁6 50
▁pad h
▁ban aata
▁sk een
kar an
▁khaas ataur
▁vaee phaee
▁sah it
▁ach aanak
▁jaen gee
▁ste d
▁khu shak
-spee kars
▁viv o
▁aai phon
▁niv esh
▁lakam al
s il
t s
▁m ud
▁m ars
ai i
ad haan
▁g ipht
aaya ta
▁pr em
ot o
itee j
▁baar -baar
▁ee -
▁jan m
▁khatar anaak
▁motarasaik il
▁ai pal
▁aaeepee el
▁svee kaar
▁pul is
▁mehan at
▁taap amaan
▁sted iyam
▁d u
▁d hoon
▁ka ib
▁t aaja
▁g ul
or n
ro id
▁kam aal
la vaar
yoo t
▁st eshan
▁al art
▁chal aane
▁main y
▁pha ishan
um aan
▁kap oor
▁i chchha
▁sun ane
▁gh aatak
aadh aaran
▁darasal ,
▁jor adaar
▁niyant rit
▁mool y
has aas
▁phest iv
u chh
▁s aar
in da
in gat
▁n ar
ch ual
▁r uk
▁v aay
iya ,
▁5 7
▁kh y
aik ro
iv ar
▁see ma
▁kha de
ind ar
▁on aiplus
▁te leev
gr eted
▁uth aaya
▁sain s
▁nid eshak
▁samb and
▁khushak habar
5 3
b e
▁s ig
an tar
▁a ta
▁a ik
▁j olo
ai ph
aat hee
ree y
▁ek -d
▁sh ren
▁bad hate
sh iyal
▁8 8
▁sk eem
▁ba g
▁baar ish
▁aaee dee
▁var tamaan
▁pl ay
▁chal aaya
▁4jee ,
sep t
▁128 jeebee
▁bha le
▁bacha t
▁aam ataur
▁daayar ektar
▁aaait o
▁upabhok ta
▁upabhok taon
▁vaigyaan ikon
▁pree- ordar
▁manga lavaar
▁intaraph es
1 )
j aan
o v
p ed
r ti
ha vaar
▁p er
is k
▁j ha
▁ka ir
▁g ooglai
▁ta iv
▁2 gb
dh on
▁dek hee
aid om
▁ed it
▁sah aayata
▁w i-fi
▁aay ojan
▁eksap o
▁dig gaj
adh aanee
▁beees enel
▁shauk een
▁bud havaar
▁(720 x1280
▁vrd dhi
▁smaartavo ch
aa z
▁b on
▁ka th
▁r iv
▁e beees
▁u taree
▁us b
▁gr il
▁prat ik
▁teem on
▁vo tar
▁up aay
▁25 0
▁son y
ram a
▁aank ada
▁hal ke
▁dab al
adh i
▁sank raman
▁veel j
▁teleev ijan
▁samband hee
* *
l es
p ons
s )
▁k ra
in s
in iyam
▁p ok
▁b ig
▁d ay
▁me ga
▁l y
▁mein ,
ik ee
▁par inaam
ek har
▁4 ke
▁6 es
▁cha mak
pee aee
var s
▁bl ok
▁sap har
gar ee
▁din esh
▁shuroo aat
▁dh oop
▁modal on
▁suj haav
sp ot
▁haard aveyar
▁rish te
▁avas ar
▁han s
▁michro max
▁peedee eeph
▁shuk r
k an
▁ “
▁ 999
▁k uk
▁b i
is amen
▁hai r
▁d ai
oo tee
▁is h
aat ron
▁par ,
cha l
▁ek t
aha r
▁o teejee
atee k
▁dee p
ish k
▁20 ,000
▁nir antar
▁bee te
▁bach cha
▁becha ne
▁seting s
▁noo ga
▁rob ot
6 8
i 
k on
▁hai -
▁j em
▁ka ish
ga d
▁kar e
▁ph ij
▁ph olo
ik om
▁ga d
▁na uk
▁sh or
▁bai th
▁pad haee
▁sk in
▁( em
▁7 2
▁aaee em
▁san y
ogr aam
▁pree -b
aij eshan
▁av adhi
gr es
▁skor akaard
▁hed aset
▁ail ug
17 )
▁bel s
▁pooch ha
▁sans th
iyok on
u tak
▁s end
▁p abl
▁m oovee
▁m antr
▁ka t
▁t yo
ph r
▁g hata
▁1 99
▁pr aar
▁pr int
▁kaar ob
▁yoo es
chh o
▁bl og
▁aaee bol
▁dh oom
▁kol s
▁phlaish ,
▁sv aad
▁128 gb
▁kon sept
▁esa 8
▁chaahen ge
▁vyav ahaar
▁dhe r
▁rek ord
▁shodhakar taon
b l
in eej
▁p ink
▁b oj
▁n ibh
es ing
as ha
▁3 8
▁la ut
▁8 gb
▁pad ane
▁pad atee
▁ba en
▁ee yar
▁kap adon
aadh aan
▁gan va
▁staar tap
▁phais ale
▁meham aan
▁byoo tee
▁paud ar
▁khy aal
▁shren ee
e dee
p oorn
▁ ,
▁ ir
▁ iyar
▁l aimp
▁r aip
▁kar aar
▁par da
▁1 -
im itee
▁ch aay
▁al k
ash aala
aah ir
-s a
yak sh
▁prak aash
▁saat hee
▁kir adaar
▁aaait om
▁dharm ashaala
▁gro th
n ,
o gee
r iy
ta ,
▁l egee
▁n ak
▁t raee
ur a
at an
▁ph ool
▁aa ain
aat han
ro meetar
ara phon
▁bai tar
▁do p
▁do hare
▁gr aind
▁prat id
▁bee em
▁no ta
▁daal ana
▁samasya on
▁kool d
▁23 00
▁por tal
▁bhu van
▁chan vas
▁kheen cha
▁shukr avaar
▁boj h
- tar
b iteej
u i
u x
u ga
y aas
▁m is
▁m am
▁kee ,
▁t rai
ph aayatee
as a
▁g aad
▁ga ti
▁aap ase
▁sh ed
un e
ej ar
ed an
▁pro ks
▁un ako
sar ee
▁ban aam
▁baitaree ,
▁( m
▁de vid
▁12 5
▁eks -shoroom
▁laanch ,
▁gee ga
▁14 9
▁suvidha en
▁kantrol ,
▁(eks -shoroom
▁ly f
▁jem s
- 4
o w
w aii
▁s at
▁p aata
▁p oj
▁n aar
▁r ol
al et
▁ch ik
▁3 6
▁sam ud
▁sam aadhaan
aak aar
▁jaan avar
▁var chual
esab ee,
-k ros
▁sen s
▁bik ane
▁baajaar on
▁aga la
▁vh ot
▁riport s
▁kil ograam
▁milee meetar
rt ik
▁ail aan
▁ins aan
▁shoot ing
▁gaij ets
▁sid ain
▁intee riyar
▁streem ing
▁khushakhabar ee
▁pree-b uking
▁proks imitee
g aahar
r al
s aip
y ular
▁ iph
▁m ast
▁d og
aar at
▁t ig
▁1 gb
▁ta ir
▁sh iks
▁kiya ,
iv aree
el o
▁tee -20
aay e
▁bl u
ra und
▁chal atee
▁hota spot
aree ban
▁bo leevud
▁bach en
▁inph otenament
▁pratik riya
▁bhuvan eshvar
- n
/ g
▁k oo
▁b oot
▁j at
aar ,
▁e -jeepeees,
▁ki phaayatee
ap aan
▁bh aavana
av ela
▁jis ane
▁pa gab
▁pee see
▁dik avela
▁chh aatron
▁madad agaar
▁po s
▁kara e
▁otom obail
▁ik aee
▁ree yar
▁raj istar
▁prav akta
shee y
▁kait e
▁mir ch
▁gaij et
▁pagab aadha
d r
g o
▁s aadhaaran
▁m t
▁m iks
▁d ais
en a
▁n akaar
▁r oom
▁t aara
▁ho l
▁bad hata
▁an umaan
▁yoo aee
▁st ik
▁sa j
▁chal ie
▁phil tar
▁pha ib
▁har tj
▁dual -sim
▁khareed aaree
▁prad esh
▁tel ikom
▁jod ane
chaar j
▁majab ootee
▁abh iyaan
▁daaya biteej
▁pahuncha ne
▁vij ay
▁enephasee ,
iz u
▁mota ee
▁maith yooj
1 99
3 9
6 6
d on
n m
r es
an k
▁b aan
▁b ul
▁d aan
▁d ukh
▁l ak
al aimp
▁g p
cha k
▁kaar aple
▁hon ee
▁tee bee
av ee
▁mob ilai
rik a
▁pee ne
ash ekhar
▁vee 4
▁sv ipht
▁haar t
▁bol ing
▁esa 7
▁chuna ut
▁uth aane
▁kah aanee
▁chhak ka
▁saav adhaan
▁mun h
▁upay ogee
▁(20 17)
▁maay ane
▁frai aidom
v g
▁s w
▁s han
▁m y
▁m at
ta phon
▁r aay
oo lee
▁ko lej
▁ph og
▁g 5
▁kaar tik
sh iyam
ul k
em em
▁es -kros
▁saport ,
▁ee nd
▁vebasait s
▁netavark ing
▁aay an
▁kosh ika
▁kabhee -k
▁chun inda
▁kal ekshan
▁rediyo ,
▁haard ik
▁jaap aanee
▁glon aas
c heen
▁ aana
aa ee
▁s aara
▁p aapa
ya pur
▁ga tiv
atee ee,
▁kaimara -
aak hon
st ha
▁mai izu
▁alaava ,
▁pl ai
▁hua waii
▁el uga
▁kr is
▁vh aat
▁z tai
▁gho shit
▁sl im
▁bol t
▁stail ish
▁rim ot
▁rij olyooshan
▁visheshag y
▁shak ti
▁kanjyoom ars
▁klee n
▁aik tiv
▁kath in
gaahar tj
▁gativ idh
p p
t hee
▁ ips
▁ ordar
▁m us
▁t iy
▁e 7
▁ek see
▁3 dee
un dar
▁cha il
em a
▁( n
vee e
ud yog
▁sar akaaree
▁10 ,000
▁nir d
enge ,
▁dik henge
aahar an
▁maarket ing
▁phar k
▁pat r
,4 90
▁mahan ga
▁push ti
▁proph eshanal
▁hiss edaaree
upha ikchar
resh th
▁sany ukt
▁beeem adablyoo
t iyon
▁ ich
▁d ip
▁l itai
ch k
▁r ana
at ta
▁ph le
ro t
▁5 -inch
▁4 80
▁4 30
▁3 ghz
jee ,
aap ako
▁bh oo
la v
▁karen "
▁dek he
▁20 20
▁sp asht
▁bata ee
▁vee jeee
▁chh ed
▁dar shak
▁sarv isej
▁kamp aas
▁oph ishiyal
▁sl aid
kee mat
▁ud desh
▁por tebal
▁sadas yon
▁eg j
▁mast ishk
d al
p ad
y aat
▁m aata
▁ha is
▁b rod
▁d ol
▁l ep
oo ,
oo sare
▁h or
▁h it
▁h ejal
or an
▁ta ig
▁2 20
▁5 5
▁kh aalee
▁gaya ,
▁pro teen
id itee
▁upalabdh i
▁al oy
▁12 ,999
▁sap haee
▁ap ek
▁ut ana
▁saam ag
aah it
-s am
▁sarv e
▁apadet ed
▁gem ing
▁pat i
▁aakar shit
▁lain s
▁" ab
▁thar d
▁taaree kh
▁ema 5
▁dim aand
▁jit anee
▁daayar ekt
-ch hah
▁ana jaan
▁deval ap
▁tes la
▁mainy uphaikchar
▁eend han
a e
i eshan
▁k en
▁p av
▁d aim
▁v r
ur ee
▁se daan
▁ja yapur
▁kam aee
▁ch aav
▁kaar s
▁tak areeban
▁6 3
▁cha uth
▁paha l
▁ra ch
▁maik abuk
▁maikro yooesabee
▁12 1
ri ph
▁mod ,
akar taon
▁te lee
▁milega ,
▁daal akar
▁son e
▁nyoo y
▁bra uj
40 x
▁epha dablyoo
arav aah
▁yoot ilitee
▁veeoel ateeee,
▁tim aahee
▁peed it
▁jeeta kar
▁yoga daan
▁amaree ka
▁ek-d oosare
▁iph ekt
▁uddesh y
h d
▁ —
in ch
▁n atee
▁kar o
am an
aap e
ing s
▁jo ki
th iyam
ase l
▁an ur
av ish
▁eks ele
▁9 00
▁endro ed
▁lee thiyam
▁tr end
▁aadh unik
▁maan sap
▁det h
▁red dee
▁bha ree
▁eph /1
▁pain or
▁shatak eey
▁gar bh
▁ar th
▁pai ron
tab uk
▁nirn ay
▁jarm anee
▁sabsak ripshan
8 9
v aint
y un
▁s ‍
▁s ent
▁b haee
▁e tam
▁g aanv
▁1 -1
▁kam ent
▁ch hat
▁5 2
▁4 3
▁3 50
id ent
▁jaan ane
▁al tr
asan chaar
▁lag aakar
▁baik aph
ash reshth
▁adhik aar
▁memoree ,
▁ple yar
▁sek shan
▁samaj hane
▁maj edaar
▁28 ven
▁ris pons
▁and aaj
▁pi en
▁nish chit
▁niyant ran
▁anok ha
abar g
▁gha dee
▁nirantar ata
▁nauk aree
▁(eks-shoroom ,
▁nakaar aatmak
▁eksele romeetar
▁baikaph ut
6 4
h t
y um
▁s 7
in tar
▁d ro
aar aatmak
▁l u
▁l ejar
▁v aat
ga m
▁ph iks
ik rama
aat el
▁g ud
▁in av
▁in ti
▁na j
▁sak aaraatmak
▁phon ,
aas an
aaya l
ing o
▁kaim p
▁em old
av ud
▁pad e
chch har
-k h
▁pha ibalet
ig o
▁kol est
aree t
ush ka
aag o
▁khareed ana
▁paar k
▁paar king
▁bo la
▁i tail
▁tekn o
▁raaj ashekhar
▁roj aana
▁bloo ,
▁hel th
▁esee e
▁ol to
▁vip areet
▁ghoom ane
▁taiv aan
▁ekt ivitee
▁kaite garee
▁hejal avud
8 54
b on
f l
g un
v ak
▁k aat
▁p aatee
▁d om
▁v i
▁t il
▁t ro
es ee,
▁in ase
▁5 ,
dee shan
▁mo dee
▁kaimara :
▁6 ,
▁cha ineej
▁al pha
he gee
sesar eej
▁saal aana
▁10 80x1920
▁bat aane
▁adhik atam
▁sarv ashreshth
▁taibalet s
▁prad ooshan
▁as al
▁sah aara
▁chaahie ,
▁teevee es
aast ik
▁sheyar ing
▁ud aaharan
▁khu le
▁kaimar on
▁pary aapt
▁ata ik
▁kaarob aar
▁taara get
▁ephadablyoo veejeee
▁eseee -vee
- ta
i bar
r j
▁p ikchar
is s
▁a in
▁j aahir
at ram
▁2 ,000
ej ,
ed ar
ok ar
▁ep l
▁phr aans
▁be p
▁mai g
▁badh iya
▁sp or
▁har aane
▁sistam ,
▁15 00
▁ed am
▁w ind
▁sl o
▁door asanchaar
▁antar gat
▁becha tee
▁jam een
▁sad ak
▁and roid
dhaar it
▁kail oree
▁aind royad
▁mainej ar
▁pras id
▁tal aash
▁pra udyog
▁chauth e
▁maansap esh
- chho
e h
h aatsep
v aave
▁p aa
▁p aksh
▁d ish
▁j ai
▁j ara
▁n aagar
▁r aahat
as ad
▁ga in
it r
ap at
▁jee 5
ay oo
▁diya ,
▁ma ut
▁ma chchhar
▁dee l
▁6 25
▁6 62
▁cha ut
▁sab ake
▁pad egee
▁12 vaan
▁skreen -
▁up ul
aret ing
apr ooph
▁ak asar
▁nik on
▁kamp as
olyoo m
▁ple baik
▁z 5
▁vind o
▁av ord
▁dikh ega
▁ste tas
▁khatar e
▁char d
▁lamb aee
▁sank et
▁aau tal
ason ich
▁purush on
▁alk aatel
▁saamag ree
▁bep aravaah
* )
g oogal
r ij
s m
s har
u dee
▁s ol
▁p in
▁r oot
▁e v
▁aa tan
▁u b
▁sh ok
▁sam arav
▁8 3
▁dil acha
▁dil ivaree
▁hu vaave
▁( 14
od ed
ib ilitee
▁nir dhaarit
▁chaar on
▁san ar
▁14 0
▁as istent
▁takaneek ee
▁bhej a
▁bhej e
▁soo chee
▁dhan g
▁traik ar
▁kail shiyam
▁prav esh
▁mahan gee
▁mainej ament
-vee lar
▁vin se
▁tumh aare
▁visheshag yon
▁chak kar
/g /
▁kolest rol
d ak
p or
ha i
▁s una
▁m ul
▁m antree
▁ke bal
▁l es
ak h
▁n eeb
▁v en
▁v olyoom
▁in f
▁kam yun
▁ch r
▁ch ot
▁4 -
▁4 ,000
ap hal
▁mo shan
la j
iks han
av aas
▁( 3
▁( emes
od e
▁intaran eshanal
▁lag aana
▁sv ich
▁pur aana
▁opshan s
▁vyak t
▁sal ekt
taph orm
/jee/ en
▁chale gee
▁khoob iyaan
▁mahan ge
▁pareek shan
▁bech e
▁mon itar
▁raas ta
▁mak asad
▁(10 80x1920
▁vhot sep
▁samarav ikrama
▁s ook
▁p aka
▁b ampar
▁v aada
▁t ips
es char
am et
as k
▁g ur
▁g ps
▁ek as
▁sak riy
▁3 -
▁kh oon
▁pr aak
▁kaar agar
▁6 15
el )
▁jaan ee
▁be chee
aanee y
▁sar diyon
▁eks atar
▁khaas a
▁ee emaee
▁on ai
▁veediyo j
▁no tabuk
▁phl ait
▁as alee
▁rip les
-p ita
▁phar m
▁list ing
▁too -veelar
▁sm art
▁dr es
▁vij eta
▁utpaad an
▁praiv esee
▁esh iya
▁aatm avish
▁pabl ik
▁neeb oo
- 7
8 8
b in
t z
t ek
ar jee
▁s hee
▁p aan
▁p as
▁b led
on a
▁n im
▁v ib
▁e 6
▁h eksa
▁g il
▁g yaan
▁ga is
▁ne t
▁ja gat
00 mah
▁8 ,000
▁hon ,
ait is
▁mai j
▁sar tiph
▁pl aastik
▁log o
▁da hee
▁pha ibar
▁am b
and han
▁chh ip
▁il aak
▁port ,
▁veriyant s
▁aid gai
▁avas aad
aahat rj
▁soot ron
▁raip id
▁aatmavish vaas
l aind
z an
▁l aik
▁n ib
ch aal
▁is en
▁t aayar
▁kar aana
▁aa dam
as thit
▁kam are
▁hee l
▁4 10
aav ee
▁st reet
▁baik tee
▁haal iya
▁bee j
▁jin aka
▁11 0
▁pichha lee
▁smaartaphons ,
▁i os
-b a
▁jae ,
▁bach aav
▁aaaiphar s
▁jam a
▁aag aamee
-------- --------
aajan ak
▁chaal oo
ingat an
▁tiy aago
▁inti greted
▁praudyog ikee
1 ,
ha tam
▁d el
▁r esh
▁r eed
▁kee m
aan sh
▁g reen
▁in j
ro k
▁5 4
▁5 ,000
▁3 ,000
tee em
char s
▁us ako
▁bai t
▁jis ame
▁karen gee
▁de bit
▁12 0
▁eks el
▁rupe )
▁veed iyokon
▁mem bar
▁vee 8
▁x olo
▁br iten
▁muk har
▁elee t
▁sth aaneey
▁shaan t
aph l
▁as pat
▁as aphal
▁maam alon
▁dikh aane
▁mot aape
▁gre ,
▁nikal atee
▁pan asonich
▁khoobasoor atee
▁ektiv et
▁phorm et
▁sai bar
▁raas te
▁mek ap
▁maata -pita
▁ekas aath
▁praak rtik
▁aspat aal
b aay
i f
i x
s ej
ha b
▁p ash
▁p aand
ya st
▁l aagat
al aimps
▁se hatam
am panee
am bh
as itee
ah iya
aas ee
▁st r
▁st ood
▁7 -inch
▁sha had
▁maan ate
▁kor t
een a
▁jaroorat on
▁aar k
▁sun akar
▁maam ala
▁char an
▁eksap art
▁gun av
▁tam il
▁kaan gres
▁ditel s
▁eksat enshan
▁mam mee
▁gaad iyaan
▁plai taphorm
▁sanar ooph
g hat
▁s aad
▁p est
▁ha us
is ake
▁d aay
▁a gr
ch aap
▁h il
▁ko pee
▁ho lee
▁ne m
▁ne tr
▁ja j
▁ek abaar
▁sak egee
▁5 jee
▁5 emapee
▁4 6
▁pr ooph
▁an ek
▁hu veee
▁ban atee
▁badh aakar
▁pa u
tak at
▁kanektivitee :
▁sta dee
▁bo s
▁daal e
▁i -komars
▁aar es
▁18 00
▁jan aral
▁bil iyan
▁shar t
▁sait s
▁bes ik
▁chait ing
▁26 00
▁vit aara
▁che hara
▁vhait ,
▁speekar s
▁khol ane
-ph aay
▁prer it
-en gal
▁vaay -phaay
asha ilee
▁aaaitom aitik
- st
3 3
e v
k sha
r iyan
s tee
▁ha ree
▁d ait
▁d arav
on ga
▁ke s
▁t oot
▁h im
▁kar aee
es ar
▁ta t
▁ch en
▁ch oree
maar taphon
▁4 100
▁pr im
▁8 ,
▁rah enge
▁gr ah
▁sar i
▁khaas akar
▁‘ p
▁naam ak
re pee
▁geegaahar tz
▁ak ele
▁aar tiph
▁lik h
▁aparchar ,
▁stail as
▁rav i
▁jimm edaar
▁hel amet
▁daaya m
▁rom aanch
▁socha te
▁inaph okas
▁kra ish
▁tyo haar
▁chunaut iyon
▁prasid dh
▁vib ai
▁sehatam and
g har
k yoo
p har
aa gee
▁m or
▁b u
▁d yoo
▁a pha
▁t aal
▁aa is
ata i
▁saath ,
▁5 3
▁5 ,999
yoo ment
mat i
ish th
▁mai r
va jan
▁sp ais
oon ga
yad i
▁dh aar
▁am a
▁maam oolee
▁rok ane
▁ritel ar
▁das tar
▁pahan ane
▁rish ton
▁33 10
▁eksakloosiv alee
▁shoroom )
▁tumh aaree
▁dhe ron
▁kanjyoom ar
▁upakaran on
▁eek osport
▁aaain alain
▁baitar iyaan
▁tig or
▁aatan k
▁aadam ee
▁gunav atta
l os
v el
▁p eech
▁d iph
▁e hasaas
▁se s
▁ko hare
as port
as heel
pan n
▁ga le
▁u bar
▁in sh
▁5 1
▁sh ulk
dh aav
▁jo b
esh iphikeshan
▁op are
▁len ,
▁‘ d
▁pa en
▁hota l
▁ut anee
▁en arjee
rai v
▁vo sh
▁on ar
▁chh ut
▁geeg aahatrj
▁po shak
▁jaga hon
▁av ele
▁samasya en
▁28 00
acha i
▁seet s
raam ak
▁eyarabaig s,
▁kheen ch
▁pres har
▁siy aaz
▁sara und
▁rakta chaap
▁shu gar
▁dur ghat
▁mantr aalay
▁mt 67
▁tekno lajee
▁tro phee
▁baiktee riya
▁avele bal
d or
o see
▁p aana
▁p eshak
▁m aaha
▁d ron
▁me j
▁l aakhon
▁r ain
▁kee jie
▁e -jeepeees
▁ki ran
▁sh ip
▁o b
▁o s
ain al
▁bad hee
▁pr iv
gee gaahartj
▁phee ld
▁va ish
▁keemat en
▁8 -speed
ip ai
av id
▁do har
▁jaan akar
▁prosesar -
▁sar ph
asan d
▁chaa bee
▁mod yool
▁‘ l
▁endro id
▁echadee aar
▁11 9
▁ok see
▁sah aayak
▁bha tak
▁pahunch aane
▁khaasiyat en
▁aaaip areting
▁gay e
▁aip s
▁jeevan ashailee
25 60
▁nish aan
▁utpaad on
▁eyarabaig ,
▁app lai
▁med ikal
▁sadas y
▁pol isee
▁phold ar
▁e/bee /jee/en,
▁dop ahar
▁poj ishan
▁chaav al
- pee
d ran
r ad
▁s ing
▁d aark
▁l and
▁e 5
▁aa ir
▁phon ai
▁5 mp
▁3 500
aap it
un k
▁mo h
la ve
▁8 10
▁cha p
▁cha t
▁sp red
▁sel ph
▁32 00
▁vee lar
▁maan av
▁po shan
▁daal ee
▁vol et
▁sil indar
▁bacha pan
▁otoph oks
▁nikaal a
▁praim aree
-ph esing
▁vaid -engal
yu shan
▁sabj iyon
▁tik at
iten iyam
▁kroo z
▁sig nal
▁kabhee-k abhee
▁brauj ing
▁itail iyan
gun aa
▁naagar ikon
▁maaha ul
- ton
d oo
g on
g aal
l ie
x on
y araphon
▁k aalee
▁m ood
▁m rt
▁b s
▁a iks
aar j
▁me kar
▁ke bin
ai b
▁r aashtreey
▁v aik
oo h
aan j
▁ko phee
▁aa sh
ph ik
▁g hane
aal e
ie t
ab ord
▁2 -3
▁ch ool
▁ch eyar
aap ur
▁pr an
▁phee d
▁6 9
▁tee saree
▁phr ij
▁badh aava
ib ook
▁phrant -phesing
▁storej ,
▁vish aal
▁chh oo
▁khareed en
10 80
▁mah aar
▁bhar a
▁inst r
▁soo jan
▁karav aane
▁kastam ar
▁eksap ort
▁sad akon
▁dok yooment
▁and aaja
▁galat iyaan
lo ud
▁seek ha
▁rim oovebal
-j ul
▁vaigyaan ik
▁aavashyak ata
▁ladak iyon
▁saar vajan
▁shor takat
▁pratid in
▁chik it
▁sw ipai
▁nird eshak
▁netr tv
▁insh yor
▁saarvajan ik
a yah
e var
m )
m imee
w air
aa chaar
▁m and
▁d i
ta lee
ta ikt
▁j oos
▁ka yaas
▁n iyo
▁u chit
▁in tr
▁ta iteniyam
▁2 10
▁ek shan
▁ch op
▁5 9
▁4 7
▁4 ,999
▁o yal
aav ind
▁8 ,999
▁do stee
▁12 00
▁pa ega
▁mad hy
▁bah aad
bh aal
▁pheesadee ,
-b aik
▁av ash
▁elatee i
▁utaar -cha
▁prashn on
▁ltai ,
▁prakaash it
▁rana jee
▁dol bee
▁naj adee
▁utaar-cha dhaav
4 1
ar n
▁m 2
▁j aas
▁ka hen
▁n ek
ur v
▁h eyar
ik ata
▁g air
ay an
▁mil ana
▁bai tree
▁ban ana
▁( j
da j
▁kha pat
▁kan dhon
▁kaard an
▁baik ag
▁thee m
▁so pht
▁25 000
▁badal e
▁aga lee
▁pata le
▁i i
os is
▁karegee ,
▁dekha bhaal
▁tareek on
▁gir a
och us
▁saha j
▁than da
▁kir los
▁had diyon
▁tachaskreen ,
▁82 1
▁bur a
▁pratib ha
▁jeepeees/e -jeepeees,
▁gp u
▁koshika on
▁apek sha
▁spor tee
▁peshak ash
▁vaish vik
▁kirlos kar
1 3
8 2
m an
r iyo
▁j aagar
▁ka isa
▁n eshanal
▁r s
▁r aak
il iyan
il aayans
▁g aard
ab aink
et ing
▁ch on
▁5 -6
▁hee ,
▁la vars
▁o m
▁bad haee
yoo esabee,
ol iyo
▁jo sh
ed a
▁6 999
▁an de
▁sab ako
▁san stha
▁muk aam
▁baj ae
▁isee lie
ishan al
▁man j
▁sun aha
▁pahunch aaya
▁jod ate
▁bes hak
▁seva en
▁nikal ane
▁eksapee riyan
acha it
▁intel ij
▁savaal on
▁kaaryak aaree
▁khaan -p
▁haid alait
▁hiss on
▁mana ch
▁seen iyar
▁saik il
▁naar iyal
▁daim enshan
▁wind ow
▁maansapesh iyon
▁paan cha
▁avash y
▁baikag raund
4 5
d s
d hee
i ent
l in
l th
t ,
▁s uk
▁s aind
▁b aaree
▁d up
▁l ith
▁r aink
▁r uch
▁t ree
ur at
▁e 1
▁e 9
ad aaree
▁1 ,000
ab aind
▁ta ee
▁ta it
▁2 ghz
aam a
▁5 6
▁dee v
▁em es
esh iyal
aab ait
ait ooth
▁see pee
▁( tee
▁7 ,
▁7 ,999
▁kaam ay
▁de dh
▁jaan ana
▁doo dal
▁sar dee
▁eks po
▁var na
▁pl et
▁pl aans
▁log in
▁sa ja
▁mod s
▁sp ot
▁pee peeaee
▁ut aare
▁dik hata
um eh
▁snaip achait
hata ig
-b ord
aadh ik
▁th ree
▁aad ha
▁bra un
▁seva on
▁prabhaav ee
▁vit t
▁hel iyo
▁nee le
▁motarasaikal s
▁kamaand o
▁paraphorm esh
▁aak raman
▁85 4
▁chan d
▁ematee67 37
▁oon chaee
▁esh ej
▁staart ,
▁sambhaal ane
▁soor aj
▁samajha uta
▁aayar is
▁dhoon d
▁ish aare
▁jaanavar on
▁blu aitooth
pp i
▁bhoo kh
▁lep atop
▁dilacha sp
▁gil aas
▁paand e
▁durghat ana
▁eksapeeriyan s
▁khaan-p aan
5 2
h aaree
▁k aav
▁k ut
▁s 6
▁s tam
in eshan
▁p iks
▁p aayee
▁b ejal
is hal
▁j uk
▁ka hoon
aar t
aar el
▁l aha
▁n and
▁n ub
▁n aabaad
▁kee -bord
▁e st
ad ar
ad esh
am or
as y
▁g ai
▁ta il
▁ho t
aik ho
ish chit
▁un heen
▁pheechars -
ud dh
apee em
▁‘ b
▁pha it
▁ee yaraphon
▁sim ,
▁lee jie
▁ro var
▁jin ase
▁br eja
▁f w
yak ram
▁rej ol
▁14 8
▁14 ,999
▁apadet ,
▁kon taikt
▁inst ent
▁pratis p
▁kil ar
▁40 3
▁22 00
▁nikaal ane
▁kshet ron
▁sitee ,
▁re lave
fi ai
▁garm iyon
▁aak raamak
▁aau dee
▁ul l
▁videsh on
▁bail ens
▁santul an
▁day ool
▁ich chh
▁hais hataig
▁mukhar jee,
- a
: 9
a 3
▁m 5
▁a dar
▁ke p
▁l ega
▁l imit
al t
at h
as tar
il e
tar n
▁2 -
▁kam od
▁ch loud
▁4 99
▁4 35
▁3 es
iv ai
ol t
▁an up
▁7 7
▁7 50
▁raim /
▁eks amor
▁var ishth
▁mod ail
▁es id
▁13 0
est ,
▁shuroo aatee
▁bee t
▁echadee emaee
▁tr aayam
▁tr ank
▁11 2
▁x 1
▁badal a
▁mah endr
▁as am
▁sek tar
▁hed ar
▁je lee
▁kal pana
▁hal kee
▁lamb a
▁dr sh
▁rom ing
▁shre y
▁men yoo
▁koriya ee
▁chunautee poorn
aich t
▁meham aanon
▁sabj iyaan
aach e
▁vent il
▁nevig eshan,
▁kre ta
▁mars idee
▁ebeees ,
▁daan ton
▁darshak on
▁anur oop
▁vaat aavaran
▁land an
▁spred atram
▁cheyar amain
▁lith iyam
▁traayam ph
▁k ise
▁p ait
▁b ilt
▁a g
aar o
▁n ip
▁n amee
▁r eech
▁kar aata
or s
▁ch up
aas king
▁jee v
jee es
aaya ,
▁pr iy
▁sam ooh
▁cha lee
▁st y
▁kaam on
▁rak he
▁den asitee
aip tiv
▁kan deeshan
▁ap aache
▁‘ j
▁nir desh
▁bat aatee
▁en im
▁lee g
▁tr aanj
▁up ahaar
▁pree ped
▁eyar asel
▁aar apeeem
▁z 2
▁prati rod
▁badha egee
▁haar aman
▁rik aard
▁rakhen ,
▁hed alaimp
▁mi ui
▁jod on
▁nav aaja
▁ail itai
▁daaya l
▁neks on
▁kamaand oj
seesee aee
▁ank on
▁madh umeh
▁aj ast
▁tatv on
phr ens
▁praar oop
▁kaaraple ,
▁prim ai
▁inshyor ens
▁window s
▁nub i
▁kamod itee
- 10
2 00
3 1
9 5
h z
j am
m ar
m ain
n s
p iksal
r n
▁me jab
▁r isee
▁is ame
▁t uk
▁t rik
ur atalab
▁ho sp
▁ch ih
▁kh aad
un ee
▁6 8
▁( k
▁den ,
▁pahale ,
▁chaa hat
▁sp eshiphikeshan
▁paavar abaink
▁vee k
▁chh up
ikeshan s
▁sta ibilitee
bh aar
▁daal ane
▁100 00
▁pat nee
▁phail aaya
▁ste lth
▁too -v
▁silvar ,
▁beees aee
▁saha yog
▁entree ,
▁mish ran
▁‘m ain
▁yaat ree
▁saav adhaanee
▁vel akam
▁paartanar aship
▁phrend s
▁bet ee
▁kamar shiyal
▁manee sh
▁soor y
▁sail fiai
▁naak hoon
▁raash i
▁paa chan
▁(emes aee
/jee/en /
▁amb aanee
▁oksee jan
▁bahaad ur
▁rejol yushan
o ph
o sh
o st
p a
▁k ur
▁k reem
▁s ch
▁m oov
▁a 7
▁n adaar
▁r i
▁v ain
▁v ast
▁t w
▁e teeem
▁kar an
▁ph aay
ph esabuk
▁par iv
▁hain -
it y
▁ch et
ap ort
aap ak
ate d
up ta,
yoo shan
▁sam ar
▁st on
em adee
▁jar urat
▁kha da
oot i
▁div as
▁en tar
▁ind akshan
▁bee seeseeaee
▁dh ool
▁ro taree
▁kl aim
▁sth aapit
▁plas ,
▁sun ishchit
▁lene vo
-p aas
▁aav edan
,4 00
▁maas tar
▁eksap end
sap aavar
▁chom /
▁kshet reey
▁gir ane
▁nee l
▁gujar aat
▁ad aiptiv
▁33 00
16 )
-t u
▁jeees em
▁dham aak
▁(s abhee
▁vent o,
▁fl ash
▁kroo jar
▁rakta daan
▁thak aan
▁trai phik
▁gatividh iyon
▁chard aikho
▁ama z
▁siyaaz ,
▁aair is
▁moh aalee
▁adar ak
▁chih n
▁nadaar ad
- ap
4 4
i chai
k in
u v
▁ oo
▁ id
ar an
▁d an
▁d or
ta ta
▁l um
▁n iy
▁r el
▁v yast
at antr
▁e daj
▁kar ma
ab ad
ek h
▁ja en,
ata un
▁ch id
▁5 -2
▁o la
te j
▁bh ook
▁va isa
yoo lar
▁dee vaar
▁em )
▁an uk
▁8 mp
ip haid
em abee
▁( 32
ka un
▁jaise -
ood ar
▁13 2
▁sen ag
▁san chaar
▁9 50
▁201 2
▁201 9
▁am al
▁am it
▁so s
▁chh utak
▁prad haan
▁aar op
▁honge ,
▁av at
▁jan g
▁jed eph
▁200 5
kee m)
▁th ode
▁ik osport
ion ee
80x 854
▁utar e
▁tam aatar
▁than d
▁chhak ke
▁peed hee
▁3g ,
▁shreelanka ee
▁mareej on
▁nevig eshan
▁santul it
▁gus sa
▁chhed on
▁ekseleromeetar ,
▁inav ait
urv ed
▁haidalait en
▁raink ing
▁ruch i
▁seepee yoo
▁(tee keem)
▁fw vg
▁ventil ated
▁karma chaar
- bh
/ 4
4 80
l )
z ar
’ ,
ha da
▁s air
▁b oo
▁j han
▁j ooree
▁n aaj
▁n aash
▁n aaga
▁r ie
▁h istree
▁ph eshiyal
ad aayak
ek a
▁in heen
▁ja g
▁ja in
▁2 30
▁5 37
aas aakee
lee j
▁pr intar
▁phee l
▁em aphl
▁sam maan
▁cha unk
▁jis en
▁7 10
▁laga jaree
us o
▁sha kh
▁gr ainal
▁lais ens
▁sap laee
va ee
▁baik -tu
▁‘ n
▁10 -speekars
aid ar
▁13 mp
▁dh ok
▁aas -paas
and aaj
▁15 -speekars
▁khareed ate
▁khel ate
▁po wair
▁bo var
▁yoon ib
▁lai b
▁tum ane
▁gh ut
▁gh um
▁dijain ar
-p aanch
▁samaj hate
▁lik hane
▁vol vo
▁staar k
▁kal aakaar
▁buking s
▁31 00
acha ibook
▁khol en
▁stee yar
▁traansap ort
▁ij aaj
▁phul- eleedee
▁ul tr
▁600 -6
▁badhat oree
▁abhin et
▁aim fl
▁vil kin
▁prast ut
▁tvin -tar
▁1- 12
▁phle m
▁hor sapaavar
▁nyooy ork
▁gain asport
▁paka en
▁riples ament
▁peech ha
▁nand inee
▁hedar est,
▁hosp ital
▁(emesaee el)
▁senag upta,
▁karmachaar iyon
▁emaphl aks
▁grainal uso
▁baik-tu -baik
▁600-6 50
▁aimfl ux
▁tvin-tar bo
3 ,
u tar
▁ qu
▁s aaha
▁b ej
▁b ind
▁b /g/
▁d ush
▁a xon
▁j et
▁j hal
▁ka har
▁l ip
▁l eed
▁is ane
▁t ri
▁e sar
▁h e
▁ph en
▁aa itam
▁aa aiph
il l
▁par icha
▁kam aan
dee aara
▁pr th
▁6 000
▁yoo r
em bal
▁jis asen
▁do -
eed iya
▁kv id
yaad h
▁‘ ph
▁pha ik
▁11 ,
▁phesabuk ,
▁x l
▁le g
▁pichha d
▁no eda
▁f /1
▁khel en
▁bo lee
asee y
12 8
▁chee ph
▁aay ee
▁ste p
▁mila en
▁kaip tan
▁motor ol
▁pan j
▁por taph
akam panee
chan dran
▁imph r
▁hedaphon s
▁2jee ,
▁pres ident
▁vip hal
▁tren ing
▁jeepeeaares/ ej,
▁vheekal s
▁kin aare
▁mach halee
▁vail iditee
▁yooz ar
▁vyaap aar
▁ee- mel
▁phestiv al
▁glonaas ,
▁lu bh
▁inf ochus
▁chr orai
▁heel iyo
▁aartiph ishiyal
▁vosh ingatan
▁intr oodar
▁ijaaj at
▁prth vee
7 5
f ch
l ap
l ait
r ak
s as
v atar
▁k end
▁p hat
▁p oon
▁p vaint
▁ha k
▁b aak
▁d aar
▁ka hane
hee d
en ovo
▁t ip
at en
▁ko ting
iya ta
▁g ard
it is
▁ta i
▁ta pha
im aan
▁2 99
▁y aam
aam itv
▁hee n
▁4 1
▁3 ,999
▁la p
▁sh ep
▁to s
tee t
ana ,
▁pr aat
yoo vee
iks h
▁bai ting
▁lek hak
▁jis ako
▁rupaye ,
▁( p
▁7 6
▁op era
▁aaee tee
▁sha tar
▁maar sh
▁lag enge
▁es osee
▁nir yaat
▁san chaal
▁ro gee
▁sensar s
▁br ait
▁lanka ,
▁sv aamitv
asee aar
▁najar on
▁najar andaaj
▁rip laee
▁bach e
▁chun ane
▁raaj a
▁raaj y
▁ni ro
▁99 99
80x 800
aaha ree
▁gun ag
▁65 2
▁jeda 3
▁vaayaral ais
▁chauk on
▁paristhit iyaan
▁anok he
▁bain gal
▁kaab oo
▁prab andh
** **
▁aaeeem eksa
▁ghata kar
▁kheencha ne
▁pav iliyan
▁mejab aan
▁anuk ool
▁chhutak aara
▁shakh s
▁portaph oliyo
a 7
b ook
j ,
m e
m on
v ej
aa ai
aa he
▁m 3
▁m aane
an ch
▁b ek
▁b aaharee
ya dh
▁d hak
▁d aans
▁ka la
aar p
hee lar
▁l aab
▁n aata
▁r en
▁r ait
▁v idh
oo la
al es
at chh
▁se mee
▁g aana
▁kam yoon
▁5 49
aav astha
aap aid
▁mo on
▁va is
ol oj
▁6 -speed
▁cha uda
▁see tar
▁7 00
▁badh aate
▁var sheey
▁kaard s
▁laanch ing
va j
▁sa ur
▁chaa hane
▁mobail s
▁pee s
▁pee riya
aee es
▁tr ip
▁el oy
▁saam anj
▁11 ,999
▁br aajee
▁sv abhaav
▁sur anga
▁sas p
▁vid ai
▁18 :9
▁bol ane
▁dekhen -
▁luk s
▁at yaadh
▁pram oshan
▁kaip es
▁prak rti
▁spesiphikeshans :
▁brek ing
▁vichaar on
▁stee l
▁viv aad
▁visheshata en
▁aakhir akaar
▁vyav astha
▁kumaar ,
▁sant ush
▁sans karan
▁rij alt
▁maip s
▁laind alain
▁hair aan
▁mainyuphaikchar ing
▁natee ja
▁bait hane
▁ravi chandran
▁intelij ens
▁kaav aasaakee
▁naaj uk
- e
a en
i an
k op
n l
u a
u lee
u st
▁k 8
▁p yoo
▁b la
ya t
▁a 1
▁a 9
on e
aar ak
▁r oos
▁r ivars
▁v iyar
▁t antr
at r
▁e ses
▁e lar
▁kar aate
▁ph aayar
▁g upha
▁1 80
ab har
it ish
▁kam ins
▁5 d
ara j
atee dee
▁sam eek
▁yoo aarel
▁dil aee
ip ak
▁tee jar
sar as
av yoo
see m
▁don gal
▁adh yaksh
▁chaar -paanch
oon ee
▁san v
▁adhik aansh
▁tr ed
▁el yoom
▁25 9
▁x z
▁kr ej
▁vid y
▁rik ol
▁aay urved
aasha y
▁buk haar
▁sthit iyon
▁tv s
so ft
▁mu h
▁phail s
▁anu mati
▁raaj adhaanee
▁ud yog
▁ris archar
▁lad akee
▁ej ,
▁socha ne
tas an
▁hava ee
▁taiks ee
▁heero in
▁duk aatee
▁suv idh
▁bet e
▁emb iyant
▁enj elo
▁sara jam
▁prab andhan
▁raash tr
▁ech emadee
▁phij ikal
▁samud r
▁dog una
▁dais irai
▁epl ikeshan
ask reen
▁e6 000
baay ot
▁dup ahiya
▁khaad y
▁naaga pur
▁steeyar ing
▁paricha y
▁niro shan
▁saamanj asy
▁braajee l
▁sarajam een
2 1
a han
b at
l oded
m w
o lee
s on
u char
ha la
▁b ith
▁b ingo
▁j eschar
▁n ij
▁v aar
ga s
ga uratalab
▁t oor
▁t eks
▁t i
ur oo
▁e r
▁h y
ik r
▁ga t
▁u 11
it ion
ata k
▁y un
aad u
aas tar
▁3 20
▁sh ipht
▁o f
aav it
▁kaar yav
▁8 9
▁st et
aaj e
av e
▁ban akar
▁( d
▁( sh
see aee
ekt iv
▁do onga
▁raim -
▁ran ing
▁sar al
▁sar jaree
▁eks e
▁var d
▁10 ,999
▁pa ch
▁bat aata
▁ut pann
ash ot
oom ent
-s il
▁roope )
▁kaaran on
▁it ar
▁man ap
▁man oran
▁kr iya
▁shaan ti
▁aar t
aij d
▁aank adon
▁kara en
▁otom etik
tel ik
▁ik at
▁chom p
▁ematee 65
▁skootar s
▁jit ane
▁dr ink
▁rish ta
▁nau ven
▁hat aane
▁abhin ay
▁aaaipshan s
▁kaab ij
▁vail yoo
▁padaarth on
▁paal an
▁dhee mee
▁gus se
▁injeeniyar ing
▁bi gad
▁ganva e
ena jar
▁mus k
▁brod abaind
▁pash ch
▁jaj ba
▁mej oo
▁risee v
▁dhamaak edaar
▁yoonib odee
▁yaam aaha
▁atyaadh unik
▁manoran jan
, 0
- ro
- eleedee
: /
a chh
f achai
m al
s ’
v ai
‍ ta
▁k hand
aa jar
▁ha re
an on
▁b uj
▁d har
▁j oo
▁j ionee
▁l aim
▁l edar
▁ph epha
am antree
▁par th
▁ch ok
▁5 mm
▁3 99
▁jo po
▁dee tee
▁sam aaj
ish t
aaj ik
▁pad ee
▁sk r
ra j
▁mai di
▁sa u
reen o
ind r
▁karana ,
▁hota ,
▁san gat
▁ind as
▁ed res
▁kor n
▁sv ayan
▁pree loded
▁daal ate
▁taim alain
▁test ,
▁laip has
na e
▁mee ting
▁sal amaan
▁inglaind ,
▁prot s
▁aad hee
▁jud ane
▁sambandh on
▁rav indr
▁poo chhe
▁eksa 1
▁256 gb
▁ema 2
▁maikro- yooesabee,
▁das tak
▁utar ate
▁jad ane
▁mainej ing
▁paik ej
▁visha yon
▁phal on
▁duk aan
▁niraash aajanak
▁chayan akartaon
▁pary aavaran
▁prer ana
▁bail ls
▁nirn aayak
anj ay
▁dablyoo veejeee
▁vibhaag on
▁gul aab
orn iya
riph ikeshan
▁adhikaar iyon
▁ilaak on
▁resh iyo
▁vaay-phaay ,
▁pran aalee
▁kahoon ga
/jee/en/ esee,
▁jhal ak
▁gard an
▁praat ham
yadh ik
2 4
9 00
a 5
g ,
g ana
p l
y ee
▁k han
ar abarg
▁p ik
▁m up
an s
▁d aant
ta ee
▁l is
▁l ut
▁n in
aan k
▁h ep
▁kar oon
▁ph ej
▁ph el
▁aa io
▁g aaya
or a
ek ted
▁ta hal
▁ta ink
▁ch oon
▁ch ham
▁5 -
▁5 10
▁4 50
▁kh aata
▁to ha
▁pr ej
▁pr aj
▁6 jeebee
▁cha ud
▁mil engee
esh iya
▁ra heen
▁see dhee
em o
av aee
sha y
ako d
▁maar ooti
va ch
▁chal en
▁phil ips
▁pee 10
▁bat or
▁13 ,999
▁lee var
▁kl ok
▁badal ate
▁nirm it
▁paar iyaan
▁ak hab
▁bo tal
▁te r
▁prad aata
▁sun ee
▁sin k
▁khoo bee
▁pat rika
ijan al
▁pai tarn
▁niyam on
▁dhan anjay
▁prash ikshan
▁sev ing
▁pahan en
▁lokapr iyata
rip t
▁than de
▁kir in
eta itis
tab ol
▁maal ik
▁mir ar
▁michro soft
▁dham aaka
▁tair iph
-sam ay
▁dro p
▁phiks d
▁nib ha
▁mup heed
3 6
a ut
j o
r at
t ish
▁s it
▁s olar
an ja
▁b aaga
▁ka ksha
en ta
▁v aip
▁v asa
oo see
▁e sesareej
▁h aavee
▁se le
▁aa ib
ik aarak
it tair
han on
▁ho ld
▁na veen
▁ek saras
▁ch ura
▁o st
▁sam art
▁an ivaar
oor e
▁pad ha
▁sk aip
▁( thar
▁7 8
▁intar ana
▁pa ush
▁san vaad
▁ind on
▁201 3
▁sn ap
▁kol ,
▁aadh e
▁br itish
ag oogal
▁muk esh
▁14 40
pht on
▁maarket s
aash t
asee ne
▁chaah ega
▁suvidha on
▁rik avar
▁samaj hen
▁dikh aata
▁nyoo tr
▁chun en
▁lage gee
▁laaya k
▁chhod ata
yav aad
▁epha 1
▁py aaj
▁pan k
▁kaal a
▁traik ing
▁go yal
▁utar egee
▁seek hane
▁bel t
▁bur ee
▁vaastav ik
▁uts aahit
▁mars edee
aikro maiks
▁kair ektar
▁shiks ha
chaarj d
keemat :
▁vyakt itv
▁pau dhe
▁mair aathan
▁sing aapur
▁jaagar ook
▁stam ps
▁too-v heelar
▁pradhaan amantree
▁yoor eka
▁ti vatar
▁manap asand
▁samart han
▁paush tik
- bee
- tee
3 99
9 2
i fi
n ishan
o )
o tem
r apaan
t iyaan
u aee
v i
‌ r
▁p aim
▁p aaye
▁m m
▁b akh
▁l as
▁n aathan
ch e
▁aa en
es is
▁g aanon
aal on
▁ga m
▁2 emapee
▁ek ad
▁sak sesar
▁ch utak
▁5 eks
▁5 ven
▁3 999
har t
iv aseey
▁st rok
▁( 18
▁7 s
st ra
▁intar avyoo
▁gr ej
▁kan s
▁pl en
▁es ateedee
▁sp aark
▁samay -samay
▁pee th
▁pha im
▁pha ind
▁9 8
▁bal b
ash aan
▁201 0
▁memoree -
▁the repee
▁kor teks
▁dar sh
▁f 5
▁f achaibook
apr es
▁lo yan
▁man aaya
▁vikalp on
▁80 8
▁bhar at
▁w ww
▁plaan ing
▁21 9
▁hajaar on
▁mas aaj
▁sil endar
▁bhej ana
▁pat tee
▁dha dak
▁paanch -chhah
▁40 5
▁karenge ,
▁sm ail
▁saaph -s
▁haan ikaarak
▁stee van
▁ganv aana
▁jeepeeaares ,
▁jaanakaar iyon
▁met ro
▁(2 6
▁spinar on
▁pok et
avee r
▁sent ral
▁(3 )
▁stood ents
▁dohar aate
▁chap et
▁kep ataun
▁phaay araph
▁abhinet ree
▁kend reey
:/ /
▁laiphas tail
▁eksaras aij
▁anivaar y
5 7
9 s
b air
j ana
o ee
t in
u aan
u te
x 7
▁ ur
▁ ig
▁m aanee
an ait
▁b mw
▁hai p
▁d ail
▁a lee
▁a jee
▁a hasaas
▁ka tak
▁me sej
en sh
ai ,
▁r ook
▁v aaka
oo bee
aan usaar
▁t aar
▁g aarantee
aal ik
▁1 ghz
▁u laj
it rai
▁in v
▁5 -speed
▁4 25
▁kh id
▁kh okar
dee seee
▁kaar yon
ol aid
▁8 veen
▁cha d
aak shee
▁ra utar
em on
▁( b
▁den gen
▁be yar
▁mai telik
▁kan ektar
gal ane
▁12 7
▁var k
▁16 0
▁vish l
▁bata en
▁bata ur
▁sn aiks
▁saam aajik
▁daur on
ast ik
▁as embal
▁dyool -sim
▁photo ,
orm eshan
▁sur fachai
▁lait s
▁19 ,999
▁spesiphikeshan :
▁aank hen
▁at yadhik
tap ut
▁ik ai
▁ai x
▁dhan yavaad
▁ej ensee
▁kaun sil
▁aadat on
▁(4 1)
▁phor s
▁rog on
▁chhah -chhah
▁jh ooth
▁maal oom
-t har
▁chhak kon
▁tumh aara
▁madh yakram
▁phain s
▁yooz ars
▁tod akar
▁jeepeees/e -jeepeees
▁kre g
▁edit ing
▁dhoom rapaan
▁dikavela )
39 )
▁kaartik ,
yum iniyam
▁eksatar anal
▁asaphal ata
▁bs nl
▁aiks es
▁instr ooment
▁juk arabarg
▁laha sun
▁ston amain
▁sasp enshan
▁kaaryav aahak
▁choon ki
▁(thar anga
▁intarana ishanal
otem ment
▁ekad ivaseey
- 8
- pan
9 60
g aas
h aal
k hanee
l at
l ip
p ro
r ah
r ata
u shal
w ch
y aalay
▁k sha
▁s olyooshan
▁s ateek
▁p aseene
▁m wch
▁ha phton
▁b aha
▁hai par
▁d aat
▁a st
▁j i
▁j aay
▁l od
ch ur
▁v 5
at ne
▁h aara
▁kar ee
▁ko t
as to
▁g st
▁ga hare
▁ne l
et ee
▁ek -
aam aan
▁3 -3
▁kh ur
▁keemat :
▁6 30
▁dil ashaan
▁pro v
ant u
aab a
▁st an
▁see en
▁baad ,
▁( es
▁( 100
▁rah oge
▁baar sil
uj he
▁var g
▁en aal
▁dh aabee
akar atne
▁el istar
aah oo
aaph t
▁muk t
▁gl ook
▁lanka )
bh p
▁or ijanal
▁dv ipak
aash tr
▁maisej ej
▁sah ool
▁80 1
os kop
aadh yaksh
▁ummeed avaar
so var
▁phar jee
▁mal aan
▁ste bal
▁khele ga
▁lad ake
▁jam aane
▁29 00
▁dhan anja
▁das hak
▁rish ted
▁vairiyant s
▁pakad ane
▁pareshaan iyon
▁han see
▁tarbo chaarjd
▁shak tish
▁ardhashatak eey
▁deelar aship
,7 00
▁rob in
▁uts aah
▁siy aaj
▁ladak hada
ww w
▁pent ing
▁sadeera -thar
▁jon ee
▁vijay ee
▁til akaratne
▁eseee-vee seee
-chho tee
▁aautal ets
▁pas eena
▁raak hee
▁reech aarj
▁avat aar
▁baingal or
▁peeriya d
▁bla chk
araj ensee
▁(sh ree
▁chok alet
▁lis ted
▁lut ph
▁aaio es
▁praj aat
▁baaga dor
▁beyar asto
▁dvipak sheey
▁dhananja ya
▁sadeera-thar anga
5 99
a char
j on
n o
o tee
p ekt
r ,
r aan
▁s aim
▁s var
▁s atar
ta g
aar tament
▁l anch
ak ul
▁n asht
▁r aam
▁r iph
▁h p
▁ph ek
▁aa iye
ik et
as s
il aaka
▁u bhar
cha m
ek ar
ata h
▁2 999
ro j
aath ilaaka
▁5 30
▁sh aarp
▁jee ro
▁bad hegee
▁dee jie
▁an aaj
▁un gal
el aar
▁sab ak
pee y
▁lon g
▁see riyal
om adaar
▁ve riphikeshan
▁( 5
▁7 9
▁kaam ak
▁tha har
▁al aarm
▁lais ,
ich k
▁chal an
aana ,
▁10 ,
▁10 11
▁pa engee
▁endr aid
▁skreen ashot
▁prat ibh
▁dik hatee
▁haind al
iph orniya
▁har aate
▁vee 5
▁kl on
▁nirmaata on
▁pata khanee
eek o
▁z 17
▁bar tan
▁shatak aveer
▁rohit ,
▁ovar atan
▁mee l
▁antar aashtreey
▁ste j
enjar s
▁raaj yon
▁vishv avid
▁beemaar iyaan
-see reej
▁emabee peees
▁epha jed
▁gun aathilaaka
▁(4 2
▁khush iyon
▁chhotee -chhotee
55 )
▁haik ing
▁mid anait
▁imph otemment
▁49 )
-l itrai
▁mar jee
▁duk hee
▁proph esar
▁baitha k
▁emb ient
▁blootuth ,
▁dhoon dh
▁per ara
▁skorakaard -
▁nak alee
▁pos tap
▁chail enjars
▁(n aabaad
▁painor ama
▁eseee-vee deeseee
apat i
▁ub aal
▁(14 )
▁ship ing
▁pratisp ardha
▁marsidee j
▁sty lai
▁dan ushka
▁baak i
▁daar omadaar
▁bith aaya
▁hep etaitis
▁bakh oobee
▁baarsil ona
▁sahool iyat
▁vishvavid yaalay
- end
- th
a pane
d ya
d iyaan
j in
p iyo
p las
p harm
u le
▁k ind
▁s r
▁s us
▁s leep
▁p ay
▁hai dar
▁me le
▁l i
▁l aaj
▁n m
ai jar
▁r u
▁v oran
ga in
al ,
▁kar n
am ar
am aark
▁par l
▁par at
▁g 4
ab al
▁u galane
▁in te
et iv
▁ch enj
▁ki ,
▁ki chan
▁5 40
aas hee
▁4 x
dee jee
▁sam aapt
▁an dhe
aak oo
▁ab u
▁see rij
▁ep ,
▁baitaree :
▁( 55)
▁kaha -
ra han
▁sar kil
▁len ge
▁lag aate
▁sp a
▁pee le
▁san d
▁9 60
▁verient s
▁am olaid
▁br ash
▁64 0
▁f 3
▁ak ila
▁14 60
▁im port
▁128 6
io x
ens il
▁jeet aane
▁samaj hana
▁aay u
▁21 00
▁skor piyo
▁phar st
▁traans alet
▁hona ,
▁anu vaad
▁kara ega
▁ni cha
▁kro sovar
▁jam aaya,
▁raid ing
▁nee ti
▁khelee ,
▁utar enge,
▁jenaphon a2
▁(4 9
▁sach in
▁saphed ,
▁aag uaee
▁aak aash
▁aau taput
▁eyarabaig s
▁vig yaan
▁ematee67 50
▁oon chee
▁madh yam
▁(2 39)
▁jeeta te
▁riyal itee
▁dava on
▁kitaab en
▁dai tasan
i lap
▁sansth aan
▁jat aayee
▁maithyooj ,
▁paksh iyon
▁opare tar
▁chool pad
▁baaree k
▁pratirod hak
▁pariv ahan
▁tapha paid
▁ter aabait
▁(18 1)
▁shaktish aalee
▁beyarasto 14
6 9
6 /3
g ing
n is
n os
p aal
t aan
x 1080
▁ /
▁ ib
▁k shan
ha en
▁s ud
▁s araph
▁p lag
▁p olo
▁m ata
▁b ed
▁b oon
is al
▁d ib
▁d aayan
▁d aada
▁a han
▁ka isee
aar ed
▁r aajan
▁v ait
▁is apar
ga lee
▁t or
at oo
▁ko sm
▁ph yoo
cha tail
▁bhee d
▁y aahoo
▁ch n
▁ch itr
▁4 999
▁aap as
▁sh r
aik shan
▁jee ne
un iya
▁kaar ,
▁kaar t
▁tak )
yoo aee
▁ma cha
aim ar
▁dee es
▁keemat -
▁tee char
▁bai g
ait o
▁tar m
uj ik
ij m
oot ha
▁tarah -tar
op o
▁es asee
▁‘ ham
▁pha b
▁pha inal
▁san ghar
▁9 7
▁en dee
▁ee -k
▁ro tee
hal -pan
▁up aadhyaksh
▁kl ab
▁poor n
aans oo
▁taibalet ,
▁aar th
▁red ieshan
▁gold an
os ieshan
▁haar mon
▁jan gal
/2 )
▁19 0
▁kon phrens
▁oop aree
▁24 0
▁ste ps
▁krik etar
▁raaj asth
▁je 7
▁maas k
▁maas ik
▁lad ane
▁paraph ekt
▁dilee var
▁otophokas ,
▁poo chh
▁kuladeep -cha
▁chhote -chho
▁ema 3
▁viraat -ro
▁(4 6/3
▁aaraam adaayak
▁pras han
▁ematee67 35
▁mit tee
iz ain
▁met hee
▁veeikal s
▁proses ing
▁reg yular
/3 ),
▁aayar an
▁nar endr
▁bag air
ateek shit
▁shiks hak
▁phaib rik
▁my ujik
▁vhaat saip
▁bola ,
▁chaut hee
▁aais ak
▁mrt yu
▁mahaar aashtr
▁b/g/ n,
▁ikat tha
▁buj ur
▁aaib ol
▁ost iyo
▁marsedee j
▁phaim ilee
▁(26 *)
▁phaayaraph oks
▁(100 *)
▁glook oj
▁(42 /3),
▁voran tee
▁andhe re
▁(49 /2)
▁saraph es
▁tarah-tar ah
▁sanghar sh
hal-pan dya
▁kuladeep-cha hal-pandya
▁chhote-chho te
▁viraat-ro hit
▁(46/3 )
9 8
a 6
i um
p s,
r id
s an
v aa
▁k aayam
▁s atah
▁p une
▁p ensil
▁b or
▁b ok
▁b ot
▁d aadee
▁j ikr
aar dar
ak in
▁n adee
▁r it
▁v ing
▁v aak
aan tik
ur r
at :
▁ph aarm
▁aa lo
ad ek
ph or
▁hain :
▁hain g
ab adee
▁in aam
▁in ebal
▁in akam
▁bhee m
▁ja taee
ro dh
▁na var
▁lie ,
▁ek am
▁ek stra
amen s
▁5 es
aas k
ap or
ap rai
▁mo te
▁6 s
▁an ushka
▁yoo ke
▁dil a
▁pro k
▁tee dee
pee d
▁dillee -en
▁lek sas
▁ban ata
▁al chatail
▁maikro phon
us b
▁dek ho
▁sap or
▁eks apres
▁da een
tha k
▁sp en
▁9 ,
▁bah up
▁maan ga
oom i
een iyam
▁14 5
bh aarat
▁nik aalee
▁im arajensee
▁pet ent
▁philahaal ,
▁as ist
▁bhar e
▁w atchh
▁lik he
▁sup reem
▁mas al
▁taip ing
ibh aav
▁mot aapa
▁aaega ,
▁je 5
▁roj agaar
▁2, 500
▁abh ibhaav
inal aind
▁khu la
▁khu sha
▁jaik ,
▁khush iyaan
▁utaar ane
▁stee riyo
▁pras aad
▁maal aveyar
,2 00
▁g5 s
40x 2560
▁garbh aashay
-kh ud
▁maig n
▁edam in
▁ev enjar
▁ob j
▁om ega
aaro h
▁sanv edan
▁hy undee
▁sangat han
▁inte leej
▁aaisak reem
- too
6 90
8 90
b uk
d d
k aal
m iyon
n at
t en
u aar
▁ )
▁ [
▁ ”
▁k ish
▁k aaga
ar ing
▁s ukh
in am
▁b aant
▁a is
on om
▁ka id
aar atee
aar -vee
▁l ol
▁l aimps
▁n it
▁n orm
▁v as
▁v et
▁t y
▁e riya
▁ph ilap
▁ph inalaind
as kaar
▁g aan
▁g he
▁g aid
▁ga har
▁in ov
▁2 ,999
lee tar
▁kh uj
ap ur
aav ej
▁bh aagee
▁mo l
▁tak alee
gee ,
▁va uchar
▁jo kh
sh ik
▁cha ik
▁cha ina
▁jeebee )
ok rom
oor ti
▁rak am
▁den im
▁gr et
▁badh aata
▁ap ar
▁sa uda
▁mod arn
▁baik ,
▁don k
▁pee na
▁pha und
▁13 emapee
▁san dar
tak on
▁mad d
▁tr oo
▁up ar
▁f on
ast aar
▁khareed adaaree
▁aaeephon s
▁i talee
▁yoon ik
▁aan kh
▁bhar ane
▁bach aata
▁khaasiyat :
▁mas tee
tav iyar
▁kon tr
▁dekh ie
▁antar iksh
▁1, 500
▁kal aak
▁hal dee
▁kastam aij
▁graam een
▁maujoo dagee
▁sik h
▁ai 4
idee jee
▁chhod akar
▁maltee t
▁re dee
▁pan jee
▁ema 9
chan aatmak
▁res ing
▁avas tha
▁sambhaavana en
▁haid aset
▁vot saip
▁jh urr
▁chainal s
▁kamaj oree
▁ul tee
▁phu taviyar
,2 90
▁abhin eta
▁kendr it
▁klee yar
▁jarm an
▁aal oo
thar aitis
▁kitaab on
▁kaib in
▁sansth aapak
▁kaimp as
▁shok es
▁tamil an
▁diph olt
▁sunaha re
▁kaamay aab
deeaara 3
▁bahup r
▁jokh im
- x
- ee
6 99
7 2
8 3
e b
g air
l it
r sh
t ur
v itee
y aay
ha se
ha bord
▁m aa
an aatmak
▁b in
▁b ook
▁a 3
▁j aaya
▁ka i
▁ka v
▁ka tee
en e
▁ke yar
ak at
▁v ijan
▁v dai
▁is tam
ga dh
at enament
▁ko b
▁aa sha
il s
▁par ich
▁par ivar
▁g aajar
cha ir
ata ir
▁sak a
▁ch aand
▁5 999
▁5 ghz
aas an,
▁la ee
▁kh ola
▁o v
▁mo hit
end royad
▁sam aaroh
▁yoo esabee,
▁cha b
ish kaar
▁mil en
▁ra chanaatmak
▁lek h
oor vak
▁de ree
▁ba ing
▁rah engee
yaad a
gar aanee
▁haal aat
▁ee m
ash ips
akar ta
▁tr ak
▁piksal s
▁su z
▁15 3
▁br ed
-s e
▁ed reeno
▁kor apor
▁sv atantr
▁pree v
▁mah aan
▁z iox
▁min i
▁bar lin
▁aay og
▁50 5
▁kil o
abee r
▁baink ing
▁dekhen ,
▁ni garaanee
▁karav aana
-in st
▁ree m
ion s
▁khoob iyon
▁chipaset ,
▁kail iphorniya
▁seek hen
▁daam on
▁vaid hata
▁entee baayot
▁had diyaan
▁kaan oon
▁mid -r
▁jh el
tiph ikeshan
▁intee greted
▁vaatar aprooph
▁dast aavej
▁(10 80
▁aara 7
▁e/bee /jee/en/esee,
aikro sopht
▁shaukeen on
▁riv yoo
▁hans ate
▁mis aal
▁koo pan
▁bhaavana on
▁dom in
▁vi rodh
-ta im
▁chaut ha
▁sartiph ikeshan
▁sartiph iket
▁daayam and
-pee ne
▁dhoond hane
▁piks el
▁priy anka
▁eksapend ebal
▁kaipes itee
▁eses adee
-sil endar
▁kans ol
▁ksha ti
▁satar k
▁postap ed
▁haidar aabaad
▁ekam aatr
▁khuj alee
▁bhaagee d
▁sandar bh
▁bahupr ateekshit
▁vdai o
▁istam aal
- nae
g aar
i ‍
j aam
l y
l itee
o teejee
x t
ee jan
▁k aaj
▁k ood
▁m ur
▁m een
▁d ej
▁d ed
▁d aakh
▁a iv
▁a la
▁j vel
▁ka iph
aar asee
en ch
▁ke k
ak see
▁n an
▁r ail
▁r ot
▁r ingat
▁t yoon
at ane
▁e 3
iya s
am aar
am as
as hah
▁g up
▁g uj
▁ga haree
▁u daan
or p
▁ta igar
▁na hee
▁sak engee
▁ch ur
▁5 g
▁5 -megaapiksal
▁3 d
▁kh icha
▁jo ging
▁an us
▁an aavaran
▁an adek
▁8 emapee
▁pheechar ,
▁pro bl
id ai
▁( v
▁7 000
see n
▁rak sha
▁maik en
▁do sh
eed an
▁0 5
chch e
▁aaee 7
▁aaee aee
▁gr ed
▁20 30
▁sar var
▁eks aboks
▁len s,
▁sa um
▁sa pane
▁10 5
▁pa chh
▁pa und
▁sel kan
ti on
▁vai gan
▁aas amaan
▁kharee dee
▁up avaas
▁up asthit
▁mem aree
oom an
▁kl astar
▁x 3
▁pichha la
▁kor por
▁f or
▁sta ibal
▁pree -inst
▁i 7
▁yoon eeb
▁red ,
meed iya
▁19 ,990
▁vol t
▁minat on
▁pat thar
▁gan it
▁mot ok
▁kro s
-in -
▁dab aane
▁braand s
▁eksa 5
▁khol akar
▁sekend aree
▁sach chaee
▁khaan apaan
▁kram ashah
-ch orai
▁ana ch
▁sundar ata
▁phu tabol
▁deelar s
▁upay ukt
▁yoorop iyan
▁enj oy
igar et
▁phinish ing
▁pratib andh
▁sabsak rai
▁gul aabee
▁jha p
▁praar ambh
▁dais habord
bon n
por osis
▁daayam enshan
▁najadee kee
▁nek st
▁tw ittair
▁klaim et
▁bhook amp
▁chaunk aane
rak char
▁dhar atee
▁gaaya b
‌r tj
aprai j
▁takalee ph
ideejee i,
▁parivar tan
▁mid-r enj
▁khicha dee
3 8
f air
g aanv
l aik
m o
o dh
p m
p le
r as
v aah
‍ sa
ee r
▁k oop
in ga
in itee
in st
▁p 1
an et
▁b esab
▁d al
▁d raigan
▁a da
▁j aayar
▁j ooj
▁ka ushal
en tal
▁ke m
▁l aana
▁l oon
▁r aast
▁r 11
▁r estor
▁v aakee
▁kar aatee
▁kar bonn
es apee
ad raiv
ph tar
▁par antu
▁1 999
ab a
▁ta in
▁ta thy
▁na zar
▁ch oo
▁ch or
▁ch it
▁ch ikan
▁4 a
▁3 s
aav ik
aap iksal
ain s
▁mo tee
▁va yas
▁6 gb
▁cha imp
▁lon char
jan ak
av haatsep
▁den gee
▁maik ron
▁de ph
▁op areshan
▁mai tal
▁stor ee
▁kan pharm
▁rahe ,
▁var un
▁chal aate
▁roop aye
▁pee pee
aah ‌rtj
▁badal akar
▁sv aagat
▁pah iyon
int eks
▁man o
aph esabuk
▁as ant
▁aan val
▁w ifi
▁sun ana
-p aapa
▁laipatop ,
▁meediy aapaid
▁sup ara
▁jan ata
▁sin ema
▁band al
▁phlipakaart ,
▁kain avaas
yal et
▁ar j
▁ar tha
▁soch en
▁2, 7
▁kis m
▁pak shee
▁kyoo b
▁abh aav
▁dhan iya
▁ej uk
▁shop akl
▁elatee i,
▁phan s
▁dhon e
▁krom abuk
▁aid ition
▁phoks ave
▁sai ph
▁pooch hen
▁maalee -tee
▁khoj ane
▁deelar aships
▁tal aas
▁aj ay
▁byoo tiphikeshan
▁baitha kar
▁ladak iyaan
▁shodhakar ta
▁72 8
▁shed s
▁jat il
▁ken avas
▁nyooy aark
▁kaimp en
ayoo aee
▁eksatar nal
▁agr anee
▁agr avaal
▁tat kaal
▁suk oon
▁amaz on
▁phen k
▁sanchaal it
▁ek- ek
amar ra
▁raajasth aan
▁sanvedan asheel
▁kish or
▁madd enajar
▁malteet aasking
▁tamilan aadu
▁probl am
▁phoksave gan
4 50
5 1
d ent
k it
k ampanee
r y
t iphaid
v at
y aam
▁ aanch
▁s um
▁s rot
▁p uj
▁ha st
▁b y
▁b ro
▁b enj
▁b ita
▁hai )
ya omee
▁j 7
▁j ur
▁j aij
▁ka ph
▁ka sh
▁ke ral
▁l aas
▁l aap
▁l ions
ak an
ch uree
ai ya
▁ko lar
▁ph ita
ad isk
am el
▁g raund
ie tar
ab oo
▁in t
tar ik
▁bhee ,
im a
im am
ro lar
▁kam a
▁ch o
aad oo
▁5 inch
▁kh aam
▁sh vaas
ap ha
ap ad
▁jee 3
▁o ch
aap har
▁bh p
▁to l
dee p
la is
▁phee t
▁sam poorn
▁st rai
▁st ets
▁see ree
▁pad hana
▁sk aee
▁( aaee
▁( 128
iyar s
▁jaan en,
▁tar al
▁ba han
▁kha dee
▁kaha ta
▁be cheen
▁eks atee
▁div el
▁sp o
▁mob ilitee
▁nae -nae
▁‘ sh
▁pa hana
▁ut sar
▁9 4
van d
▁har iy
ig ht
▁bata e
▁bata ega
▁jin da
ade h
▁kol am
▁chh aan
▁hotee ,
▁kl ip
▁muk ti
▁dual -ton
▁f irai
▁ak shay
▁sv aabh
▁nik haar
▁aaj aadee
▁yoon eek
▁maisej ,
▁aan tarik
abh aar
▁teevee ,
ram it
▁prod ekt
▁muj hase
▁shar aab
▁bacha na
▁mu see
▁3000 mah
▁khaane -peene
▁khul ane
uru st
▁hel dee
▁kanek ted
▁pahan ana
▁ins ta
▁had dee
▁imph otenament
▁aau ta
▁shaimp oo
▁bud dh
▁rod hee
ampar ik
▁fl ip
▁prast aav
▁tyo haaree
▁nibh aane
▁sat r
▁shan ivaar
▁edam aayar
▁dhaar ana
▁tree tament
▁lum i
▁do- teen
▁viyar ebal
▁sameek sha
▁nij aat
▁prots aahit
▁naveen atam
▁paim aane
▁karee bee
▁kosm etik
▁aalo chana
▁gahar aee
▁phaund eshan
▁pachh aad
▁shopakl ooj
- 5
4 00
b oo
e ’
e aee
g inee
m egaapiksal
u maar
v ain
v aach
z z
▁p un
▁m int
ya p
▁d raee
▁a up
ta j
▁me gaap
en shiyal
▁l ivai
ch om
aan ti
al aind
▁ph ork
▁aa dar
am ai
as aat
cha ne
ek char
▁ho ?
▁ja o
▁4 e
▁la en
▁sh ish
▁sh aahar
▁sh er
har oom
ap ej
▁jee te
aav iya
ing air
ain o
▁em p
▁6 6
▁mil aan
aak aat
▁tee 8
▁baad ha
▁( 1920
▁al ph
st or
▁gr epha
oot hee
▁badh aana
ib a
▁jab ard
▁sar tiphaid
-k ya
▁es osieshan
▁sp r
▁din achar
▁‘ g
▁pee tar
▁bat aana
▁saport -
▁ind i
tak ee
▁201 1
▁injan on
▁am ooman
▁lee ph
▁ro chak
ars ,
-pha ee
▁15 000
▁det aavind
▁jal an
▁x a1
▁saimasang ,
▁geeg aah‌rtj
-s el
▁f 1
▁sarv aadhik
▁po int
▁paar amparik
▁ak shar
▁gail aksee
▁man ush
▁or iyo
▁kr ooj
▁kr iet
▁z ar
▁z 11
▁z opo
▁karega ,
ban dee
▁pur askaar
▁ju ta
▁khaasiyat ,
▁khar aabee
▁bil akul
▁gan dagee
▁phail on
▁ste tament
▁tok yo
▁yaad ad
▁ni gam
▁roj amarra
▁ud aas
▁ik o
▁ree s
▁pai gas
▁kyoo 5
▁chom io
▁maltee meediya
▁cham air
▁kaal e,
dhaar th
▁theen ,
▁elatee peees
▁jeda 2
▁yooro peey
▁q hd
▁mon okrom
▁doktar on
▁bhool en
▁intee gr
aich o
▁(20 16)
▁jeepeeaares/ ideejeei,
▁gambheer ata
▁eg ree
▁kad aahee
▁paid al
▁aal iya
▁ip ad
▁du o
▁taaja gee
▁trai val
▁vhaat s
▁propheshanal s
▁sent rik
▁altr aapiksal
▁mul aayam
▁kamyun ikeshan
▁keem ata
▁mammee -paapa
▁rain a
▁sarph es
▁chikit sa
▁jaas oos
▁jaas oosee
▁id har
▁edaj ast
▁lubh aane
▁gunag une
oloj ist
▁raashtr apati
▁teks at
▁akhab aar
▁indon eshiya
▁jaagarook ata
▁ajee b
▁khid akee
▁ast itv
▁karn aatak
▁ostiyo porosis
▁dillee-en aseeaar
▁philap akaart
▁donk tar
▁jvel aree
▁anus andh
▁motok orp
▁raast on
▁svaabh aavik
▁flip kar
▁paigas us
- 30
4 8
b or
b aadee
d in
g oo
i ai
l aid
s /
s it
t or
t op
u la
x 480
z ed
aa ge
▁s av
▁s igaret
▁p anee
▁b ih
ya sh
▁d at
▁d av
▁d izain
▁a 4
on ch
▁ka laee
▁l aiks
▁n as
▁n fch
▁r 7
▁r ep
aan iks
▁t ir
▁e 8
▁kar mach
▁ph aas
ph l
▁ya heen
▁g e
▁g habar
▁ga jab
▁u i
iy og
ata ch
▁na heen
▁na yee
▁y aatr
▁ek a
▁ek sesareej
▁sak ht
▁ch ch
▁ch ol
▁ki d
▁5 x
▁la un
▁sh ort
▁sh yaomee
▁smaarta vaach
tee bee
tee sh
dee j
dee l
▁pr aan
▁apan aakar
▁em adee
▁an ush
▁pro s
ok t
ip aid
ail itee
ul an
▁ban ate
▁ban gaal
▁sk rai
▁jar iya
▁do hara
▁tar n
eed iyo
kar sh
▁ran abeer
▁len ee
▁log -in
▁sa pan
▁sp ekt
▁‘ r
▁‘ ek
▁pee 1
▁pee k
▁bana egee
▁prat iyog
▁9 6
▁en a1
▁dik hen
▁dik hate
um a
▁aas pekt
▁am an
▁so te
▁so da
and ar
▁gee t
▁maan ak
▁kya -kya
ag nishan
▁le yar
ibal l
▁po lee
▁paar ts
apr adesh
▁14 3
▁14 4
▁14 00
▁man am
▁or a
▁i 5
▁bha ga
▁bha la
▁jaegee ,
▁w atair
▁kant rolar
gr ah
▁samaj had
▁jed i
▁sil er
▁maj e
▁’ ’
▁kshamata on
▁17 ,999
▁24 00
▁40 ,000
▁maus amee
▁aad esh
las s
▁sambh aavit
▁bane gee
▁jeepeeyoo ,
▁vy aav
▁paraph or
▁raid ar
▁ang on
▁ret ina
▁eksa zed
br aaniks
▁ol aid
▁vij ual
▁daayar iya
▁set s
▁27 00
▁visheshata ur
▁soochana en
▁mar aathee
▁sid dh
▁mit haee
▁baay om
▁anok hee
▁ras oee
▁pol ish
,7 99
▁yog yata
haid ret
▁naak aam
▁pixail s)
▁prem iyon
▁hair aanee
▁(em atee
▁devid asan
▁rajistar d
▁lak adee
▁gp s,
▁kris amas
▁eksee nos
▁mul aakaat
▁gps /
▁reed ar
▁mand ir
▁(j en
piksal )
▁vast u
▁jhan j
▁chauda ee
▁vidai o
▁santush t
▁skr ab
▁praatham ikata
▁chham aahee
▁ig nis
▁ikai yon
aamaan y
▁khur aak
▁deees elaar
▁yooneeb odee
▁besab ree
▁jaayar oskop
▁restor ent
▁divel ap
▁musee bat
▁shaahar ukh
▁grepha it
▁dinachar ya
▁karmach aaree
▁yaatr iyon
- h
d ing
f ps
j ing
k om
m aik
r ooph
s ai
s aimasang
t im
v aastav
y ch
▁ iy
▁ iball
▁s 1
▁s ne
▁s teev
▁p us
▁p 10
▁b hat
▁b ug
▁d abl
▁a 5
▁j ut
en char
ak aast
▁n aaran
▁r on
▁v ok
▁is ak
▁t yoo
al it
▁h oo
▁h aathee
▁se var
▁ko mb
▁ph i
▁ph ut
▁aa ikon
am it
ph e
il m
▁g in
▁g aay
▁in ako
▁in sp
▁ta ingo
▁2 60
ro b
▁ek ting
▁ch m
▁ch int
aad e
aas hak
▁3 t
▁sh iv
▁sh aast
▁jee laind
aav anee
aav ashyak
▁bh aaga
▁bad he
▁pr in
▁apan aane
gee n
iks ar
▁em ee
▁6 99
▁6 ,499
▁cha udee
▁gaee ,
▁st aaya
▁( 64
da f
▁de lee
▁kha t
var d
▁phr an
ra iss
▁be ta
▁lekin ,
▁mai gr
▁gr ast
▁12 3
▁12 999
▁chal enge
▁sp re
▁‘ ‘
▁pee em
▁16 00
▁sen k
▁san j
▁san sh
▁san de
▁9 2
▁dik he
▁sim pal
ash n
akar ee
▁hua ,
▁on aito
▁el ab
▁le bal
▁muk h
▁maheen a
▁paas aport
▁elee eeko
▁sarv ekshan
▁rej istent
▁bo bar
▁im yoon
▁aar tharaitis
▁not is
-b ade
▁30 ,000
▁apadet s
▁gh us
▁dijain ,
▁glaas a3
-p at
▁lait ,
▁laipatop s
▁lik hen
▁mas k
▁sil k
▁top ik
▁sal aad
▁ame zan
▁saab un
▁mi x
▁kara egee
tel ait
▁khul akar
▁majab oor
▁ritel ars
▁kis aan
▁ree dh
▁nikal ate
ith i
▁milata -jul
yoom ar
▁pan kh
▁ophis ar
▁rakh ega
▁aham ad
▁ad av
▁phor ch
▁ben elee
▁than dee
▁than dar
▁rog iyon
▁dard ,
▁q 6
▁oon cha
▁nai o
▁reg ular
▁ditekshan ,
▁janm ad
▁nar vas
▁chamak adaar
vars eshan
▁ish aara
▁deep ika
▁moovee j
▁phool on
-sam aj
▁devalap ars
▁devalap ament
▁garbh aavastha
▁machchhar on
▁sook he
▁ilaak e
▁membar aship
▁apha vaa
▁kiran on
▁aash char
▁najadee k
▁anup aat
▁ghut ane
▁imphr aared
▁bek aar
▁elar jee
▁pashch im
▁kaart oon
▁aarth ik
▁abhibhaav ak
▁obj ekt
▁bhaageed aaree
▁aaeeaee tee
▁flipkar t
▁chol or
▁sapan on
▁pratiyog ita
▁siler iyo
▁paraphor amens
▁jhanj hat
▁iy araphon
▁bug aatee
▁onaito uchh
▁milata-jul ata
, 300
- eks
2 ,
2 7
4 ,
7 1
j io
l oo
m et
m ail
n aicht
v haatsep
▁ =
▁k aa
▁k ing
▁s 3
▁s ok
▁s oon
in ai
▁m aath
▁ha la
▁b ard
is hee
▁d aag
▁a u
▁j un
▁me tail
▁ke 3
▁n ah
ai x
▁r id
▁r iyo
oo dee
▁t ya
▁t en
at v
▁e aar
▁h er
▁se b
▁ph evar
ik o
am a,
as oon
il ar
il ekt
▁ga hara
▁u da
tar ,
▁5 ,499
▁4 500
▁4 80x854
▁3 30
▁kh aamee
ing vej
▁pr achaar
▁kaar r
yoo d
▁dee deeaara3
▁sam aachaar
▁6 pee
▁6 20
▁yoo ai
▁cha dh
▁dil aane
el s
▁sab s
pee l
pee ke
▁dillee |
▁st op
▁st ron
ul in
om a
▁sk ript
▁( z
▁( jeees
▁den ee
▁rah aane
▁aaee ped
▁kan aada
pha ee,
▁eks on
▁da phtar
▁sp ai
▁‘ ch
▁mobail ,
▁sel ib
▁pee 7
▁ut hane
▁ee 4
▁ee em
▁ee maan
▁bik e
▁dh aansoo
iyaan ,
▁tr el
▁kol d
▁el yuminiyam
▁kl iyar
▁kl aint
▁64 9
▁no v
▁khil a
▁pata lee
▁im x
▁i f
▁lai aicho
▁30 9
▁sur kh
▁nambar on
▁daata ,
aast rakchar
▁dikh aana
▁dikh aate
▁gar v
▁sil e
▁hed alait
▁shar m
▁24 ,999
▁phail en
▁ingl ish
▁akaunt s
▁pram aan
▁nikaal en
ven see
▁khu lee
▁esee ,
▁baind s
▁ad m
▁utaar egee
▁pal s
▁ghat aane
▁hindee ,
▁vot sep
77 7
▁hat aaya
▁kamar shal
▁vil en
▁vyaap ak
▁wi-fi ,
▁pok emon
▁robot iks
▁nota bandee
▁samud ree
▁dip aartament
keemat -
▁daayarekt ,
riph aayar
▁kaat ane
▁aautal et
▁beej ing
▁darav aaje
▁tyohaar on
▁opare tars
▁naash te
▁rie kshan
▁dhok ha
▁poon am
▁brait anes
ian chai
▁pyoo riphaayar
▁phepha don
▁toha pha
▁grej u
▁daat aavind
deejee ee,
▁nicha le
▁kalaak aaron
▁puj aara
▁yaadad aasht
▁anusandh aan
▁skrai ch
▁metail ik
, 800
3 20
8 50
a 4
b /g/
d en
e lajee
k hala
l r
m hz
o unt
t veet
v aal
▁k ana
▁k aata
aa chh
ar sh
ar ilaayans
▁s d
▁p es
▁p aath
▁p ot
▁p ig
▁p daf
▁m ail
▁b un
▁b aand
is ,
▁d ain
▁a -g
▁j heel
▁j iksar
▁j ashn
▁ka ch
▁ka iy
en sar
en s,
▁l akee
▁r ooph
▁v aaya
ga ti
▁t aask
al s
▁e dee
▁se ,
▁se m
▁aa t
ph it
as am
as han
as aay
▁par amishan
▁g et
ie ,
ie k
▁in k
▁in o
▁2 x
▁ch l
▁ch vo
aad esh
ane m
▁5 8
▁5 50
aas iya
▁la uta
▁sh yaam
▁o aeees
dee em
la ,
▁un galee
▁un nat
▁ab s
aata on
▁ra und
▁dillee :
▁st en
▁st hal
av aan
▁baitaree -
▁( 7
▁( h
▁( ta
▁( see
▁7 99
▁7 ,499
▁tha i
▁aaee v
▁aaee seesee
▁gr ip
▁kan varseshan
▁badh ega
▁sar apraij
▁eks asee
▁ap ach
▁lag aam
▁es us
apee dee
▁haal at
▁pa egee
▁16 ,999
▁16 mp
▁dik hana
▁am oled
▁tr aayal
▁on abord
▁on a7
▁su laj
▁vee r
▁chh id
▁15 5
▁br en
▁dual -eleedee
▁vaee phaee,
▁badal ana
eyar atel
▁shree vaastav
▁ophar ,
▁kvaad echadee
▁chaarj ig
ron ik
▁ghar on
▁14 2
▁khud -ba
▁or enj
▁ok s
▁aaj ama
▁um da
eek at
▁z oom
▁30 80
▁sun aee
▁kant ree
▁rik v
▁rik agnishan
gr ast
▁vajan ee
oovee jeee
▁lik hakar
▁badalaav on
▁mas aala
▁teknolojee j
▁gar am
▁dega ,
▁17 0
▁aakar shan
▁200 8
▁amerik an
▁vyakti gat
▁supar akaar
▁bol ate
▁1, 0
▁tel alaimps
▁jod akar
▁kro mak
▁nikaal akar
▁chhod ane
▁ret ro
▁poo ja
▁eksa 9
mb ps
▁por sh
80x 720
▁go va
▁kom edee
▁tur bo
▁nish karsh
▁paraphorm ensh
▁saha kar
55 5
▁pareshaan iyaan
▁haid alaimp
▁mun o
▁indast reej
,2 99
▁vist rt
▁kho le
▁mach hal
▁kontekt s
▁shikaayat en
▁paal atoo
▁deval apar
▁daud ane
▁aara jeebee
▁chha vi
▁vyaap aaree
▁jha tak
▁ir aada
lav eyar
▁s‍ maartaphon
▁khule ga
▁sol id
▁inj ekshan
if ai
▁manj il
▁manach aahee
▁paancha ven
▁taee vaan
▁drsh ti
▁kandeeshan ar
▁veek end
21 60
enta in
▁dhadak an
haal aanki
▁ungal iyon
▁raajan ee
▁kob aal
▁jur m
▁jabard ast
sit ent
▁komb ineshan
▁elab am
▁phorch yoon
▁adm irai
, 3
- da
- usb
2 2
s ub
u ,
u ee
v atee
v aane
▁s 2
▁s aan
▁p ep
▁m aaph
▁b ak
▁b oom
▁b aag
is itee
▁hai v
▁d s
▁a seem
ta ch
ta ich
▁j haan
▁ka da
ak ripshan
▁n aiv
▁v yas
▁v imaan
▁t i
▁h en
▁h aad
▁kar ant
▁aa aikt
ad en
ad ars
▁par ya
▁par iyo
▁par ibh
▁g 6
▁g t
▁g pr
▁g eschar
aal an
ab ooj
or tar
it o
it aab
▁ho sh
▁ho kee
▁ne paal
▁2 )
▁ch lass
▁ki ds
phon ais
▁la e
▁sh aak
▁jee /
▁jee na
aav alee
ara char
▁to sh
tee y
▁kaar bo
▁mo j
▁va zan
iks ,
▁ma un
th on
▁6 17
▁an aavashyak
▁8 -megaapiksal
▁yoo th
▁cha sh
▁tee see
▁sab aka
▁st rot
▁pad ate
▁ep p
▁( g
▁( bee
▁7 ,000
see ,
▁jaan ata
▁kha en,
▁aaee n
▁maar g
▁maar ane
ij ja
▁dek a
▁12 9
▁sar eek
▁da ish
▁hue ,
aid al
▁ee -v
▁apana en
▁bee /
▁bee n
▁so chana
▁emapee 2
▁25 60
▁15 4
aag iyon
▁phl or
▁paar t
▁lo s
▁pree -l
▁photogr aaphar
alp ik
▁sah ej
aand hee
▁30 20
ja ish
▁lik hana
ach aarik
▁rakhen ge
▁kon e
▁dha ir
▁aip pal
mp l
▁saab ut
ook olar
▁port s
▁saamaan on
▁antar aal
▁jaenge ,
▁chun e
▁esa 5
▁upayog ita
yo gee
▁aae ,
▁char chit
▁ris k
▁sm ok
▁pais on
▁ree yal
▁ree tveet
▁epha d
▁ej ens
▁eksa 2
▁eksa 7
▁256 jeebee
▁sthaan on
▁pahachaan ane
▁gun jaish
▁aham iyat
▁(4 80
the repee
▁saha yogee
ub ai
▁phorm oola
▁bijan as
▁q 3
▁haid alaimps
▁kont est
ros har
▁jaanakaar on
▁ht t
▁maal ish
▁vyav asthit
▁ausat an
▁ematee67 53
▁mile g
▁sudhaar ane
▁baay o
▁phrend alee
▁upay ok
▁sabj ekt
▁vigyaapan on
haid reshan
▁aim i
▁aim ui
▁tool s
▁nait ro
▁frai ai
▁ghatana on
▁ata ich
▁per ents
▁peedeeeeph ,
▁gad abadee
▁sansth aanon
▁pink ,
▁baitar iyon
▁bul et
▁kamyun ikeshans
---------------- ----------------
▁saad he
▁pau dhon
▁toot ane
▁chen nee
▁bu la
▁chhut tee
▁dokyooment s
▁tait an
▁gai ar
▁traanj ekshan
▁chet aavanee
▁entar atenament
▁neel aamee
▁tri pal
▁kamyoon ikeshan
▁elyoom eeniyam
▁aayurved ik
▁muh aans
▁haip pee
▁ahan kaar
▁chn g
▁domin ar
▁pree-inst old
▁phita bit
▁sanj ay
▁ino va
▁kromak aast
▁pariyo jana
8 99
a 8
e pal
g n
i 
i qu
p aayar
r s
r ant
s d
t yoon
▁k up
▁m ith
▁b roshar
is char
▁d aad
▁d ra
▁d iye
▁d aave
▁d ub
▁a tak
▁a stha
▁a chair
▁j aam
▁ka henge
hee ,
▁l iv
ak ha
▁n yoon
▁r 9s
▁v is
▁v aan
▁v es
at i
at aal
at ti
▁e 2
▁ph ol
▁aa engee
▁aa eediya
ad aan
ad dh
ah ej
▁par ahej
▁g aang
▁g aandhee
aal d
▁u k
cha dee
ek han
▁ta ibal
▁ho d
▁ne get
ree ,
ata ik
▁ek tar
▁sak riya
▁ch orai
▁ch esis
▁phon t
aam ak
▁kh inch
▁sh esh
ap epar
▁jee el
tee ta
▁pr asan
▁pr aikt
▁mo ischar
▁tak ar
ir an
sh aak
ega ,
▁8 000
▁8 ,499
ok see
ip op
▁tee v
▁tee yoovee
ut ubai
▁pad hate
▁ban aayee
▁raha ,
▁raha kar
▁( 1
▁( 16
▁rah it
▁phr esh
▁phr ench
▁bl ar
▁aaee 20
▁aaee tyoon
▁ran geen
▁gae ,
▁mai te
▁mai dam
ki g
▁badh aatee
▁dek hata
▁sar kal
▁baik alit
▁‘ v
▁‘ ha
▁‘ yah
20 15
▁pa hane
▁adh ig
▁pee 8
▁pha itee
▁pha undar
▁ut taree
▁bana ega
▁13 5
▁sen a
▁san tar
▁san sk
▁ind ik
▁ee vee
80 2
▁maan s
▁maan gee
▁maan akon
▁maan yata
▁el im
▁el apeedee
▁saam p
▁11 999
▁11 esee,
▁25 ,000
aj ed
▁gail aree
▁im pr
▁aar ambh
▁bar asaat
ja ise
▁sun ate
▁gh ir
▁kampyootar ,
▁maj aak
▁padhe -
▁24 50
yan aka
▁1, 2
▁raaj ak
▁aph ord
▁at om
▁ud har
▁rok ath
▁kool ing
▁milegee ,
▁nukasaan adeh
▁chait s
▁eksap aind
▁laksh yon
▁lad aee
▁opan ing
aig yaan
▁uth aate
▁ema 4
▁go yanaka
▁pop yular
▁utar ane
▁phan d
▁kom ars
▁paaya lat
▁neks an
▁(4 80x854
▁nish aana
▁stee kar
▁men ten
▁pal sar
▁chan dee
▁imph ormeshan
▁kont ent
▁ank ur
-20 17
▁sid dhaarth
▁mit sub
▁aaid al
▁michro -usb
▁kahaan iyon
▁kahaan iyaan
▁kvol itee
-2 00
▁yog y
▁peedee eph
▁dhee ma
▁bhaav anaatmak
▁taiv aanee
▁oteejee ,
▁gad akaree
▁paudar -
▁pratid vand
▁dog unee
▁baan ta
▁kabhee-k abhaar
▁pahal oo
▁eksapart s
▁mt67 37
▁sarph ing
▁veelar s
▁vaik seen
▁vaik alpik
▁manj ooree
▁kut te
▁bilt -in
▁rikaard ing
rn khala
▁amit aabh
▁jag uaar
**** ****
▁ekse 1
▁maidi ataik
▁chaud e
▁stebal aijeshan
▁sus aid
▁phyoo char
▁kaaga j
▁lol ipop
▁ov ara
▁preev yoo
▁ringat on
▁aup achaarik
▁aadar sh
▁kid anee
▁ahamad aabaad
▁janmad in
▁eeem ayooaee
▁khud-ba -khud
▁aaaikt aakor
▁gpr s/
▁astha ma
▁gaang ulee
ekhan eey
▁neget iv
▁rokath aam
( jeenen)
, 5
4 99
b ara
b ain
e )
g s
g ak
h p
j aane
k o
s is
s am
u van
v aale
y aap
▁ •
ee t
▁k m
▁k un
ha ir
▁s y
▁p it
▁p yor
▁ha eeb
▁b lee
▁d aak
▁d urust
▁a tr
▁a peel
ta ip
▁j 2
▁l aast
▁l ivar
▁n or
ch i
ai ree
▁r ay
▁r ist
▁v aash
▁v eting
aan tar
at aap
▁e t
▁e aee
▁aa kal
ph oto
aat on
as aathee
il ahaal
▁g uda
▁1 ,999
ie tiv
▁u ch
▁u chh
it an
it iv
▁ta ijan
im ing
▁kam aane
▁y or
le chadee
aam ik
maar e
▁5 pee
▁5 99
▁4 s
▁kh et
▁kh itaab
▁sh rad
ap ed
ap haee
▁jee n
▁jee aee
▁jee ns
▁bh oon
aim ara
▁8 7
▁8 30
▁cha is
▁pheechar -
aak he
▁tee chars
▁sab jee
▁ra jan
▁dillee (jeenen)
▁dis kaun
jan on
aab es
aab ol
sar phar
▁bhaarat ,
em )
av ain
av ich
▁ve rip
▁ve gaas
▁( r
▁( t
▁jar nal
▁karen :
▁de v
▁tar ang
▁baar akod
ka ut
▁ku v
st et
▁gr aasiya
▁maar e
yaad i
▁badh aayee
pha lee
▁disp l
▁var kaut
▁pl es
▁pl ait
▁khaas ?
▁sa undar
▁‘ da
▁pha ila
▁san gh
▁en ajee
▁tr aind
▁tr ookolar
▁jin ako
▁chh aachh
▁maan o
▁64 bit
▁f z
ma jee
▁khareed e
vo int
▁paar ivaar
▁ilekt raan
▁it yaadi
▁rej al
▁bo b
bh aag
▁man g
▁kamp yoo
▁aaeephon ,
ahaal aanki
▁not s
-b r
-b uk
-b laik
▁z ed
▁as sitent
▁min aral
▁son a
▁son am
▁bar aten
▁maarsham elo
▁daunalod ing
▁sun en
▁gh aav
▁tab deel
▁vid ya
▁karod on
▁lik hee
▁kain dee
-d raiv
▁jeevan asaathee
▁24 9
▁phail aane
▁baink on
▁je 3
▁andar oonee
-1 5
▁becha na
▁becha inee
▁nikaal e
▁abh iv
rt ti
▁vhee lar
▁maltee pal
▁utha en
▁epha 5
▁epha see
▁uth aana
▁eksa 3
▁sank ramit
▁33 40
-v heel
55 1
▁mumbee ,
▁veb apej
▁komp ekt
▁512 emabee
▁jh uk
▁yo utubai
▁1080 p
▁5000 mah
▁disk avaree
▁kheen chee
ame tal
▁dikkat on
ang han
▁phu lechadee
▁bole ,
77 31
▁raah ul
▁jeepeeaares/ ee
▁dikha e
▁non -
▁uts uk
▁uts av
▁baitha te
▁nai w
▁sail ent
▁sail aree
▁ip l
▁1920 x1080
isk o
▁kair iyar
▁pok eta
▁125 chch
▁khushakhabaree !
▁koo lar
▁pos tar
▁anumaan it
▁mus kar
▁dom en
▁ven yoo
▁smart phonai
▁aidgai ,
▁daay are
▁him mat
▁jimmedaar iyon
▁chhut tiyon
▁priv yoo
▁chop ada
▁deev aanon
▁kaamay aabee
▁ull ekhaneey
▁ull anghan
▁naakhoon on
▁imphr aastrakchar
▁hak eekat
▁khan gaal
▁nin ja
▁epha1 es
▁vishl eshan
▁riph resh
▁pratibh aagiyon
▁bujur g
▁upar okt
▁parich aalan
▁suz uk
▁korapor et
▁kaiph e
▁for chai
▁staibal aijeshan
▁koop e
esapee e
▁utsar jan
▁eka unt
teesh iyan
▁bhat t
▁chm os
▁staaya las
▁sande h
▁hala chal
▁naiv ig
▁chlass ich
▁tosh iba
▁dhair y
iqu ai
▁mitsub ishee
▁haeeb rid
▁aakal an
▁guda gaanv
▁saundar y
▁paarivaar ik
) :
- dee
4 2
6 50
? ’
b s
b y
f on
f ai
g ment
h ot
l an
n ar
n ai
p it
r aast
s akon
t b
u bah
v aag
v aakar
w ind
▁ @
▁ स
aa i
aa aip
▁s leek
▁p ijja
an as
an dee
▁b iyar
▁b istar
▁b aaz
▁hai kar
▁d ata
ta t
▁j 1
▁j id
▁j aadoo
▁ka is
▁ka he
▁ka vach
hee t
en ted
▁ke 5
▁l aar
▁l aakar
▁r aajee
▁r itar
▁r ukh
▁v s
▁v est
ga ut
▁t ish
▁t yoob
ur ai
▁e ro
▁e la
▁se shan
▁kar eena
▁kar oonga
▁aa air
as aimasang
ah aarik
▁par amp
▁g s
▁g u
▁g aar
▁g hon
▁g oon
aal een
▁1 /2
ek o
▁ta ga
ata var
▁2 geegaahartj
le m
▁ki reen
▁5 20
▁3 600
▁la ingvej
▁aap asee
▁sh uddh
dh r
▁bh oore
▁bad hana
▁pr ateek
la ph
▁6 1
▁6 60
▁pro par
▁karane ,
▁hu ee,
▁hu een
▁ra gad
▁dillee ,
▁dis t
▁dis ordar
▁st ichk
aaj on
em ee
av an
av aab
▁ban en
▁ban aavat
▁( l
▁7 1
▁den goo
▁do shee
▁al aav
▁0 2
▁kaha kar
ra ,
▁pheechars is
▁stor m
▁stor ai
▁kan aad
▁kan sal
▁eks al
-k am
▁din abhar
▁don o
▁phil ip
▁sel ing
▁sel yular
▁pee te
▁sen tee
▁9 1
▁en asee
▁ee tee
▁bik een
▁bhaarateey on
▁echadee aar,
▁deta ,
▁maan -b
▁veediyo ,
▁15 ,999
▁x 4
ag r
▁badal atee
▁chuk aane
▁kaimare ,
▁phree k
▁14 99
bh ut
▁man ch
▁or ij
▁kamp on
▁im ar
▁daal ata
▁yoon ait
▁aar m
▁as th
▁dyool -ton
▁3jee echajed
▁30 50
▁badha e
▁bar phee
▁bhar tee
▁kant raast
▁aadhaarit )
▁lait in
▁muj h
gl aadesh
ikal ee
tr es
▁sil as
▁sil ikon
▁bhej ata
▁pat aakhe
▁traans al
▁sait on
▁gan ametal
▁esayoovee j
▁pradar shit
▁ste b
▁40 50
▁je 2
▁rok et
▁bes iks
▁kaip heen
▁dab aakar
▁lad akon
▁vit teey
ven yoo
▁kyoo veejeee
▁jam akar
▁sekand s
▁skain ing
▁ang oor
▁ostreliya ee
▁nee m
▁galat iyon
▁pahan akar
▁gun on
▁thoda -sa
▁ins teeta
▁res istent
▁socha ta
▁saha vaag
▁pen aasonik
▁3, 7
▁ektiv a
-l es
▁skool on
▁kla ch
▁paristhit i
▁bhaag on
▁paisenjar s
▁mun aapha
▁pree- raj
eem iya
▁bur aee
▁ras aayan
▁kad doo
ampar aagat
▁dho en
▁fl amai
adablyoo see
▁ghatana en
▁mud de
▁ek-d o
▁parinaam on
▁deep aavalee
▁pholo ars
▁ir is
ema 89
▁dip reshan
▁nim n
▁heksa -kor
▁darav aaja
▁chand rama
▁tail eey
▁ichchh uk
▁enim eshan
▁niy aamak
▁naash ta
▁qu ad
▁saaha s
▁phaik tree
▁panj aabee
▁tai chh
▁saur abh
seem itee
▁risarchar s
▁suvidh aajanak
▁joo te
▁laim bor
▁sit aaron
pro sesar
chur al
▁prok seemitee
▁jhurr iyaan
-in- van
▁jooj h
▁arj un
▁aauta dor
▁dav al
▁bhaga vaan
▁pus tak
▁thandar ab
▁au sha
▁kaarr avaee
▁(jeees em
▁phorchyoon ar
▁kup oshan
▁nyoon atam
▁sakriya ta
ataap oorvak
▁uchh aal
▁rejal yooshan
▁suzuk i
▁paramp ara
▁maan-b aap
( 20
- f
- jee
4 jee
5 50
: keemat:
a ise
a 10
d aar
e jee
g or
i q
k rt
l im
n air
o ga
r aashtreey
w u
y ual
▁ !
▁ $
aa ap
aa chal
ha le
▁s va
▁p aat
▁m 6
▁m aaphee
▁ha th
▁b rai
▁hai l
▁a ich
on ee
▁j ah
▁j adee
▁j had
aar it
▁ke yoovee
▁l in
ak ol
▁n aap
ai taree
▁v 8
▁v itar
▁t aad
▁t vee
▁t re
▁e var
▁h icha
▁h rtik
▁ko par
▁ph e
▁ph o
▁ph ish
▁ph em
▁aa o
ik yoo
ik yor
ad aba
am ,
as tee
il ik
il lee
▁g if
▁1 es
ab ha
ab ase
ab aajee
ek ‍
han te
▁ta ist
im oovebal
▁2 ,4
▁ek j
▁ek aag
▁ch il
maar t
▁saath )
▁5 t
▁5 emem
▁hee m
▁3 65
lee t
▁aap atti
▁o led
▁bh aap
tee ,
ise bal
▁mo tiv
▁apan aaya
sh i
▁dee haidreshan
▁em adablyoosee
▁6 -
▁6 ch
▁an sh
▁an da
▁dil aata
▁pro to
og l
▁mil k
pee tee
ul t
ait ,
ot iv
em p
em el
id a
▁ve rij
▁baad h
▁sk el
▁sk rol
▁( oteejee
▁7 3
▁rak hanee
▁tha ee
▁de p
▁rah en,
▁baat haroom
▁aaee 5
st aart
▁maikro maik
▁sha mee
▁gr h
▁tarah ,
▁12 ,
▁sar ason
▁saal ag
▁chal l
▁chal akar
▁sp ar
▁sp aim
▁din ar
▁‘ be
▁divais on
▁chaar akol
▁ut ane
▁ut aaree
▁13 00
▁13 -megaapiksal
est ik
▁ee 3
▁ee n
tak h
re p
re ta
ash aalee
jeebee )
▁am ej
▁ro han
ooth e
ig ree
and al
and hak
▁sn aan
▁chh il
▁maan asoon
aree b
▁badal en
▁chuk andar
▁geegaahar taj
ast on
▁phl op
alain s
▁sv eedan
▁14 999
▁14 ,990
▁snaipad rai
▁im oshan
▁photogr aaph
▁rang olee
aph ord
▁as aamaany
▁min istree
▁30 6
▁badha en
▁son aakshee
▁bar n
▁vhaatsep ,
▁vid iyokon
▁bach aaya
▁lik hate
▁mas aal
ach t
ach aap
▁sin ha
tiv ai
▁mee the
▁sl ip
▁bil l
▁jiyo phon
▁bhej akar
▁pat aakhon
▁pat tiyon
▁17 00
▁200 9
abee aee
▁ar ban
ps ://
▁esa 1
▁dekhen ge
▁upayog akarta
▁soo kh
▁jod ana
-1 7
▁rok a
▁iv oomi
utee n
▁prabhaav ashaalee
yam antree
▁dab adaba
▁eksap l
▁pak aane
▁nikal ana
omeetar ,
▁paraph aarm
yav astha
▁utha e
▁utha ta
▁speekar ,
▁chala en
▁seet en
▁rangon -
arav aahee
jeepeees ,
▁phokas ,
▁bit aate
▁kom iyo
▁neks at
▁pahuncha te
▁ad bhut
▁65 3
▁ins aanon
▁ins ulin
▁jeda 1
idh aan
▁mum akin
▁prav aah
▁res pons
inn ee
lo y
▁viv aran
▁entee na
▁sambhaavana on
▁q 7
▁pray aason
▁met aabol
▁vheel s
ve v
a2 )
,7 90
▁draivar s
▁bengal uroo
▁bain ar
▁kin aaron
▁eek o
▁dava en
▁inaph initee
▁shu maar
▁pe y
▁blad ai
▁ip 68
▁mainy ual
▁bon ev
▁riv eejan
▁deep ak
▁poochha ,
phr end
▁pradesh ,
▁baan glaadesh
▁bul aaya
▁koshika en
▁brod akaast
▁pav an
▁vr at
▁painor ama,
▁bhaee -ba
▁jai z
▁shee t
▁chhip a
▁membar s
▁grah on
▁taal amel
▁kiran en
▁di jee
▁sunaha ra
▁anup am
▁moov ament
▁panj aab
▁phat aap
▁yun iquai
▁deetee ech
▁nyootr al
-bee ch
▁rook hee
▁prov aidar
▁(es asee
▁prajaat i
▁kaamak aajee
▁kind al
▁shr rnkhala
▁tarm inal
▁vaak y
▁khusha boo
▁inteleej ens
onom as
▁lekh ika
▁svatantr ata
▁enteebaayot iks
▁rail ianchai
inst ol
▁peepee ai
▁spr aid
▁manush y
▁bih aar
▁spekt ram
▁naaran gee
▁aashchar y
▁stron g
▁rikv est
▁kaarbo haidret
▁teesee el
▁pree-l oded
▁aaeetyoon s
▁poketa sarphar
▁orij inal
▁insteeta yoot
▁laimbor ginee
▁proto taip
▁saalag ir
- kaun
/ v
6 1
g aan
i al
i ft
l aar
n ait
o var
p ://
s ta
v on
w n
▁ –
ee s
ee pee
ee aee
▁k 5
▁k y
▁k ik
aa cheen
▁s iv
▁s od
▁s aakaar
▁ha b
▁b hand
▁hai !
▁hai t
ya pr
▁d iy
▁d aane
▁d emo
▁a 8
▁a it
▁a ut
▁j el
aar adee
▁l at
▁l oop
ak anee
ai ta
ai ted
▁r 1
▁r aanee
▁r aakh
▁r uteen
▁v g
▁v iya
▁t end
▁t aavar
▁t ithi
▁h ind
▁h aayar
▁kar una
▁aa baadee
▁aa ipaid
am aana
ah ol
▁par amparaagat
▁g hee
▁g um
▁u j
or ld
▁in as
▁ho leevud
tar aan
▁2 mp
▁kam ents
▁y ur
▁sak ee
maar ee
▁4 199
▁3 x
lee ment
▁la egee
▁kh aatee
▁sh aah
har on
aik see
▁o eleedee
aap ake
bee em
▁bh oot
▁bh igo
▁to yalet
tee vee
tee riyal
▁mo onga
yoo s
ol et
▁sam a
ed is
ed ikal
▁yoo peeaee
ish d
▁pro stet
▁jeebee ,
ok iya
ip haee
▁mil e,
▁sab akee
▁ra g
▁st aaph
aay ars
▁baad aam
▁sk ils
▁( 6
▁( ee
▁rak hegee
▁tar j
▁ba een
▁ba chee
bar oo
ka ee
▁al am
▁0 1
▁bl aast
▁aaee eph
▁laga va
vee r
▁maikro vev
oop har
▁sha haree
ud e
▁20 mp
▁12 80x720
▁eks ent
▁eks em
▁khaas ee
▁kaard abord
▁len aden
▁lag en
▁chal ana
oj en
▁sel ekt
▁sen churee
▁9 000
▁dh aara
▁har akat
▁dij it
▁up s
▁vee 3
▁maan ata
▁maan atee
▁ed itar
▁kor iyan
▁khareed aar
▁phl oo
▁phl eks
▁varjan s
▁kyon ?
▁14 50
▁sth aayee
▁pah ie
▁man u
▁man gal
▁nik alee
▁kamp oj
▁kamp hart
▁ok wu
▁ple ,
▁vh aata
▁aan dhr
▁taim ,
▁bha ros
▁bar ph
▁bhar ana
▁w ai
▁haar lee
▁bach chan
-p ar
-p ad
gr ej
▁dikh aatee
▁sup air
▁jan k
▁mauk on
▁sl et
▁vol apepar
▁bil lee
▁hed alaimps
▁4000 emeech
▁pat te
▁pat ang
▁dha b
▁17 50
▁shar ton
▁amerik a,
▁bol akar
▁40 1
▁yaad agaar
▁chip aka
▁aph eyar
▁" ham
▁eyaratel ,
▁vishv asan
-1 00
▁ud aasee
▁kro ma
▁too te
▁aam ir
▁bane ga
ob in
▁chhod en
▁chhod ate
▁29 4
▁utha kar
▁epha 2
▁kaun -kaun
▁re venyoo
▁ang ootha
▁braand ed
▁eksa 20
mb oo
▁khol ana
▁phan atach
▁hongee ,
▁kharch on
eshak on
▁(4 80x800
▁kail endar
▁ins teet
▁notiphikeshan s
▁res ipee
▁saha mati
▁khaan see
▁seph aayar
▁emaee yooaee
▁entee oksee
▁rim oov
▁tebal ets
▁1080 ×
▁mar uti
▁thodee -see
▁laid ar
▁34 00
▁blaikab airee
▁mit hak
▁maalee -4
▁vheel ,
▁vel iditee
▁vel entain
▁2500 mah
▁upalabdhata :
▁dham an
▁proph it
▁roo see
▁roo baroo
▁dikha ega
▁samb hal
▁kaab il
▁nai x
▁lakshan on
▁paal ak
▁soot r
▁dablyoo aar-vee
▁gol oo
▁pra gati
▁reg yoolar
▁edavaans d
▁du bee
▁phij iyo
▁aaeeem eks
▁nibh aata
▁alk o
ux us
▁saj aavat
▁kris tal
▁nird eshan
▁egj ost
▁trend ing
▁jai e
▁kamyun itee
▁aark it
▁saind avich
▁plet inam
▁nip atane
▁chup achaap
▁hedalaimp s,
▁jeeesem )
▁deevaar on
▁bind uon
▁vidh i
▁pramoshan al
▁santush ti
atr el
▁xz s
achh id
▁chutak ee
▁saaph-s aphaee
▁rishted aaron
▁sabak uchh
▁laaj avaab
▁sand isk
▁mata ilik
▁norm al
▁ty pai
▁gaan th
▁panjee karan
▁baing anee
▁upasthit i
▁sabsakrai bar
▁chaimp iyan
▁asant ulan
▁ejuk eshan
▁laap aravaahee
▁eksatee riyar
▁dikhen gee
▁samajhad aaree
▁insp aayar
▁shaast ree
▁maigr en
▁tya u
▁haidalaimp s,
▁jhatak e
▁jurm aana
▁vyas tata
▁adhig rahan
▁naivig eshan
▁phreek vensee
▁traansal eshan
▁pree-raj istreshan
ikyoo tiv
ogl obin
▁verij on
▁snaipadrai gana
▁phataap hat
▁moonga phalee
▁bharos emand
, 600
- ha
- chaar
/ b/g/
2 9
8 ,
8 7
9 6
? main
d is
e tars
f rai
j et
k m
k or
l on
l aas
m d
m oo
m ujhe
n ad
o ’
o ta
o pee
p tar
v ij
y aar
y ot
z aar
z aree
▁ क
▁k hee
▁k uking
ar ’
▁s aak
▁s aata
▁s anee
▁s ind
▁s aada
in ,
in at
▁p udee
▁m ant
▁m atai
▁b ya
▁b aas
▁b id
▁b aah
▁b oos
▁hai vee
ya haan
▁d haee
▁d isebal
▁a 12
on iya
▁me r
▁ke 6
▁l aan
ak habar
▁n al
▁n aayak
ch l
ai ro
▁r r
▁r ap
▁r ib
▁v oo
▁v or
oo bar
▁t u
▁t ant
▁t eksa
▁t endar
▁t aaje
at ig
▁e deeshan
▁se gment
▁kar aayee
▁ko -pha
▁ko ted
▁ph igar
▁ph iet
▁ph isal
▁aa tha
▁aa bh
▁aa bhaar
ph ree
▁par avar
▁hain gaut
▁ya lo
▁g od
▁g ub
▁1 ,4
▁ta ich
▁bhee g
▁2 80
▁2 teebee
▁y ut
▁ch heen
▁ch oos
▁5 ch
▁hee ls
▁la ega
▁aap oorti
▁kh in
▁kh aaya
ap p
▁o th
ay aal
ain aasonik
dee ,
char d
iv ud
▁kaar l
▁kaar ok
▁mo m
la ch
▁va isee
▁jo y
▁dee el
▁dee ls
▁em ishan
▁sam it
▁6 ,000
▁an iyam
▁8 99
▁pheechar on
▁pro ,
esh iya,
▁hu aavee
▁tee 720
ail ing
ail eksee
ut tar
ul akar
ot ing
▁see bee
em ai
om ik
▁ban sal
▁7 -speed
▁hoga ?
▁tar k
▁tar ak
▁tar ot
var t
▁ku shal
▁rahee ,
vee p
ra ph
▁be va
▁intar ase
▁ham ala
▁mai laveyar
ij y
ri ens
op po
▁sar kit
▁eks is
▁eks ajed
▁kaard ,
▁kaard iyo
▁ap air
▁sa ug
▁sa cham
▁mod am
▁main yoo
▁‘ t
▁10 8
20 10
▁16 9
▁achch ount
▁13 8
▁prat ish
▁9 30
▁naam ee
▁ee majee
▁vai rn
▁bik ee
▁echadee ephasee
▁dh van
▁bah u
▁paavar d
▁am ar
▁am eer
▁lee eko
▁tr ek
ist ens
bal ee
▁su st
▁el aan
▁kl in
▁x ch
▁x 20
▁le pht
▁dual -kor
▁chuk aanee
▁khareed aaron
▁phl aim
vo y
ogr aaphee
▁dispale ,
▁pree aardar
▁eyar aport
▁kr ip
-b aind
ard hee
▁kab ja
▁taiyaar iyaan
▁sek s
▁bhar amaar
▁w vg
▁haar le
▁najar en
▁netavar kig
▁nambar ,
▁bach chee
-p ed
▁lait ing
▁rik og
▁rik avaree
▁aay e
▁gar bhav
▁bade -bade
-d igree
▁taak atavar
▁50 ,000
▁esayoovee ,
▁jaen gen
▁antar raashtreey
▁phail ane
▁chun ate
▁edishan al
▁th ink
▁gaur av
▁lain ar
▁prot ektiv
▁ni dhi
▁kitakait ,
▁lage ,
▁rok ata
▁pram ot
▁too -in-van
gh aat
▁char bee
▁sm s
▁kis ane
tree b
▁dab a
reem oovebal
▁staindab ai
▁plus ,
kul ar
▁ematee ke
▁cham ma
▁chala e
▁por n
▁nee mboo
och on
▁kavar s
-ph ir
▁bit aana
▁kod iek
▁dr esing
▁rom achhid
emapee 2
engee ,
▁kaaryak shamata
▁maiks imam
▁adhyayan on
▁vij it
▁pair aag
55 2
▁seek hate
▁slot ,
▁inta ir
dai al
-l tai
ros s
▁pras aaran
-j iyaomee
▁ash ok
▁sambhav at:
▁met aalik
▁taip-see ,
▁seem os
▁saav an
▁vel yoo
▁yoonivars al
▁esemes ,
aarth iyon
▁bur e
pr abhaav
kareeb an
▁vaib reshan
▁draivar ales
▁eek omars
▁samajha ute
▁shot ,
▁eksat reem
▁bon as
▁dai teeshiyan
▁gad abad
▁kaarob aaree
▁sat y
▁samud aay
▁kleen ik
▁e7 000
▁egj ikyootiv
▁daim ej
40x 960
▁natee je
▁vi pan
▁(14 40x2560
▁inf in
▁daay ara
▁dyoo al
▁mahaar aaj
▁manach aahe
▁three dee
▁kut ton
▁pratisp ardhee
-a pane
▁edaj as
▁sos aayatee
▁ghut anon
▁dush prabhaav
▁aaaiph ishal
▁er ar
▁maidi apad
▁pik ap
▁prej ent
▁las air
▁taar get
▁ulaj han
▁prov aid
▁ib e
▁kshan on
▁inakam ing
buk s
▁nit in
▁kav ita
▁kshati grast
▁anadek ha
▁jhap ak
▁vayas k
▁maalee-tee 720
▁by aaj
▁insta int
vain tar
▁phork s
▁sav aaree
▁ge hoon
▁jedi 551
▁chint it
▁eaar em
▁phevar et
▁eemaan adaaree
▁sile bas
▁(ta kareeban
▁apach hai
▁sulaj h
▁kobaal t
▁jee/ en,
▁deka -kor
▁prasan n
▁praikt is
▁raajak umaar
▁displ ay
▁jeepeeaares/ee deejeeee,
▁non- reemoovebal
▁baaz aar
▁dep th
▁maikromaik s,
▁bhaee-ba han
▁spraid atram
▁saalagir ah
▁alam aaree
▁insteet yoot
▁alko hal
▁ko-pha undar
▁paravar ish
▁taich no
▁yut op
▁beva jah
▁sacham uch
▁garbhav atee
- le
- el
- de
2 3
5 20
a x
b ishd
e tal
i )
m ch
m ai
o h
p )
s -
s pee
v aaya
y ant
z a
‍ ya
▁k aash
▁s 5
▁s ph
▁s ors
in f
▁p ate
▁p anka
▁p amp
▁p voint
▁m atee
▁m oor
▁m yoot
an r
an na
▁b aaya
is ar
is ai
▁d ak
▁d ang
on g
ta 2
▁ka ishal
▁ke 4
▁l aata
▁l iyon
▁l aate
ak r
▁n aasa
▁n aatak
ch d
▁r x
▁r ad
▁r oor
▁r aig
▁v emo
▁kee n
▁kee taan
aan dee
▁t ika
▁t enshan
▁t ft
▁t uaan
▁t itan
at enshan
▁h md
▁ph is
▁ph ed
es aee
es tament
ad ard
aat ri
il ej
▁par v
▁g ej
▁g mail
▁1 x
cha il
it or
it eshan
han s
▁in ak
▁ta mb
▁ta vaj
▁ho bee
▁ho ge
▁ne vee
iy aar
ree k
et rik
▁y ang
▁ek tres
▁ch ook
▁phon abuk
aam p
maar k
aha t
▁5 mimee
▁la chee
▁aap ada
▁jee 6
▁jee laar
jee echajed
▁smaartaphon -
aaya chee
aav aah
ing lar
bee n
▁bh ram
▁bh ooshan
▁bh ejee
▁bad on
▁bad hen
▁apan on
ir on
▁ma eek
▁em igo
▁keemat ,
▁6 16
▁an as
▁an di
▁an instol
▁8 -
▁8 16
▁mil aaya
▁hon d
▁sab ab
▁ra inglar
▁st rip
▁see io
▁see ton
▁pad ataal
▁sakate ,
▁ep ’
▁( en
▁7 -
▁rak ho
▁de -taim
▁jaan atee
▁jaan a,
▁ba ee
▁al j
▁0 8
▁op o
vee aar
▁be bee
▁intar nal
▁pheechars isamen
▁ham amen
▁ham ase
▁mai ga
▁mai gan
▁maar tin
tam ee
ais a
▁doo d
ne char
▁div ijan
▁len -d
▁ap amaan
▁mod ai
▁chal aana
aana gar
▁‘ a
▁‘ h
▁‘ googal
ind iya
hak aaree
oon gee
▁pee jee
▁16 2
▁13 6
▁13 999
▁san n
▁9 ,990
▁9 ,499
▁en aseeaar
▁en eemiya
▁naam ,
▁echadee emai
▁dh aak
▁aas hee
▁van adraiv
▁am paayar
sham a
▁rupe ,
▁emapee 3
and e
▁up ag
▁chh aatee
▁el ig
aah aaree
▁veediyo -
▁15 ,000
▁det aabes
▁x b
▁x p
▁le tar
▁sir e
▁muk adam
▁dar shan
▁f ee
ma j
▁cheen ,
ron iks
▁sv iming
▁14 7
▁14 40x2560
▁lo jee
▁pah aad
▁man aane
▁im p
▁im aarat
▁kr ietiv
▁pahun chee
-b oot
▁z aib
▁taim ar
▁son ee,
▁bar gar
▁chho da
▁takaneek on
▁neta phl
▁dijain ing
▁samaj hakar
▁aay aat
▁khar a
▁yu vak
▁kampyootar s
▁18 ,000
lab es
▁sin em
▁mee 1
▁tv ist
▁4000 mah
▁amejan ,
▁mal hot
▁sait ting
▁sho -2017
dra gon
▁edishan ,
▁esa 2
▁pradarshan ee
▁chip ak
▁22 2
▁too ta
▁ik an
▁ik ala
▁nikaal ana
▁bas on
▁kyoo 6
▁2016 -17
▁jam aana
▁epha 3
▁py aaree
▁kaun sal
▁jaik et
▁hel p
-ph ul
▁aadat en
▁kom an
▁saph aaree
▁hd r
▁gun aa
▁rom aans
▁rom aantik
▁pahuncha tee
ojit ek
▁jeda 35
▁sach iv
▁okt aaviya
▁pal ooshan
▁chhota -sa
▁seek hana
▁leek o
▁150 chch
▁512 mb
▁49 ,999
▁kont in
▁bech egee
had aayak
▁phal ,
▁kait igar
▁shaimp en,
▁aai 3
▁34 9
▁oon che
▁mit ha
▁baay ars
▁non -r
▁siy aam
▁joom ,
▁mach aane
/bee /jee/en,
▁ped on
▁chak r
▁tod ane
▁bhaav on
▁amaree kee
▁steshan on
▁sig nechar
▁votar aprooph
gres iv
▁send ha
▁nibh aate
▁hotaspot ,
▁chunaut iyaan
▁kleen ar
▁gatividh i
▁chail d
▁mainyuphaikchar ars
ht t
▁lu bha
▁ain tee
▁paa gal
▁dilacha spee
▁3,000 mah
▁aark iy
▁dyoo k
▁job s
▁chaaval ,
▁gaard an
▁tait oo
▁marsidee z
▁traanj aikshan
▁tuk ade
▁tuk adon
▁kur see
▁vast uon
▁oo bar
▁chid ach
▁jaise- jaise
▁dhok h
▁bind u
▁dush man
▁leed ar
▁tip panee
▁laab hadaayak
▁elyoom iniyam
▁vidy aarthiyon
▁of fair
seeaee seeaee
▁prej ident
▁chaud haree
vach chh
▁snap daial
▁snap dragon
▁saaph-s ut
bair ry
▁rishted aar
▁prashan sa
▁teedee aee
▁maign et
▁korpor eshan
▁kem ikal
▁deph ineshan
▁sum it
▁inteegr et
▁panee r
yash aalee
▁(ematee 67
▁ron it
▁mukh yamantree
▁a-g ps,
▁raajanee ti
▁paribh aasha
▁ankur it
gak aang
▁jeeaee eph
▁dist ens
▁sentee meetar
▁jah aaj
▁heem oglobin
▁thaee laind
yapr adesh
▁intarase ptar
▁vipan an
▁panka j
▁roor al
▁maeek ro
▁upag rah
▁mukadam a
- 50
- ja
- htt
/ -
/ e
/ s
1 50
3 50
8 5
8 10
b hee
b en
b aad
e pee
e braaniks
i es
j it
j oor
j oy
k l)
l ing
l enovo
m ad
m or
m aikromaiks
n ol
n ish
o in
p i
p aans
r ing
r up
r em
r aitis
r ilaayans
t ist
u ai
v aayar
v ast
w as
z ain
‍ dh
▁k veen
aa cha
ha in
ar th
ar enj
ar shiyal
▁s f
▁s vachchh
in idh
▁p il
▁p aad
▁p aayad
▁p ool
▁p vaintar
an ing
is ta
is aka
ya tha
▁d reem
▁d ragan
▁d esee
▁d yual
▁a th
▁a ish
▁a var
▁a tai
▁a uxus
on d
▁j aal
▁j oot
▁j ile
▁ka pan
▁ka um
▁ka de
▁ka was
aar thee
▁me gaahartj
▁l em
▁l ojitek
ak ap
ak yoo
▁n xt
ch ,
ai e
▁r ash
▁v oks
▁v inee
▁kee paid
ga ,
ga v
ga la
▁t 3
▁t aaj
▁t ra
al en
▁h id
▁ph er
▁aa las
▁aa streliya
ad aataon
iya lee
am ejan
am oto
am aastar
ph ilm
aat i
as maartaphon
▁par ade
▁par os
cha iss
▁in akaar
▁ta th
▁ne hara
▁2 g
▁2 tb
ro p
▁na vaj
le yar
▁ch 1
▁ch oorn
▁4 -silendar
▁3 tee
▁3 90
▁3 ,499
▁3 geegaahartj
▁kh aal
▁kh one
▁sh ek
▁sh ub
ap ool
aik al
▁jee ,
jee van
▁bh r
▁to m
un s
tee sa
▁bad ham
▁pr aap
▁pr aay
▁pr acha
▁pr aacheen
▁kaar ning
▁va gair
▁ma unt
▁6 ,990
▁an jaam
▁an tat
▁an yatha
▁8 6
▁yoo em
▁cha na
▁dil ait
shan uma
▁apane -apane
ok ol
aak hand
▁ab atak
taree y
▁sab amit
ail l
▁dis treeb
ot s
ot ek
▁see tee
em m
▁pad hakar
▁ban aanee
id ais
▁upalab ‍dh
▁( 1280
▁7 999
▁jaan ale
▁tar abooj
▁al t
var oop
▁aaee tel
▁aaee seeaeeseeaee
yar th
▁sha t
▁kan gaar
▁kv ortar
▁sap leement
▁doo b
op tar
▁khaas :
▁mod yoolar
▁es oes
▁din ,
▁vik ram
▁‘ ed
▁phil eepee
▁pee la
▁bat takh
▁16 emapee
▁13 9
▁13 ,000
▁san ta
▁san jee
▁prat inidh
▁en akripshan
▁dik hegee
ash aah
▁injan ,
▁dh aava
▁aas an
akar abarg
▁kanektivitee ,
▁piksal s)
▁maan ge
▁maan akar
▁15 2
▁det ing
▁x 2
▁x uv
aayar as
-s k
-s ensar
▁vebasait on
bha vee
▁gl aimar
▁f ai
▁po v
▁ak ela
▁sth ir
▁sth aapan
▁achchha ee
▁jald abaajee
▁kr aanti
▁mah aas
▁mah esh
▁i 3
▁z yaada
▁z ebraaniks
▁3jee /4
io s
▁photo sh
▁taim s
▁bha y
sa ingair
▁taiyaar iyon
▁30 4
leep aaaip
▁jen er
▁w r
▁w aib
▁4g ,
▁oes ,
▁pain ik
▁nambar s
▁ach tivai
▁21 60
▁dekha tee
tr im
tav i
▁ummeed on
▁sal ai
▁ot g
▁kain etik
▁pratis par
▁gan dh
▁50 6
▁aav ishkaar
,4 44
▁ar ti
▁tok s
▁chun en,
▁th in
▁40 70
▁yaad on
▁upayog akartaon
▁jud aav
tap rooph
▁gre tar
▁gre vitee
▁becha in
▁sm ooth
▁baal akanee
▁pais han
▁ik v
▁saphal ataapoorvak
▁nikal ata
▁kyoo aar
▁haee tek
▁haee -end
▁utha te
▁py aas
▁khu shanuma
▁kaun asa
▁nee lee
▁praim ium
▁baraab aree
▁das ha
▁das av
▁haan gakaang
-ph okas
▁bit aane
▁kod ak
▁rom aan
▁neks a
▁pahuncha ta
▁pi chaee
▁myoojik ,
▁prav rtti
▁phor avard
▁glo see
▁link din
▁milatee -jul
ivars itee
▁viv ek
▁chalega ,
▁pal akon
▁rai ch
▁komp itee
▁rim aind
▁laal ,
▁jh oothee
▁maal ikon
▁pooch hane
nee char
▁koch ing
▁bhaag yashaalee
▁aaid iy
▁phu lav
▁doodh ,
▁vip in
▁pree- aardar
▁med is
▁rejyolooshan ,
▁roo pee
▁namak ,
▁svee k
▁non astik
▁phankshan ailitee
▁aatm ahat
-g o
▁phold ebal
▁shot s
▁aara 5
rom ai
▁prast uti
▁chha the
▁gha bara
▁injeeniyar on
▁mud don
ov aigyaan
▁upaay on
▁robot ik
▁baith en
▁aaeeem eeaee
▁199 8
▁svaad isht
▁shed yool
▁lak han
cheen ee
▁ken an
▁chhat teesa
▁dom estik
▁khule gee
▁phraans isko
▁maig na
▁maansapesh iyaan
▁shee sh
▁maij ik
▁keem atee
▁stood iyo
▁saad han
▁darav aajon
▁him aachal
▁aartiph ishal
▁dhaar aavaah
▁juk aam
▁boo st
▁saaha b
▁bej el
▁phat ane
aaai leepaaaip
▁muh im
▁musk aan
▁praatham ik
aank shee
▁tahal ane
▁sele riyo
▁korteks -e
▁svar oop
▁kaamak aaj
▁pay tm
▁boon den
▁bok eh
▁masal an
▁vet an
-x b
-se -kam
▁reem oovebal
▁dastaavej on
aarasee teesee
▁gup ta
▁maiken ikal
▁artha v
▁talaas hane
▁akshar on
▁jaasoos ’
▁kaata kar
▁bun iy
▁jhaan k
▁indik etar
▁impr oov
▁aphord ebal
▁nor th
▁kampyoo ting
▁abhiv yak
▁eksal aiph
▁taichh nol
(20 16)
▁tend ulakar
▁aaeeeph e
▁1080× 1920
▁boos tar
▁tant rika
▁tarak kee
▁tarot aaja
▁saug aat
▁prejent eshan
▁kaishal es
▁tavaj jo
▁len-d en
▁fee char
▁kaitigar ee
▁dhokh aadha
▁paayad aan
▁kawas aki
▁vagair ah
▁antat :
▁jaanale va
▁kangaar oo
▁sthaapan a
▁aatmahat ya
▁chhatteesa gadh
▁taichhnol og
- es
- iyar
- akt
/ 64
1 000
3 )
5 90
d ishan
g ra
g aama
k am
k mpl
l ain
l eks
m s
m ik
s el
s os
v ot
▁k aaya
▁k ukee
▁k heere
▁k shama
ha sp
ar ning
▁s or
▁p aatr
▁m ay
▁m ut
▁b re
▁b ahar
is akee
▁hai :
▁hai ve
▁d aanv
▁d mch
▁a va
▁a ti
▁a kh
▁a itam
▁a chai
ta yoob
▁j vaint
▁ka bee
▁ka sar
aar ish
▁me g
en tar
▁l oo
▁l aaaileepaaaip
ak ad
▁n at
▁n aav
▁n eed
▁n akal
▁r est
▁v al
▁v im
▁t oorn
ur an
at ek
▁e le
▁e 35
▁e 77
▁kar j
▁ph rod
▁aa aid
▁aa itel
es ,
ph aan
aat kaar
as hak
▁par aam
▁par de
▁g op
▁ga tha
or y
▁in tal
▁in tan
▁in tail
▁in deej
▁ne chural
▁ja u
ro jan
▁kam -se-kam
▁na gar
▁y 66
▁ek yoo
▁ek ed
▁ek sesar
▁ch har
▁ch aandee
▁phon apaid
aam ars
▁saath iyon
▁5 -litrai
aas it
lee l
lee n
▁kh vaah
▁sh v
▁sh iy
aik a
▁jee ele
dh aaran
aap r
uk on
▁to tal
dee aee
▁pr aav
▁pr aij
▁pr ach
atee i
yoo see
▁dee dee
▁sam mel
▁tee 10
▁ra ph
▁us asen
aaj it
▁see em
▁see vee
▁raha s
▁ep arachar
▁( 12
▁( 13
sha omee
▁tha il
▁jaan cha
▁tar bain
▁kha ir
▁0 3
var aaj
▁phr oot
▁phr aee
▁kaha l
▁aaee es
▁aaee 10
▁pheechars ayah
▁sha ilee
▁kan dhe
ij al
ij ing
oot o
▁12 4
ri ch
ich s
▁eks ayoovee
▁ap ahol
▁chaa hoon
-k at
▁lag aata
▁sp ain
▁padhen h
▁‘ ok
▁10 1
▁chaar t
▁pee tee
▁saport )
▁bana va
▁prat im
▁prat ham
▁9 ,000
rai ain
▁ind eks
▁ee sh
▁pesh aab
re char
▁bee /jee/en
ash op
▁lee 2
iph it
▁ro z
▁ro te
iyaan o
▁tr iks
▁vo da
▁modal ing
▁on 5
ist on
ist ik
ist rat
ig ed
ord an
ep t
▁up d
▁up aj
▁mem o
▁kol aaj
oom ee
▁kl aid
▁15 1
▁15 6
▁15 7
▁15 -20
▁x t
▁kya ?
▁il aayachee
▁br on
▁br eks
-s p
aree n
▁ed s
▁ed avar
▁gl aiksee
▁baj aane
▁daur a
▁- is
▁- --------------------------------
▁f hd
▁phl o
vid a
▁meed iyam
50 mah
▁lo yal
aksh it
▁man ovaigyaan
▁im el
▁kr ash
tan aam
▁chaah iye
aij eshan,
aph aast
▁as ur
▁kab j
▁w in
▁4g hz
▁gh ode
▁najar iya
▁kant et
▁tekn ikal
▁bach en,
▁av ishkaar
▁pahunch ega
▁pahunch aata
▁pahunch aatee
▁pahunch aana
▁yu varaaj
▁haath -p
▁18 ,990
▁mas aalon
ach ,
▁19 00
▁ummeed en
▁phar neechar
▁mal ayaal
ita lee
▁gan atantr
▁200 6
▁200 00
▁bacha en
▁aav ed
▁phail ee
▁anu bhavee
▁chun akar
▁3000 emeech
▁baink ,
▁esa 10
▁esa 60
▁th ietar
▁je 1
▁prot okol
▁soch -samaj
▁22 ,999
-1 9
▁ud ane
▁kro dh
▁iv ok
ebal et
▁laksh mee
▁lad doo
▁bas ,
▁sake ,
▁eksapee riens
▁31 20
▁ang oothe
▁nee cha
▁nee la
▁ema 6
och k
▁mahatv aak
▁go lee
▁sain adisk
▁kom arshiyal
▁tam anna
▁65 5
bah oo
▁ol ara
▁ol iv
▁jeda 4
▁jeda 9
▁jeda 11
▁aavaaj on
▁res taraan
▁viv aah
▁pal ak
▁ben iphit
▁disaple ,
▁3, 0
▁chan dr
-l ik
▁mais saingair
▁sai telait
-j uk
▁han gaama
▁mir aral
-t yoob
▁taiks t
▁vishesha kar
▁vin am
▁vin ir
▁aaid ent
▁kaary aalay
▁milate -jul
▁phain enshiyal
▁tren ar
▁uttar apradesh
▁charcha en
▁maarkit s
amp yootar
▁gujaraatee ,
▁emb es
▁thak kar
▁pratib addh
▁baleno ,
▁chha pee
▁air tail
▁mud ra
▁ichchha on
▁sains ai
▁per is
▁bon at
▁gril ,
▁big aad
▁bi jee
▁hair at
▁nauk ar
▁skorakaard :
▁bhaavana en
▁hol dar
▁baan dh
▁saavadhaan iyaan
▁chail enj
▁phle var
dal eek
▁telee phon
▁telee photo
▁iphekt s
bon et
▁paatee n
▁ven char
▁chhip e
aansh u
▁inj in
▁apha sos
▁manach aaha
▁raim/ 32
▁lithiyam -p
▁chup ake
▁nirdesh it
▁pratirod hee
bhaar atee
▁sch raiain
▁laib re
▁bej aan
▁shatar aprooph
▁sanchaal an
aaai dee
▁laab hakaaree
▁ren iged
▁kamyoon ikeshans
▁vidai ochon
▁pyoo ree
▁nij ata
▁pach hat
vai -phai
▁dukaan adaar
▁chham p
▁jhooth e
▁haipar atenshan
▁blachk bairry
ule tar
▁masal an,
890 9
▁inov etiv
▁maa aidal
▁chit ron
akan ekt
▁och tavi
▁seeree z
▁spo ilar
▁hariy aana
▁anush aasan
▁manam utaabik
▁vyaav ahaarik
▁hoo bahoo
aashak ti
▁kaa ailing
▁maath ur
vaal itee
▁dain ik
asaay ik
deeem e
adars hee
▁moj ila
▁ephad abl
▁(480 gunaa
▁vaan ijy
▁teev r
▁teeyoovee 300
▁santar e
▁menten ens
▁kuv 100
▁data wind
▁ritar n
▁kanaad a,
▁panjaabee ,
▁daval ap
▁jadee -boot
▁ekaag rata
▁aapatti janak
▁spar k
▁yur aik
▁bya ura
▁teksa char
▁yutop i
▁baaya baik
▁tamb aakoo
▁alj aimar
▁malhot ra
▁kontin ental
▁non-r imoovebal
▁kapan nee
▁kaum ee
▁navaj aat
▁pov araphul
▁milatee-jul atee
▁arthav yavastha
▁dhokhaadha dee
-akt oobar
▁bahar ahaal
▁paraam arsh
istrat ion
▁milate-jul ate
- aap
- ep
/ h
a hee
d ,
d hat
e re
g y
g ait
i -t
j en
k n
m aikro
r aas
r itee
r iyon
r aino
s at
t ro
v ,
v aala
w d
y ,
y ara
y aanee
× 720
ी ओ
▁ eed
▁ are
▁s iph
▁s aahan
▁s veet
▁p 2
▁p s
▁p ‍
▁m aaya
▁m aak
▁ha j
▁b aab
is ak
▁hai lait
ya ,
▁d ul
▁d aksha
▁d roid
▁a ud
▁a 41
▁a /b/g/
ta ind
▁j 5
▁j ip
▁j ul
▁j akarabarg
aar ph
▁me s
▁me la
▁ke 7
▁ke r
▁l ing
▁l chd
ak aim
▁n us
▁n yaay
▁mein :
▁r aav
▁v aim
▁v aatsep
▁kee de
oo le
oo st
ga dar
▁t aare
▁t aasking
▁t aayars
al enovo
▁e 4
▁e tee
▁e peeke
▁kar ,
▁kar ent
▁ko i
▁ph ok
▁ph eyar
▁ph ebalet
▁aur ora
▁aa dee
▁aa daan
ik ar
ad i
ad o
as v
il d
il it
▁ya ug
▁g aaj
▁g hatee
▁g rahan
▁ga dhe
or ar
ek ha
ek in
▁ta d
▁ta ital
▁ne char
iy aa
iy aam
iy aak
iy aabaad
▁ja haree
et ’
▁2 -inch
ro ed
▁kam iyaan
▁y etee
▁sak ane
▁ch p
▁phon on
▁ki ra
aha veen
▁5 s
▁5 see
▁5 jeebee
▁5 gb
aas us
▁4 es
▁4 ,500
▁3 40
▁3 -4
▁aap amen
▁sh oj
▁sh ooj
ap a
ap hart
▁jee ra
▁jee -sensar
▁o tee
aap a,
▁bh ent
▁bh uj
▁bad am
▁bad aboo
▁nahin ?
ol l
sh uda
▁dee k
▁dee n
▁dee tek
▁6 ,490
▁an dh
▁8 999
▁yoo eks
▁yoo tayoob
▁yoo -tyoob
▁cha laee
jar v
el al
el itee
og ing
▁mil it
▁tee k
▁tee ke
▁sab oot
▁sakata ,
▁bai j
▁lon cha
▁st ree
▁st end
ul l
ul as
sar t
ot or
oor a
▁see 2
▁pad enge
▁ban dar
▁sk il
▁sk aut
▁sk aarph
▁( pee
▁jar uree
▁7 x
▁7 ,500
▁upalabdh ,
▁upalabdh iyon
▁kaam ,
▁kaam phrens
▁rak sh
▁maik ra
▁maik sa
▁ba ul
▁ba gal
▁inch ,
▁0 6
▁0 9
▁phr aink
▁bl ink
▁op tim
▁aaee kan
▁laga en,
vee l
kar ee
▁be bo
▁intar n
▁maikro s
▁pheechars --
▁pheechars akampanee
▁maar jin
▁maar gadar
▁kan nad
ij ain
ais s
oot ooth
▁dek or
▁12 ,990
▁sar aha
▁sar aaha
▁pl aana
▁pl ooto
▁da en
▁ap ade
▁ap ps
▁chaa ha
-k vaalitee
▁lag zaree
▁es abeeaee
tha de
▁sp ash
▁sp aidar
▁vik daleek
▁‘ ep
▁10 2
▁10 4
▁10 veen
▁10 24
▁10 -15
ind air
▁sel akon
▁adh yaay
▁pha uran
▁pha ijal
▁16 ,000
▁san askreen
▁en k
▁en av
▁en ivar
▁haind s
▁ee -p
▁bee vee
ash ch
▁bah aane
▁paavar ap
▁lee p
▁ro y
▁tr im
▁vish isht
▁on alee
▁on a5
ig an
▁endroyad ,
▁chh aap
▁chh ua
▁maan ie
▁x 9s
▁il aiph
▁br is
▁sir adard
tal ait
hata im
▁ed ob
▁f ilahaal
aj aan
▁philm ee
een ,
▁paar adarshee
aayan iyar
▁lo ,
▁intaranet ,
air s
▁kamp har
▁kamp harm
▁ok e
▁aaj am
▁eyar alains
▁kr aim
▁aaeephon a6
▁mah aajan
▁i q
▁aar atee
-b adee
-b iran
ham ee
ham mad
aph rant
eek rt
▁dyool -eleedee
▁aan t
▁bha g
▁30 2
▁bar st
echa teesee
▁tab lait
▁oes -
▁rip eyar
▁tekn eek
-p aid
mee r
▁lik hit
▁mas aale
▁19 6
▁mee tha
▁teknolojee ,
▁gar bha
▁bhej ega
▁pat ted
ink oo
▁17 8
▁inst old
-d in
▁24 99
▁200 3
▁port ret
ukh ta
▁mi 5
▁bol ivud
▁th ik
▁th aalee
▁40 10
taph esing
▁akaunt ,
▁chip ake
▁" ee
▁rikord ing,
▁tel ug
▁soo tee
ika on
▁draiv ,
▁kro p
▁char itr
▁graaph ik
▁chhod ana
▁nikal akar
▁kyoo 7
▁anubhav on
▁emem es
haar on
▁joon iyar
▁gir akar
▁ail yuminiyam
▁hel o
▁yojana on
▁ema jee
▁traik shan
▁tan g
chit r
sk op
aphee d
▁kvod -kor
▁60 20
▁sank alp
▁samajh aane
▁ad van
▁vanaplas a2
▁ins aanee
▁jeda 50
▁sach et
▁ephem ,
▁res ar
▁socha kar
▁pen tee
▁maah ir
▁pal on
▁tanaav ,
▁entree -le
,9 50
14 9
▁1080 pee
-ch ross
pat ti
▁ana veel
▁sid anee
▁shaadee shuda
▁mit r
▁raas aayan
▁phu lee
▁seeee es
▁phain ens
▁vel anes
▁inph r
▁inph iniyam
300 mah
▁82 8
pr int
▁vikaas asheel
▁manga va
amp aas
▁aaegee ,
aral aind
▁yoorop ,
▁phankshan s
▁paud ar,
▁hata kar
▁ram ajaan
▁intaraph ej
▁310 s
▁ech esapeee
▁mud da
▁saar as
▁ruk aavat
▁kat aar
▁199 99
▁laimp s,
▁kiradaar on
▁dop ahiya
▁nota 4
▁portal s
▁kheencha kar
▁vhot saip
dr 3
▁kris ta
▁aiktiv a
▁gatividh iyaan
ema 8909
▁rana veer
▁55 1
▁pati -pat
▁gaanv on
▁pleyar s
▁epl aayans
▁phraans ,
▁sol v
▁sook hee
▁nim oniya
▁resh yo
▁pash u
▁aark aiv
▁tamil ,
▁chen nai
▁piks ee
▁kontaikt s
▁ichchh aanusaar
▁ichchh aashakti
▁raim/ 64
▁sty lus
▁daayal og
▁niy ukt
▁ghum aav
▁lip astik
▁machhalee ,
▁poon chh
olee mar
▁chomp acht
▁ematee65 80
▁musk ur
▁korn ig
▁toha phe
▁pank hon
▁too-vheelar s
▁las atig
▁grej iya
▁darsh aata
▁dail l
▁jaay enge
▁seeen avai
▁saim pal
▁anaaj ,
▁haindal abaar
▁daayan aamik
phor iya
▁sapor ted
▁omega -3
▁ghe re
▁inov eshan
▁redee -go
▁panjee krt
eb ilitee
▁chab aane
▁eem atee
▁daakh il
▁ala vida
▁korpor et
▁anach aahe
▁praarambh ik
▁aanval e
▁int ir
▁megaap ik
▁shish y
▁emp loy
▁zar ie
▁laun g
▁praan aayaam
▁siddh aant
▁phran taphesing
▁adav aans
▁aphavaa hon
▁jun oon
ilekt rik
▁surkh iyon
▁greju et
▁pdaf ,
▁maun ted
▁jeeel asee
▁sansk rti
▁udhar ,
▁chandee mal
▁atr aikt
▁vaash ingatan
▁verip haee
▁स ीओ
▁ausha dhi
▁taad aad
▁masaal edaar
▁bonev il
▁sod iyam
▁aut o
▁viya tanaam
▁dhaman iyon
▁tyau haaree
frai aidom
▁pratish thit
▁dak hal
▁saitting s
rup aye
▁romaan chak
▁medis in
▁sheesh e
▁buniy aadee
▁aaaid iyo
▁khvaah ish
▁praav adhaan
▁sammel an
▁pratim aah
▁voda fonai
▁olara undar
-juk aam
▁embes adar
▁laibre ree
▁siph aarish
▁saahan ee
▁vaim mee
▁kira e
▁phraink aphart
▁enivar saree
▁patted aar
▁pati-pat nee
) -
* 1920
, 6
, 8
, 00
- aa
- ga
- 12
- jal
- echadee
- aaee
- oph
1 90
4 )
7 3
7 6
8 6
8 000
: sh
b ps
d ents
g eshan
g haee
g iree
g hante
g inat
i ro
k t
k ara
n /
r is
r pm
s ur
v aanee
v ind
v aalee
× 1280
– kor
▁ >
▁ ord
▁ -s
ee )
▁k im
▁s iks
▁s 60
▁s chan
▁s sd
▁p m
▁p aakar
▁p olar
▁p yooj
▁p aanv
▁p aayaniyar
▁m 4
▁m yoo
▁ha the
▁ha vaale
an o
▁b edar
▁hai ’
▁hai ad
▁d aav
▁d aiv
▁d ug
▁d 850
▁d veep
▁a teet
▁a 57
▁a gresiv
▁j 3
▁j up
▁ka k
▁ka chh
▁ka ibal
▁ka thit
▁ka iree
▁me kars
▁ke 9
▁ke bee
▁ke tan
▁l im
▁l arning
ak aal
ak tar
ak iyon
ak air
▁n ig
▁mein )
ch t
ch ing
ai tee
▁r abar
▁v aad
▁v aas
▁v akee
▁v aah
▁v edar
▁v yarth
▁is t
▁is abaar
ga de
aan yas
▁t iv
▁t hy
at ion
ik u
ik tas
ad iyon
am mat
ph aayar
aat ma
as ent
ah ut
▁par ish
▁par ijan
▁par inee
▁par idhaan
▁ya s
▁g 3
▁g ob
▁g aayak
▁g areeb
ab at
ab eree
cha it
or itee
it s
▁in honne
▁in chee
▁ta le
▁ta ul
▁ja oge
et ings
▁y 69
▁ek eekrt
▁ch ust
▁ch aakoo
aad amee
aha j
aha le
aha lee
aha sun
▁hee t
▁4 800
▁la ud
▁kh isak
▁sh in
▁sh reen
har ekh
ap har
aik char
▁jee bh
▁o jon
dh it
jee )
jee em
jee laind
jee kyoo
te p
bee echapee
▁to uchh
ate ras
▁pr aink
▁kaar n
▁kaar en,
▁kaar yap
▁mo hammad
la iss
atee n
▁va j
ol ik
▁dee ene
akee mat
▁sam pann
▁hai, j
▁6 -inch
▁an kal
▁yoo 11
▁cha io
▁cha gab
ish iyan
jar s
ip eediya
▁tee 3
▁tee s
ail d
aab ad
▁st res
aay ara
▁pad aav
▁ep is
▁ve yar
▁( ch
▁( ek
▁( yoo
▁7 68
▁karen see
▁do on
▁do gee
▁do wn
▁de ,
▁baar bee
▁baar ahaveen
var tee
iyon ,
▁phr aikchar
▁bl as
▁op tik
aip s
▁aaee ,
od han
▁kan gana
▁kan dishan
ud har
▁dek harekh
▁12 ,000
ich ro
▁eks -
▁eks avain
▁var sha
hane bal
▁lag aatee
ho lee
▁mob ik
▁mob il
▁vik kee
▁‘ in
▁‘ aaee
▁haal ahee
▁samay ,
▁echa veejeee
ind i
▁sel ular
▁divais es
▁pha ee
▁pha et
▁16 -megaapiksal
▁13 1
aee l
▁sen itai
▁san g
▁vai dh
▁vai rt
▁pesh ,
tak om
▁sim akaard
▁bee ma
▁teem en
▁mad ar
▁adhik aaron
▁am igo
▁lee n
▁har ek
▁tr amp
▁modal ,
▁on askreen
bal a
▁sn ek
▁vee 2
▁vee 7
▁chh aaya
▁11 4
gan oo
are tar
▁x 5
▁br et
▁spee nar
aree na
▁badal ee
▁badal ata
▁indiya ,
▁baj ane
▁no b
▁no lej
▁ophar -
▁dar on
▁nirm ata
▁ilekt r
▁te lag
▁pree -ped
▁nik ale
▁nik ala
▁kamp aikt
▁oph ish
▁kr aik
▁kr pa
▁kr aantik
▁kr trim
▁daal ,
▁i 2
▁i roj
▁taraph ,
▁aar aar
▁um as
▁rang -biran
▁pet s
eek e
▁beech -beech
▁z 45
▁z airo
▁as aadhaaran
▁badha ega
▁isalie ,
▁bar t
▁bar at
▁bar baad
▁bar thade
▁bhar en
▁jen abuk
▁eph ish
▁w orld
ja ,
▁sarvis ,
▁sas hak
▁laip hataim
▁yooesabee -
▁gh aayal
▁najar ie
▁pain t
▁bach aate
-p r
▁lait en
shak on
▁gho da
▁yu g
▁vindoj a10
▁bil d
▁inab oks
▁sal ekted
▁17 7
▁17 ,990
-d o
-d uniya
▁mal aika
ita ta
▁200 7
▁bacha e
▁bacha ega
▁staar s
▁ste lar
kaar d
▁th om
▁otom otiv
▁lain ap
▁prot ekt
▁aad ity
▁at yant
▁soo j
▁ni :sh
▁preem iyar
▁22 5
▁rok ana
▁gre vee
▁2, 800
▁becha kar
-m aik
▁kaip tar
▁kis ase
▁23 ,000
▁ik onom
▁ree jan
▁pai th
▁lad aka
▁che ree
▁nikal en
ektar s
▁haee -phaee
ran aalee
▁29 ,999
▁ail ifai
▁31 3
aig n
acha y
▁720 ×1280
▁braand ing
▁hel thak
▁eksa 10
▁cham akee
▁asar adaar
▁2000 emeech
▁traik tar
▁kavar ej
▁brek aphaast
▁kod ek
▁samajh aaya
▁ad raino
kal ee,
▁65 9
▁ol amp
fi chai
▁prav aasee
▁res istens
▁pakad akar
▁stee m
▁braind s
▁aak rti
▁oor j
▁pair elal
▁3, 2
eksa 2
▁rog ,
▁mais enajar
14 40
▁pras aarit
▁ash leel
▁kait areena
▁mar ammat
▁mon osh
▁‘m ujhe
▁aai es
▁2jee echajed
▁bhaag ane
▁ana ginat
▁neen v
▁ul at
▁paate ,
▁kata uti
▁paartan ars
▁kaipchar ,
▁phu tap
▁phain ain
▁des hee
▁kaaryakram on
▁bhool akar
▁karava en
▁hat aana
▁hat aakar
▁uttar aakhand
▁hain? main
▁roo s,
▁tal aak
▁svaas th
▁pareeksha on
▁aj ink
▁mak aan
▁rek ha
▁‘k ya
▁edav enchar
vig yaan
▁aal oo,
▁gol aakaar
▁thak aavat
▁prab andhak
▁dhee me
▁kors ej
▁motarasaikil s
umaan it
▁saar thak
▁ruk e
▁vaay o
ivar sh
ov air
isk op
▁kath or
▁kuk ar
▁kaish e
▁kat oree
▁laut ane
▁nak ad
▁naar aaj
▁chik ana
▁sens ing
▁koo da
▁mirch -
▁saj aane
▁saj ag
▁saavadhaan !
▁shan kar
▁kathin aee
▁chhed achh
▁egj aam
▁telee graam
40x 2
▁jarmanee ,
▁s‍ p
intar anet
▁ektivitee j
fl ix
▁pikchar s
▁phraans is
▁eshiya ee
▁shee tal
▁pas aat
▁green ,
▁inj ekted
▁54 99
▁charan on
▁shart en
▁ama unt
▁aatank av
▁ship ament
rad aan
▁chat ur
▁vaik yoom
▁chop ars
osis tam
▁sahaj ata
▁raak esh
lin ai
▁deev aana
▁deev aalee
▁bluaitooth ,
▁dayool akor
-a panee
▁asam bhav
▁sabjiyaan ,
▁enim eted
▁chhup a
ekh aas
▁rie litee
ill i
deeaara 4
▁phaik taree
▁lap top
teet yood
▁moon g
▁heeroin on
▁yun ivarsitee
▁drink s
▁phepha de
▁prots aahan
▁karoon gee
▁leevar apool
▁78 6
▁chutak iyon
▁baha s
▁seeen ajee
▁ungal iyaan
▁esasee 7731
▁rit aayar
▁navar aatr
▁navar aatri
▁inteleej ent
dd -ltai
▁ty aag
▁apar aadh
▁enteebaayot ik
▁daakh ila
▁anadek hee
▁vayas kon
▁mano har
▁poochhen ,
▁maalee-tee 8
▁buddh imaan
▁mint ra
▁rees et
▁nas l
▁phaas ta
▁maraathee ,
▁baayom edikal
▁adav enchar
▁aphavaa hen
▁nah aane
atv itar
▁her aath
▁sabs idee
▁pot ret
▁kach cha
▁chvo is
▁sten ales
▁aaeev oomee
▁ds lr
▁shaak ha
▁upayok ta
▁dub aara
▁moischar aijar
▁rajan ee
▁ilektraan ik
-buk s
▁raajee v
▁quad -chorai
▁tvee tar
▁ekj ima
▁‘be bee
▁paraphaarm ens
▁metaabol ijm
/v eediyo
▁dhab be
▁maalee-4 00
▁aarkit ekchar
▁typai -ch
▁oth ent
▁intair nait
▁jedi551 emel
▁maiga jeen
▁dood ala
▁netaphl iks
▁chidach id
▁paad ukon
▁atai cha
▁joot on
▁3jee/4 jee
▁photosh op
▁lakhan oo
▁taichhnolog y
hasp ati
▁shiy omee
▁upd atai
bhaaratee y
▁daksha ta
▁nus k
▁gaaj iyaabaad
▁milit ree
▁stend ard
▁maargadar shan
▁hathe lee
▁vakee l
▁parinee ti
jeekyoo tiv
▁kaaryap ranaalee
▁chagab i
▁eksavain os
▁senitai jar
▁vairt u
▁kraantik aaree
▁ni:sh ulk
▁helthak eyar
▁olamp ik
- on
- aar
- ai
- ej
- kar
- ma
- vid
- aayan
- eph
/ 32
0 1
0 5
3 1)
4 10
b ot
b ach
e ro
h oo
h iya
i phon
i jee
j aana
k isee
n i
n on
n olojee
o te
p e
r aik
r ail
s ail
t ent
u bh
v s
w al
w ork
w hatsapp
w atchh
y ’
z ai
् ष
‍ shan
▁ ?
▁ ),
▁ eedan
ee es
▁k reej
▁k int
▁k 18
▁s 9
▁s b
▁s oop
▁s iree
▁s 41
in as
in dee
in yoo
▁p ch
▁p uk
▁p ut
▁p od
▁p eyar
▁p ojit
▁p iyaano
▁p ukhta
▁m oo
▁m aayan
▁m ishan
▁m ita
▁b ant
▁b em
▁b ordar
▁b aaba
▁b innee
▁d aas
▁d ram
▁d royad
▁a ikt
on t
ta bal
▁j p
▁j yoo
▁j ig
▁j aig
▁j endar
▁j aadu
▁ka ,
▁ka tha
en g
en tee
en em
▁ke le
▁l om
▁l aatee
▁l aahir
▁n um
ai th
▁r aiv
▁r one
▁v on
▁v yan
oo vaar
▁is asen
aan adaar
▁t in
▁t and
▁t 10
▁t aajee
▁t aang
ur am
al ar
al s,
at or
▁e 53
▁h ur
▁h aav
▁h aaj
▁h yoom
▁se telait
▁kar e,
▁kar o,
▁ko p
▁ko ta
▁ko ro
▁ph aal
▁ph la
▁aa grah
ik ,
ik ’
ad anee
am ik
am ekar
am andal
aat ir
as hee
as im
as ens
ah old
ah aaron
▁g 9
aal oo
▁1 990
ab anr
it aamin
ek st
▁in apheeld
▁ta p
▁bhee taree
ata en
im ala
▁2 :
▁kam ,
▁na !
▁y 1
▁ek atr
▁ch t
▁ch ir
▁ch hal
aad or
ane litee
aam ana
▁saath -
▁5 -seereej
aas or
▁4 80x800
▁3 70
lee ,
▁kh aakar
▁sh aab
▁sh ekhar
ap aee
▁o h
▁o jeees
▁smaarta fon
aav aan
aav atee
▁bh ed
▁bh iksh
ain avas
tee met
dee eaee
▁pr aanee
▁pr ichai
▁mo st
▁tak ara
up ar
up ayog
yoo ,
iks hit
▁jo kar
▁dee see
th aapak
▁em el
▁em ech
▁8 25
▁cha mat
ish ch
▁pro baayot
jar alaind
ent iv
▁apane -aap
og n
og o
og on
og e,
▁hon thon
esh iyam
ant ran
▁sab av
▁dis chaarj
ut vaakar
▁st ol
▁st rob
ul it
av aah
▁pad dhat
▁ban g
▁ban aaye
▁ep haee
id ra
▁baad al
▁baad ashaah
▁( 9
▁( e
▁7 es
da phon
▁tha g
▁maik al
▁do ch
▁de b
▁raim p
bar t
▁al aayans
▁al teemet
▁bl aastar
▁aaee aaraseeteesee
▁laga egee
vee )
▁maikro yooesabee,
▁mai gaapiksal
▁apanee -apanee
ij ital
▁kv aar
ib u
▁20 50
▁12 6
▁12 80x800
op oj
ich ron
▁sar vo
▁var tikal
-k uchh
▁lag ej
▁lag aayee
▁mod akar
▁es iditee
▁sp lit
▁roop ar
▁roop ekhaas
▁padhen —
▁‘ bo
▁‘ se
▁‘ haid
▁‘ staart
▁10 6
▁10 999
▁10 80x
▁karate ,
20 5
20 16
▁pha iv
▁bana en,
aee pee
▁san r
▁san ra
▁prat ivarsh
▁shuroo ,
▁en g
▁naam on
▁ee lai
tak aar
▁bee s
▁bee emaee
ual chom
▁googal ,
▁verient ,
▁dh aat
▁dh aal
van aplas
▁tr ans
▁bata egee
ep tar
▁sn aatak
▁vee 6
▁vee 20
▁vee chait
▁ghan tee
▁chh in
▁chh illi
▁maan y
▁maan ane
▁el gor
▁11 00
▁11 ,000
▁bikree ,
aaph e
▁kalar oes
▁x 9
▁kya ,
▁br aaviya
▁br haspati
-s ans
-s ubah
▁le aut
aree ,
▁maark s
▁poor ti
▁64 99
▁no va
old ar
▁dar jan
▁dar ja
▁f m
▁f ull
ma ga
▁desh -duniya
▁varjan ,
▁rej ar
▁nik ee
▁nik har
▁prad oo
▁pahun chana
▁jaroorat en
▁maisej es
▁khabar ,
▁aaya shar
aalee raam
▁dyool -k
▁kab ootar
▁bha ut
abh aarat
▁son g
▁lok ing
▁eph echadee
▁ju tee
▁gh ol
▁dijain :
▁plaan ,
▁bach aana
▁av enjar
-p radaan
▁lait aning
gr ed
▁pahunch aate
▁khaasiyat on
▁khar cha
▁nyoo ja
▁18 9
▁dekha ,
▁jio phaee
▁okta –kor
▁mee t
▁mee thee
▁sl ai
▁bil ding
▁sil ekt
abl ok
▁batan ,
▁phar aaree
▁kon gres
-d hab
▁mal i-t
▁gan da
▁epal ,
kee l)
▁ar bo
▁ar oda
▁tok -taim
▁gal ata
▁chun ana
▁th r
▁40 60
▁1, 7
▁1, 800
▁otom eshan
▁koshish on
▁je braaniks
jal i
▁odiyo /veediyo
▁maimoree ,
▁rikord ig
▁jud akar
bo ard
haan ,
▁tel ang
▁koling ,
▁karav aatee
▁karav aee
▁bes an
▁aam adanee
▁pars an
▁kaip asitee
ob oost
▁kis ake
▁23 50
▁dab aen
▁nikaal ate
▁ree stor
▁pai ch
▁che haron
▁haee -speed
▁jam p
▁raid ars
▁maltee tach
▁dhan ateras
▁epha bee
25 8
▁phais hanebal
aaja gee
▁imej ing
▁pan ap
▁99 8
▁pahach aane
▁2000 mah
▁ema 1
▁phaayad on
▁das taprooph
▁eemel s
▁rakh ie
▁aprail -aktoobar
▁jav aan
▁daaya lar
▁jenaphon a3
▁gujar ana
▁sank at
▁kah aavat
▁ad aal
▁milenge ,
▁jeda 25
ajee t
▁phor am
▁pakad a
▁aak aasha
▁chhotee -see
▁pair ents
▁ghat aakar
▁than dak
eksa 1
▁komp abuk
▁aaait onomas
▁kaan oonee
▁inta jaam
▁imph iniyam
▁q ualchom
▁chainal on
,9 80
▁parivaar on
▁mar ch
▁nam o
▁mir ara
▁pooch hate
▁shodh on
▁34 99
▁dikkat en
▁oon ee
▁madh ur
▁phu tej
▁inph ormeshan
achaar j
▁karava e
▁kvol kom
aich ur
▁deelar on
▁nid aan
▁67 35
▁vaastav ikata
▁jaapaan ,
i- go
▁mak k
▁kin ga
irai laiss
▁4, 199
▁daala cheenee
▁kad d
▁vail id
▁prer ak
▁phankshan al
▁enj aim
▁paud ha
▁nai xon
▁ton ee
▁halka -sa
▁proses ara
▁shu bh
▁masheen on
▁chaarjar ,
▁nait flix
▁dhee lee
▁62 6
▁aara 1
▁1920 ×
▁gro up
▁ee- ev
▁du bo
▁vaay u
▁kair et
▁kra isal
▁byootee ,
▁nak adee
▁nota 7
ux ai
▁naar aajagee
-n ir
▁lak jaree
▁sw ift
▁shan ghaee
▁patr akaar
▁apek shaak
▁anur aag
▁anur odh
▁ain joy
▁deel aks
▁sook hane
▁gur utvaakar
▁e6 600
▁nib haee
chaal it
▁bait hana
-st op
33 3
▁dait ing
phar bishd
▁mor che
▁bu dh
▁dyoo re
▁chhut tiyaan
▁raktachaap ,
▁mt67 53
▁mej u
rad han
▁chhoo ta
▁chikit sak
▁gair ej
▁chon naicht
▁durghatana on
▁drsh y
▁nip ata
▁amaz ai
-bh aav
▁sair v
▁lap book
▁gunag una
▁vaar shik
▁pashch imee
▁deetee es
▁akhab aaron
▁sunee l
▁vaip hai
▁nyootr ishan
▁pank he
▁darsh aaya
x7 68
▁ikai yaan
lip akaart
▁ji en
▁ummeedavaar on
abal yoo
▁dib be
▁daayan aasor
▁shikshak on
▁bujur gon
▁maign etik
▁sikh aaya
▁jhurr iyon
▁kleeyar ens
▁meen aakshee
▁sabsakrai b
odh it
▁bro kalee,
▁buddh im
▁(1920 x1080
laid ing
▁rep har
▁anush aasit
▁bangaal ee,
▁polee kaar
▁vyaav asaayik
▁rasoee ghar
▁(jen a2)
▁jaayaroskop ,
ych lai
▁sne pad
▁dabl ooveejeee
▁tyoo son
-pat rika
▁daag -dhab
peeke ’
▁spai aid
mhz )
▁kana vart
▁shyaam oo
▁eksasee 40
▁machhal iyaan
▁boom asa
▁chash ma
▁sareek hee
▁ejens iyon
▁ejens iyaan
▁htt p://
▁vis ph
▁khinch aav
▁pratidvand v
▁km ph
aantar it
▁shrad dha
▁bhoon en
▁taga dee
▁propar tee
▁phem as
▁chil dran
▁ky ok
▁bhand aar
▁raakh iyaan
▁vishvasan eey
▁naix us
▁saak sh
▁mant halee
▁baah u
▁laan char
▁samit i
▁mainyoo pha
▁dhvan i
▁amar ood
▁chamma cha
▁romachhid r
▁edajas tebal
▁matee riyal
▁raig istration
▁anas end
▁sann yaas
▁aashee sh
▁lojee tek
gala xy
▁tath yon
▁phileepee ns
▁ikv ip
▁dasav een
▁abhivyak ti
▁may ank
▁bre za
▁kabee r
▁need aralaind
▁prach ur
▁apahol st
▁klaid ing
▁manovaigyaan ik
▁ephadabl ooveejeee
▁ker ektars
▁aadaan -pradaan
▁yaug ik
▁andh era
▁saraha h
▁advan chai
▁pentee yam
▁raasaayan ik
▁bedar oom
▁parish ram
▁bart aav
▁yooesabee- oteejee
▁phainain shal
▁ajink y
▁chhedachh aad
▁ataicha ment
▁kint u
▁jaadu ee
▁lom ri
▁koro la
▁sabav oophar
▁paddhat i
▁sarvo chch
▁qualchom m
▁ee-ev olooshan
▁kraisal ar
▁apekshaak rt
▁gurutvaakar shan
* 1280
, 100
- iv
- pal
- 40
- 25
1 60
2 o
2 40
4 g
6 )
8 )
: 30
a gauratalab
b aind
f or
i ee
j od
l ,
l et
l ist
m y
n eshanal
o jar
o ut
p od
r u
r ar
r ain
r eted
r ino
s im
t -chorai
u laee
u vaan
v is
y ur
y aabee
▁ 00
▁ aanee
ee tar
▁k 7
▁k aanch
▁k aans
▁k aanon
aa f
aa aim
aa hana
aa chee
▁s pal
▁s ul
▁s yaan
▁s olo
in e
▁p on
▁p ana
▁p apee
▁p unee
▁m 1
▁m 7
▁m oot
an ekt
▁b am
▁b ood
is is
▁a 77
on ik
ta ik
ta ut
ta id
ta ps
▁j d
▁j iya
▁j hat
▁j est
▁j aag
▁j oll
▁ka te
▁ka pal
▁ka ist
▁ka chche
▁ka iktas
aar ij
hee ro
▁l ook
▁l arn
ak char
ak sar
▁n ort
▁n aakh
▁n ars
▁n ukee
ai o
▁r d
▁r n
▁r ch
▁r iya
▁r ise
▁r eeb
▁r tr
▁v ud
▁v 30
▁kee t
▁is o
ga h
ga ta
ga daan
aan tam
aan ksha
▁t ara
▁t ep
▁t aark
▁t aaron
ur e
al ts
▁e ,
▁e maar
▁h aaph
▁h ila
▁se la
▁kar sar
▁ko s
▁aa ph
▁aa ivaree
ik it
es tar
am i
am aree
am ukt
am aikrosopht
aat ra
as ,
as ait
il ee,
▁par am
aal ,
pan yaas
▁1 /3
▁u panyaas
cha s
cha t
han ta
▁in r
▁in -sel
▁ta yoomar
▁ho thon
et e
et eeem
▁2 67
▁2 g,
ro ton
▁lie -
▁ch aat
▁ch aans
aha m
▁5 60
▁5 300
▁5 ,799
aas at
▁hee ting
▁4 eks
▁4 ,990
▁3 ’
▁3 mp
▁3 -silendar
▁kh aarij
▁sh il
▁sh oon
▁sh aash
▁sh ram
har s
aik tiv
jee philm
ing )
bee dee
bee see
▁bh aamp
▁to da
un honne
▁pr iya
▁pr atee
▁pr abh
▁nahin !
iv al
▁kaar ya
▁kaar ak
▁va chan
yoo r
yoo jan
iks ha
▁ma chh
▁bhaar gav
▁dee ,
▁dee r
▁dee tel
▁sam patti
ed ed
▁6 p
▁an ishch
▁an ablok
▁yoo tee
▁yoo pee
▁yoo sej
▁yoo phit
▁cha un
▁cha ir
▁dil ar
▁pro chaiss
▁naee -n
el iyan
el aapan
ok i
ip pee
og an
▁mil aane
▁hon th
▁ra is
▁ra ish
▁ra chana
▁ra ft
pee )
pee peeaee
▁dis ch
aab et
aaj akal
▁see 7
▁see eph
▁see aar-vee
av aane
om be
▁ban ta
▁ban enge
▁ep ik
▁ep s,
id o
▁upalab dha
▁rupaye ),
▁sk ech
▁sk vaayar
▁( ai
▁( jed
▁( bhaarat
▁tha -
▁do j
▁do -do
▁ba uddh
▁rah enge,
▁baar en
▁0 -100
uj oo
▁phr il
▁yoojar on
▁aaee beeem
st an
st aar
▁be ho
▁be vak
▁maikro bl
▁ham ale
yar aayad
aanee ,
▁stor eej
▁gr id
▁gr ens
▁maar a
▁kan ph
ij ual
▁kv aantam
▁kuchh ek
▁riyar ,
▁20 2
pha id
ri ais
▁sar j
▁eks an
▁var zan
▁div eejan
▁sa oodee
-k ampanee
▁lag ana
▁mod ’
▁baik alait
▁sp aar
▁sp ir
▁sp ok
▁mob aeel
▁vik aar
▁vik al
▁vik reta
▁‘ ro
▁‘ dee
▁‘ yoo
▁‘ are
▁‘ peeke’
▁endr aaya
▁adh oore
oon ,
▁pee 6
▁pee kar
▁bat tee
▁pha indar
▁16 000
▁13 3
▁13 7
aee )
▁san vaar
▁san deep
▁san grah
▁en ebal
▁en a2
▁dik hee
▁ind radhan
▁ee -b
▁ee raan
▁vai jar
▁pesh evar
▁bee /jee/en/esee,
▁adhik ata
▁adhik aarik
van yoo
▁so yaabee
▁har bal
▁on linai
▁deta im
▁sistam -
▁sistam s
ep hee
▁up aaya
▁piksal a2
aind raph
▁aadh yaat
▁vee aeepee
▁ghan to
▁ghan atv
▁11 bee
gan ga
▁hotee n
▁kl oj
ag ai
araph aast
▁gl ass
▁baj a
▁kor ,
▁kor al
▁dar en
▁- yah
▁f achai
ush k
▁kvaad -echadee
▁cheen ee,
▁teen ej
aret iv
aahak aar
▁khel on
▁khel akar
50 ,000
ishan kar
▁jabaki ,
▁it iyo
▁ak elaapan
▁te b
bh aasha
▁man ha
▁man or
▁man aate
▁nik at
▁or gan
▁kamp ait
▁kamp res
▁kamp ojar
▁eyar akr
▁aaeephon -7
▁mah aab
▁daal en,
▁i 20
▁i phonais
▁yoon aited
▁aar tikal
▁not -7
-b enj
-b ilt
▁ril aanyas
aph ree
▁z x
▁z 60
▁lai g
▁lai teetyood
▁dyool -baind
▁sah -sans
▁aan uvan
▁bha iya
▁hoon ?
▁30 8
▁chho one
▁bhar apaee
▁jen esis
▁w irailaiss
▁sun aane
▁sur esh
▁pur ta
▁ju te
▁jagah -ja
▁gh aata
▁rip or
-p rooph
gl on
▁samaj hata
aast r
▁21 6
▁doosara ,
▁nyoo jeelaind
aadh aar
▁18 5
▁jio phon
▁mas ood
ach ip
▁gem s,
▁jed ateei
▁bhej en
▁phar sh
▁kon ph
▁kon naicht
▁pat tiyaan
▁’ k
▁17 2
▁17 3
▁17 5
▁17 9
▁inst aal
-d or
▁mal eshiya
▁50 1
▁supar asport
▁bol ana
▁anu bandh
▁baink s
▁tho yaraayad
▁th aak
▁th iye
▁kara enge
▁1, 399
▁lain on
▁lain -ap
▁je talee
▁renj ,
▁" m
▁thar mal
▁kal ekt
▁kal asee
▁soch e
▁soch en,
▁maana chitr
▁karav aate
▁kastam aijd
-1 3
▁ud ghaat
▁2, 2
▁2, 5
▁ris paans
▁pars anelitee
▁kaip ital
▁aphreeka ,
▁rav aiya
▁rav ishankar
▁ik on
▁sik ud
▁ree pharbishd
ven shan
▁kyoo 450
▁haee -kvaalitee
▁jam moo
▁phit ing
yav asthit
▁py aare
▁re vanyoo
▁imej ej
▁eksa 555
▁prash aasan
▁prash ikshit
▁seet ,
▁kadam on
▁yojana en
▁ema 8
▁maikro- esadee
▁sekend s
▁phaast raik
▁vaise ,
▁grup s
▁singal -kor
▁baind ,
▁kom al
▁kom bo
▁kod ing
▁dr avid
▁dr ivai
▁sport ,
▁samajh ie
▁kail ak
bah ut
▁jeda 17
▁nish aane
▁sach chee
▁hin sa
▁men opoj
37 0
37 35
▁pal -pal
▁tacha vij
avar k
▁ghat ane
▁snaipadeel ,
▁pyaar ,
▁kir aaya
▁keebord ,
▁avas ho
▁visha ile
▁chammach -
▁kaan t
▁q vg
▁49 00
▁soochana on
▁global ee
▁likha ,
▁mish ra
▁rahega ,
ros d
▁vaapas ee,
▁denge ,
▁mar ane
▁pray ok
▁pray oga
▁sentar s
▁mich rosd
▁aai 70
-20 16
▁rij yolooshan
▁sels iyas
▁nyooj apheed
aint s
▁duk aanon
▁khoj en
▁dham aal
▁charcha on
▁yakeen an
▁dit ekt
ihaas ik
▁sandesh on
▁namak -
▁svee p
▁byoo ro
▁(s els
▁pul sai
▁‘s etings
▁aim b
▁bet aab
▁vyoo ,
▁vyoo ing
▁apalod ing
▁(720 gunaa
▁4, 100
▁4, 599
▁nai xt
▁ram ,
▁dho ya
▁shu bha
▁eksat end
▁39 ,999
▁jon asan
▁bhaav uk
▁saik adon
▁88 95
▁per ent
▁dabal yoo
▁phij it
▁72 ,000
▁yooes apee
▁blog ing
▁nota 3
▁nota 8
▁kheencha ta
▁kheencha te
▁mis d
▁(eks-shoroom )
▁sat yaapan
▁mirch ,
▁stik ar
66 x768
▁shan aaka
▁vhaat sap
▁mus ich
▁eksee dent
▁maarketing )
chk ait
▁kampaas ,
▁altr aav
▁ain gal
▁jee5 es
▁gur akha
88 8
▁pas s
▁maij oo
▁beej on
▁reed ar,
▁karengee ,
▁mukhar jee
▁str aik
▁str akchar
▁stood ent
▁kort aana
▁plaitaphorm s
▁romaanch it
▁mt67 50
▁keejie ,
▁chap tur
▁chhoo te
▁nirdeshak on
▁emes ema89
▁sardee -jukaam
▁854 x480
adar aaj
▁m5 s
▁asam ay
▁drsh t
▁ag u
▁samar pit
▁avat aar,
▁seepeeyoo ,
▁do- chaar
▁step :
▁pvaint s
▁esosee ,
▁aaeeemeksa 2
▁aaeeemeksa 3
▁moon alait
▁saur amandal
▁kaipes itiv
ust aan
yat :
▁aart ist
▁chomp ass
▁hare ,
pl ay
▁pradaata on
▁dhamaaka !
▁sele br
▁gam ale
▁dail uxai
▁rook he
▁inv ait
▁chad haee
▁asembal ing
▁jaay ega
▁(5 40x960
▁ephajed -
▁nicha la
▁tor ch
▁prashan sakon
▁yooke ,
▁prok see
▁maanga ta
aring ing
▁ghe r
▁kontr aast
▁kontr aikt
-ee yar
rsh t
▁book ing
▁rachanaatmak ata
▁suz ukee
▁korapor eshan
▁aiv o
▁rot eting
▁guj aar
▁chur aane
▁vaigan aar
▁patthar on
▁jhap akee
▁daayamenshan s
▁draigan atrel
▁aanval a
▁728 g
▁sum an
▁bita en
▁kash t
▁och t-chorai
▁‘sh eyar
▁kolam biya
▁point s
▁raina ult
▁polee mar
▁eksazed es
▁emee cha
▁sansh odhit
▁cholor os
▁bard aasht
▁ten aaleeraam
▁spai akair
▁orenj ,
▁aajama en
▁machhal iyon
▁sareek he
▁muhaans e
▁atak alen
▁elim ents
▁eksapaind ebal
▁pratidvand vee
▁diskaun ta
▁tarang on
▁enajee o
▁64bit s
▁minaral s
-vheel -draiv
▁utsuk ata
▁naiw s
▁kansal tent
▁silas ila
▁sva chaalit
▁keyoovee 100
▁tre val
rep ist
▁chhil aka
▁eksapl orar
▁panjaab ,
▁rag d
▁vhaata sep
▁enteeoksee dents
▁sambhal akar
▁paalak ,
▁phijiyo therepee
-ha us
▁क ्ष
▁sind rom
▁saada gee
▁gub b
▁khin cha
▁apair tur
▁pairaag laiding
▁jhapak ate
▁sph eshiphikeshan
▁rad d
▁titan ium
hans ate
▁elig ent
▁xp raiss
▁ikan omik
▁ikala utee
▁ath oritee
▁vinee ta
▁shub hak
▁praap ti
▁sveek rti
▁mut thee
▁seevee tee
▁‘ok e’
▁loyal tee
▁asur aksha
▁malayaal am,
▁vaanijy ik
▁p2 m
▁deetek a
otor ola
▁intarn aship
▁kannad ,
▁spash tata
▁ghumaav adaar
▁intir iyars
▁pyooj o
▁parijan on
▁bret ja
▁ophish iyalee
▁monosh ok
▁aaies em
▁phutap aath
▁pojit iv
▁maayan on
▁jaig uaar
▁strob eree
▁bang aalee
▁roopar ekha
▁dyool-k lach
▁galata pha
▁adaal at
▁dyoore bal
▁poleekaar bonet
▁childran s
▁mainyoopha ikchar
▁ikvip ament
▁punee t
▁moot r
▁shoon y
▁pratee t
▁prochaiss or
▁raft aar
▁maikrobl oging
▁sah-sans thaapak
▁jagah-ja gah
▁udghaat an
▁‘setings ’
, 37
- y
- op
- 60
/ o
5 8
= =
a 9
a -g
b ad
b op
b aaba
d f
d aata
d oo,
e takee
g ol
h u
h il
i ar
i ensee
j or
l aan
l ik
l iya
l air
n ee,
o f
o ur
o tar
o yad
o sa
p d
p ing
p aikt
s aid
t hana
u e
u chit
v t
v it
v aana
v eyar
v air
v asth
w ar
w ittair
x 5
y p
y t
‍ tam
▁ aansoo
 d
▁k 3
▁k w
▁k ings
▁k ronik
aa hen
ha p
ha tak
ar aaj
▁s pan
▁s alp
▁s ret
▁p 9
▁p la
▁p ail
▁p aay
▁p aip
▁p ind
▁p ion
▁m ara
an ot
▁b ir
▁b rik
▁b ooth
▁b aans
▁b aajee
▁b yor
▁b isk
is m
is heel
▁d ash
▁d aindraph
▁a 2
▁a jan
▁a kar
▁a ij
▁j il
▁j har
▁j hon
▁j aaye
▁j yot
▁ka ita
▁me hata
hee ting
en e,
▁ke v
▁ke 10
▁l al
▁l oot
▁l aks
▁l ahar
▁l aarj
ak iyaan
ak ram
▁n il
ch ha
ch en
ai yon
ai air
▁r iy
▁r em
▁r ich
▁r aag
▁r gb
▁v 2
▁v ek
▁v aiks
▁v aarm
▁v orn
▁v aade
▁is haaron
aan u
aan oo
aan ik
▁t aan
▁t aam
▁t 20
▁t di
ur oo,
at hon
at ren
▁e pee
▁e tal
▁e 2010
▁h un
▁h ip
▁h eks
▁se raam
▁kar oge
▁ko ,
▁ko in
▁ko ment
▁ph aar
▁ph ur
▁ph os
▁ph itar
▁aur at
▁aur or
▁aa ai
es )
ad dhata
am al
am il
am sung
am aikromaiks
ph ri
ph ikeshan
ph ekchar
aat ro
as uee
il ed
il aijeshan
▁par e
▁par ee
▁par ak
▁par isha
▁par don
▁par vat
▁g hate
▁g had
▁g ineej
ab ala
▁u bale
or ama
it ars
it jaralaind
han ,
han kshan
▁in -bilt
▁in -eeyar
▁ta eem
▁ta ix
iy aana
et iks
et id
im ee,
▁2 12
▁2 -in
▁2 ,499
ro kee
▁kam ph
▁kam ee,
▁y 7
▁y ee
▁y en
▁y aach
▁y elo
▁y uddh
▁ek ata
▁ch 2
aha l
▁5 em
▁5 ,500
▁5 geegaahartj
aas ,
aas iyon
▁4 ,444
▁aap shan
▁kh ojana
▁sh imala
▁sh ushk
har tj
har akam
▁jee s
▁jee yo
▁jee vaan
▁o el
▁o lav
▁smaarta baay
▁smaarta baind
aaya h
aaya ton
aav as
ay ee
▁bh inn
uk ee,
ahin ,
▁kaar teks
▁kaar yo
▁kaar yast
▁mo s
▁mo ka
la ud
▁apan aana
▁apan aate
up t
iks el
pal ain
end o
end ent
sh m
sh n
aim ai
▁dee vee
▁em akyoo
akee y
▁sam ak
▁sam rd
▁6 -7
▁an aar
▁an grej
▁yoo k
▁yoo ee
▁yoo see
▁yoo vee
▁yoo phoriya
▁cha ita
ish ,
▁pro m
▁pro gain
▁pro mo
jar ooree
ent aador
el ar
ip ar
ip akaart
ip hai
aak i
aak shar
esh chan
ant s
▁tee zar
▁tee aaradee
▁ra ee
pee ai
pee peeai
▁bai thee
aab andhan
ut osh
ul ens
aaj ma
aaj apa
sar ,
ait ikalee
ot in
oor v
oor at
▁see 5
▁see 9
▁see dh
▁see deeeme
em ik
aay aat
aay ojan
aay aamee
av ail
av odaaphon
▁pad osee
▁ban gal
▁ve v
▁ve lav
▁sk olar
▁( 0
▁( in
▁( an
▁( ech
▁7 30
▁7 ghz
▁tha ink
▁karen uttar
▁de va
▁jaan chane
▁rah o
▁al aix
▁0 4
▁karata ,
▁bl ut
▁laga ,
▁laga vaane
▁ran gat
▁intar ane
yar atel
od on
▁sha itar
▁stor ,
▁gr esee
▁kan var
ij ibal
▁kv aatro
▁kv eshchan
gal ain
▁20 48
▁20 22
▁12 2
▁12 ,499
pha see
ich m
ich hale
▁sar aahana
▁var shan
▁var adaan
▁log ,
▁da uda
▁saal abhar
-k in
-k laas
▁lag aav
▁sp aicht
▁vik ipeediya
▁vik etakee
aana gon
▁‘ is
▁‘ aaj
▁‘ pr
▁10 9
▁10 ,499
▁samay :
▁phil tars
▁skreen s
hak kat
▁endraayad ,
▁pee 25
▁pee 690
▁pha sal
▁ut tej
aee phon
▁san yam
▁san shay
▁9 80
▁9 mm
▁naam um
rai ai
▁mauj -m
▁ind r
▁ind ian
▁ee ph
▁ee st
▁ee be
▁ee buks
▁vai 2
▁vai bar
▁vai br
re tar
▁bee pee
▁injan s
▁dh y
▁dh ul
▁dh aarm
▁dh aage
▁van chit
▁am g
iph ik
iph oto
▁har aman
▁dij aayara
▁emapee 4
▁emapee vee
▁jin k
▁up ahaaron
▁up akram
▁su dh
▁su bee
▁kol s,
▁gee le
▁vee bo
▁chh or
▁chh ipee
▁el o
▁el adee
▁el aiph
▁el yum
▁11 3
▁25 mm
aah aar
▁15 ,990
▁jal a
▁x 10
▁br aik
▁jaanakaaree ,
ag o
ag ga
-s itambar
tai chh
▁vaee 51
▁poor vee
▁gl aind
▁64 00
▁kor at
▁ophar :
▁- 5
▁f ron
▁motar abaik
aj ab
10 3
▁paas akod
aakar an
▁ak aadamee
▁khil aane
▁sv etar
▁sv adesh
▁sv at:
▁sv itjaralaind
▁14 6
▁lo taree
▁pah aadee
▁bo tam
▁te z
bh ed
▁man -m
▁man och
▁man chan
▁nik hil
▁kamp yoot
▁kr tag
▁daal ie
▁aar mee
▁not ,
-b ai
▁ril eshan
▁aaya kar
ham en
eek aant
▁selphee ,
▁lai 2
▁dyool -kor
▁3jee 4
▁min imam
▁80 5
▁80 ,000
▁30 90
▁30 70
▁30 fps
▁karatee n
▁sek san
abh oot
▁bar atee
▁bhar ate
12 00
▁w wd
▁100 gb
▁chee z
▁rip hand
-p aar
▁lait s,
▁sahee ,
▁sup araphaast
▁nyoo d
▁nyoo ro
▁nyoo ron
und ai
▁shik aaree
▁badalaav ,
▁mas hakkat
ach hee
▁2017 :
▁gem ,
tiv al
▁staind alon
▁gar l
▁hed ,
▁pat ton
▁pat haree
▁sal aam
▁sal aahakaar
▁sakenge ,
▁aip l
▁kain an
▁kain chee
▁24 5
▁24 999
▁mal aee
▁gan dee
▁200 1
▁port s,
ke tabol
▁bacha ta
▁bacha te
▁bacha tee
▁dost ,
▁staar adam
▁staar taps
▁supar astaar
▁ar un
▁tej ,
kaar t
▁esa 4
▁tho s
▁28 40
▁koshish en
▁elajee ,
▁maus apaid
▁je bee
▁je dee
▁chip s
▁chip achip
▁odiyo ,
▁prot ekted
▁kal araphul
▁mila ,
▁rikord ar
▁tel -
▁tel iphoto
▁milee graam
▁soo chit
▁soch ,
▁jod ata
▁bra u
▁bhaasha en
▁ud ad
▁ud yam
▁rok en
▁2, 100
▁2, 600
-m an
utee karan
67 37
▁lamb or
▁kool he
▁chait ,
▁sik ha
▁gor ill
▁ai chho
▁ai ichm
▁hom askreen
▁che rokee
▁theek -th
▁prak aashak
-see tar
ran ch
▁maltee neshanal
▁29 ,990
▁sekand aree
▁gir aane
▁mushkil on
▁utha tee
▁sharma ,
▁protekshan ,
▁kaun tar
▁re vot
▁re phri
▁vir aasat
▁jaik ee
▁pan ne
▁eksa 50
▁pahach aana
aiv itee
▁nee raj
▁dok yum
▁and on
▁disambar ,
▁vidiyo j
▁pop ap
▁utar ata
-ph ree
oes )
▁pahan en,
▁boks ,
▁daaya t
▁hd mi
▁hd fch
▁ol vej
-sh aam
fi aild
▁jeda 10
▁iphonai 8
▁socha tee
▁hin sak
lo ad
lo leepop
▁27 0
leekeshan s
▁paik et
▁pej on
▁ghat aaya
▁3, 500
▁seek ret
▁ij ahaar
▁leek s
▁komp leks
▁emaee 4
▁emaee 5
▁hava on
▁inta zaar
▁imph ekshan
▁q laid
▁q iku
▁44 44
▁subah -subah
▁sai riais
rod hee
rod hak
▁vahee ,
▁khushee ,
▁staindard s
▁vitaamin s
▁rahana ,
ame rika
▁mon o
▁35 ,000
▁ank it
▁pooch hata
▁photoj ,
▁ematee67 95
▁1280 ×720
-3 00
▁‘m era
▁34 50
▁ul ta
▁lagega ,
▁sans aad
▁nyooj ,
ve dee
▁mun aaphe
▁tren dee
▁baay en
▁khoj a
▁lih aaja
,2 50
▁rahegee ,
-r aat
▁sephtee ,
▁ghoom ate
▁som aiya
▁rod ing
▁niv eshakon
▁saken gen
▁kho e
▁tik ee
▁aim oj
▁mp 3
▁kad av
▁sara gun
▁aal asee
▁fl y
▁inaph oks
▁nait work
▁eksat ra
vaad -kor
▁prast aavit
▁glon ass
▁gus sail
tair y
▁prem ika
▁aik tr
▁daayarektar ,
ov era
▁(720x1280 )
▁chamak ata
▁avasar on
▁hans en
▁hans ane
▁hans ana
▁“ ham
▁dai x
▁pholo var
▁sany antr
▁moovee j,
▁praar thana
▁nibh aaya
asha omee
▁mam ma
▁tair r
▁otomobail s
▁miks a2
▁yooaee deeeaee
66 6
▁svipht ,
▁my jio
▁kolej on
▁aana ,
▁tiy aanagon
▁ich on
▁phle yar
▁mainyuphaikchar ar
▁chaav ala
▁telee ven
▁natee jon
▁pleyar ,
▁s7 ,
▁gud s
▁inav ijibal
-kh el
▁5, 0
▁jai aip
sm 89
▁4- 5
▁4,000 mah
▁(emes ema89
▁monitar ing
▁gur de
▁gur oovaar
▁phlait s
▁nim antran
▁chhip aane
aphl ipakaart
▁str aip
▁saad e
▁haus ala
▁daay een
-st d
-st or
-st rom
▁him aalay
▁ubar ane
▁kheench e
▁ob i
▁maanav eey
▁otophoks ,
▁krooz ar
▁aash vast
▁aash utosh
▁pheed abaik
▁chikit sakon
evar ale
▁gira phtaar
▁intelij ent
▁dhoond hakar
52 1
▁kut ta
▁bejal -les
▁est ra
▁tail ent
▁eeyaraphon s
▁bailens ing
▁750 chch
▁jelee been
▁tuk ada
▁ri chard
▁tw in
▁phaay ara
▁pariv esh
▁neel aam
▁chid iya
▁chid iyon
▁bhook he
▁boo te
▁b/g/ n
▁bolee ,
▁tai galain
▁tapha buk
▁heen g
oloj ikal
▁gupha on
▁tred amaark
▁vaar asee
▁gat isheel
▁of fichai
▁korn ar
▁nin j
▁bator e
▁ur doo
▁alee baaba
▁vishl eshak
▁stan apaan
▁enaal og
▁enaal ist
▁prajaat iyon
▁thahar aav
▁kind lai
▁sand ig
▁shr uti
▁ee-k ampaas
▁poorn ata
▁ematee6735 pee
▁asist ,
▁milen iya
▁reem ek
▁kaaj oo
▁mur alee
▁ded reem
38 6
▁kem istree
▁choo he
▁choo hon
▁supara 3
▁hast aakshar
▁khaam iyon
▁inteegr eshan
▁egree ment
▁panee r,
▁ghabar aane
▁ghabar aahat
▁gps/ a-g
-h aath
▁tyoo bal
rob ot
▁senk churee
▁sansh odhan
▁(z ch
▁selib ret
▁selib ritee
▁surkh iyaan
▁pig ment
▁baand hakar
▁aat ma
▁chvo yas
▁sahakar mee
▁sahakar miyon
▁ti haee
▁parya tak
▁ee-v olet
▁q3 39
▁htt ps://
▁upayok taon
▁mith aas
▁ektar anal
▁‘ha ippee
▁elim ent
▁1,2 99
******** ********
▁plait inam
bhaag y
▁koolar s
▁biyar d
▁aaair dar
▁ghon s
▁kampon ents
▁silas ile
▁thandarab ard
▁paat hak
▁naap asand
▁vitar an
▁evar ej
▁motiv etar
▁emadablyoosee 2015
▁shamee m
▁bill iyon
▁(esasee 77
▁hind ustaan
▁deeel ene,
▁aniyam it
▁‘t um
▁rikog nishan
-phir ane
▁infin ity
▁sulajh aane
▁tika oo
▁816 jee
▁saaph-sut hara
-htt ps://
▁voks avaigan
▁pratinidh i
▁mahaas aagar
▁wr -v
▁toks in
▁aaidiy aapaid
▁ava gat
▁ele phasee
▁seeem oes
▁thail aind
▁mahatvaak aankshee
▁lithiyam-p oleemar
▁mes enjar
▁tad aka
▁raksh aabandhan
▁jeda50 kyoo
▁entree-le val
▁thy oree
ichro max
▁mobik vik
-maik ron
▁chamakee le
40x2 960
▁deevaana gee
▁phaasta ig
▁‘bebee ’
▁chidachid aapan
▁puk aar
▁kota la
▁chamat kaar
▁deb yoo
ibu ya
▁sanr akshan
▁pradoo shit
▁aakaasha ganga
▁kadd ook
▁kanavart ibal
▁boomasa und
▁baahu balee
▁syaan ojen
▁bood ha
▁naee-n aee
▁‘ro y’
▁endraaya id
▁itiyo s
▁eyarakr aapht
▁aanuvan shik
▁purta gaal
▁naixt bit
▁agu vaee
▁proksee meetar
▁shubhak aamana
war ai
▁pion aiair
▁2-in -1
▁olav ej
▁kaaryast hal
▁emakyoo bee
▁progain iai
▁karenuttar apradesh
▁spaicht rai
▁naamum akin
▁mauj-m astee
▁elyum eeniyam
▁manoch ikit
▁wwd ch
▁theek-th aak
▁rephri jar
▁tiyaanagon g
* 2560
, 99
, 11
- dh
- aid
- to
- aate
- dar
- tv
- rip
- udhar
- gred
/ 5
/ l
0 9
1 20
3 90
4 70
5 9
6 000
7 60
8 1
? v
a q
a cheen
a yadi
b aan
b aaj
b hak
d o
d ana
e va
g ed
g hane
h aat
j ik
k ya
k char
k uchh
m it
n t
n ch
n oo
o s,
p air
p aavar
p oorvak
q areeban
r ta
r end
r aak
r ait
r aate
r na
s ch
u et
u vidha
x 9
y aasa
y no
z f
ज ि
् र
‍ ch
▁ ]
▁ ane
ee l
ee tee
ee yata
ee karan
ee aaratee
▁k 4
▁k 9
▁k tm
▁k mpl
▁k lem
aa hon
ha v
ha ind
ar is
▁s i
▁s aap
▁s ingar
▁s aadiyon
▁s 30
▁s leev
▁s lais
▁s -chross
in ens
in dagee
▁p aam
▁p aiks
▁p 75
▁p ista
▁m 8
▁m ch
▁m ap
▁m ale
▁m aada
▁m ordan
▁m areen
an tap
▁b han
▁b olar
▁b aang
▁b orn
▁b rok
is ase
is ple
▁hai ),
▁hai daphon
▁d ent
▁d us
▁d hana
▁d air
▁d regan
▁a van
▁a tm
▁a 40
▁a iss
▁a ikshan
ta kar
ta baik
▁j ast
▁j amee
▁j aiga
▁j akh
▁ka tar
▁ka dar
▁ka unt
▁ka sa
aar -
aar pan
aar aaj
aar iyon
▁me ve
en atee
▁ke la
▁ke teeem
▁l 1
▁l ata
▁l ed
▁l aara
▁l ifai
▁l pd
ak avar
ak hand
▁n 1
▁n s
▁n aag
▁n vid
▁n aksh
▁n iyat
▁n rt
▁n aada
▁n aach
▁n aichur
ch )
ch in
ch oo
▁r at
▁r epha
▁r ona
▁r yno
▁v 4
▁v ed
▁v ordar
▁kee j
ga da
ga thit
ga print
aan ,
aan o
▁t yoomar
▁t emp
▁t chl
ur chai
al g
al l
al ai
at y
▁h yoo
▁h orm
▁ko char
▁ko tan
▁ph om
▁aa ail
es asee
ad ai
ad ame
ad eshee
iya ’
am ah
am od
ph ors
as p
as is
as oot
ah it
▁par pal
▁ya dd
▁g en
▁g ree
▁g ets
▁g iree
▁g aadha
▁g ande
pan kchar
▁1 ,499
▁ga th
▁ga st
ab aad
▁u g
▁u hd
cha b
cha tion
cha idais
it ik
ek tamee
▁in kaar
▁in sap
▁in sart
▁ta ij
▁ta qareeban
▁ho g
ree kshan
▁ja int
ata on
ata ijing
et u
et an
▁2 ’
▁2 ke
▁2 90
▁2 -megaapiksal
▁2 -litrai
ro on
▁kam pee
▁na in
▁na yaapan
▁y 5
▁y on
▁ek teev
▁sak ses
▁sak en,
▁ch idh
▁ch heel
▁ch ill
▁4 14
▁4 32
▁4 aai
▁3 :
▁3 80
▁3 ,4
▁3 emapee
▁3 800
▁la ute
▁kh ok
▁sh aadiyon
▁sh ootar
▁sh aark
▁sh oldar
▁sh evarale
har te
ap i
ap aal
▁jee ela
jee h
jee r
jee riya
▁smaartaphon !
▁kiya ?
aav ane
aav araphul
ara ,
aap asand
te lar
▁bh un
▁bh ul
▁bh aatee
▁bh aajapa
ain tal
▁to var
un nair
ana v
▁pr aanshu
▁mo ment
la phrend
▁tak ,
atee )
▁phee n
▁ma g
pal s
▁jo int
sh aala
sh aant
mat ich
▁kaimara —
aim y
aim ars
▁dee jee
▁dee aares
▁dee je
th ,
th i
▁em s
ase ph
▁sam aksh
▁sam agr
▁6 35
▁an s
▁8 1
▁8 50
▁cha h
▁cha dha
▁cha ilai
▁pheechar :
▁dil ivar
jar ,
el asee
▁mil aana
▁mil -std
esh iyar
▁tee -
▁sab -br
▁ra chair
▁bai at
aab hee
▁st re
▁st unnair
▁lonch :
ait hee
ait rik
ot en
ot ik
ot taree
▁see 1
▁see ne
▁see ke
▁ban dh
▁ve val
▁sk y
▁sk alp
▁sk art
▁sk oolee
▁( 8
▁( x
▁( ph
▁( sp
▁( dablyoo
▁( je
▁( 2560
▁( www
▁( oes)
▁7 th
▁7 ,990
▁7 49
▁7 jeeechajed
itee y
da ud
▁den amaark
▁karen -
▁do ,
▁do h
▁de vee
▁ba gee
▁ba -khud
bar u
▁0 7
var n
var ya
▁bl oh
chch i
▁op ha
▁op ashan
▁ku s
▁aaee otee
▁aaee pod
vee ,
od s
od hee
▁mai da
▁gr an
▁maar shal
▁kan on
ais l
▁badh ottaree
▁20 4
▁12 99
▁12 mp
▁12 veen
▁12 -megaapiksal
▁sap lai
ich i
▁pl aajma
▁khaas ,
▁len gee
▁da ul
▁da zz
▁ap aar
▁ap olo
▁ap arachar
▁ap leekeshans
va ise
▁sa hane
-k om
-k aathee
▁lag an
▁es embal
▁es aaratee
tha ta
▁sp on
▁sp laish
▁roop ephee
▁‘ ta
▁‘ la
▁‘ see
▁‘ kh
▁‘ par
▁phil os
ind iyan
▁pa o
▁pa chane
▁sel ,
▁pee 2
▁pee en
▁pee 99
▁bat ar
▁pha las
▁16 4
▁16 999
▁16 ,500
▁bana o
▁bana enge
▁sen dh
▁prat ir
▁9 i
▁9 emem
▁en ee
▁en es
▁en adee
rai ad
▁ind igo
▁kie ,
▁ee s
▁ee v
▁ee —
▁ee -r
▁vai j
▁vai r
▁vai ri
▁sim bal
▁bik har
▁32 8
▁32 ,999
▁dh aan
▁dh un
▁dh und
▁dh aaran
▁dh okar
▁dh uaan
▁bah aana
▁aas aar
▁paavar atren
▁kanektivitee -
▁am t
▁am rta
▁lee jan
▁so ya
▁so ft
eks ,
iyaan ’
▁tr akon
▁vo ichai
▁on 7
▁on ars
▁bata enge
▁su shaant
▁vee -s
▁chh ud
▁chh romai
▁11 5
▁11 7
▁11 esee
aaph esabuk
▁15 11
▁jal an,
▁il aikt
▁kap ada
▁sir i
▁vebasait en
▁maark ent
▁gl eshiyar
▁kor d
▁dar ate
▁f i
ast ol
ast reem
aag r
aag har
▁khareed adaar
aj io
kh y
▁phl oting
vo in
▁phree chaarj
▁po shaak
▁khil aen
▁sv adeshee
▁14 ,
▁14 1
▁pah iye
▁te ra
▁alag aav
▁man :
▁maha t
▁or k
▁ok ulas
▁pata ,
▁ple list
▁aaj aad
aash it
▁im pairi
▁oto ,
▁kvaal ak
▁daal atee
▁daal anee
eeb ol
▁i -k
▁yoon iphaid
▁aar dar
▁um ang
-b ad
-b ain
▁red i-go
aph ul
▁z 1
▁z uk
▁as oos
▁min im
▁bha d
▁bha iyon
▁bha van
▁bha dak
▁kul loo
▁bar baadee
▁bhar akar
▁maarsham ai
▁eph /
▁rejolyooshan )
▁pur ee
▁laip s
▁gh aate
▁gh rna
▁tab ,
▁netavark s
▁bach k
▁bach ega
-p a
-p rat
▁shatak on
▁samaj he
▁khar onch
▁21 50
olojee ,
chee ,
▁yu v
▁yu phor
▁yu vat
▁phlip kaart
▁vairient ,
▁kampyootar on
▁dikh aakar
▁haath ,
▁sthit iyaan
▁18 ,999
▁pasand -n
▁19 4
▁19 50
▁gar laphrend
▁jiyo phaee
▁aaaip aret
abl ai
abl oo
▁bhej ate
▁top -10
▁honda ,
▁kshamata ,
-d oor
hy aat
▁traans ale
ita s
▁200 4
▁200 gb
▁supar b
abee see
▁od itor
▁mahin dr
▁phail ing
▁ar pit
▁tok an
▁28 ,000
akor n
▁otom aitikalee
▁gaur ee
▁maatr bhaasha
▁je -7
▁aasaan ,
▁kal char
▁kal iyaan
▁rikord as
▁ni reekshan
▁soch ie
ika en
▁andar -19
▁khul aas
-1 4
▁ud ate
▁ud aane
-m aanee
-m otee
▁kaip shan
▁sm aran
▁nukasaan adaayak
▁ik osistam
▁sik ka
▁gor ila
▁ai 3
▁ai ar
▁ai aisl
▁ree l
▁ree p
▁ree telar
▁pak kee
▁bas harte
▁hom ai
▁prak at
shet r
▁haee lait
▁chom m
▁paraph yoom
▁vhee labes
▁gir e
▁mukaabala :
aasa und
▁py aara
▁31 5
▁khu da
▁aate -aate
▁kaun -sa
▁ematee enel
▁painal s
▁vibh aajit
▁720 *1280
▁imej es
▁pan orama
▁hel palain
▁esee /bee/jee/en,
▁dim aagee
▁go panee
▁sain asuee
▁utar a
▁degee ,
▁pahan ee
▁kom ,
▁saph aayar
▁60 ,000
▁kod iyaak
▁sank och
▁neks tab
▁ad reeno
▁kail aree
▁65 1
▁mainual ee
▁jad a
▁jad on
▁jad ai
▁maadhyam on
▁aavaaj en
▁daayar ee
▁hai? ’
▁hai? main
▁nish k
▁garm aagar
▁res ip
antr it
▁dijaayar ,
▁link s
▁viv id
▁aag aah
▁instol eshan
▁ben eph
▁ghat it
▁leek ,
▁jor -j
▁rai achh
▁skainar ,
▁pement s
▁ektiv eshan
▁mid il
▁mid arenj
▁q r
▁rim oo
▁44 99
▁vodaaphon ,
▁bel o
▁subah -shaam
▁yo ur
▁mish igan
▁haathon -haath
▁sai chur
onai y
▁pras av
▁1080 *1920
▁angrejee ,
▁mar k
▁mar athon
▁pooch hana
pat i
▁vyav asaay
▁sentar ,
▁‘m ere
▁2jee 4
▁yaat aayaat
▁chin aim
iz on
▁madh yapradesh
▁desha bhak
▁maang ane
▁360 -digree
▁phrend aship
▁ophars :
▁dit ektar
▁roo hee
▁90 ,000
▁67 37
▁jeepeeaares/ ej
▁nirbhar ata
▁dikha en
18 )
▁rod astar
▁non gadaan
▁phin gaprint
▁vaatar amaark
asik yor
▁‘k ampyootar
▁‘k ik’
▁‘k ainavas
▁kin -kin
▁hendaset s
-cha l
▁baitha tee
▁vyoo ar
▁bhoomika en
▁emb ulens
▁kad -kaathee
▁vail d
▁bord ing
▁aatm asam
▁emai -eph
beees enel
▁chaal ak
▁maanasik ata
▁nevig et
▁pe riph
▁reg istaan
je b
▁39 ,990
▁jeepeees/e jeepeees,
▁ip 67
▁aara 9
▁shuk riya
▁dur ga
▁74 99
sil ikon
▁janm e
▁motarasaikil en
▁sveekaar ana
▁du vidha
▁ruk ane
▁seema on
▁khushakhabar ee,
▁88 90
▁veelj ,
▁kra un
▁svaad aanusaar
-sa hee
▁aaaitom ekar
▁nota ibook
▁(m t
▁(m obail
-4 5
▁36 30
▁dog une
▁kaite giree
▁saj eshan
▁kolej ,
▁chail kon
▁dip l
▁hor izon
▁pahal uon
▁painor aama
▁43 1
▁altr aasonik
▁altr aasaund
▁inav estament
▁2,000 mah
▁maig nee
▁dish ej
▁naagar ik
▁chot en
▁(emes ema8909
▁sook ha
▁bampar ,
▁jaanee -maanee
▁nib andh
▁5,000 mah
chars --
▁46 99
▁akele pan
▁taal aab
▁mair chaidais
▁51 ,990
-pee dee
▁chikit s
▁apeksha on
▁paancha vaan
▁tree -haus
▁56 90
▁saja en
▁ematee6737 tee
▁dhoond hana
▁paande y
▁est ro
▁gai ra
▁m5 ch
▁‘j agga
▁enim al
▁chaahat on
▁chhup e
▁‘main ne
▁sch out
▁a7 1
▁ri jarv
▁chet an
▁klaim bar
▁oo tak
▁oo takon
abad dh
▁sos aitee
▁jhan de
vaee -phaee
▁qu iq
▁aaitam s
▁phaik tar
▁vyaapaar iyon
fch )
▁hak adaar
▁299 99
▁lap tab
▁laab ha
▁rait ing
▁trip aathee
▁gupha en
▁sameek shakon
▁toor ist
▁hy undai
▁gat han
▁pach aas
▁kriya on
▁ematee65 82
▁musk ura
▁deetee eeke
▁skr in
▁khan ij
▁karoon ,
▁phel iyar
▁klok d
▁sit aare
▁hold ars
▁paushtik ata
▁darsh aatee
▁chad hane
▁asembal ee
▁aix mor
lip op
▁solyooshan s
▁v5 s
▁prajaat iyaan
▁riph l
▁pratibh aagee
▁bartan on
▁ubaal akar
▁sr s
▁laaj imee
▁ru baru
▁4x 4
▁plag -in
▁daada -d
▁chn y
▁chitr akaaree
▁aarth raitis
▁jangal on
▁kriketar on
▁phaarm et
▁inebal d
▁khusha haal
▁edamin istreshan
▁lol lipop
▁vas ool
▁italee ,
-ee van
▁haidaraabaad ,
▁rot iyaan
▁gup t
▁(v itaamin
▁gulaabee ,
▁tain aat
▁728 5
▁hast iyon
▁kash meer
▁becheen ,
▁pun to
▁shish u
▁tee8 80
▁peetar asan
▁manush yon
▁kriet ivitee
▁idhar -udhar
ulan asheel
▁dohara en
▁samajhad aar
▁baayom etrik
▁divelap ament
▁aaikon iya
▁bhaaga te
▁prin taut
▁khat te
▁rid akshan
▁kliyar ens
▁greju eshan
▁anusandhaan akartaon
▁pes tal
▁paath yakram
▁mail d
▁kach chee
▁vaaya s
▁oaeees ,
▁aaeev oomi
▁veer endar
▁oks aphord
▁bak aaya
▁haad ase
▁haad ason
▁ephad abalyoo
▁muhaans on
▁taibal eta
▁moischar aij
▁takar aav
▁maite riyal
▁sansk rt
▁elapeedee deeaara4
▁chandee gadh
▁ovara heeting
▁ahamadaabaad ,
yaap achay
▁pit aajee
▁uch hal
▁pheechar- yah
▁rajan eekaant
▁ilektraan iks
▁bob bair
▁kampon ent
▁steb ilaijeshan
▁3,7 99
▁thandarab olt
▁sva chch
▁brai zz
▁hail io
▁aich osport
▁hicha k
▁hicha ki
ikyor itee
▁motiv eshanal
▁amej on
▁eksapl oree
▁dijee tal
gaan th
▁ait ihaasik
▁phleks ibal
▁sabsakraibar s
▁inspaayar d
▁snaipadraigana 410
▁saata ven
▁pudee ne
▁mer ath
▁rap e
▁aatha ven
▁aabh ooshan
phree dam
▁seebee esee
▁xch ovair
▁provaid ars
▁kaash ,
▁keetaan uon
▁sendha maaree
▁maignet omeetar
▁(ematee67 35
nish ing
oin tament
▁aish varya
▁distreeb yooshan
▁xuv 500
▁jener eshan
▁pratispar dh
▁kompitee shan
▁phulav yoo
▁kaaya :
▁gatha jod
▁jau har
▁eked amee
▁eksesar ee
▁shv asan
▁eksayoovee 500
▁chandr ashekhar
▁miraral es
▁pachhat aava
▁(480gunaa 854
kn ow
▁p‍ le
▁chp u
▁bhuj a
▁maiksa 2
▁maikros aapht
▁enav eediya
▁bris ben
▁aajam aane
▁bhag aane
▁thik aana
▁"ee -buks
▁inphr aared
-jal dee
n/ ach,
akeemat -
▁varsha gaanth
▁thom as
▁phraansis ako
▁doodala 4
▁k18 8
▁jig yaasa
▁num bair
▁haav -bhaav
ahold ars
▁probaayot ik
▁1080x 2160
▁sanra chana
▁eelai ph
▁dhaat u
▁bhaut ik
▁nyooja han
▁slai aik
▁kinga dam
▁1920× 1080
▁sairv ichai
▁snepad raigan
▁pratidvandv iyon
▁kyok in
▁saaksh aatkaar
▁pana pane
▁nort an
▁rd p
▁reeb oot
▁tara jeeh
▁shaash vatee
▁beho sh
▁aadhyaat mik
▁masood on
▁thaak ur
▁thiye tar
▁kailak uletar
▁(720gunaa 1280
▁salp har
▁byor a
▁bisk ut
▁akar am
▁lal ak
▁nil am
▁seraam ik
▁parisha d
▁deevee dee
▁skolar aship
▁viketakee par
▁dhaarm ik
▁krtag yata
▁jebee el
▁dokyum ents
▁kadav aahat
▁sandig dh
▁kaddook as
▁manochikit sak
▁rephrijar etar
rend alee
▁male riya
▁jaiga vaar
▁nvid i
▁naichur al
▁vordar ob
▁yadd api
▁insap iron
▁(je dee
▁bloh orn
▁dazz lai
▁roopephee chars--
▁pasand-n aapasand
▁top-10 :
▁oditor iyam
▁nekstab it
▁garmaagar m
▁jor-j or
▁deshabhak ti
▁nongadaan ganoo
▁aatmasam maan
▁periph ir
▁(emesema8909 )
▁ephadabalyoo veejeee
▁"ee-buks "
( jen
) is
- 9
- o
- w
- taree
- chh
- yooesabee
- leetar
/ k
/ ta
2 )
2 000
3 30
3 49
4 3
6 30
8 20
8 ppi
9 50
a z
a ya
a 2015
a fon
b aar
b aab
b aajee
b aink
b ilitee
b uking
d har
e z
e maar
f o
f it
f achaibook
g )
g hee
h tee
h ed
h ind
j ait
k ad
k vik
l abh
l aayans
l aapan
l atai
m ,
m aee
m air
n aar
n or
n aee
o shal
o lej
o therepee
p aas
r aand
s n
s aath
s peed
t )
u gat
u gh
v y
v aay
w k
w s
w ay
w 01
x 8
x 1440
y ukt
z ik
z anee
‍ yoo
▁ र
▁ 990
▁ जि
▁k 6
▁k ree
▁k sh
▁k yool
aa e
aa pane
ha i,
ha maare
ar o
▁s le
▁s tem
▁s tareey
in j
▁p ake
▁p aab
▁p 50
▁p 65
▁p uta
▁p esar
▁p 8000
▁p df
▁m d
▁m ate
▁m ij
▁m aadha
▁m dr
▁ha eed
▁ha zaar
an aav
▁b ri
▁b ich
▁b lej
▁b abal
is )
▁hai x
▁hai pee
▁hai lo
ya lar
▁d em
▁d aanon
▁d ikshan
▁d avaee
▁d dis
▁a h
▁a iksal
▁a int
▁a str
▁a 37
▁a udyog
▁a 2010
ta te
ta googal
▁j y
▁j iy
▁j aim
▁j aava
▁j haar
▁j aaga
▁j voin
aar )
aar ika
▁me har
▁me jar
▁me king
en :
▁ke l
▁l aad
▁l el
▁l ang
▁l oded
▁l atak
ak isee
ak haav
▁n aate
▁n abanr
ai ’
ai tar
ai dh
▁r olar
▁r iz
▁r apat
▁r abad
▁r pm
▁v 1
▁v ents
▁kee -paid
▁is tee
aan jali
▁t aat
▁t ent
▁t rol
▁t aalee
▁t ilt
▁t -pad
▁t nt
al ing
al aava
at ing
▁e 10
▁e chaar
▁e 555
▁e jeepeees,
▁h em
▁h w01
▁se laph
▁kar un
▁kar emm
▁ko -op
▁ph od
▁ph eree
▁ph igo
▁ph ikr
▁ph eb
▁aa hat
▁aa to
ik hit
es ta
es har
ad oo
ad haar
am obail
ph ekt
ph olo
aat ha
as at
as aid
as ee,
as abha
as abase
as varoop
▁par rik
▁par akha
▁par phekt
▁hain dee
▁g iph
▁g ham
▁g inee
▁g yaat
▁g sm
▁g aavas
aal aanki
▁1 geegaahartj
▁1 /4
▁ga un
▁ga dha
ab aan
it iks
ek yoo
▁ta j
▁ta maga
▁ne ha
▁ne ls
▁ne lap
▁ja har
ata ,
im i
▁2 ,400
ro ph
▁kam ish
▁kam iyon
▁na phar
▁na haen
▁y aar
▁y antr
▁y zf
▁sak oon
le tar
▁ch 5
▁ch 45
▁ch ity
▁phon :
aad hana
▁ki gra
aam ane
ake yar
▁5 a
▁5 35
▁5 18
▁5 ,290
▁4 60
▁3 emem
▁kh aaka
▁sh oo
▁sh iph
▁sh aasan
▁sh iphon
ap iks
aik il
▁jee 9
▁jee phors
▁o gam
jee v
aav an
ay ool
aap al
aap akee
te jee
bee ,
▁bh id
▁bh ramit
▁bh aanti
▁bh bhee
ain ti
un ak
un da
ana gar
dee see
▁pr e
▁pr iyas
▁pr edis
iv o
iv edee
▁mo je
▁mo vai
la u
▁phee kom
▁va zanee
▁ma eej
end ars
▁jo shee
sh aad
aim ail
▁dee aarel
▁sam m
▁sam bo
▁sam paad
▁sam eer
▁sam osa
▁6 ghz
▁an ap
▁an gr
▁an ootha
▁an idra
▁8 ,490
▁yoo aan
▁yoo eksa
▁cha up
▁cha yaapachay
ish iyam
▁dil aaya
▁un ich
el iyon
el ens
ok al
ok om
▁mil ee,
▁mil een
aak e
aak habar
▁hon gen
ant oo
▁hu ma
▁tee esaee
aata phon
▁ra han
▁dis eej
ut s
ul eshan
▁see ,
▁see l
▁see dee
▁see zan
em ajee
aay ukt
av el
av aid
av aayan
av aij
▁pad on
▁pad hata
▁pad aarpan
om an
om et
▁ban een
▁ban aie
id dh
▁ve ree
▁baitaree m
▁sk od
▁( aa
▁( dee
▁( 30
▁( keemat
▁( 854
▁( eaee
▁( 802
▁end -too
iyar ing
adee j
▁karen yadi
▁do sa
▁ba un
▁ba hanon
▁kha lan
▁baar ,
var sh
▁karata b
▁phr ik
▁phr aid
▁yoojar anem
▁bl yoot
▁op air
▁aaee b
▁aaee yoosee
▁laga o
▁be vas
▁ran ga
▁ran jana
▁ham alon
yar s
yar ee
od aijd
aanee ’
▁sha in
▁mai reen
▁gr ai
▁gr aivitee
▁maar iyo
▁kan teen
ij eshan
▁kv aid
ki takait
ais t
ais enjar
▁kuchh -kuchh
ud dee
▁prosesar :
ib ishan
▁20 5
▁20 8
▁20 21
pha l
ri aind
op hee
op ing
▁sar d
▁sar og
▁eks -sh
▁var n
▁pl at
▁khaas iya
▁len th
▁da zain
▁ap laee
▁sa han
-k aar
-k ood
-k ool
-k ophee
▁chal aakar
▁sp aich
▁din -ba
▁‘ van
▁‘ na
▁‘ mah
▁‘ vik
▁10 ,500
▁don aald
anee y
▁sel aree
▁sel yoolar
▁divais ,
▁chaar tar
▁chaar -chaar
▁skreen ing
▁sakatee n
▁kanekt iv
▁pee pal
▁pee da
▁pee 20
▁bat aakar
▁bat aayee
▁bat tairy
▁pha laish
▁pha itar
▁16 ,
▁16 6
▁16 8
to s
▁ut k
▁ut hana
▁ut peed
▁13 ,
▁13 ,499
▁san yog
▁san gyaan
▁9 ,500
ti haan
▁en atee
▁en teev
▁en odaijd
▁ind or
▁ind ip
▁haind abaig
▁ee 8
▁ee jee
▁ee deejeeee,
▁ee beedee
▁sim p
re taree
▁bee aar-
ash el
▁bik atee
▁32 ,490
▁mad raas
▁dh aanch
▁bah uchar
▁adhik rt
▁van ,
▁van atach
▁van dana
▁lee ,
iph in
▁har t
▁har aakar
▁tr il
▁tr ast
-pha ee,
ig s
ig ing
▁emapee ech
yon g
ool on
▁su b
▁gee lee
▁vee 1
▁vee 9
▁vee 10
▁vee ja
▁maan en,
▁el overa
▁11 1
▁11 ,499
▁11 ,490
▁25 2
▁kalar ,
▁jal aane
▁kya !
▁br adars
▁spee ch
-s ab
-s tep
aree ksha
▁jaroor ata
▁roope ,
▁shree raam
▁chuk aana
▁ed amishan
▁ed iled
▁gl is
▁gl itar
▁64 ,900
▁no phon
▁no ugat
▁ophar !
▁dar ane
▁dar sha
▁dar janon
▁- 1
▁f ch
▁f un
▁f ord
▁f indair
▁f dd-ltai
aag on
▁khareed anee
▁philm akaar
10 5
▁teen -chaar
vo yas
▁khel -khel
▁sarv elens
rol ik
▁ghar ,
▁ghar shan
▁ak elee
▁sv aarthee
▁14 ,000
▁gail ek‍
▁bo y
ogr aaph
▁tahat ,
▁khud ara
▁man sha
▁man oj
air ning
▁or gen
▁or aio
▁kamp leet
▁nirmaata ,
▁ok shan
▁dv aar
▁ple tal
▁im asen
▁im aii
▁im tihaan
▁kr im
▁kr shi
▁kr shn
▁plas ’
▁plas a2
▁mah aanagar
▁i robot
▁aar adee
-b odee
-b ahut
-b harakam
▁rang ,
▁rang ana
▁gend en
▁as vasth
▁lai phonai
▁min ee,
▁min istar
jah aan
▁aan alain
▁aan ton
▁daun ap
▁daun ataun
▁bha ug
▁taur -taree
sa ch
▁30 5
▁30 -40
▁bar ld
▁jen etik
12 1
▁eph il
▁paanee ,
▁sun e
60 mah
▁pur ai
▁gh ul
▁gh ot
▁gh ulanasheel
os s
▁dijain ars
▁prod ak
▁najar :
ingar aprint
▁liya ,
▁rip abl
▁rip haind
▁tekn ol
▁netavark ,
▁av val
gr et
▁aay aam
er iyan
▁phingaraprint s
▁buk s
▁shik aayaton
lab ard
tr aimai
▁jan ak
▁mas oor
▁mas kular
▁suj ha
▁suj ukee,
▁vyak tiyon
▁19 8
tav itee
▁mee yooaee
▁mee raak
▁vol it
▁sil aee
▁hed afon
▁pat ta
▁pat aree
▁maj ja
▁gay een
▁sal avaar
▁ot onomas
▁lagee n
▁kain ekt
▁shar aarat
▁sheyar on
▁jeevan akaal
▁saab haar
▁mal ik
▁gan je
▁petrol iyam
▁50 9
▁phes ataim
▁mi chal
▁od -eevan
▁chun ee
▁krik etars
▁tvacha ,
▁th aane
▁th red
▁1, 199
▁1, 599
▁1, 699
▁tul asee
▁tul anaatmak
▁lain ,
▁lain eks
▁raaj asv
▁" "
▁khatar on
▁kal t
▁kal am
leek et
▁jud ana
▁tel ,
▁tel iv
▁500 00
-1 8
▁ud iya,
▁chuna uti
▁rok ate
▁graam ar
▁post s
▁kro karee
gh i
▁char ch
▁aphree kee
▁2, 900
▁nav aachaar
-m as
-m it
-m ob
-m etal
-m ote
▁kaip ebilitee
▁sarakaar on
67 0
▁baal an
▁dijital ,
▁kool aped
▁kool apiks
▁stail ing
▁kis mat
▁deejal ,
35 20
▁nikaal atee
▁ai asy
▁laiph ,
▁26 4
▁26 ,500
▁vit h
▁pak ka
▁kyoo 8
▁2016 :
▁jindagee bhar
▁abh ish
▁haee end
-see ma
▁maltee -v
▁dhan ur
▁dhan iya,
yav aanee
▁ail o
▁ail aicht
▁ail yt
▁epha seee
▁saaph taveyar
▁ej -too
▁kaun asee
▁kaun -see
▁saij ,
aiga dai
▁painal ’
▁uth aakar
▁720 pee
▁chhote -bade
▁chhote -mote
▁pan non
19 8
19 tee
▁traik ar,
▁khol ate
▁esee /e
▁dok taree
▁dok os
▁sthaan aantarit
▁redamee 2
▁dim ensh
▁and ara
▁sain tist
-ph rem
▁phan gal
17 0
17 9
▁haard adisk
▁pahan ate
▁aprail ,
▁myooj iyam
▁gujar e
▁gujar atee
adh yapradesh
▁rakhana ,
▁paenge ,
▁samajh aana
▁pahuncha kar
aarm eshan
▁ol -vheel-draiv
▁ins entiv
▁vairiyant s,
▁jeda 5
▁jeda 51
▁33 00mah
▁jaldee -jaldee
▁45 50
▁nish aanee
▁prav een
▁garm aahat
▁parsent )
▁okt op
▁saha mat
-v i
▁27 50
▁men d
▁aag aaj
▁paik d
▁ben cha
▁chhotee -motee
▁chaahen gee
▁3, 100
▁seek hee
▁seek val
▁veb akaim
▁vaid ar
▁haik sa
▁chan da
▁kaan te
▁mid al
▁hedaphon ,
▁q 11
▁haid rolik
▁phoks akon
-l ok
-l ahasun
16 00
▁laal ach
▁speshal ist
800 piksal)
▁sikyoritee ,
▁divaalee :
▁aaeeoes ,
▁aqu aris
▁bhavish yavaanee
15 )
15 36
▁thodee -th
▁nam oon
▁zain ith
▁vig yap
▁mon eetar
▁1280 *
▁ana jaane
▁mool yon
▁dekhana ,
▁mit ron
▁sans aar
▁kaaranaam a
▁bhaaree -bharakam
▁varld avaid
▁jeepeees/ glon
▁shak l
▁phain tam
▁mun naar
32 2
▁baay otek
▁khoj ate
▁kaimar oon
ela je
▁peed i
▁82 ,000
▁karava egee
ech o
ech es
pr ad
▁tekst ,
65 82
▁seesee teevee
,7 49
▁roo chi
▁nid ra
▁42 mm
▁aj as
▁aj avaayan
▁niv aasee
▁niv aasiyon
▁yoonivarsitee j
▁kho ya
▁staart -stop
▁mak ka
▁vigyaapan adaataon
▁‘s eting
▁kin aara
▁eg jeekyootiv
▁eek oboost
▁ped -pa
▁emb eded
▁84 99
▁820 kyoo
▁enj el
▁ram esh
▁vil iyam
▁dablyoo dee
▁gol iyon
▁laind ask
▁pratib addhata
uta ir
▁chaarjar s
-en a1
▁pent iyam
▁pent ings
▁daud ata
▁daud atee
▁dhee le
▁dhee la
▁48 50
▁smaartavo cha
▁mel en
▁amaree kan
asar phar
▁jaengee ,
▁mud akar
▁mars adeej
▁motarasaikil on
▁88 8
▁diggaj on
▁riv aij
▁pratik ool
▁day aal
▁parinaam asvaroop
▁bi gade
▁hai- end
▁aaeeem a5
▁199 6
bl aik
bl ootooth
▁nibh aatee
▁38 40
▁laut ana
▁eeyar ’
▁eeyar abad
▁eeyar aring
▁ir d
▁ir aade
▁aaaitom obail
▁bojh il
▁mam ata
▁gaad he
▁shed ayool
▁(m aikro
▁rol s
▁sens itiv
▁pree-buking s
▁proksimitee ,
aarat ne
▁blu ai
go ing
▁dais k
▁hol ly
▁philtar ,
▁philtar s,
chaarj ing
▁daayabiteej ,
▁taig ing,
▁proteen ,
▁apek shit
▁lains et
▁ema5 30
▁iphekt iv
▁s‍ t
▁etam os
▁6, 0
▁spor tabaik
▁paksh on
apat r
▁maut on
▁aautal uk
▁sol yushan
▁ev ont
▁ev entaador
▁aatan kee
▁(14 40x2960
▁kailshiyam ,
▁chot on
▁nim aar
aitis ,
▁dahee ,
▁sanarooph ,
▁hil aane
▁hil aakar
▁prooph ,
▁8, 888
▁dyoo tee
▁diph ens
▁mt67 35
▁rain aigadai
▁e5 000
▁chat anee
▁instr aktar
▁mand ela
▁chop ing
▁nek ses
▁jaagar an
▁jaagar uk
▁chon tin
oliyo sis
▁ande ,
▁paancha vee
▁suk had
▁saind aston
▁est an
▁est et
adar shan
▁tail s
▁‘b ombe
▁nip at
▁jeev it
▁primai ,
▁risee var
▁trik on
▁chet ana
▁dhool -mit
▁maastar ,
▁thakaan ,
▁adarak ,
▁lum iya
emabee peees
▁boo dhe
▁bej od
▁tai ap
▁m3 s
▁bek ing
▁peeriya ds
▁vivaad on
▁nateeja ,
▁elar jik
▁toor ing
▁pach aane
▁ematee65 92
▁ematee65 72
▁bigad ata
▁samaaj on
▁khan na
▁tahal aka
▁taink ,
▁phiksd -phokas
▁vaip hai,
▁sele ron
▁indon eshiya,
▁pyaaj -
▁las see
x7 1
▁inv estament
▁chad dha
▁vark ashop
▁haipar al
▁svar g
▁z17 s
▁ephajed -ena1
▁sus tee
▁sud heer
▁tor ant
▁phab 2
▁ee-k aamars
▁ema3 50
▁prashan sak
98 32
▁bot hee
▁vaak iph
▁dila ega
▁dekho ,
▁maanga te
▁abhibhaav akon
▁kaaga jon
▁norm s
▁gaan en
▁gaid alain
▁kaibin et
rsh y
▁parich it
▁kaaj al
▁nan o
▁rot et
▁tyoon ing
▁guj hiya
▁maiken ijm
▁saum ph
▁x3 60
▁pree-inst ol
▁pratibandh it
▁loon ar
▁chor ning
▁mano vigyaan
▁asant ulit
▁2,7 99
▁phans ane
▁saiph aayar
▁talaas hen
▁kishor on
▁kishor aavastha
▁utsar jit
▁hariy aana,
▁tee8 60
stor ej
▁karnaatak ,
▁tir uvan
▁dabl oo
▁bhaaga daud
▁prin ted
▁q6 a
▁kaa airning
▁sok et
▁620 jee
▁sabs id
▁(z b
▁eemaan adaar
▁khila un
▁sile br
▁vilen ’
▁mail aston
▁a-g ps
▁edee 3520
▁(7 )
▁chhid ak
▁raajanee tik
▁saan and
▁aseem it
▁chash me
▁naitro jan
▁jaam un
▁liv ing
▁ves pa
▁maans aahaaree
▁elapeedee deeaara3
▁majaak iya
▁pit t
▁blee ch
▁blee ding
▁rist or
▁rist aart
▁kais et
▁ragad en
▁asth i
▁asth aayee
▁parampara on
-f z
aaap ako
▁hath iyaar
▁jhad ane
▁photograaph s
▁dijee j
gaan istaan
▁uj j
▁shaah id
edis kaunt
grej uet
▁enteeoksee dent
▁chaimpiyan aship
▁inspaayar on
?main ne
▁pudee na
▁rap aye
▁voo ch
▁aatha veen
▁yalo ,
▁choos ane
▁klin ik
▁krip tan
▁think apaid
▁infin ix
▁rx 10
▁phis kal
▁gej ets
▁jeda35 80
▁jeda35 60
▁mitha iyaan
▁maeekro maiks
▁dragan atrel
▁khaal id
▁bhr aant
▁bhr asht
▁pracha lit
▁shat aab
▁vikram ajeet
▁fai at
▁arti ga,
▁raich ogn
▁rimaind ar
▁dhaaraavaah ik
▁dhaaraavaah ikon
▁tantrika on
/64 jeebee
▁dmch -fz
▁kasar at
akad amee
▁vim aanon
▁toorn ament
▁gop ro
▁raph oo
▁khair ,
▁eesh var
▁haath-p air
▁soch-samaj h
▁vinam rata
▁aaident itee
▁thakkar ,
▁davalap ars
▁jadee-boot iyaan
▁dul han
▁droid asarphar
▁aud i
▁otee e
▁enk ripshan
▁garbha dhaaran
▁telug oo
▁seeeees a2015
▁सीओ /
▁schan nair
▁haiad s
▁down load
▁eks- re
▁mobil ais
▁krpa ya
▁rang-biran ge
▁ephish iensee
▁sashak t
▁reejan al
▁oorj aavaan
▁nusk he
bach k
wal i
▁jp aig
▁haaj ir
▁hyoom an
▁shaab aashee
▁bhiksh u
▁‘bo bee
▁‘se v
▁eng ree
▁namo tel
▁mirara 5
▁daag-dhab bon
▁k7 i
▁kaist rail
▁naakh ush
▁sela phon
▁chaun ka
▁dilar uvaan
▁raish ej
▁seeeph -
▁spir it
▁indradhan ush
▁11bee /jee/en,
▁kampait ibal
▁konph igar
▁eksa555 elaje
▁prayoga shaala
▁eksatend ed
▁pass w
▁phitar ist
▁taeem eks
▁taix t
▁yaach ika
▁deva gan
▁blut ooth
▁vaee51 el
▁aipl ikeshan
▁aimoj i
▁pigment eshan
▁(esasee77 31)
▁ane bal
▁sleev s
▁baang la
▁dus tair
▁aiss ainti
▁lpd dr3
▁nrt y
▁repha ree
▁aaail to
▁gast o
▁pheen gar
▁deejee seee
▁spon sar
▁pee99 83
▁phalas varoop
▁soft warai
▁impairi alai
▁kvaalak aaaim
▁maarshamai lau
▁traansale tar
▁gopanee yata
▁beneph its
▁chinaim ax
▁aara9 es
▁dipl oma
▁chikits akeey
▁gaira jarooree
▁deeteeeeke 50
▁srs -xb
▁chandrashekhar an
▁nilam bit
▁periphir als,
(jen a2)
▁जि ओ
▁mate riyal
▁mdr -xb
▁jhaar akhand
▁riz olyooshan
▁karemm adhyapradesh
▁parrik ar
▁naphar at
▁ogam ented
▁sambo dhit
▁angr y
▁end-too -end
▁blyoot ooth
▁bevas ait
▁ranjana gaanv
▁spaich ial
▁din-ba -din
▁enteev aayaras
▁bahuchar chit
▁gailek‍ see
▁meeraak aast
▁ganje pan
▁ej-too -ej
▁dimensh iya
▁thodee-th odee
▁vigyap ti
▁peedi ta
▁‘seting ’
▁ped-pa u
▁laindask ep
▁tiruvan antap
▁raichogn ition
▁eksa555elaje -eks
▁aissainti al
* 1080
, 1
- i
- al
- yoo
- gar
- 80
- bha
- 35
- 70
- hansate
/ 7
/ d
/ 16
/ 128
1 -
3 60
4 60
6 3
7 9
7 68
9 7
a panee
a ish
b aee
b and
b andhan
b izain
d ok
d ual
d uniya
e rik
e val
f un
g hak
g yon
g raiss
g aileksee
h aata
i pal
j aad
j ub
k g
k ai
k aaree
k tiv
k bps
l aava
l eshan
m en
m as
m il
m anee
m asang
m aand
m abh
m aint
m imee,
o th
o yalet
p ahalee
r aad
r aav
r iks
r uch
s :
s ain
s itai
t is
t aad
t um
u chch
u tal
u veee
v d
v iyar
v ayan
x i
x 450
y s
y olyooshan
— —
— phaee
▁ |
▁ ल
 ras
ee sh
▁k ‍
▁k aay
▁k 10
▁k aast
▁k iston
▁k vartee
aa o
aa ain
ha y
ha dee
ha rot
ar y
▁s 10
▁s aagar
▁s 31
▁s maj
in iks
in aava
in gal
in ishan
▁p ap
▁p ing
▁p ir
▁p el
▁p em
▁p app
▁m ya
▁m iy
▁m aad
▁m atar
▁m aapa
▁m hz
▁m istik
▁ha unda
an gee
an okiya
▁b ing
▁b reej
▁b ars
▁b aaaidee
▁b ashch
is ‍
is an
▁hai ”
▁hai lai
▁hai tek
ya j
ya kar
ya s,
ya taon
▁d aah
▁d aree
▁a uj
▁a ib
▁a gal
▁a kaun
on aree
on alain
ta 4
ta ing
ta s,
▁j aar
▁j es
▁j ek
▁j ait
▁j um
▁j iph
▁j aati
▁ka ur
▁ka vi
aar oos
aar taphon
▁me te
▁me lab
▁me ks
▁me rid
▁me von
en th
en aasonik
▁ke 8
▁ke dee
▁ke 480
▁l oj
▁l i-
▁l oonga
▁l ight
ak hee
ak esh
ak vaar
ak shee
ak ushee
ak ranch
▁n b
▁n aay
▁n asee
▁n alee
▁n ason
▁n ight
ch hai
ai h
▁r uj
▁r eej
▁r endar
▁r icha
▁r utar
▁r inyoo
▁v 7
▁v ak
▁v og
▁v ich
▁v ala
▁v aard
▁v akta
▁v aaai
▁kee —
▁kee vard
oo te
oo -m
▁is i
aan iyon
▁t ulee
▁t ujhe
▁t italee
al d
al am
al ist
al okar
at hit
at ura
at hair
▁e vee
▁e 55
▁e vaj
▁e bs
▁h r
▁h i-fi
▁h orn
▁se ):
▁kar ish
▁kar em
▁ko k
▁ko kar
▁aur enj
▁aa h
▁aa adi
ik eted
ik ilai
es us
es alet
ad al
ad or
ad and
am ed
am my
aat rik
as ak
il is
il at
ah om
ah maand
▁par amaan
▁par avaah
▁ya mah
▁g el
▁g ra
▁g est
▁g aabee
▁g aalon
▁g ond
aal itee
aal ee,
▁1 )
▁1 :
▁1 -maikron
▁ga han
▁ga hane
ab o
ab as
ab it
ab aay
ab aala
ab ada
ab andhak
▁u 5
▁u dee
▁u bhaar
▁u bala
▁u imi
cha int
it ej
it yood
ek end
han ga
▁in chh
▁in atek
▁in astol
▁ta un
▁ta la
▁ta iz
▁ho var
tar an
iy aaron
▁ja inee
▁ja oonga
ata kar
et ibal
im ent
▁2 i
▁2 k
▁2 dee
▁2 nd
▁2 megaapiksal
ro teen
▁kam al
▁kam aana
▁kam ob
▁kam atar
▁na ha
▁na oo
▁y ed
▁y ojan
▁y 27
▁ek l
▁ek at
▁ek aad
▁sak htee
le romeetar
▁ch hata
▁ch enjar
▁ch imp
▁ch ub
▁ch ilee
▁ch urv
▁phon !
aad ar
aad hee
aad ee,
ane ,
ane -s
aam ent
00 ,000
▁5 :
▁5 u
▁5 ,490
aas in
aas han
aas ang
▁4 i
▁4 990
▁4 -inch
▁4 ,499
▁4 15
▁aap aatak
▁kh ep
▁sh on
▁sh aar
▁sh el
▁sh ibuya
har akhaav
ap aat
ap ro
aik ’
▁jee ee
▁jee 71
▁o ’
▁o is
▁smaarta ple
ara yah
ay on
ay oot
bee ch
▁kampanee ,
▁bh im
▁bh aaloo
ain ik
▁to ta
un alod
dee )
▁bad an
▁pr is
▁pr ako
▁pr aksh
▁pr adeep
▁pr aant
▁pr aadhik
▁pr aamaan
iv ee
iv airs
▁kaar yar
▁kaar amekar
la ee,
gee g
▁phee pha
yoo sh
yoo echadee
ir a
▁ma isa
▁ma chee
pal ar
sh ita
aim ik
▁dee ph
▁dee daar
▁em pal
akee n
▁6 a
▁6 see
▁6 10
▁6 500
▁6 ,500
▁6 plas
▁an oothee
▁8 k
▁8 990
▁8 ,990
▁8 ghz
▁8 ,500
▁8 megaapiksal
▁cha u
▁cha in
▁cha ne
▁cha tak
▁cha kat
▁cha pat
ish tha
▁dil ’
▁dil on
▁pro taich
shan ing
ip ha
ip har
aak an
aak istaan
▁hon g
esh iyan
▁ab hay
▁hu ami
▁tee ka
▁tee dablyoo
▁sab ha
▁ra cha
▁ra eet
▁us apar
▁us taad
▁bai ai
▁bai yon
▁bai jing
▁lon ‍ch
ut aav
ge tar
▁st ek
▁st iks
▁st ant
▁st haee
ul o
aaj oo
oor oo
▁see oo
▁see aee
em iya
aay on
▁pad am
om ee,
om etrik
om akesh
▁ep ‍
id am
id eted
▁ve ron
▁upalab adh
▁baad hit
▁baitaree j
▁sk ail
▁sk vee
▁sk eting
▁sk oliyosis
▁( o
▁( ab
▁( up
▁( vee
▁( mee
▁( so
▁( veeaar
▁7 e
▁7 i
▁7 990
▁7 65
▁rak harakhaav
▁tha m
▁tha gee
▁de yaree
▁jaan iye
▁ba hane
eed iyokon
▁raim :
▁al p
▁0 l
▁0 -leetar
var it
▁bl oom
chch hee
▁baat ,
▁op as
▁aaee aar
▁aaee see
▁aaee na
▁aaee -p
▁laga ega
▁be la
▁be phik
▁intar akanekt
▁intar aiktiv
▁maikro se
▁ham al
od ar
od ay
od aayan
▁gr aand
▁maar atee
ki ta
ais tival
ud gh
ib o
gal ar
▁20 70
▁12 000
aara jee
ri o
op iya
▁sar ,
▁sar kul
▁eks il
▁disple :
▁pl aane
▁log e
▁ap akam
▁ap aartament
▁ap ointament
asan khya
va g
egee ,
▁sa chche
▁sa ude
-k e
-k r
-k ur
-k ash
-k ahaan
▁lag engee
▁lag joor
ho ,
▁es e
▁es apee
▁es enshiyal
▁sp el
▁sp aee
▁sp eyar
▁sp ichai
apee s
apee riya
▁roop ediskaunt
▁main ,
▁main s
▁din aank
▁‘ on
▁‘ aar
▁‘ en
▁‘ ab
▁‘ sar
▁‘ di
▁‘ too
▁‘ ba
▁‘ oto
▁‘ endroyad
▁‘ inteks
▁10 3
▁10 7
▁10 99
anee sh
ind o
20 1
20 18
▁nir dhaaran
▁divais :
▁adh oora
enge ?
▁kanekt iee
▁pee l
▁pee 55
▁16 ,900
▁bana vaane
▁13 ,990
▁13 megaapiksal
▁13 66x768
▁san yo
▁9 chch
▁9 500
▁9 40
▁9 -inch
ti ons
▁en a
▁en a3
▁maich ing
▁ee ting
▁ee aeees
▁ee -sk
▁bee m
▁bee 12
▁bee /jee
▁bee ns
ash aastr
▁bik ana
▁32 99
um r
▁haindaset ,
▁echadee el
▁injan ’
▁dh ru
▁bah oo
▁bah aanon
▁bah uv
van dee
▁so en
▁ro s
▁ro yas
▁ro bart
▁on 8
▁on iks
ist aanee
▁sistam )
▁dij nee
▁bata o
▁jin apar
▁jin asen
▁piksal ,
▁piksal s,
▁mem or
ool s
ool y
▁su h
▁su hd
▁gee ta
▁chh aapa
▁maan esar
▁el eks
▁11 b/g/
▁25 8
▁25 40
▁25 -30
▁kl or
▁15 9
▁logon ,
▁x a
▁x ai
▁br aas
▁br aanch
▁br est
▁br ahmaand
ag aad
▁geeg aabait
-s aat
-s aimasang
▁le ,
▁le deej
▁dual -baind
▁the pht
▁vaee —phaee
hata ur
▁ed rino
▁indiya ’
▁gl oree
▁f 2
▁f laish
▁f ingair
ma 8
aag oogal
aag rah
▁badee -badee
aj at
▁philm aaya
yool t
▁phl aiks
▁sta in
vid asan
▁khel enge
▁phree jar
aakar shak
▁sarv ot
▁po ha
▁po chkait
▁paar adar
▁kyon ,
▁jaatee n
▁ak harot
▁rej olooshan
aare ph
▁sv ing
▁14 enem
▁snaipad ra
▁lo ar
▁lo sal
▁bo x
▁bo dh
▁khud akushee
▁man ip
unt u
▁jaane -m
▁maha z
▁or g
▁ok inaava
oks aid
aash aalee
▁eyar odaayan
▁kr aapht
▁kr yp
▁mah aarat
▁mah aapr
▁mah aatma
▁daal o
▁i (jena2)
asee aar,
▁vh el
▁aar aadhana
-b ait
▁red iya
▁aaya ,
▁beech ,
▁z 3
▁as osieshan
▁lai tar
▁dyool akor
▁kab aad
▁kab j,
▁shuru ,
▁photo 1
▁bha lee
▁suvidha ,
▁vajah on
▁vajah en
▁30 3
▁apad eshan
▁sek retaree
▁son ik
▁bar chail
▁lok ar
▁bhar anee
▁bhar akam
▁w idai
▁w ammy
▁rejolyooshan ,
▁sun en,
▁sun avaee
▁sarvis ing
▁ilektrik al
▁ju aan
▁ju ichai
▁jagah ,
▁gh odon
▁oes :
▁chee k
▁chee p
▁vind o,
▁av eyar
▁av aidh
-p ata
-p ort
▁lait on
▁peechhe ,
▁laipatop s,
▁gho sh
▁khar aboo
▁sahee -sahee
▁kareeb iyon
▁21 999
▁ovar ol
▁lik hatee
▁lik henge
▁dete ,
▁maam a
▁nyoo ral
▁18 000
▁18 50
▁jan asankhya
30 6
▁19 2
▁19 3
tav y
▁kaaron ,
▁mee th
▁sl atai
▁sl idai
▁sl ogan
▁vol ks
▁vol tej
▁vindoj a8
▁sil vair
po int
▁band han
too -bodee
▁phar ama
▁top -end
▁kon a
▁door ,
▁door -door
▁pat ron
▁dha d
▁ot har
▁kain teen
▁yooj d
▁17 ,
▁17 ,000
▁bade 
▁prodakt ivitee
▁24 ,990
▁dekh oge
▁mal t
▁mal eshiya,
tv itar
▁gan esh
▁gan ita
▁200 2
▁200 chch
▁200 seesee
▁taak ee
▁bachchon ,
,4 50
▁staar tar
▁bol en
▁bol atee
▁bol abaala
epha 1
▁phail ata
▁ar m
▁mot aapa,
▁esa 90
▁paanch on
▁th ir
▁th ings
▁28 ,990
▁1, 19
▁1, 200
▁otom et
▁raaj esh
▁raaj amaar
▁chip ,
▁" is
▁" on
▁thar m
▁rikord ,
▁jod en
▁bra chai
▁karav aata
▁kastam aijeshan
-1 1
-1 6
red it
▁bodee ,
▁rok atee
▁rok astaar
▁pram uk
chaar jar
▁too phaan
-in chh
gh aatmak
▁char am
port s
▁2, 0
▁2, 300mah
▁aam antrit
▁iv aan
-m ek
-m obail
-m aikromaiks
▁kaip isitee
67 53
▁sm ol
▁kis se
▁rav aana
▁prabhaav akaaree
▁sik haen
▁sik yur
▁ai on
▁eksap ortar
▁vy aakaran
▁laksh man
▁26 000
▁26 20
▁26 ,000
▁26 50
▁vit tal
▁pak ade
▁pak avaan
▁hom avark
▁chahal akadamee
▁haee silikon
▁sarch ing
▁emem )
▁aaaiphar !
▁jam bo
▁maltee -p
▁29 6
▁sad a
▁joon ,
▁phit ed
▁gir ate
▁mushkil en
▁dhan k
▁jeetee eks
▁ail ita
▁epha 8
▁ej ent
▁motor ch
▁kaun -se
▁re lag
▁ang ul
acha nd
▁poo jan
▁720 p
▁ostreliya ,
▁pan je
▁99 mm
qu id
▁nee yar
▁nee tiyon
▁apr oov
▁khol enge
akam p
▁mahatv ak
▁phokas d
▁go vin
▁haan i
▁skootar ,
▁pop yoolar
▁pahachaan en
▁pahachaan ate
-ph rendalee
▁phan ee
▁phan gas
▁kanek tavitee
▁haard adraiv
▁pahan aave
▁brek ap
▁pand rah
▁dakshin ee
▁kod s
▁dr aapht
▁rom ,
▁gujar ata
adh aara
▁neks ata
eph ,
▁pahuncha ega
▁ad eptar
▁beees ai
▁beees -3
▁32jeebee ,
▁thoda -th
▁pi chak
▁65 82
▁maiks iko
▁ol imp
-sh or
▁vij ets
▁vairiyant ,
▁jeda 3735
▁yoot opiya
▁aavaaj ,
▁dhon a
▁parsent ,
lo w
▁men oo
▁mainej ar,
55 8
▁3, 800
▁3, 300mah
▁jor j
▁kaan apur
▁bhojan ,
▁imph osis
▁tareeka :
vish v
▁q 42
-l aava
-l ink
▁bel aaroos
▁vot s
▁mais enj
▁aaraam adeh
▁aaeeoes a9
-j oon
▁rajistreshan aringing
▁phrem s
-ch m
▁kheen chana
▁mir ars
-t op
▁gaeen ,
▁‘m eree
▁kost aarika
▁34 ,999
▁34 75
▁altra -s
▁ana phrend
▁mit tal
▁bharo se
▁rij alts
▁miliyan ,
▁prograam s
▁phu jeephilm
▁saajh edaar
▁visheshag yata
▁(2 00
▁indast riyal
▁vel yu
▁duk hon
▁tveet s
▁360 ×
▁baay op
▁baay olojikal
▁kahaan -kahaan
▁bhool ane
▁kaimar aa
▁darj e
▁karava ega
ech esapeee
▁samaan ataen
▁med hak
▁med iteshan
▁aaeepee 67
▁aaeepee 68
-r ay
▁manga vaaya
▁jhata pat
▁roo teen
▁aaie m
▁67 52
▁sangee takaar
▁povar d
▁esh iya,
▁aj avain
▁rod s
▁maip ing
▁svaip ,
▁chayan ika
▁padega ,
▁mak adiyon
▁37 00
▁37 ,999
▁37 41
▁‘s v
▁arab ,
▁arab on
▁sambhaal ana
▁siy ol
ason ee
▁mach book
▁prais arenj
▁esa6 es
▁4, 899
▁kaab are
▁kad r
▁riyal atee
▁dast aane
▁vent o
▁pepar ,
▁hata en
-g ir
-g oogal
▁jeb roniks
▁vil tai
▁reting s
anj ak
▁dharm ,
▁neksas a6
▁kanekshan s
▁samajha en
ba chche
▁vrd ghi
▁gol iyaan
▁pe gaas
▁39 00
▁ip od
▁aara 8
▁saik olojee
▁saik olojist
▁saans on
▁kolakaata ,
▁disha -nir
▁74 20
▁aaeepaid ,
▁650 chch
▁gipht s
▁ruk en
▁sains or
▁sains ej
▁sains uee
53 )
▁sig m
▁intaraphes ,
▁jha takon
▁eksapo -2016
▁riv yooj
▁riv aijd
▁usb ,
les ament
▁mega piksal
▁“ yah
▁phij iks
▁kat ane
▁ghata tee
▁nibh aana
▁byootee phaee
▁chaay -kophee
▁pratid vandee
▁(m sm89
▁125 seesee
▁tig uaan
▁tair ate
▁blu -ray
▁pratikriya on
▁pratikriya en
▁pos char
▁mt k
▁lak ava
▁kahaanee ,
▁munh aas
▁(n fch)
▁dip ojit
▁480 ×
▁egj ibishan
▁saamag riyon
▁telee skop
▁telee nor
▁brauj ing,
▁leethiyam -aayan
▁chhat ha
▁nakaaraatmak ata
intar anal
▁phiks ad
-kh ushee
▁paark ,
▁bola chaal
-ta ch
-ta ip
▁skreen- too-bodee
▁sanket on
▁ev ieshan
▁ven am
▁chot il
▁sook shm
▁taayar on
▁reed ing
▁pash uon
▁str ait
-st aar
▁jimmedaar iyaan
▁mor is
▁bu y
▁apha vaah
▁apha gaanistaan
▁vosh ing
▁shugar ,
▁teknolajee j
▁priv ilej
▁dohar aane
▁oksee dent
▁khaasiyaten :
▁sing ing
▁e5 7
▁810 g
▁aiks ident
▁mekar ,
▁inshyor ens,
aachaar y
▁di wali
▁apeksha en
▁gaard ans
▁chon graiss
▁om ichron
▁emes elaar
▁chand an
▁kaav ya
▁stam p
▁halkee -phul
▁ag n
▁ag air
▁ag yaat
▁nip un
▁jeev ant
▁jeev -j
▁‘j iyaomee
▁nirdesh on
▁hedalaimp ,
▁tuk ad
▁chhup ee
▁too-v e
oph is
▁samar pan
▁amaz fit
▁adarak -lahasun
▁id ol
▁lum ix
▁tamaatar ,
▁boo le
▁pheel ings
vaee -phaee,
▁‘n yoo
▁qu tai
▁leed ing
▁tri gar
▁lubh aavane
▁poon jee
▁heen ata
▁aaeeemeksa 258
▁dhak el
▁dhak ka
▁dhak kan
ust an
▁sameek shaad
ipak v
▁xz 1
▁vidy ut
▁vidy uteekaran
▁bukhaar ,
▁heeroin en
▁vaar ning
▁89 ,000
▁(d o
▁vard ,
‍ta ig
▁drop aboks
▁nibha egee
▁vaip ar
▁sanvaad adaataon
▁1440 *2560
▁singaapur ,
▁gam alon
▁balb ,
▁silendar ,
▁vishl eshakon
lat or
▁stebal aijeshan,
▁chokalet ,
▁ubhar a
▁ubhar ate
▁deejie ,
▁thahar ane
▁pratibh aashaalee
▁ubaal en
-th ree
▁sr jan
▁li quid
▁kichan ,
deejee ee
▁ematee6750 tee
▁sud har
▁mata bhed
▁bed e
▁boon d
▁boon don
▁ema3 30
▁mahaaraashtr ,
▁bor ing
▁bor iyat
▁spen ish
▁2,500 mah
▁baant en
▁baant ane
▁yoonik orn
▁kontr ekt
▁ultee ,
▁maa yoos
▁gaajar ,
▁laee t
▁kaanoon on
▁hansate -hansate
▁kansol ideted
▁satark ata
▁kaaj ol
▁ala va
▁nan v
▁saum p
▁anach aahee
▁koop ar
▁raajasthaan ,
▁bita e
▁khaam iyaan
▁strai ait
▁strai tejee
▁spo talait
▁hariy aalee
▁nikhaar ane
▁prodekt s
▁aauta going
▁pachhaad akar
▁megaap iksel
▁66 60
▁udaas een
▁egree geshan
▁dav aab
▁nfch ,
▁r7 s
▁pros ase
▁pros ais
▁pee1 em
▁phi roj
▁khat aas
▁aashchar ya
▁= >
▁sok hane
▁maath e
▁tya un
▁phevar it
▁khila una
▁khila une
▁hedalait s
▁sharm ishtha
▁pot eshiyam
▁sthal on
▁(see ee
▁eksasee 90
▁sulaj ha
▁veer andhan
▁chhid r
▁1,0 99
▁porsh e
-da ud
▁pep see
▁parya tan
▁parya takon
▁paribh aashit
▁sahej ane
▁daad hee
▁daad aajee
▁taibal at
▁teev rata
▁phrench ,
▁indik etars
▁ghir e
▁ovara heet
▁sy sta
aantar an
▁et om
▁shrad dh
▁tarang en
▁plait ina
▁mang aane
▁khangaal ane
by ur
▁laar gan
▁tish u
▁enasee epee
▁enasee eeaaratee
▁imar aan
▁paat ha
▁m6 s
▁jhad ana
▁ansh ul
p:// www
▁siv il
▁ait ios
▁raakh iyon
▁prostet ektamee
▁401 ppi
▁chipaka en
▁apheyar s
▁vishvasan eeyata
▁294 ppi
▁moongaphalee ,
87 83
▁khee ra
▁haingaut s
▁bheeg ane
▁deeel ene
▁saty aapit
-el ateeee
-de vidasan
▁inak ript
▁zaib -b
▁kaunsal ar
▁kaunsal ing
▁aai3 -4
▁aarkiy olojee
▁marsideez -benj
▁taaj jub
▁hid an
▁praay ojit
▁pracha lan
aill i
▁tarabooj ,
▁sanjee v
-sk reen
▁thin book
▁dasha hara
▁korteks-e 53
▁improov d
▁kukee j
▁sor sej
▁dmch -chm
▁akh il
▁e35 9
▁ekyoo pankchar
▁chaahoon ga
▁chaahoon gee
▁bron j
▁aaved ak
▁aaved akon
▁soch-samaj hakar
▁vinir m
▁naukar iyon
▁a/b/g/ n/ach,
▁jaharee le
▁jaharee lee
▁deek shit
▁stree ma8
▁ee-p es
▁tekneek al
▁kataar iya
▁pashu -p
,00 8
sur fair
vind oj
▁dug dh
▁jup itar
▁kak sh
▁kebee peees
cht ch
▁shin ojen
aign etik
▁aatankav aad
▁chatur vedee
▁maalee-tee8 60
▁othent ikeshan
▁aikt ivitee
▁hur aak
▁phaal atoo
ashee ld
▁doch oss
▁kvaar tar
▁‘haid ar’
▁trans lator
▁telang aana
▁jamp asoot
▁patrakaar on
▁buddhim atta
▁rephar ens
▁visph ot
▁apaholst ree
▁kaans ept
▁rise p
aanksha on
▁vachan :
▁deer ghak
▁anishch itata
▁chair itee
▁disch ount
▁vikal aang
▁enebal d
▁manor anjak
venshan al
▁aai70 1,
▁aimb iyant
▁aaeeemeksa3 18
▁ephajed- epha1
▁‘sheyar ’
▁spheshiphikeshan s
▁span j
▁jil on
▁vorn ar
▁etal as
▁aaai il
▁yooee e
▁dhy aana
▁eladee el
▁korat aana
-bai the
▁rileshan aship
▁teleeven chars
▁tyoobal es
▁ghons ala
-rip laee
▁saap hataur
▁avan atura
▁kasa utee
▁ns 200
▁horm on
▁gath iya
▁taij en
▁kampee t
▁ekteev et
▁bhul lar
▁ans aaree
oten ment
▁ee-r itel
▁dhaan cha
▁mahat ta
▁ork ut
▁i-k aamars
-bain z
▁yuphor i
▁resip eej
▁maignee shiyam
▁mairchaidais -bainz
▁svachch hata
▁pratispardh aatmak
▁nyoojahan t,
emaar asee
hind ustan
▁kyool aks
▁paab andee
▁dikshan aree
▁aiksal ar
▁audyog ik
▁istee pha
▁karun aaratne
▁ko-op aretiv
▁kamish nar
▁yzf -r
▁maeej io
▁khalan aayak
▁kanteen yoo
▁eks-sh o
▁‘mah aaraaj
▁utpeed an
▁simp hanee
▁pletal ets
▁bhaug olik
▁ripabl ik
▁teknol aajee
▁saabhaar )
▁teliv ijan
▁abhish ek
▁maltee-v indo
▁dhanur aasan
▁ailaicht rich
▁andara grejuet
▁mend hak
▁bencha maark
▁ajas tabal
▁smaartavocha 3
▁dayaal u
▁nimaar ta
▁bhrasht aachaar
▁shataab dee
▁passw ord
▁pheengar aprint
▁tiruvanantap uram
ruch f
▁bashch ek
▁jait oon
▁mete riyal
▁meks iko
▁ruj haan
▁vaaai yas
▁kokar och
ikilai aks
▁yed ab
▁y27 l
▁ekaad ash
aasang ik
ayoot yoob
▁prako p
▁kaaryar at
▁baiyon d
▁skvee j
▁bloom abarg
▁bephik r
▁maikrose dee
▁apakam ing
▁kanektiee vitee
▁ee-sk ootar
▁11b/g/ n,
▁paaradar shita
▁jaane-m aane
▁kryp ton
▁barchail on
▁govin da
▁thoda-th oda
▁q42 6
▁pegaas as
▁disha-nir desh
▁halkee-phul kee
▁sameekshaad heen
▁systa im
, 89
- ek
- ana
- sha
- teen
/ 6
/ st
/ 60
/ pr
/ esee,
2 ,000
3 ppi
4 30
5 6
6 60
7 4
8 80
9 20
9 ,000
: -
a w
a gam
b am
b il
b iyan
d at
d ik
d ap
d rai
d olar
d illee
e vee
e gar
e taon
f ich
f aiai
h aaya
h aane
h om
i ga
i as
i tak
j at
j as
j hal
j aapan
j ensee
k as
k ale
l atee
l ich
l aant
l ight
l ochk
l ekin
m ash
m ag
m art
n aiv
o tai
o teen
o eaee
p ,
p t
p aat
r or
r oom
r int
r aint
s i
s ant
s maartaphon
t aar
t anee
t rol
u en
u chars
v )
v et
v ay
v ing
v ais
v e,
v iz
v iliyan
v olet
w a
w av
x g
x l
x 10
x air
x 600
x by
y aaj
y aapak
z ,
× 2560
ं द
र े
‍ lee
‍ yaada
▁ ƒ
▁ 000
▁ ard
 ,
ee p
ee vee
▁k yoon
▁k heer
▁k aayal
aa gal
aa ham
ha il
ha ib
ar at
ar og
ar chh
ar eed
ar thata
▁s aas
▁s atee
▁s ip
▁s ooree
▁s aah
▁s tai
▁s aapt
▁s avaar
▁s aakshee
▁s 333
▁s aaf
in i
in et
in aph
in iyan
▁p aap
▁p isee
▁p aayar
▁p yootar
▁p ila
▁p atel
▁p aala
▁m utaab
▁m istree
▁m oorti
▁m x5
▁m onaiy
▁ha jam
an ir
▁b b
▁b aam
▁b aap
▁b hak
▁b aayar
▁b aalee
▁b aphar
is oo
is aal
is ip
is tam
is hars
ya b
ya mee
▁d ah
▁d ir
▁d th
▁d aana
▁d aid
▁d hal
▁d are
▁d alee
▁d aich
▁d elo
▁d dr3
▁a tal
▁a 11
ta iv
ta bar
ta yah
ta ijing
▁j aav
▁j ir
▁j ook
▁j igar
▁j lr
▁j akad
▁j holee
▁j ‍yaada
▁ka iv
▁ka ul
▁ka ua
▁ka jin
▁me yar
en ’
en tam
en /esee,
▁ke palar
▁l t
▁l il
▁l us
▁l yoom
▁l ips
▁l igo
ak k
ak ya
ak ai
ak ool
ak ript
▁n x
▁n en
▁n ich
▁n ood
▁n aarm
▁n asen
▁n iyok
▁mein -
ch u
ai z
ai ait
ai gan
ai zai
▁r ir
▁r aana
▁r ipht
▁r atan
▁r shi
▁r iksha
▁v ya
▁v ej
▁v aaj
▁v um
▁v asee
▁v ink
▁v aint
▁v aach
▁v aayal
▁v oophar
▁v -strom
▁v endars
▁kee ped
oo ga
oo ba
ga ee
ga le
aan ton
▁t et
▁t ane
▁t aav
▁t hit
▁t uv
▁t dd
▁t varit
ur o
ur aanik
al tee
al ais
al ee,
al s’
al aips
at o
at aanusaar
▁e b
▁e rik
▁e 50
▁e 12
▁e jeepeees
▁e 82
▁e aarasee
▁e 4,
▁h aaya
▁h ita
▁se rem
▁kar at
▁kar aaree
▁kar aay
▁kar ekshan
▁kar odee
▁kar miyon
▁ko -staar
▁ph aak
▁ph ort
▁ph esab
▁ph reej
▁ph laee
▁ph ikom
▁ph leet
▁aur ang
▁aa eed
▁aa chaar
▁aa idee
▁aa ghaat
ik optar
es enel
ad v
ad hee
ad aata
ad iyaan
ad ast
ad uniya
am ’
am atee
ph o
ph in
ph en
ph iya
ph il
ph ishiyal
ph aabet
as ur
as har
as ol
as ho
as itar
as tail
il ,
il lai
il ona
ah el
ah uveee
▁hain ”
▁ya m
▁ya un
▁g z
▁g oo
▁g aal
▁g aayan
▁g os
▁g 70
▁g ix
aal abh
pan ,
▁1 see
▁1 eks
▁1 mimee
▁1 teebee
▁ga varn
ab il
ab een
ab aita
ab -ga
▁u 3
▁u h
cha y
cha is
cha lar
or th
it ana
ek al
ek sha
ek abaar
han tar
▁in /
▁in g
▁in -cha
▁in akripshan
▁in -iyar
▁ta ph
▁ho st
tar b
▁ne har
▁ne tra
iy eshan
iy aaja
iy aaghar
ree d
ata l
et h
im ar
im iya
im aane
im eted
▁2 v
▁2 plas
▁kam ing
▁kam pal
▁kam itee
▁kam peetee
▁na ,
▁y up
▁y ot
▁ek ar
▁ek ne
▁ek sare
▁sak s
le p
▁ch od
▁ch um
▁ch br
▁ch aang
▁phon a
▁phon s,
aad i
phon y
aam maar
aam ag
aam ataur
aha ree
aha maare
▁5 tee
▁5 eph
▁5 40x960
▁5 19tee
aas ar
aas ej
▁4 :
▁4 ,2
▁3 )
▁3 eks
▁3 12
▁3 67
▁3 ,490
▁3 mimee
▁kh etee
▁kh aaton
▁kh aatir
▁sh e
▁sh en
▁sh id
▁sh ev
▁sh inai
▁sh aaleen
▁sh aatir
ap e
ap l
ap et
ap ainaasonik
▁jee vee
▁o ma
▁o sm
▁o asis
▁o emajee
dh oom
▁smaartaphon -ta
aav aadee
aav haatsep
ara g
ara und
aap ee
aap oorn
ing ing
ing th
bee kvik
▁bh aan
▁bh ur
▁bh aat
▁bh ig
▁bh roon
uk hee
▁to y
▁to te
▁to gal
▁to ugh
un ais
ate m
▁vaal o
tee )
tee j
dee aar
▁bad ak
▁bad henge
▁pr ekt
▁pr ij
▁pr asang
▁pr ins
▁pr aasangik
iv ais
iv air
iv alee
iv areej
▁mo hal
▁mo ped
▁mo tion
▁tak aata
atee ,
atee em
▁phee kee
▁phee go
▁phee yars
yoo ai
yoo jar
ir h
iks an
ej ars
ej ament
ej a,
▁ma u
▁ma ish
pal es
end roid
sh ep
▁dee 30
▁dee emaarasee
th etik
▁em ,
▁em ino
▁em avee
▁em astaar
akee b
▁sam an
▁sam ast
▁sam os
▁hai, 1
▁6 e
▁6 x
▁6 mm
▁6 inch
▁6 ,799
▁an am
▁an ant
▁an jaan
▁an anon
▁an kita
▁8 s
▁8 mm
▁8 ,7
▁8 199
▁8 ,290
▁cha ip
▁cha ma
▁cha fai
▁dil aks
▁dil ‍lee
▁dil ivareej
▁pro 7
jar ab
▁jeebee oes
▁un m
▁un ‍
▁un apar
el t
el es
el iyaan
ok aar
aaree k
▁mil aavat
▁mil lain
aak on
aak aaree
aak um
esh aalay
▁hu i
▁tee r
▁tee eph
▁tee -mobail
aata ,
▁sab ane
▁sab uk
▁ra unak
heen on
heen agar
pee see
▁bai jal
▁lek han
▁dis tarb
jan g
jan an
aab e
aab ahaar
ut u
ut paad
▁st ra
▁st oks
▁st ret
ait ing
ot y
ot om
chh ed
▁see p
▁see ment
▁see na
▁see daan
▁see ele
em a2
aay u
av al
av ej
av aans
av och
av aahee
av eediyo
▁pad hon
▁pad e,
aka unt
▁ban k
▁ep ayah
▁ep agoogal
▁upal aksh
▁baitaree 3
▁baitaree is
▁sk id
▁sk vid
▁sk ets
▁sk aich
▁( i
▁( aar
▁( im
▁( jee
▁( echadee
▁( 17
▁( emapee
▁( gain
▁jar oo
▁7 mimee
▁7 -seetar
▁kaam ayah
da g
ekt ivitee
▁den iyal
▁tha ?
▁tha ka
▁do takom
▁jaan abooj
▁megaapiksal )
▁megaapiksal ar
▁tar akeeb
▁ba ist
ort s
▁inch )
▁inch ha
▁inch es
▁kha e
▁kha o
▁kha sak
▁kha jaane
▁kha jaana
▁raim a4
▁al l
▁al sar
▁al eksa
▁0 -litrai
var ,
var g
var ee,
▁phr en
▁phr aind
▁kaha ?
▁bl oks
▁bl aidar
▁bl ochk
chch on
▁baat e
▁baat en,
aip aid
▁aaee -
▁aaee ne
▁aaee /o
he yar
st orai
vee k
vee y
▁intar atenament
▁maikro -sim
us tee
us se
▁pheechars ,
▁pheechars asaimasang
▁ham mair
yar thee
od ing
od hak
od hakar
▁sha uch
▁mai teeriyal
▁stor aj
▁gr asit
▁maar ata
▁maar akar
▁kan sept
▁kan vart
▁kan asol
ij on
tam ain
yaad aatar
ud ai
ud dhi
ud aaharan
ud ev
▁prosesar s
gal at
▁hone ,
▁20 ,
▁12 ,790
pha i
▁jab aav
gar miyon
▁sar as
▁sar jar
▁eks ept
▁var gee
▁var king
▁pl est
▁div yaan
▁div aseey
▁khaas -
▁khaas e
▁khaas is
▁len —
▁ap k
▁ap ako
▁hue )
-k ee
-k isee
-k aimara
-k alar
▁lag aanee
▁es ,
▁es eks
▁es adablyoo
▁es paayar
▁sp l
▁sp oon
▁sp eks
▁sp en,
▁sp ilit
▁die ,
hon da
▁vik re
▁‘ o
▁‘ al
▁‘ jee
▁‘ dam
▁‘ jab
▁‘ holee
▁‘ galaxy
▁10 20
▁10 ,990
▁don et
▁echa teeem
ind oj
▁pa cha
▁pa oge
▁storej :
▁sel ar
▁sel ars
▁4jee ’
▁adh isoo
▁pee 9
▁pee echadee
▁pee eph
▁pee 70
▁pee 470
▁pee yoosh
▁pha unt
▁pha ikt
▁16 99
▁saport ),
▁ut tam
▁bana vaakar
▁13 99
▁13 ,500
▁13 499
▁intaranal ,
▁sen sitee
▁sen adisk
▁san alait
▁san gathit
▁prat ig
▁prat yaksh
▁9 11
▁9 70
ti haee
▁en ah
▁en kar
▁haind amed
▁ee sha
▁ee eees
▁ee -mob
▁ee 670
▁vai vaah
▁vai rs
▁bal aatkaar
▁bal agam
▁sim (
▁sim )
▁bee tee
▁bee bar
▁bee yar
▁bik ai
▁bik ega
▁32 4
▁32 00mah
um ph
▁echadee dee
▁injan :
▁dh vast
▁bah aav
▁bah ute
▁am een
▁am ej,
▁lee eeko
iph aayar
iph lip
iph takee
eks is
eks -e
▁har aaya
▁har sh
▁tr es
▁vish aak
▁vish raam
▁vo bizain
▁modal s,
▁on a8
ist ,
ist an
ist iks
bas ichs
▁dij ipaid
▁dij iphlip
▁bata en,
and ha
ade v
▁sn o
▁sn apaid
▁veed iy
▁mem e
▁su gan
▁su bh
80 1
80 80
aind ,
▁bahut -see
▁kol inga
▁vee -
▁vee yar
▁vee eks
▁chh uda
▁maan s,
▁el an
▁el on
▁el it
▁el eksa
▁el bam
▁saam an
▁11 6
▁11 000
▁25 ,
aah ik
▁15 ,900
iyam ,
▁jal ane
▁jal atee
▁jal ava
▁x pl
▁x traimai
▁snaip ab
▁br aayan
▁br esalet
▁br eja,
ag n
▁kap aalabh
aayar ekt
-s un
▁sir aka
▁muk adame
tal ain
▁the ?
▁vebas tor
▁vebas aita
▁roope -
▁badal ega
▁badal aapur
▁maark e
▁poor vaj
bha ree
▁ed ap
▁ed royad
▁gl ch
▁gl os
▁baj ata
▁baj aj
▁no w
▁no is
▁no ed
▁no vel
▁ophar amejan
▁ophar aphlipakaart
▁dar aar
▁- 2
▁- endroyad
▁- phreedam
▁f u
▁f il
▁f ir
▁f ach
▁f ps,
▁f 05
▁f riaind
ush t
ma 2
▁motar raad
ast ra
ast ishk
▁desh o
▁khareed enge
▁khareed en,
aj en
▁paas ta
▁elee ment
▁teen o
▁phl ir
vo sh
▁khel o
ron aij
ron ichs
▁sarv aikal
rol ojee
50 2
▁ghar avaal
aans uon
▁sv eed
▁phul -phrem
▁taibalet s,
▁14 nm
▁tek akranch
▁lo ha
▁lo he
▁lo vai
▁gail eks
aksh iyon
▁dispale :
▁man aana
▁pree de
▁pree ordar
▁pree buking
air ,
air ation
▁nik ata
▁nik oteen
▁jaane -ana
▁maha k
▁or ,
▁dv iteey
▁achchha -kh
oks avaigan
▁im b
▁eyar alain
▁eyar etal
▁oto -riplaee
▁aaeephon -8
▁mah aakum
▁daal ar
▁i 4
▁i -stor
▁yoon ee
▁yoon iyan
▁aar ch
▁aar eks
▁aar ojee
▁aar abeeaee
▁um i
▁not iphai
-b aahar
tan ar
aij oo
aph aan
▁paaree k
riya ls
▁beech o
▁beech on
▁z 55
▁z 900
▁selphee j
▁as an
▁as ahan
▁as uvidha
▁aan sar
▁aan shik
▁hote ,
▁taim p
▁taim alaips
▁jaga mag
▁utaara ,
▁30 gb
orm al
▁kul la
▁son a,
▁bar atan
▁chaahie ?
▁chho dee
▁bhar ata
▁pheechars: keemat:
▁jen eks
▁w h
▁w q
▁w s
▁w ish
▁w ri
▁w ow
▁w abaita
▁neta on
▁neta buks
▁daunalod -https://
▁sur ee
▁ju baan
▁ju laee,
▁let in
▁yooesabee -see
▁gh aatee
os p
os hee
▁haar ane
▁prod akta
▁jaanen :
▁aata ,
▁banaaya ,
▁chaahate ,
▁rip har
▁jae g
▁bach aatee
▁av yavasthit
-p aanee
-p oshan
▁lait v
▁muj hamen
▁jeet ana
▁pahunch egee
▁samaj hatee
er ent
▁khar e
ila on
▁21 3
▁21 ,990
archar s
▁meediy otek
▁sup arav
ikal peey
tr aans
▁jio fi
▁jan galee
iye ,
ach up
ach chhe
▁2017 )
▁19 ,000
▁19 60
▁19 veen
▁sin tabar
▁balki ,
tav e
▁mee mo
▁bil on
▁sil va
▁batan s
▁batan on
▁taip -ch
▁phar nishing
▁top -ap
▁door -dar
▁gay ee,
▁sal ekshan
▁’ ‘
▁lagee ,
▁kain sil
▁lam hon
ren a
-d ul
-d ivais
▁dolar ,
▁dekh -r
▁riport on
ita ir
▁gan jaapan
▁sho w
▁sho dhaarth
▁bachche ,
▁bacha kar
▁mi cha
▁dost o,
,4 80
▁saamaan yat:
▁mu aavaj
▁supar ahit
▁od isee
▁phail e
▁ar ch
▁ar ora
▁ste royad
▁list ’
▁esa 300
▁esa jeeem
▁esa 205
▁esa 201
▁th aan
▁th es
▁28 99
▁40 ,
▁40 -50
▁1, 8
▁1, 20
▁kantrol s
▁otom eted
▁yaad en
▁kas ooree
baik ap
▁lain en
▁lain ing
▁akaunt ’
isha baajee
▁je 4
▁je han
▁chip asait
▁diskaunt s
▁" s
▁" in
▁pratishat )
▁pratishat ,
▁kal yaan
leek optar
▁at :
▁at ul
haan t
haan kit
par inaam
▁tel alait
▁tel iskop
▁ni haar
▁jod atee
▁khul ata
▁khul ate
▁khul enge
▁vishv abhar
▁vishv akap
▁22 000
▁22 999
▁22 ,000
▁aae g
▁ud yamee
▁oppo ,
▁draiv s
40 )
40 gunaa
▁preemiyam ,
endr aayad
▁too -three
gh r
gh oom
gh innee
▁2, 200
▁2, 699
▁becha te
▁aam ane-s
▁iv ory
▁sambh aala
▁kaip s
▁sm ai
▁sm rti
▁jana varee,
ob ik
▁stail ,
▁kis ham
▁23 1
▁23 ,999
▁23 mp
▁23 90
▁23 -megaapiksal
yam ayee
▁dab aate
▁chalate -chal
▁nikaal egee
▁ai arth
▁ai 2o
str akshan
▁ree see
▁vy aakh
▁pai viliyan
▁laksh it
▁26 9
▁26 10
▁pak ane
▁pak adee
▁bas tee
▁hom apej
▁nikal ega
▁kyoo 3
▁abh yarthee
rt iyon
▁haee speed
▁anubhav ,
-see dhe
▁jam ane
▁raid aseph
▁kvaalitee ,
▁maltee -
▁maltee jet
▁29 5
▁29 8
▁kamee shan
▁sad aabahaar
▁gir ana
▁dhan ee
▁epha dee
▁epha peees
▁baikap ainal
▁dig ano
▁31 99
▁31 50
▁31 40
▁31 ,900
▁khu phiya
▁sitee baink
▁kaun ase
aig g
aig raiai
▁raj istree
▁uth ega
▁imej ,
▁saaj id
▁soph iya
▁pan s
▁eksa 80
▁eksa 25
dhe yak
▁cham ade
▁shop s
▁ophis ,
▁ivent s
▁kaal ing
▁kaal een
br aand
▁nee teesh
▁nee la,
▁umr adaraaj
▁ema 7
▁khol en,
▁tan aava
▁suraksh aatmak
▁go le
aaha i
sp es
▁sain ik
▁sain tro
▁sev aayojan
▁saund ,
▁saund ak
▁pop -ap
▁pop akorn
▁utar ana
▁doston ,
▁pahachaan ana
-ph esabuk
aabh ’
▁phan sa
▁pahan ie
▁aprail -sitambar
▁brek ,
▁kharch e
▁kom bee
▁kom iks
▁pand it
▁tur ing
▁tur kee
▁kod anem
▁gujar ane
▁bhu la
▁samajh aata
▁maadh uree
▁ad ig
kal char
▁shabd ,
▁pi en,
▁ol -metal
▁vichaar adhaara
▁chehare ,
▁33 9
▁45 ,000
▁eksakl us
▁nish ch
lai an
▁notiphikeshan ,
▁res kyoo
▁iphonai 7
▁socha ,
the repist
▁stee labard
▁braind ed
▁taib ,
-v e
-v aayaras
▁pen adraiv
▁27 99
▁27 36
▁men shan
▁aid itor
▁aag ara
▁pal loo
▁traansap laant
▁chhotee -badee
▁prashn apatr
tas aimasang
▁pair ent
▁chaahen ,
▁ghat aana
▁3, 9
▁3, 399
▁3, 333
▁slot s
oel idee
▁150 seesee
eksa jeee
▁jor on
▁jor -shor
▁chaahatee n
▁haik ,
▁ektiv eted
▁komp it
▁phorm oole
▁emaee 3
▁emaee tee
▁entee -s
eta id
▁300 00
▁imph aarmeshan
▁haid s
-l ait
▁koriya ,
▁bel j
▁jh un
▁jh oom
▁likha -
▁vyaayaam ,
▁mais oor
▁sai talait
▁sai archh
▁skool ,
▁parivaar ,
▁aqu os
pai aid
tab a
▁nam akeen
▁jodee daar
▁mon te
▁mon astar
▁pooch hatee
ava e
▁taiks iyon
▁sant osh
-3 2
▁bijanes amens
▁bhaag y
▁ana uns
▁vin im
▁vin ay
▁vin igar
▁vin tej
▁chin aar
▁oon ghane
▁mit aashee
ooj h
▁pletaphorm s
▁prograam ing
endar ,
uda ee
▁maalee tee
▁phain ains
▁vheel s,
aalay on
32 1
▁guru jee
▁guru graam
▁duk had
▁ring o
▁baay een
▁khoj e
-6 es
▁tim aix
▁bhool ana
▁kaimar aas
▁dham akee
▁hat ane
atam and
▁seedhe -seedhe
▁tekst ’
▁yootyoob ,
65 80
65 72
▁med al
aich om
▁ras see
▁prophail s
▁3g /4
▁aaeepee see
▁loom iyaa
▁pol ing
▁hain? mujhe
▁manga e
▁raah il
▁yog g
▁yog aasan
▁aavashyak ataanusaar
▁nid han
▁nid eshaalay
▁42 7
▁aj ab-ga
▁bengal uroo,
▁yoonivarsitee ,
▁chayan akarta
▁peteeem ,
▁tik e
▁rek haankit
▁imojee ,
▁‘s maart
▁uts aahee
▁praty aaro
▁paartee ,
▁baithe -baithe
▁naino -sim
▁paak istaanee
▁kad ava
▁vail entain
▁kamar on
▁bord ,
▁820 s
▁enj els
▁padaarth ,
▁hata e
▁nai ta2
▁ram /
▁aatm anir
▁emai yooai
▁chak kara
▁vil ay
▁vil upt
▁jarm an,
▁aal aava
▁inaph iniks
▁phold ing
▁gol ph
▁masheen en
▁chunaav on
▁yaatra on
▁pra yat
▁phood s
▁reg yu
▁39 2
▁62 00
▁maith s
▁maith yoo
rom aignetik
▁saik al
▁saans ad
▁e/bee /jee/en/
▁kre ta,
▁tes tar
▁chha dee
gai ,
▁dur bhaagy
▁dur labh
a1 -
▁injeeniyar s
▁bengaluru ,
▁pita ee
▁650 seesee
▁padh aaya
▁mud ane
▁prem ee
▁sveekaar en
▁sveekaar ate
▁taapamaan ,
▁gul aatee
yoot yoob
▁phaishan ,
▁kapoor ,
▁57 99
▁seema en
▁skeem s
▁kair on
▁eksapo jar
▁bon naiv
▁gril d
▁250 nm
▁halke -phul
▁teleevijan s
▁kra ud
▁day "
▁day drai
▁bi he
▁bi tak
▁bi xby
▁ish yoo
chal ait
▁gad hee
▁padhaee -lik
▁hedaset ,
▁pabl isitee
▁moovee ,
phr ant
▁print ing
▁yooes ,
▁svaad ,
▁laut aane
▁kapadon ,
▁laimp ,
▁1- 0
▁aaaitom otiv
▁nak ul
atan aav
▁aaain ar
▁aaain a7
▁2300 mah
▁gaad hee
▁gati ,
▁(m on
▁paata ,
▁chik an,
▁36 ,999
▁sens etiv
▁inteeriyar s
▁tair ane
▁shiks hit
dr ivairs
▁miks ar
▁room b
▁saj aavatee
don on
▁daan yee
▁lak h
▁shan ka
▁my aammaar
▁my drivairs
▁plai x
▁plai baik
▁kleen ikal
pp a
pp am
▁eksee leromeetar
▁(n aino
▁10,000 mah
▁ich ichi
▁dip har
chk air
▁bhoo gol
▁pav itr
▁pav eliyan
40x 2160
▁amareeka ,
▁s‍ tor
▁chhat hee
▁52 8
▁350 nm
▁altr aas
▁naj aara
-kh aabad
▁kaat en
▁vi rodhee
▁vi dheyak
▁tro jan
▁6, 599
▁kaarobaar )
▁kaarobaar iyon
▁ain viz
▁epl ikeshans
▁maig jeen
▁jai vee
ayoo es
▁maut ha
▁chaut haee
▁ub untu
▁mainejament ,
▁kolestrol ,
hai ail
▁chr ait
▁gur ej
▁3- dee
▁gais on
▁avasaad ,
▁laik ,
▁resh o
ambh aavit
▁charan abaddh
▁pest -
▁46 mm
▁kes ing
▁4100 mah
▁mor ning
▁apha sar
▁dhaar ak
asheel ata
▁ubar amoto
▁51 ,000
▁‘d il
▁rain sam
▁rain galar
▁pheeld ing
▁jaanakar ee
▁‘l enovo
-pee chhe
▁land an,
▁chap pal
▁bs -vi
▁shortakat s
▁mand ara
▁di avail
▁chop ar
▁bahaad uree
▁heyar astail
▁theem s
▁chon trol
▁paancha veen
▁dup leeket
▁e9 10
▁tait an,
▁emes aee
▁plet in
▁neele ,
▁laha ren
▁gai for
▁tail aichom
▁‘b adal
▁leejie ,
▁77 ,300
▁raim/ 16
▁asam ee,
▁asam arthata
▁drsh yon
▁ag nis
▁jeev on
▁(k vaad-kor
▁chhup aaya
▁saavadhaanee poorvak
▁vain uai
▁tw aiait
▁karan see
▁oo b
▁dor see
▁rel s
▁chid iyaaghar
-bh una
▁jhan da
vaee eph
▁‘n ot
▁dhok he
▁ghum a
▁ghum aakar
▁ghum aen
▁dush parinaam
▁tri umph
▁he leekoptar
▁bolee n,
▁panj on
▁viphal ata
▁shatar anj
▁aaeeemeksa 386
▁aaeeemeksa 179
me re
me gaahartj
▁dhak ane
▁sanv idhaan
▁tred ishanal
▁vidy aarthee
▁risarchar on
▁braajeel ,
son ait
▁teks aas
▁er ina
▁paalan -poshan
▁bigad ane
▁bigad ega
▁musk ara
▁pashch aat
▁joo hee
▁sunee t
▁sink ronaij
▁maalik aana
▁nyootr elitee
▁pyaaj ,
▁kairektar s
▁shiksha ,
92 8
▁gam aage
▁98 ,3
▁pattee ,
▁pattee -
▁ur doo,
▁asaphalata on
▁baha tee
▁ji om
▁dashak on
▁hansee -
▁saim masang
▁saim sonait
▁raam abaan
▁530 ,
▁(5 )
▁vee5 es
▁laaj amee
▁ru ee
▁parat on
▁4x 2
▁oparetar on
▁/ en,
▁tor chalait
▁phyoo jan
▁esasee 77
▁‘ham ashak
▁ee-k laas
▁poochh ega
▁bok aih
▁ving d
▁dillee-en aseeaar,
▁9, 199
▁prasaad han
astaar tar
▁dekhie ,
▁haldee ,
▁sikh aane
▁maa pane
▁jaaya ke
▁kai rot
▁kav rd
▁kob ara
▁chab aana
▁rahengee ,
▁trak ,
▁preev ilej
▁jhel ana
▁rivyoo :
▁kood ane
▁mur eed
▁ded iketed
▁ringat ons
▁e3 11
▁gup achup
▁chur aee
▁anach ek
▁loon gee
▁tain ing
▁chor taix
▁chit t
▁chaimp avan
▁deph inishan
▁opareshan s
▁aanval a,
▁wifi ,
▁supara heero
▁arj it
▁artha sh
▁ejuk eshanal
▁tatkaal een
▁amazon basichs
▁phenk ane
▁hast iyaan
▁by omakesh
▁bro ws
▁laap aravaah
▁int rod
▁khaam iyaaja
apha lar
▁(128 jeebee)
▁94 99
▁sharaab ,
▁pun e,
▁egree kalchar
iai w
▁bih aar,
▁phaas ‍taig
▁spekt ra
▁‘ek ses
▁1400 emeech
▁watair play
▁siddh aanton
▁pus takon
▁naaran gee,
▁ron aald
▁phi esta
▁gin atee
▁shaast reey
▁bhaaga mabh
▁(64 jeebee)
▁maigr eshan
▁dikhe ,
▁ooncha iyon
▁imphraared ,
▁sok h
▁soon g
▁her itej
▁pramaan it
▁kana var
▁pig hal
▁kaiy board
▁aat ishabaajee
asam aveyar
▁unnat i
▁thai roed
▁oks aid
▁kobaal ta4
▁baag hon
▁hen aree
▁hosh iyaar
▁bula en
▁ves tarn
▁(1 800
▁elapeedee deeaar
▁ghir a
▁pyor asel
▁khet on
▁verip haid
▁fz -y
▁zed ateeee
▁muskar aate
▁muskar aahat
▁laar va
▁ritar ns
▁tish yoo
▁ela vaeeeph
▁gaar ament
▁ghon choo
▁taga da
▁prateek sha
avan aplas
▁imar jensee
▁barphee le
▁rasaayan on
prosesar -
▁daval apar
▁brai aizai
▁lin aks
▁pho gal
▁een aam
▁bill iyaan
▁bonev ile
▁kik astaartar
▁lagava en
▁vhaata sim
▁kaabil iyat
▁naix ian
▁aarkit ekt
km /h
▁baas ketabol
▁baah y
▁rib e
▁vor ning
▁tu ar
▁tu aring
▁phisal ane
▁gub baara
▁mom abat
▁elaan tra
▁xch 90
▁romachhid ron
552 kl)
▁alkohal ,
ax is
inf o
▁moor kh
▁keetaan u
▁phed areshan
▁phed aral
▁lachee laapan
▁aapada on
▁‘a chchha
▁elig ens
▁pahaad on
▁imp aikt
▁sinem aiks
▁toota te
▁ikan omee
▁aarkiy olojist
▁maeekro -yooesabee
zain fonai
▁avar odhak
▁chana ,
idais k
▁alt is
▁alt aaba
▁doob ane
▁waib sitai
▁pratispar ghaatmak
▁thin abuk
▁bechain ee,
▁phulav ijan
▁prastuti :
▁chhatteesagadh ,
▁akh tar
▁toorn aament
▁e35 ke
▁gatha bandhan
▁intan aral
▁chaandee mal
▁rahas y
▁rahas yamayee
▁(12 80x720
▁phroot s
▁--------------------------------- ----------------
▁vinir maan
▁teleephon ee
▁injin iyaring
▁pyooree phaayar
▁jadee-boot iyon
▁aud io
taind ard
▁jip see,
▁nyaay aalay
▁phok al
▁jeera -
▁(pee dee
▁apade ta
▁megaapik asal
▁employ eej
▁ord inens
▁myoo zik
▁jup itair
▁kachh ua
▁lim ita
▁nig aah
▁tiv aaree
▁gob hee
▁shreen iv
▁kaarn ival
▁vaj r
▁hai,j ise
▁epis od
▁blas hon
▁‘aaee phon
▁madar abord
▁x5 96
▁ilektr isitee
▁world phonai
▁3,2 90
/32 gb
▁bem isaal
▁laahir u
▁laahir oo
▁raiv iaiw
▁vyan jan
▁vyan janon
▁chhal aang
▁mali-t 720
▁parsan ailitee
▁kaipasitee v
▁march ent
▁prosesara 1
▁budh aape
▁sannyaas ee
▁needaralaind s
▁sabavoophar s
▁papee ta
▁larn ig
▁nukee le
▁aaph is
▁prabh u
▁deetel s
▁(jed asee
▁bevak ooph
▁spaar kal
▁‘are ,
▁soyaabee n
▁manha ge
▁ripor tas
▁ikon omee
▁jammoo -kash
▁avasho shit
▁prayok taon
▁shubha m
▁altraav oyalet
▁drsht ikon
▁apairtur ai
▁deeteka 50
▁galatapha ham
▁bir ds
▁jyot i
▁lahar aate
▁heks aakor
▁aurat on
phekchar ing
▁paree -kat
▁jeevaan uon
▁samak aksh
▁yook ren
▁chaita bot
▁velav et
▁vaibr ent
▁sudh aara
▁chipachip e
▁lambor ginee
▁kauntar ap
▁revot ron
▁sansaad hanon
▁himaalay an
▁phaayara 3
▁gps/a-g ps,
-tv in
▁m8 12
▁brok ed
▁jast in
▁naksh e
urchai :
aty ek
▁jeeela 552
▁chah ete
▁chailai rio
▁stre ching
▁veval enth
▁doh ch
▁kus heenagar
▁daul od
-kom paikt
▁philos aphee
▁pratir aksha
▁enadee e
▁ee— volet
aagr ast
▁khareedadaar on
▁bachk up
▁yuvat iyaan
▁reetelar s
▁nishk riy
▁vivid hata
▁(720gunaa1280 piksal)
▁ksh ud
▁puta lee
▁bri ged
▁jiy oks
▁lel aind
▁e555 ele
▁gaavas akar
▁nels an
▁pre gn
▁predis esar
▁samm ilit
▁(854 x480
▁(eaee )
▁baun tee
▁phrik vensee
uddee n
▁dhaanch e
▁sub ba
▁krim inal
▁daunap ement
▁esee/e /bee/jee/en,
▁oktop as
▁baayotek nolojee
▁enjel is
▁daisk top
▁dhool-mit tee
▁(zb 552kl)
▁faiat urai
▁seeeph- 54
▁bars ilona
▁hailai tar
▁auj aar
▁merid iyan
akvaar tar
oo-m aanoo
▁tala -bhuna
▁taiz 4g
▁kamob esh
▁ekat rit
▁chimp ain
▁shaar takat
▁praadhik aran
geeg aahatrj
▁abhay aaran
▁skail p
▁(so urchai:
▁sarkul et
▁plaane yaratel
-kur ta
▁lagjoor ias
▁‘ba ing
▁bahuv ikalpeey
▁snaipadra gana
▁i(jena2) 4jee
▁kharaboo ja,
▁thir imaane
▁otomet ikalee
▁pramuk hata
▁sikyur itee
▁ailita idaisk
▁angul iyon
[...]
