{"<s>":0,"<pad>":1,"</s>":2,"<unk>":3,"<mask>":4,"!":5,"\"":6,"#":7,"$":8,"%":9,"&":10,"'":11,"(":12,")":13,"*":14,"+":15,",":16,"-":17,".":18,"/":19,"0":20,"1":21,"2":22,"3":23,"4":24,"5":25,"6":26,"7":27,"8":28,"9":29,":":30,";":31,"<":32,"=":33,">":34,"?":35,"@":36,"A":37,"B":38,"C":39,"D":40,"E":41,"F":42,"G":43,"H":44,"I":45,"J":46,"K":47,"L":48,"M":49,"N":50,"O":51,"P":52,"Q":53,"R":54,"S":55,"T":56,"U":57,"V":58,"W":59,"X":60,"Y":61,"Z":62,"[":63,"\\":64,"]":65,"^":66,"_":67,"`":68,"a":69,"b":70,"c":71,"d":72,"e":73,"f":74,"g":75,"h":76,"i":77,"j":78,"k":79,"l":80,"m":81,"n":82,"o":83,"p":84,"q":85,"r":86,"s":87,"t":88,"u":89,"v":90,"w":91,"x":92,"y":93,"z":94,"{":95,"|":96,"}":97,"~":98,"¡":99,"¢":100,"£":101,"¤":102,"¥":103,"¦":104,"§":105,"¨":106,"©":107,"ª":108,"«":109,"¬":110,"®":111,"¯":112,"°":113,"±":114,"²":115,"³":116,"´":117,"µ":118,"¶":119,"·":120,"¸":121,"¹":122,"º":123,"»":124,"¼":125,"½":126,"¾":127,"¿":128,"À":129,"Á":130,"Â":131,"Ã":132,"Ä":133,"Å":134,"Æ":135,"Ç":136,"È":137,"É":138,"Ê":139,"Ë":140,"Ì":141,"Í":142,"Î":143,"Ï":144,"Ð":145,"Ñ":146,"Ò":147,"Ó":148,"Ô":149,"Õ":150,"Ö":151,"×":152,"Ø":153,"Ù":154,"Ú":155,"Û":156,"Ü":157,"Ý":158,"Þ":159,"ß":160,"à":161,"á":162,"â":163,"ã":164,"ä":165,"å":166,"æ":167,"ç":168,"è":169,"é":170,"ê":171,"ë":172,"ì":173,"í":174,"î":175,"ï":176,"ð":177,"ñ":178,"ò":179,"ó":180,"ô":181,"õ":182,"ö":183,"÷":184,"ø":185,"ù":186,"ú":187,"û":188,"ü":189,"ý":190,"þ":191,"ÿ":192,"Ā":193,"ā":194,"Ă":195,"ă":196,"Ą":197,"ą":198,"Ć":199,"ć":200,"Ĉ":201,"ĉ":202,"Ċ":203,"ċ":204,"Č":205,"č":206,"Ď":207,"ď":208,"Đ":209,"đ":210,"Ē":211,"ē":212,"Ĕ":213,"ĕ":214,"Ė":215,"ė":216,"Ę":217,"ę":218,"Ě":219,"ě":220,"Ĝ":221,"ĝ":222,"Ğ":223,"ğ":224,"Ġ":225,"ġ":226,"Ģ":227,"ģ":228,"Ĥ":229,"ĥ":230,"Ħ":231,"ħ":232,"Ĩ":233,"ĩ":234,"Ī":235,"ī":236,"Ĭ":237,"ĭ":238,"Į":239,"į":240,"İ":241,"ı":242,"Ĳ":243,"ĳ":244,"Ĵ":245,"ĵ":246,"Ķ":247,"ķ":248,"ĸ":249,"Ĺ":250,"ĺ":251,"Ļ":252,"ļ":253,"Ľ":254,"ľ":255,"Ŀ":256,"ŀ":257,"Ł":258,"ł":259,"Ń":260,"ee":261,"Ġk":262,"aa":263,"ha":264,"ar":265,"Ġs":266,"in":267,"Ġp":268,"Ġha":269,"Ġm":270,"an":271,"Ġb":272,"is":273,"ya":274,"Ġhai":275,"Ġd":276,"on":277,"ta":278,"Ġa":279,"Ġj":280,"aar":281,"ai":282,"hee":283,"en":284,"Ġme":285,"Ġke":286,"ak":287,"Ġl":288,"Ġmein":289,"ch":290,"Ġka":291,"Ġn":292,"Ġr":293,"Ġkee":294,"oo":295,"ga":296,"Ġv":297,"aan":298,"ur":299,"al":300,"at":301,"Ġt":302,"Ġe":303,"Ġse":304,"Ġh":305,"Ġkar":306,"Ġko":307,"Ġaur":308,"am":309,"ik":310,"ph":311,"es":312,"Ġph":313,"ad":314,"Ġaa":315,"iya":316,"aat":317,"as":318,"il":319,"Ġis":320,"ah":321,"Ġpar":322,"Ġhain":323,"ab":324,"aal":325,"pan":326,"ie":327,"har":328,"Ġga":329,"Ġg":330,"han":331,"or":332,"ek":333,"Ġu":334,"it":335,"Ġ1":336,"yah":337,"tar":338,"Ġho":339,"Ġne":340,"Ġta":341,"iy":342,"Ġbhee":343,"Ġja":344,"Ġin":345,"et":346,"ata":347,"ro":348,"ree":349,"aim":350,"phon":351,"Ġlie":352,"yoo":353,"Ġsak":354,"aath":355,"hal":356,"Ġ2":357,"aad":358,"Ġki":359,"Ġek":360,"maar":361,"ane":362,"aam":363,"amen":364,"panee":365,"Ġch":366,"ake":367,"00":368,"aas":369,"Ġkam":370,"Ġphon":371,"ais":372,"Ġhee":373,"Ġsaath":374,"ap":375,"jee":376,"Ġgaya":377,"aik":378,"aee":379,"aap":380,"un":381,"dh":382,"maarta":383,"Ġkh":384,"maartaphon":385,"Ġjee":386,"aaya":387,"Ġkiya":388,"aav":389,"ain":390,"Ġo":391,"Ġyah":392,"ara":393,"Ġsh":394,"te":395,"Ġaap":396,"Ġ4":397,"Ġra":398,"Ġsmaartaphon":399,"bee":400,"ay":401,"lee":402,"Ġ3":403,"ing":404,"cha":405,"uk":406,"tee":407,"ate":408,"Ġvaal":409,"Ġ5":410,"ahin":411,"Ġto":412,"Ġdiya":413,"ana":414,"ej":415,"dee":416,"ol":417,"char":418,"Ġnahin":419,"Ġbad":420,"ag":421,"Ġbh":422,"iv":423,"Ġna":424,"Ġpr":425,"sh":426,"up":427,"Ġtak":428,"Ġkaar":429,"Ġkaim":430,"im":431,"atee":432,"aane":433,"Ġapan":434,"Ġpa":435,"el":436,"Ġphee":437,"Ġmo":438,"ir":439,"iks":440,"ega":441,"pal":442,"end":443,"mat":444,"eed":445,"ed":446,"gee":447,"ise":448,"th":449,"akee":450,"Ġjo":451,"Ġdee":452,"Ġkaimara":453,"le":454,"Ġem":455,"ase":456,"Ġy":457,"Ġkeemat":458,"Ġma":459,"Ġkampanee":460,"Ġrup":461,"Ġsam":462,"jar":463,"Ġpheechar":464,"Ġkarane":465,"isake":466,"Ġjeebee":467,"ant":468,"shan":469,"hen":470,"Ġpro":471,"ent":472,"Ġdil":473,"Ġgaee":474,"Ġyoo":475,"isamen":476,"ail":477,"aaree":478,"ok":479,"âĢ":480,"iksal":481,"og":482,"aak":483,"Ġ6":484,"Ġ8":485,"Ġapane":486,"esh":487,"Ġmil":488,"Ġan":489,"ul":490,"taree":491,"aata":492,"Ġpahal":493,"heen":494,"Ġhon":495,"99":496,"ip":497,"Ġhu":498,"Ġsakata":499,"aaj":500,"Ġbhaar":501,"ait":502,"ot":503,"Ġisamen":504,"av":505,"Ġsab":506,"ut":507,"Ġdis":508,"Ġtee":509,"onch":510,"aab":511,"sar":512,"Ġdillee":513,"jan":514,"chh":515,"em":516,"aye":517,"Ġlonch":518,"Ġst":519,"oor":520,"Ġbai":521,"Ġc":522,"Ġban":523,"aay":524,"om":525,"ge":526,"aka":527,"Ġus":528,"Ġal":529,"Ġsakate":530,"Ġraha":531,"id":532,"Ġupal":533,"Ġupalab":534,"Ġrupaye":535,"er":536,"ish":537,"Ġbaad":538,"Ġsee":539,"Ġep":540,"us":541,"Ġbaitaree":542,"Ġ(":543,"Ġupalabdh":544,"Ġun":545,"aava":546,"Ġva":547,"itee":548,"isee":549,"Ġjar":550,"Ġkaam":551,"see":552,"Ġab":553,"Ġsk":554,"pee":555,"pad":556,"iyar":557,"Ġrak":558,"ekt":559,"gaap":560,"Ġya":561,"gaapiksal":562,"Ġden":563,"hak":564,"Ġvaale":565,"Ġhoga":566,"Ġlek":567,"eech":568,"aga":569,"Ġend":570,"Ġkaren":571,"ort":572,"Ġbhaarat":573,"Ġtha":574,"Ġmegaapiksal":575,"od":576,"Ġtar":577,"adee":578,"Ġrah":579,"va":580,"Ġinch":581,"ka":582,"Ġdo":583,"Ġjaan":584,"kam":585,"bar":586,"iyo":587,"var":588,"ako":589,"Ġraim":590,"Ġbaar":591,"iyon":592,"Ġpahale":593,"uj":594,"naee":595,"Ġkarata":596,"eshan":597,"Ġbl":598,"Ġde":599,"chch":600,"ses":601,"hat":602,"vee":603,"Ġmaik":604,"Ġphr":605,"st":606,"Ġkaha":607,"Ġrahee":608,"Ġbaat":609,"Ġba":610,"Ġ7":611,"ud":612,"par":613,"Ġlaga":614,"Ġyoojar":615,"Ġran":616,"kampanee":617,"Ġlag":618,"000":619,"taran":620,"he":621,"aanch":622,"yar":623,"ham":624,"Ġaaee":625,"aanee":626,"Ġsp":627,"Ġgae":628,"Ġpheechars":629,"sesar":630,"Ġku":631,"Ġstor":632,"Ġchal":633,"gal":634,"tam":635,"Ġbe":636,"ki":637,"Ġlais":638,"ij":639,"yaad":640,"hane":641,"Ġmai":642,"Ġmaikro":643,"Ġintaran":644,"op":645,"oot":646,"Ġkv":647,"Ġbadh":648,"Ġprosesar":649,"bal":650,"bh":651,"ind":652,"Ġpad":653,"Ġapanee":654,"pha":655,"Ġmaar":656,"Ġtarah":657,"Ġrahe":658,"Ġphrant":659,"Ġjyaad":660,"Ġhone":661,"Ġgr":662,"aayad":663,"sa":664,"Ġsabase":665,"Ġye":666,"Ġriyar":667,"kar":668,"Ġsap":669,"ple":670,"Ġalaava":671,"aara":672,"Ġ12":673,"Ġkuchh":674,"Ġpl":675,"Ġshur":676,"Ġ20":677,"oop":678,"Ġcha":679,"Ġdek":680,"Ġham":681,"esab":682,"Ġjis":683,"Ġjyaada":684,"Ġdisple":685,"Ġkaard":686,"ood":687,"egee":688,"ich":689,"aaphee":690,"asan":691,"Ġvar":692,"Ġlaanch":693,"Ġop":694,"Ġlog":695,"Ġda":696,"Ġsaal":697,"Ġdiv":698,"Ġsar":699,"Ġemeech":700,"Ġphl":701,"Ġhue":702,"Ġaapako":703,"reen":704,"ra":705,"Ġsa":706,"Ġise":707,"Ġkhaas":708,"Ġdoo":709,"Ġlen":710,"Ġchaa":711,"hon":712,"Ġmod":713,"Ġnaya":714,"ient":715,"ne":716,"Ġjaega":717,"aid":718,"âĢĻ":719,"Ġkisee":720,"Ġbaik":721,"apee":722,"âĢĺ":723,"20":724,"aip":725,"oj":726,"Ġnaee":727,"bail":728,"oon":729,"air":730,"Ġvaala":731,"Ġdie":732,"Ġroop":733,"hata":734,"aatee":735,"Ġut":736,"Ġvik":737,"aset":738,"Ġvaalee":739,"Ġkaee":740,"anee":741,"Ġjaise":742,"Ġthee":743,"aana":744,"yad":745,"Ġdivais":746,"Ġdin":747,"Ġve":748,"Ġsamay":749,"Ġkarate":750,"Ġbeha":751,"to":752,"Ġkhar":753,"Ġ10":754,"Ġlekin":755,"Ġkarana":756,"Ġver":757,"Ġhota":758,"Ġjab":759,"Ġeks":760,"Ġchh":761,"Ġnae":762,"onon":763,"oree":764,"Ġstorej":765,"Ġnir":766,"chadee":767,"reej":768,"Ġkan":769,"Ġsakatee":770,"lar":771,"raayad":772,"rai":773,"Ġkoee":774,"enge":775,"ĠâĢĺ":776,"Ġchaar":777,"Ġmobail":778,"Ġvah":779,"Ġsel":780,"Ġsaport":781,"Ġskreen":782,"Ġhogee":783,"aate":784,"Ġadh":785,"aavar":786,"est":787,"Ġachch":788,"tem":789,"Ġseereej":790,"Ġsen":791,"Ġpee":792,"Ġdh":793,"Ġ16":794,"jeebee":795,"Ġintaranal":796,"ti":797,"aahar":798,"Ġbat":799,"um":800,"Ġ13":801,"Ġshuroo":802,"aakh":803,"hana":804,"Ġdik":805,"Ġmain":806,"oogal":807,"tha":808,"Ġendraayad":809,"Ġnaam":810,"ash":811,"temaal":812,"Ġprat":813,"Ġisake":814,"Ġjarie":815,"Ġyoojars":816,"Ġmaich":817,"Ġkie":818,"ujood":819,"la":820,"Ġistemaal":821,"Ġsan":822,"Ġpesh":823,"Ġapana":824,"Ġen":825,"ars":826,"Ġphil":827,"Ġjise":828,"Ġmaujood":829,"van":830,"ivitee":831,"ual":832,"Ġsim":833,"Ġbal":834,"Ġbana":835,"ig":836,"Ġbik":837,"Ġ32":838,"Ġee":839,"aise":840,"akaar":841,"Ġind":842,"Ġjaata":843,"ateey":844,"peees":845,"Ġpha":846,"royad":847,"Ġverient":848,"iph":849,"Ġtr":850,"Ġkhel":851,"Ġechadee":852,"akar":853,"ektivitee":854,"Ġ201":855,"Ġmad":856,"Ġlekar":857,"Ġhaind":858,"aish":859,"kh":860,"Ġkaaphee":861,"sham":862,"Ġisakee":863,"Ġdene":864,"iyaan":865,"Ġteem":866,"Ġbee":867,"ye":868,"bas":869,"dar":870,"Ġbah":871,"999":872,"se":873,"Ġpaavar":874,"ooth":875,"Ġhua":876,"Ġrupe":877,"Ġkha":878,"Ġadhik":879,"rik":880,"aind":881,"istam":882,"hate":883,"Ġlee":884,"Ġmodal":885,"ist":886,"ooree":887,"eks":888,"haal":889,"Ġaas":890,"Ġsistam":891,"Ġbaare":892,"Ġdeta":893,"Ġdonon":894,"Ġhaindaset":895,"Ġvan":896,"re":897,"os":898,"Ġemapee":899,"adaar":900,"Ġbloot":901,"yon":902,"honne":903,"isakee":904,"Ġbadhaaya":905,"Ġdoosar":906,"Ġpiksal":907,"Ġinjan":908,"esadee":909,"80":910,"kan":911,"Ġvo":912,"da":913,"Ġaapake":914,"hale":915,"kor":916,"tai":917,"esabuk":918,"Ġdij":919,"Ġhar":920,"Ġkhareed":921,"yaan":922,"Ġon":923,"Ġghan":924,"Ġsn":925,"eediyo":926,"Ġmem":927,"akaaree":928,"Ġup":929,"oom":930,"Ġkol":931,"Ġgee":932,"Ġsensar":933,"asang":934,"aah":935,"aanki":936,"ool":937,"Ġmaikroesadee":938,"Ġaadh":939,"gar":940,"isa":941,"aimasang":942,"aaph":943,"50":944,"saath":945,"Ġbahut":946,"Ġhotee":947,"Ġblootooth":948,"Ġsabhee":949,"sadee":950,"Ġbikree":951,"ma":952,"Ġmadad":953,"ade":954,"Ġendroyad":955,"Ġphlaish":956,"eyar":957,"Ġsaam":958,"Ġvee":959,"Ġkl":960,"Ġmaan":961,"Ġkalar":962,"Ġel":963,"Ġlaakh":964,"Ġ9":965,"bhaar":966,"Ġveediyo":967,"Ġsu":968,"padhen":969,"Ġsha":970,"iyam":971,"Ġgh":972,"Ġro":973,"bha":974,"aayar":975,"Ġdet":976,"Ġam":977,"Ġle":978,"Ġlogon":979,"tj":980,"Ġtai":981,"Ġmemoree":982,"balet":983,"ord":984,"10":985,"araph":986,"utaab":987,"tal":988,"aajaar":989,"utaabik":990,"lek":991,"Ġbhaarateey":992,"Ġgeeg":993,"vaheen":994,"haalaanki":995,"Ġjaanakaaree":996,"are":997,"Ġbata":998,"basait":999,"Ġjal":1000,"Ġmutaabik":1001,"Ġjaroor":1002,"Ġtatha":1003,"Ġgoogal":1004,"Ġroope":1005,"Ġvaee":1006,"aipad":1007,"Ġil":1008,"Ġsir":1009,"aj":1010,"ambar":1011,"anka":1012,"Ġbadal":1013,"Ġbr":1014,"Ġbaajaar":1015,"vo":1016,"Ġmuk":1017,"aree":1018,"Ġthe":1019,"gan":1020,"phaee":1021,"Ġchuk":1022,"Ġmaheen":1023,"Ġsnaipad":1024,"Ġvebasait":1025,"val":1026,"agar":1027,"phee":1028,"Ġ64":1029,"Ġpoor":1030,"Ġx":1031,"Ġgl":1032,"Ġed":1033,"Ġdaur":1034,"Ġisaka":1035,"yool":1036,"Ġophar":1037,"Ġphot":1038,"gat":1039,"aahartj":1040,"Ġ25":1041,"Ġmaark":1042,"aag":1043,"Ġvish":1044,"isase":1045,"yak":1046,"Ġnirm":1047,"ush":1048,"Ġkor":1049,"ast":1050,"Ġaane":1051,"Ġbaj":1052,"Ġindiya":1053,"int":1054,"Ġkvaad":1055,"ichhale":1056,"Ġdual":1057,"Ġno":1058,"gb":1059,"Ġshar":1060,"vid":1061,"ikeshan":1062,"Ġchaarj":1063,"kee":1064,"jab":1065,"lekin":1066,"old":1067,"Ġkaaran":1068,"esabee":1069,"chhe":1070,"aahak":1071,"Ġpaas":1072,"Ġaadhaar":1073,"Ġlanka":1074,"Ġbadee":1075,"leedee":1076,"Ġmotar":1077,"Ġaisa":1078,"aki":1079,"Ġgeegaahartj":1080,"Ġtaiy":1081,"apr":1082,"rol":1083,"aakar":1084,"Ġvarjan":1085,"Ġf":1086,"Ġso":1087,"aayan":1088,"Ġ15":1089,"Ġsirph":1090,"Ġshaam":1091,"Ġap":1092,"Ġjin":1093,"omee":1094,"and":1095,"mee":1096,"Ġbanaane":1097,"Ġpaar":1098,"Ġjaatee":1099,"alain":1100,"Ġphilm":1101,"Ġphesabuk":1102,"Ġteen":1103,"aare":1104,"Ġghante":1105,"Ġkhil":1106,"aans":1107,"Ġrej":1108,"Ġsarv":1109,"Ġaise":1110,"Ġbehatar":1111,"Ġany":1112,"Ġphul":1113,"Ġkya":1114,"Ġmais":1115,"Ġunhen":1116,"Ġor":1117,"aksh":1118,"Ġabhee":1119,"Ġphree":1120,"Ġpah":1121,"ale":1122,"ogr":1123,"Ġsth":1124,"Ġmeed":1125,"ishan":1126,"sep":1127,"pale":1128,"Ġblaik":1129,"Ġtahat":1130,"Ġilekt":1131,"maik":1132,"Ġbhar":1133,"eeb":1134,"ke":1135,"uniya":1136,"Ġmilega":1137,"pht":1138,"Ġmaheene":1139,"Ġuse":1140,"Ġshaamil":1141,"olee":1142,"Ġsta":1143,"Ġphir":1144,"unt":1145,"eksee":1146,"Ġtaibalet":1147,"ikal":1148,"oks":1149,"leb":1150,"Ġkr":1151,"Ġjaane":1152,"asee":1153,"Ġkaimare":1154,"aileksee":1155,"akt":1156,"unhonne":1157,"gr":1158,"Ġeleedee":1159,"Ġviket":1160,"Ġspeed":1161,"Ġvanade":1162,"olo":1163,"olyoo":1164,"Ġnirmaata":1165,"eting":1166,"ard":1167,"11":1168,"Ġtek":1169,"Ġgraahak":1170,"Ġdispale":1171,"haee":1172,"Ġpata":1173,"Ġjisamen":1174,"aash":1175,"Ġsv":1176,"Ġdv":1177,"Ġkap":1178,"Ġaad":1179,"Ġpree":1180,"Ġintaranet":1181,"Ġdauraan":1182,"Ġachchhee":1183,"Ġalag":1184,"Ġsaimasang":1185,"Ġsmaartaphons":1186,"Ġghar":1187,"Ġ14":1188,"Ġpheesadee":1189,"Ġplas":1190,"Ġprad":1191,"Ġprati":1192,"ron":1193,"Ġbataaya":1194,"una":1195,"Ġachchha":1196,"Ġman":1197,"Ġkvaal":1198,"Ġdesh":1199,"Ġok":1200,"Ġpahun":1201,"ahaal":1202,"Ġoto":1203,"jah":1204,"Ġoph":1205,"Ġesa":1206,"Ġkhud":1207,"Ġdaal":1208,"Ġak":1209,"Ġhis":1210,"tan":1211,"isaka":1212,"Ġpahalee":1213,"Ġdhyaan":1214,"Ġkyon":1215,"bhaarat":1216,"haat":1217,"Ġvair":1218,"Ġjaroorat":1219,"Ġpadhen":1220,"Ġtaraph":1221,"Ġspes":1222,"sha":1223,"12":1224,"iphikeshan":1225,"Ġth":1226,"Ġim":1227,"Ġagar":1228,"olyooshan":1229,"alp":1230,"Ġkamp":1231,"phot":1232,"Ġi":1233,"Ġjald":1234,"Ġte":1235,"Ġchaah":1236,"aij":1237,"Ġhuee":1238,"Ġdvaara":1239,"eer":1240,"Ġshaan":1241,"Ġrang":1242,"ograaphee":1243,"Ġmah":1244,"aph":1245,"Ġple":1246,"Ġvai":1247,"Ġgaileksee":1248,"Ġ128":1249,"Ġbachch":1250,"Ġnot":1251,"Ġyoon":1252,"aadee":1253,"Ġdoosare":1254,"tak":1255,"kaunt":1256,"Ġpaaree":1257,"Ġaaya":1258,"Ġballeb":1259,"Ġlai":1260,"Ġmaisej":1261,"Ġaar":1262,"riya":1263,"Ġes":1264,"Ġeyar":1265,"hakar":1266,"sara":1267,"Ġbeech":1268,"Ġdaava":1269,"Ġaaeephon":1270,"ban":1271,"een":1272,"kanektivitee":1273,"Ġvikalp":1274,"Ġkanektivitee":1275,"vidha":1276,"Ġduniya":1277,"Ġsah":1278,"Ġred":1279,"Ġpichhale":1280,"atop":1281,"Ġgend":1282,"Ġaga":1283,"Ġmaarket":1284,"Ġmin":1285,"Ġhote":1286,"ja":1287,"Ġkaraaya":1288,"Ġunake":1289,"aand":1290,"Ġjaaree":1291,"ĠĠ":1292,"Ġpo":1293,"Ġrakhee":1294,"Ġjaga":1295,"Ġum":1296,"Ġsuvidha":1297,"Ġjeepeees":1298,"Ġ80":1299,"Ġkarega":1300,"Ġtaim":1301,"Ġsarvis":1302,"enj":1303,"io":1304,"Ġtaur":1305,"iyan":1306,"ens":1307,"Ġhoon":1308,"halee":1309,"Ġshree":1310,"Ġtaiyaar":1311,"Ġdaun":1312,"aalee":1313,"bhee":1314,"Ġutaara":1315,"abh":1316,"Ġkampan":1317,"usaar":1318,"Ġshuru":1319,"orm":1320,"Ġvajah":1321,"Ġapad":1322,"iyant":1323,"Ġkeval":1324,"hatak":1325,"Ġdyool":1326,"alie":1327,"itana":1328,"Ġkaratee":1329,"Ġjabaki":1330,"Ġjaegee":1331,"Ġgold":1332,"haatsep":1333,"Ġphoto":1334,"Ġhaal":1335,"Ġyahaan":1336,"jaar":1337,"ment":1338,"Ġmaat":1339,"Ġcheen":1340,"Ġonalain":1341,"Ġhamaar":1342,"Ġselphee":1343,"Ġchaahie":1344,"Ġopar":1345,"hit":1346,"tr":1347,"Ġapadet":1348,"alod":1349,"iyat":1350,"60":1351,"Ġshaanadaar":1352,"--":1353,"pop":1354,"smaartaphon":1355,"Ġaan":1356,"akom":1357,"raigan":1358,"Ġklik":1359,"Ġmaarsham":1360,"aayans":1361,"Ġisase":1362,"ayog":1363,"vah":1364,"Ġyooesabee":1365,"Ġbar":1366,"Ġanusaar":1367,"ika":1368,"Ġpet":1369,"Ġtest":1370,"Ġlok":1371,"Ġaapakee":1372,"Ġrejolyooshan":1373,"Ġmukaab":1374,"ailo":1375,"onee":1376,"kaar":1377,"Ġeph":1378,"Ġ30":1379,"odee":1380,"Ġjarooree":1381,"ateeee":1382,"Ġjagah":1383,"Ġneta":1384,"oleepop":1385,"Ġaaj":1386,"Ġdaunalod":1387,"ram":1388,"Ġmaarshamailo":1389,"Ġgraahakon":1390,"esha":1391,"Ġtakanee":1392,"ina":1393,"Ġz":1394,"Ġas":1395,"Ġaage":1396,"Ġsas":1397,"ilaayans":1398,"Ġpahala":1399,"Ġhonge":1400,"Ġloleepop":1401,"Ġlet":1402,"oos":1403,"Ġaata":1404,"yoovee":1405,"Ġilektrik":1406,"Ġpaanee":1407,"ala":1408,"Ġbol":1409,"Ġusake":1410,"Ġjaanen":1411,"Ġsnaipadraigan":1412,"Ġglaas":1413,"Ġjen":1414,"pane":1415,"Ġteevee":1416,"Ġbanaaya":1417,"Ġprod":1418,"ingar":1419,"Ġlagata":1420,"Ġoes":1421,"Ġnajar":1422,"Ġjisase":1423,"Ġaadhaarit":1424,"yas":1425,"Ġsur":1426,"Ġpasan":1427,"Ġliya":1428,"Ġkant":1429,"vark":1430,"Ġkul":1431,"ekshan":1432,"Ġchee":1433,"Ġplaan":1434,"Ġkyonki":1435,"eno":1436,"Ġkarake":1437,"Ġchaahate":1438,"Ġbada":1439,"Ġpooree":1440,"Ġnambar":1441,"be":1442,"Ġdijain":1443,"Ġjae":1444,"Ġdaata":1445,"okas":1446,"hatee":1447,"Ġav":1448,"Ġlene":1449,"Ġshareer":1450,"Ġnetavark":1451,"Ġpur":1452,"Ġ11":1453,"photograaphee":1454,"Ġkhabar":1455,"Ġw":1456,"aajee":1457,"iti":1458,"oshan":1459,"Ġsun":1460,"Ġdar":1461,"meed":1462,"Ġjeet":1463,"Ġpahunch":1464,"Ġ100":1465,"Ġtakaneek":1466,"ps":1467,"yootar":1468,"Ġlaip":1469,"Ġisee":1470,"Ġlait":1471,"Ġkhaasiyat":1472,"Ġkarod":1473,"Ġtekn":1474,"Ġbach":1475,"po":1476,"Ġrik":1477,"ila":1478,"Ġchho":1479,"Ġjaate":1480,"Ġhaar":1481,"ujhe":1482,"Ġleetar":1483,"aprint":1484,"Ġsamaj":1485,"has":1486,"Ġjisaka":1487,"Ġphingar":1488,"Ġaasaanee":1489,"Ġvajan":1490,"Ġranon":1491,"Ġballebaaj":1492,"30":1493,"na":1494,"aapako":1495,"chee":1496,"kom":1497,"vish":1498,"Ġtum":1499,"daan":1500,"asya":1501,"imit":1502,"Ġbehad":1503,"Ġchalata":1504,"Ġlaipatop":1505,"Ġvid":1506,"aadh":1507,"aasha":1508,"Ġovar":1509,"kars":1510,"olojee":1511,"Ġdete":1512,"aink":1513,"Ġsaamane":1514,"Ġbajat":1515,"Ġvind":1516,"chaar":1517,"Ġpeechhe":1518,"olar":1519,"ilt":1520,"Ġlik":1521,"Ġkareeb":1522,"Ġsamasya":1523,"akaart":1524,"Ġvairient":1525,"sare":1526,"Ġpain":1527,"Ġapar":1528,"Ġsahee":1529,"sp":1530,"okiya":1531,"Ġkvaalakom":1532,"Ġbanae":1533,"Ġopareting":1534,"bhag":1535,"Ġ21":1536,"Ġkaregee":1537,"aast":1538,"Ġbuk":1539,"und":1540,"Ġdikh":1541,"Ġhajaar":1542,"Ġaay":1543,"Ġcheej":1544,"Ġmaam":1545,"Ġkahana":1546,"Ġvarsh":1547,"Ġopshan":1548,"Ġnik":1549,"aadiyon":1550,"Ġkapt":1551,"Ġmeediy":1552,"de":1553,"me":1554,"too":1555,"Ġphingaraprint":1556,"so":1557,"Ġrakhane":1558,"aisa":1559,"Ġunakee":1560,"Ġbadalaav":1561,"hai":1562,"itar":1563,"Ġokta":1564,"Ġkhilaaph":1565,"Ġach":1566,"Ġshatak":1567,"Ġpasand":1568,"Ġhaath":1569,"Ġ802":1570,"Ġjisake":1571,"Ġrip":1572,"alee":1573,"lab":1574,"Ġnogat":1575,"Ġaparchar":1576,"Ġphaayad":1577,"iye":1578,"Ġvhaatsep":1579,"ipakaart":1580,"Ġskor":1581,"Ġtaree":1582,"imited":1583,"ink":1584,"gl":1585,"Ġsup":1586,"ork":1587,"tav":1588,"Ġ18":1589,"yooj":1590,"uti":1591,"uth":1592,"Ġmoto":1593,"Ġoo":1594,"main":1595,"Ġjud":1596,"aatek":1597,"Ġjan":1598,"ko":1599,"ld":1600,"Ġkaaron":1601,"Ġusakee":1602,"Ġdoosara":1603,"tiv":1604,"Ġdinon":1605,"haj":1606,"Ġvyak":1607,"Ġrakhen":1608,"bhav":1609,"eda":1610,"Ġjisakee":1611,"maiks":1612,"echa":1613,"Ġbalki":1614,"Ġgem":1615,"Ġkampyootar":1616,"Ġsl":1617,"ejan":1618,"Ġmauk":1619,"phai":1620,"abl":1621,"Ġband":1622,"Ġstaind":1623,"Ġmeediyaatek":1624,"pa":1625,"oda":1626,"Ġ2017":1627,"Ġbatan":1628,"Ġjeepee":1629,"Ġminat":1630,"Ġbina":1631,"Ġphilahaal":1632,"Ġjaisee":1633,"Ġ4000":1634,"Ġbil":1635,"Ġbhej":1636,"gament":1637,"atalab":1638,"amee":1639,"shamata":1640,"Ġdetee":1641,"Ġaisee":1642,"Ġdekh":1643,"googal":1644,"pr":1645,"Ġsil":1646,"Ġvol":1647,"Ġsegament":1648,"Ġyu":1649,"abilt":1650,"Ġtaip":1651,"Ġdega":1652,"Ġteknolojee":1653,"Ġni":1654,"Ġjaen":1655,"oshana":1656,"Ġdrai":1657,"adh":1658,"desh":1659,"Ġkosh":1660,"itel":1661,"Ġghoshana":1662,"donon":1663,"hy":1664,"Ġsuj":1665,"Ġjio":1666,"hare":1667,"Ġshik":1668,"Ġkhoo":1669,"Ġ19":1670,"Ġmas":1671,"Ġsakenge":1672,"ivaar":1673,"Ġdoor":1674,"Ġtab":1675,"Ġtop":1676,"maart":1677,"Ġkshamata":1678,"Ġaapaka":1679,"ukee":1680,"Ġlagee":1681,"Ġoopar":1682,"Ġphar":1683,"ba":1684,"edaaree":1685,"Ġyooj":1686,"Ġspesiphikeshan":1687,"iyal":1688,"Ġsal":1689,"jal":1690,"Ġkampaniyon":1691,"Ġkon":1692,"yal":1693,"Ġprodakt":1694,"baik":1695,"Ġmee":1696,"Ġdolar":1697,"Ġsin":1698,"Ġjiyo":1699,"abhee":1700,"hah":1701,"Ġpoore":1702,"ita":1703,"ujar":1704,"Ġphlipakaart":1705,"ukh":1706,"Ġinabilt":1707,"Ġot":1708,"Ġpoora":1709,"Ġsaab":1710,"agee":1711,"Ġmujhe":1712,"Ġaip":1713,"Ġhaas":1714,"shree":1715,"âĢį":1716,"mp":1717,"Ġsheyar":1718,"Ġpratis":1719,"Ġaaeepeees":1720,"ajee":1721,"yan":1722,"aahan":1723,"Ġvindoj":1724,"mel":1725,"varee":1726,"Ġport":1727,"Ġset":1728,"Ġummeed":1729,"tel":1730,"Ġvi":1731,"jeen":1732,"Ġbade":1733,"Ġkil":1734,"Ġsait":1735,"tareen":1736,"25":1737,"Ġrohit":1738,"Ġkai":1739,"Ġpat":1740,"Ġesayoovee":1741,"phree":1742,"Ġmal":1743,"sk":1744,"yahaan":1745,"atel":1746,"Ġtaak":1747,"Ġhaasil":1748,"cheen":1749,"Ġ24":1750,"Ġ200":1751,"Ġchukee":1752,"br":1753,"yee":1754,"Ġhona":1755,"Ġtraans":1756,"Ġpradar":1757,"svee":1758,"Ġod":1759,"ahind":1760,"Ġaadi":1761,"Ġeksa":1762,"Ġyoonit":1763,"Ġvyakti":1764,"Ġbehatareen":1765,"Ġtv":1766,"Ġaaaip":1767,"Ġgar":1768,"Ġjaenge":1769,"dam":1770,"Ġrakha":1771,"Ġdost":1772,"Ġagale":1773,"Ġkain":1774,"Ġstaar":1775,"anga":1776,"Ġdam":1777,"Ġrilaayans":1778,"Ġtork":1779,"Ġinst":1780,"Ġanu":1781,"Ġamejan":1782,"vacha":1783,"Ġphail":1784,"had":1785,"Ġbaahar":1786,"Ġvaap":1787,"aataar":1788,"ahindra":1789,"Ġ17":1790,"ament":1791,"di":1792,"Ġphes":1793,"Ġdekhane":1794,"Ġsupar":1795,"kaim":1796,"Ġlam":1797,"Ġla":1798,"Ġaank":1799,"Ġedishan":1800,"epha":1801,"Ġshuruaat":1802,"Ġaav":1803,"Ġsho":1804,"Ġkara":1805,"Ġsaamaan":1806,"Ġpradarshan":1807,"alag":1808,"phil":1809,"Ġgan":1810,"Ġkhul":1811,"Ġgayee":1812,"red":1813,"990":1814,"Ġsek":1815,"saimasang":1816,"akor":1817,"ahaan":1818,"Ġantar":1819,"Ġlagabhag":1820,"yadi":1821,"toobar":1822,"90":1823,"ital":1824,"Ġkabhee":1825,"Ġ50":1826,"Ġhamen":1827,"500":1828,"Ġlist":1829,"Ġtasvee":1830,"Ġchun":1831,"abee":1832,"Ġtok":1833,"Ġeps":1834,"Ġaktoobar":1835,"Ġkrik":1836,"Ġjeevan":1837,"Ġ3000":1838,"Ġkah":1839,"ook":1840,"Ġtul":1841,"Ġbadha":1842,"Ġar":1843,"taph":1844,"Ġteesare":1845,"Ġmi":1846,"abhaav":1847,"Ġkantrol":1848,"ve":1849,"Ġ-":1850,"Ġbaink":1851,"Ġvaahan":1852,"Ġgal":1853,"Ġbaiks":1854,"Ġmahila":1855,"ton":1856,"Ġsaabit":1857,"Ġaaega":1858,"Ġ40":1859,"Ġgendab":1860,"Ġmu":1861,"Ġbachchon":1862,"Ġkit":1863,"enjar":1864,"Ġlagaaya":1865,"Ġant":1866,"Ġmaim":1867,"oshal":1868,"Ġpaanch":1869,"Ġisalie":1870,"elee":1871,"mah":1872,"Ġunhonne":1873,"maikro":1874,"ichaar":1875,"Ġbachche":1876,"yo":1877,"bandh":1878,"Ġpetrol":1879,"Ġotom":1880,"Ġrenj":1881,"Ġ28":1882,"Ġtulana":1883,"Ġchip":1884,"Ġdoosaree":1885,"sopht":1886,"Ġkoshish":1887,"itam":1888,"Ġmaichon":1889,"Ġpratishat":1890,"40":1891,"Ġakaunt":1892,"Ġmukaabale":1893,"Ġtach":1894,"Ġmaus":1895,"Ġmeediya":1896,"Ġodiyo":1897,"eej":1898,"bo":1899,"kul":1900,"Ġprot":1901,"Ġkarenge":1902,"sap":1903,"Ġesadee":1904,"Ġyaad":1905,"chane":1906,"ovo":1907,"Ġmila":1908,"Ġmilee":1909,"bhaarateey":1910,"Ġmaatr":1911,"Ġsmaart":1912,"Ġvaayar":1913,"ted":1914,"Ġjahaan":1915,"Ġnokiya":1916,"Ġtvacha":1917,"Ġaasaan":1918,"doo":1919,"Ġsamet":1920,"Ġdiskaunt":1921,"Ġmaimoree":1922,"ep":1923,"haar":1924,"ijan":1925,"jo":1926,"Ġupayog":1927,"Ġluk":1928,"35":1929,"stam":1930,"à¤":1931,"Ġchaarjing":1932,"sam":1933,"Ġtej":1934,"Ġlagaataar":1935,"takait":1936,"yor":1937,"Ġtel":1938,"haranga":1939,"Ġsujukee":1940,"gh":1941,"jed":1942,"habar":1943,"Ġandar":1944,"Ġkoling":1945,"Ġsthiti":1946,"Ġkriket":1947,"inamen":1948,"Ġat":1949,"aatar":1950,"mo":1951,"Ġjod":1952,"Ġbadhaane":1953,"Ġrikord":1954,"miyam":1955,"isha":1956,"Ġvakt":1957,"Ġbhaasha":1958,"Ġkarav":1959,"Ġparesh":1960,"Ġhonda":1961,"Ġ500":1962,"Ġkhele":1963,"mak":1964,"Ġkitakait":1965,"Ġdikhaee":1966,"havan":1967,"Ġgb":1968,"endr":1969,"era":1970,"Ġrahane":1971,"Ġsoch":1972,"Ġsahaare":1973,"Ġgraam":1974,"aksha":1975,"Ġchuna":1976,"yoon":1977,"Ġhal":1978,"Ġseva":1979,"Ġachchhe":1980,"Ġdraiv":1981,"Ġkohalee":1982,"Ġchuka":1983,"las":1984,"Ġjim":1985,"Ġepal":1986,"Ġaae":1987,"Ġmaamale":1988,"Ġbra":1989,"Ġrok":1990,"Ġelateeee":1991,"komars":1992,"teesee":1993,"Ġpram":1994,"Ġpost":1995,"port":1996,"utee":1997,"asaik":1998,"Ġriport":1999,"bhar":2000,"Ġlain":2001,"oroom":2002,"Ġdekha":2003,"eek":2004,"aret":2005,"Ġvoyas":2006,"uchh":2007,"avaar":2008,"Ġtejee":2009,"67":2010,"Ġaphree":2011,"aaran":2012,"Ġkhareedane":2013,"Ġroj":2014,"yooesabee":2015,"Ġmotars":2016,"vaas":2017,"Ġbodee":2018,"Ġecha":2019,"asaan":2020,"Ġphons":2021,"Ġmajab":2022,"Ġ0":2023,"Ġkhaane":2024,"Ġgre":2025,"Ġsonee":2026,"tap":2027,"Ġnikal":2028,"ipht":2029,"udee":2030,"Ġbes":2031,"Ġkaise":2032,"phesabuk":2033,"anavaree":2034,"Ġpreemiyam":2035,"Ġsoo":2036,"Ġlagaane":2037,"ib":2038,"Ġnuk":2039,"Ġaphreeka":2040,"kil":2041,"ran":2042,"Ġbane":2043,"Ġritel":2044,"aapt":2045,"Ġmahaj":2046,"Ġmaidaan":2047,"Ġnyoo":2048,"Ġanal":2049,"Ġhamaare":2050,"17":2051,"19":2052,"rel":2053,"Ġkastam":2054,"Ġpars":2055,"Ġkhelane":2056,"Ġnukasaan":2057,"Ġmilegee":2058,"Ġusaka":2059,"yam":2060,"Ġjanavaree":2061,"Ġyadi":2062,"Ġamer":2063,"Ġsambh":2064,"chana":2065,"kya":2066,"Ġnav":2067,"Ġsambandh":2068,"aig":2069,"Ġ22":2070,"Ġprabhaav":2071,"Ġotoph":2072,"Ġit":2073,"Ġkaip":2074,"isalie":2075,"aala":2076,"Ġstail":2077,"Ġmot":2078,"heere":2079,"Ġlage":2080,"Ġmauka":2081,"Ġsm":2082,"akshan":2083,"atar":2084,"Ġkimee":2085,"Ġkaptaan":2086,"ren":2087,"Ġkro":2088,"Ġgor":2089,"Ġiv":2090,"hait":2091,"Ġje":2092,"Ġrav":2093,"itambar":2094,"teks":2095,"ven":2096,"Ġdijital":2097,"Ġjeepeeyoo":2098,"100":2099,"Ġsaare":2100,"apoor":2101,"aitik":2102,"vaar":2103,"Ġdab":2104,"Ġgiyar":2105,"ikt":2106,"illa":2107,"Ġingl":2108,"reey":2109,"Ġchalate":2110,"Ġhissa":2111,"Ġpak":2112,"Ġraaj":2113,"Ġunaka":2114,"Ġchalane":2115,"eel":2116,"indagee":2117,"Ġkhareeda":2118,"Ġeyaratel":2119,"idee":2120,"Ġlaaya":2121,"Ġchait":2122,"----":2123,"Ġhamesha":2124,"Ġchhod":2125,"Ġsoshal":2126,"Ġsaksham":2127,"Ġ23":2128,"Ġbloo":2129,"jeenen":2130,"taon":2131,"Ġdeejal":2132,"Ġmaaruti":2133,"Ġsasta":2134,"Ġspee":2135,"Ġris":2136,"ikon":2137,"shet":2138,"Ġbeemaar":2139,"Ġstar":2140,"Ġsake":2141,"Ġkhol":2142,"Ġeksap":2143,"omeetar":2144,"Ġlaksh":2145,"apane":2146,"mot":2147,"Ġsik":2148,"aaphiks":2149,"ektar":2150,"Ġlaiph":2151,"Ġbuking":2152,"Ġlimited":2153,"Ġvhait":2154,"Ġgaadee":2155,"Ġkanekt":2156,"xy":2157,"hand":2158,"reem":2159,"Ġanubhav":2160,"pichhale":2161,"Ġhom":2162,"eeche":2163,"Ġstaindab":2164,"Ġjimm":2165,"aiga":2166,"Ġlad":2167,"Ġ26":2168,"Ġprak":2169,"Ġemem":2170,"Ġplus":2171,"Ġsarch":2172,"Ġlens":2173,"karshak":2174,"Ġaakarshak":2175,"philahaal":2176,"Ġgorilla":2177,"15":2178,"echadee":2179,"Ġchar":2180,"Ġkal":2181,"rt":2182,"inal":2183,"Ġai":2184,"Ġkaheen":2185,"Ġvhee":2186,"Ġbacha":2187,"Ġaaaiphar":2188,"ojan":2189,"Ġkool":2190,"Ġbaal":2191,"Ġtheek":2192,"Ġkshet":2193,"Ġud":2194,"Ġsaphal":2195,"Ġkhat":2196,"Ġmilane":2197,"Ġmotarasaik":2198,"Ġree":2199,"Ġvy":2200,"Ġtaata":2201,"Ġjaana":2202,"asal":2203,"onai":2204,"Ġjam":2205,"aasa":2206,"Ġabh":2207,"Ġmaikromaiks":2208,"ushkil":2209,"Ġkvaalitee":2210,"Ġinglaind":2211,"Ġgir":2212,"rip":2213,"aaee":2214,"Ġsekan":2215,"Ġche":2216,"Ġgaadiyon":2217,"Ġkamee":2218,"aapat":2219,"Ġskain":2220,"strel":2221,"Ġvishesh":2222,"tanam":2223,"Ġmukaabala":2224,"art":2225,"Ġhed":2226,"ith":2227,"Ġhaee":2228,"Ġjeetee":2229,"Ġmaujooda":2230,"Ġ2016":2231,"Ġtaaki":2232,"Ġmausam":2233,"Ġsitambar":2234,"aakhaapat":2235,"Ġvoltai":2236,"streliya":2237,"aakhaapattanam":2238,"Ġmushkil":2239,"phonai":2240,"Ġprayog":2241,"Ġsharma":2242,"bah":2243,"Ġneeche":2244,"Ġaaut":2245,"Ġparaph":2246,"Ġkaaren":2247,"Ġemabee":2248,"Ġkhatar":2249,"Ġshaomee":2250,"Ġsarakaar":2251,"Ġagast":2252,"Ġdamadaar":2253,"Ġik":2254,"uru":2255,"14":2256,"Ġkis":2257,"Ġela":2258,"aboks":2259,"aple":2260,"Ġkhus":2261,"Ġjoon":2262,"Ġsekand":2263,"bord":2264,"Ġkyoo":2265,"Ġjaakar":2266,"Ġtoo":2267,"Ġrahata":2268,"Ġsitee":2269,"Ġtaaree":2270,"adeep":2271,"Ġmaltee":2272,"Ġprotekshan":2273,"Ġstaindabaay":2274,"bit":2275,"orol":2276,"Ġsad":2277,"Ġaatee":2278,"Ġguna":2279,"Ġbaikap":2280,"16":2281,"Ġbha":2282,"Ġbait":2283,"ooshan":2284,"Ġvaalon":2285,"Ġphais":2286,"Ġchuke":2287,"sim":2288,"tv":2289,"inch":2290,"Ġmahindra":2291,"Ġdhan":2292,"Ġdig":2293,"Ġdr":2294,"avaal":2295,"Ġveriyant":2296,"Ġyuva":2297,"skreen":2298,"kuchh":2299,"hach":2300,"Ġdhavan":2301,"Ġkhaana":2302,"Ġchahal":2303,"ular":2304,"Ġeksapee":2305,"jabaki":2306,"Ġpainal":2307,"kaee":2308,"Ġjaik":2309,"ootar":2310,"Ġvit":2311,"Ġej":2312,"Ġphit":2313,"aavana":2314,"ship":2315,"Ġvaheen":2316,"Ġelajee":2317,"yaar":2318,"Ġsaij":2319,"Ġjindagee":2320,"Ġniyam":2321,"Ġematee":2322,"Ġkhatm":2323,"Ġsaaph":2324,"aamee":2325,"aakee":2326,"Ġmilata":2327,"Ġdekhate":2328,"ojana":2329,"Ġotophokas":2330,"kal":2331,"Ġli":2332,"Ġaam":2333,"aale":2334,"Ġuth":2335,"Ġdilee":2336,"Ġimej":2337,"Ġste":2338,"agred":2339,"Ġbraand":2340,"Ġtaiyaaree":2341,"Ġspesiphikeshans":2342,"chom":2343,"Ġraid":2344,"phr":2345,"jeee":2346,"taveyar":2347,"Ġail":2348,"aiv":2349,"Ġletest":2350,"Ġsuraksha":2351,"reshan":2352,"Ġpoo":2353,"Ġ720":2354,"aasht":2355,"Ġlaiv":2356,"vd":2357,"Ġsaaj":2358,"1280":2359,"qu":2360,"Ġmaana":2361,"Ġraj":2362,"leek":2363,"Ġdeshon":2364,"Ġphaayada":2365,"Ġasar":2366,"jeepeees":2367,"Ġpahach":2368,"Ġchala":2369,"Ġgala":2370,"Ġbilkul":2371,"Ġpramukh":2372,"Ġkaun":2373,"Ġsakega":2374,"Ġseet":2375,"Ġrakh":2376,"Ġcham":2377,"Ġtareeke":2378,"ebal":2379,"Ġapagred":2380,"Ġmahat":2381,"Ġ2018":2382,"Ġ256":2383,"499":2384,"aphon":2385,"baar":2386,"chit":2387,"Ġinteks":2388,"Ġ2000":2389,"Ġshop":2390,"shit":2391,"Ġrangon":2392,"Ġkilomeetar":2393,"Ġivent":2394,"Ġlakshy":2395,"Ġkadam":2396,"Ġeppal":2397,"padhe":2398,"Ġtraik":2399,"akam":2400,"Ġkab":2401,"phtaveyar":2402,"Ġtay":2403,"Ġyojana":2404,"araphul":2405,"bata":2406,"Ġbas":2407,"Ġesee":2408,"Ġkhelee":2409,"ukt":2410,"Ġsthaan":2411,"Ġvibh":2412,"Ġvaapasee":2413,"aigaship":2414,"akl":2415,"iraat":2416,"âĢĶ":2417,"Ġrediyo":2418,"vas":2419,"arav":2420,"Ġkampaniyaan":2421,"onik":2422,"Ġekva":2423,"Ġtakkar":2424,"Ġphlaigaship":2425,"khya":2426,"Ġbaraab":2427,"Ġhel":2428,"Ġaakh":2429,"dhaar":2430,"Ġrahate":2431,"Ġlena":2432,"Ġgalaxy":2433,"Ġmahatv":2434,"ikaar":2435,"Ġintar":2436,"Ġ1080":2437,"Ġhisaab":2438,"Ġpletaph":2439,"vishaakhaapattanam":2440,"pat":2441,"rail":2442,"arad":2443,"Ġnaye":2444,"Ġtelee":2445,"ach":2446,"kat":2447,"ooph":2448,"Ġchhoot":2449,"Ġophis":2450,"bl":2451,"oes":2452,"Ġpair":2453,"imee":2454,"aaja":2455,"Ġoppo":2456,"Ġshahar":2457,"akshit":2458,"Ġumr":2459,"Ġnavambar":2460,"ning":2461,"Ġaate":2462,"orai":2463,"yoom":2464,"Ġopan":2465,"Ġpraim":2466,"Ġsekend":2467,"apanee":2468,"Ġpor":2469,"Ġtheen":2470,"Ġema":2471,"ulaee":2472,"avaree":2473,"Ġlenovo":2474,"Ġeemel":2475,"Ġmatalab":2476,"Ġkavar":2477,"aabh":2478,"Ġnikaal":2479,"Ġlo":2480,"aphee":2481,"Ġdekhen":2482,"Ġ251":2483,"ang":2484,"Ġder":2485,"Ġlaane":2486,"Ġphokas":2487,"Ġusamen":2488,"Ġkahate":2489,"Ġsankhya":2490,"Ġpaariyon":2491,"Ġjimmedaaree":2492,"Ġpaid":2493,"Ġdas":2494,"Ġjed":2495,"Ġutar":2496,"Ġprash":2497,"Ġlagatee":2498,"Ġkhulaasa":2499,"bil":2500,"Ġbaind":2501,"Ġvahaan":2502,"aradast":2503,"teev":2504,"Ġmaatra":2505,"Ġpahachaan":2506,"kon":2507,"avas":2508,"Ġdisambar":2509,"emapee":2510,"Ġdegee":2511,"Ġgrup":2512,"acha":2513,"pen":2514,"sun":2515,"gaur":2516,"Ġsev":2517,"aplas":2518,"rd":2519,"Ġintel":2520,"Ġhongee":2521,"Ġskootar":2522,"Ġdena":2523,"Ġnotai":2524,"Ġsophtaveyar":2525,"Ġkhoob":2526,"Ġsingal":2527,"ghz":2528,"Ġbaraabar":2529,"Ġdim":2530,"Ġkarvd":2531,"Ġaapane":2532,"Ġrakhate":2533,"Ġmukhy":2534,"Ġsilvar":2535,"esee":2536,"eshak":2537,"Ġphaast":2538,"akshin":2539,"Ġseting":2540,"Ġbit":2541,"Ġpahan":2542,"thit":2543,"Ġand":2544,"Ġsaund":2545,"Ġkharaab":2546,"Ġmainne":2547,"Ġaadat":2548,"Ġlete":2549,"Ġgalat":2550,"sak":2551,"vaan":2552,"ikee":2553,"apar":2554,"ips":2555,"Ġkharch":2556,"Ġmere":2557,"Ġjaisa":2558,"aavaraphul":2559,"Ġrahen":2560,"Ġchipaset":2561,"lai":2562,"Ġboks":2563,"dhe":2564,"Ġrahatee":2565,"Ġklaas":2566,"Ġdoston":2567,"Ġmajaboot":2568,"Ġhd":2569,"aavaj":2570,"eshanal":2571,"Ġbecha":2572,"Ġroyal":2573,"Ġvidiyo":2574,"Ġgendabaaj":2575,"orola":2576,"Ġpan":2577,"Ġol":2578,"emes":2579,"Ġsamajh":2580,"aatr":2581,"teen":2582,"Ġbadhane":2583,"Ġmaikrosopht":2584,"bale":2585,"bd":2586,"tail":2587,"Ġtharanga":2588,"halain":2589,"Ġrakhana":2590,"Ġsurakshit":2591,"kaimara":2592,"ia":2593,"Ġsavaal":2594,"Ġpaaya":2595,"phte":2596,"aatmak":2597,"Ġechateesee":2598,"Ġgun":2599,"Ġ2015":2600,"Ġbrek":2601,"Ġpuraane":2602,"Ġotomaitik":2603,"Ġmaas":2604,"yayan":2605,"Ġaham":2606,"Ġkvod":2607,"Ġutha":2608,"Ġamerika":2609,"720":2610,"eph":2611,"jaan":2612,"Ġpop":2613,"Ġtur":2614,"Ġtam":2615,"Ġpaenge":2616,"Ġhamane":2617,"ojit":2618,"Ġghanta":2619,"aavajood":2620,"lo":2621,"Ġgo":2622,"mach":2623,"Ġaprail":2624,"Ġdaayar":2625,"Ġgujar":2626,"ets":2627,"Ġlokapr":2628,"taak":2629,"hatar":2630,"hala":2631,"aasonik":2632,"eloo":2633,"aashtreey":2634,"55":2635,"Ġmaadh":2636,"Ġjudee":2637,"Ġjulaee":2638,"aarm":2639,"Ġrom":2640,"yoojar":2641,"Ġmahas":2642,"Ġmahasoos":2643,"dil":2644,"tab":2645,"Ġmetal":2646,"Ġinhen":2647,"Ġkaaryak":2648,"Ġilektron":2649,"70":2650,"aave":2651,"Ġyahee":2652,"Ġsport":2653,"Ġtvitar":2654,"chan":2655,"fi":2656,"yu":2657,"Ġhaphte":2658,"Ġbaavajood":2659,"Ġdok":2660,"Ġbhu":2661,"irikt":2662,"Ġredamee":2663,"Ġsaaree":2664,"Ġpi":2665,"anes":2666,"Ġusase":2667,"Ġmaarch":2668,"ephasee":2669,"areshan":2670,"Ġjeda":2671,"Ġkod":2672,"jaree":2673,"Ġvairiyant":2674,"yoojik":2675,"Ġbhaashaon":2676,"paad":2677,"aada":2678,"Ġjaanate":2679,"Ġsaph":2680,"Ġkaptaanee":2681,"Ġgiyaraboks":2682,"apheeld":2683,"Ġmaadhyam":2684,"Ġsain":2685,"Ġrish":2686,"Ġ60":2687,"Ġmainual":2688,"ablyoo":2689,"Ġspeekar":2690,"Ġ\"":2691,"Ġphan":2692,"Ġdaaya":2693,"Ġkapad":2694,"Ġvichaar":2695,"Ġtan":2696,"aayee":2697,"omi":2698,"Ġeksakl":2699,"darasal":2700,"Ġkhilaadiyon":2701,"shee":2702,"Ġnoo":2703,"eksa":2704,"Ġpadata":2705,"Ġshabd":2706,"oosiv":2707,"Ġjude":2708,"Ġ:":2709,"Ġpaane":2710,"Ġre":2711,"antr":2712,"iaomi":2713,"khabar":2714,"mi":2715,"inn":2716,"Ġvya":2717,"Ġkhush":2718,"avar":2719,"Ġhamaaree":2720,"Ġjenaphon":2721,"echajed":2722,"Ġaavaaj":2723,"300":2724,"aur":2725,"raam":2726,"reno":2727,"Ġril":2728,"aant":2729,"Ġmilenge":2730,"Ġephem":2731,"behatar":2732,"Ġchhote":2733,"aahee":2734,"Ġjad":2735,"avard":2736,"Ġutaar":2737,"Ġthoda":2738,"Ġvaahanon":2739,"Ġmupht":2740,"Ġatirikt":2741,"Ġpakad":2742,"Ġsikyor":2743,"Ġson":2744,"Ġkamaand":2745,"Ġjaldee":2746,"Ġbraujar":2747,"Ġparsent":2748,"Ġvij":2749,"Ġhaan":2750,"Ġpaik":2751,"yahee":2752,"Ġres":2753,"Ġjabaradast":2754,"Ġbraind":2755,"Ġjenaret":2756,"Ġad":2757,"amishan":2758,"chars":2759,"Ġlagae":2760,"basoor":2761,"Ġlokeshan":2762,"aanon":2763,"Ġprav":2764,"Ġmilatee":2765,"Ġang":2766,"Ġophalain":2767,"Ġballebaajee":2768,"leekeshan":2769,"Ġeksakloosiv":2770,"Ġmaee":2771,"Ġaind":2772,"Ġaag":2773,"yoob":2774,"Ġlagane":2775,"Ġpradaan":2776,"),":2777,"laga":2778,"amaan":2779,"iyaomee":2780,"aama":2781,"ivars":2782,"Ġproj":2783,"Ġenapheeld":2784,"Ġkuladeep":2785,"Ġyoonits":2786,"Ġanalimited":2787,"Ġpe":2788,"tas":2789,"Ġviraat":2790,"Ġmilakar":2791,"Ġteesara":2792,"Ġstors":2793,"aneeti":2794,"Ġenem":2795,"37":2796,"dai":2797,"aapan":2798,"Ġnee":2799,"Ġnish":2800,"Ġ29":2801,"Ġdivaisej":2802,"Ġsank":2803,"1920":2804,"taakor":2805,"ug":2806,"Ġphor":2807,"aikt":2808,"Ġmahan":2809,"Ġbaith":2810,"Ġmaiks":2811,"Ġchalega":2812,"Ġpadhe":2813,"Ġmotarasaikal":2814,"Ġchehare":2815,"Ġtaareeph":2816,"sung":2817,"dek":2818,"Ġitana":2819,"enshan":2820,"eshata":2821,"Ġprakaar":2822,"Ġsauth":2823,"umbee":2824,"Ġmainej":2825,"istreshan":2826,"Ġnotiphikeshan":2827,"Ġpharavaree":2828,"Ġvaayaral":2829,"Ġkshetr":2830,"Ġshoping":2831,"indee":2832,"Ġlink":2833,"Ġkariyar":2834,"ement":2835,"Ġdoosaron":2836,"Ġcheenee":2837,"Ġinstol":2838,"Ġkhatara":2839,"gauratalab":2840,"och":2841,"pur":2842,"aaphon":2843,"Ġmaah":2844,"Ġjh":2845,"Ġins":2846,"Ġutpaad":2847,"enovo":2848,"teevitee":2849,"eta":2850,"Ġpej":2851,"Ġmyoojik":2852,"Ġaid":2853,"elateeee":2854,"Ġdisaple":2855,"Ġtaib":2856,"meetar":2857,"graam":2858,"Ġravivaar":2859,"Ġeksapeeriya":2860,"18":2861,"yog":2862,"ataim":2863,"Ġglo":2864,"Ġchhota":2865,"Ġparaphorm":2866,"49":2867,"sel":2868,"Ġpaavaraphul":2869,"engee":2870,"Ġtacha":2871,"aayaam":2872,"rag":2873,"Ġent":2874,"ekteevitee":2875,"Ġ65":2876,"Ġhaard":2877,"Ġcheejon":2878,"Ġslot":2879,"Ġkail":2880,"Ġpais":2881,"Ġdaam":2882,"Ġghat":2883,"henge":2884,"Ġkhoobasoor":2885,"Ġpareshaan":2886,"man":2887,"rilaayans":2888,"engal":2889,"che":2890,"Ġneks":2891,"hara":2892,"Ġgaur":2893,"eja":2894,"Ġdijaayar":2895,"Ġoor":2896,"Ġij":2897,"Ġraat":2898,"ĠĠĠĠ":2899,"speed":2900,"Ġkastamars":2901,"Ġpal":2902,"Ġbaata":2903,"Ġkir":2904,"aamin":2905,"Ġyoot":2906,"Ġseek":2907,"Ġepleekeshan":2908,"odaaphon":2909,"Ġskainar":2910,"ikaarik":2911,"aares":2912,"Ġvaid":2913,"Ġ150":2914,"reet":2915,"aayak":2916,"Ġchaahatee":2917,"king":2918,"Ġpen":2919,"Ġjor":2920,"Ġ31":2921,"khaas":2922,"Ġmahilaon":2923,"ub":2924,"vaab":2925,"akon":2926,"Ġrog":2927,"Ġvisha":2928,"phir":2929,"ataur":2930,"Ġpraapt":2931,"Ġbanaate":2932,"Ġadhyayan":2933,"Ġenephasee":2934,"Ġbeees":2935,"Ġtraansap":2936,"Ġkvodakor":2937,"Ġturant":2938,"Ġsaat":2939,"Ġevan":2940,"aavat":2941,"veen":2942,"Ġelidee":2943,"moto":2944,"Ġsaphed":2945,"Ġheda":2946,"Ġaak":2947,"unhen":2948,"Ġbhaag":2949,"keemat":2950,"mobail":2951,"Ġsaphalata":2952,"dillee":2953,"Ġstee":2954,"Ġshak":2955,"Ġpement":2956,"Ġmail":2957,"Ġdard":2958,"Ġkeebord":2959,"asar":2960,"abaig":2961,"Ġjaanch":2962,"Ġkram":2963,"Ġsambandhit":2964,"Ġkrom":2965,"Ġchammach":2966,"Ġpaise":2967,"Ġektiv":2968,"Ġ1280":2969,"Ġveeo":2970,"abhok":2971,"Ġshikhar":2972,"do":2973,"kap":2974,"aahat":2975,"Ġphorm":2976,"Ġjavaab":2977,"Ġostreliya":2978,"Ġyaanee":2979,"phtaar":2980,"Ġgendon":2981,"Ġlokapriy":2982,"32":2983,"aich":2984,"Ġlaabh":2985,"Ġsevan":2986,"harm":2987,"Ġkhaan":2988,"Ġmaheenon":2989,"Ġgarm":2990,"apoorn":2991,"ho":2992,"inee":2993,"pand":2994,"dhi":2995,"Ġusee":2996,"Ġtareeka":2997,"Ġbijan":2998,"Ġinta":2999,"rod":3000,"rohit":3001,"ayaan":3002,"Ġ300":3003,"Ġmaanana":3004,"Ġphotograaphee":3005,"nae":3006,"Ġaayojit":3007,"Ġmeetar":3008,"Ġdigree":3009,"Ġhedaphon":3010,"nee":3011,"sab":3012,"Ġpyaar":3013,"Ġaus":3014,"Ġatha":3015,"Ġpareek":3016,"Ġ512":3017,"endroyad":3018,"ava":3019,"Ġbaaten":3020,"Ġaadhikaarik":3021,"Ġganv":3022,"Ġtokataim":3023,"Ġathava":3024,"lenovo":3025,"uta":3026,"pana":3027,"eted":3028,"Ġshoroom":3029,"Ġbanee":3030,"veet":3031,"Ġsach":3032,"Ġpeees":3033,"Ġsnaipadeel":3034,"cheet":3035,"Ġveeoelateeee":3036,"eree":3037,"ghar":3038,"Ġbo":3039,"Ġay":3040,"Ġmeree":3041,"Ġlaag":3042,"asth":3043,"Ġbanaakar":3044,"Ġchhotee":3045,"Ġsaamaany":3046,"Ġantim":3047,"Ġentree":3048,"haind":3049,"Ġhaid":3050,"Ġrim":3051,"Ġkomp":3052,"iyonee":3053,"Ġchainal":3054,"Ġnijee":3055,"Ġprashn":3056,"Ġoorja":3057,"pandya":3058,"biya":3059,"maan":3060,"Ġpae":3061,"eraatee":3062,"Ġspin":3063,"graaphiks":3064,"Ġiphonai":3065,"Ġlikha":3066,"Ġdikhaaya":3067,"Ġtachaskreen":3068,"Ġayyar":3069,"hain":3070,"Ġmid":3071,"Ġbel":3072,"Ġkom":3073,"Ġchauk":3074,"Ġveb":3075,"rejee":3076,"taix":3077,"Ġoktaakor":3078,"Ġshuruaatee":3079,"aarantee":3080,"paid":3081,"pair":3082,"unake":3083,"Ġ400":3084,"Ġkum":3085,"reyas":3086,"Ġjinamen":3087,"maikromaiks":3088,"Ġsambhaavana":3089,"aaha":3090,"Ġhad":3091,"Ġraphtaar":3092,"Ġrahega":3093,"Ġpaasavard":3094,"Ġeyarabaig":3095,"Ġmahatvapoorn":3096,"tik":3097,"Ġq":3098,"aaga":3099,"Ġseph":3100,"Ġ27":3101,"ents":3102,"Ġyooro":3103,"Ġaaraam":3104,"yota":3105,"Ġbaatacheet":3106,"ting":3107,"tra":3108,"Ġsmaarta":3109,"chai":3110,"Ġbhojan":3111,"ere":3112,"Ġunase":3113,"Ġentee":3114,"Ġupabhok":3115,"Ġpahunche":3116,"Ġlambe":3117,"Ġrileej":3118,"Ġvot":3119,"Ġbanaee":3120,"Ġvishvaas":3121,"Ġspeshal":3122,"Ġjeepeeaares":3123,"Ġtasveeren":3124,"800":3125,"dheere":3126,"Ġmish":3127,"Ġliye":3128,"ikan":3129,"aapa":3130,"Ġemaee":3131,"Ġdenge":3132,"Ġjinhen":3133,"Ġkumbale":3134,"bin":3135,"injan":3136,"aaron":3137,"Ġchhah":3138,"emaee":3139,"ichro":3140,"Ġmaanen":3141,"Ġkoriya":3142,"Ġphaisala":3143,"Ġhokar":3144,"Ġ5000":3145,"Ġmile":3146,"Ġvisheshata":3147,"Ġkorning":3148,"Ġghareloo":3149,"Ġrajistreshan":3150,"Ġlaagoo":3151,"Ġbayaan":3152,"Ġparis":3153,"apaid":3154,"Ġsthit":3155,"Ġcheejen":3156,"sapp":3157,"54":3158,"Ġphal":3159,"Ġniyant":3160,"seesee":3161,"Ġpareshaanee":3162,"Ġglobal":3163,"kyon":3164,"mit":3165,"vaise":3166,"Ġkaan":3167,"Ġlaid":3168,"Ġsehat":3169,"Ġhindee":3170,"Ġparivaar":3171,"Ġbheetar":3172,"Ġrahana":3173,"Ġjodee":3174,"Ġphrem":3175,"hamane":3176,"Ġhaathon":3177,"Ġgendabaajee":3178,"Ġkhushee":3179,"bai":3180,"laind":3181,"mm":3182,"Ġkaale":3183,"akal":3184,"shoroom":3185,"ipee":3186,"chho":3187,"Ġusane":3188,"hatsapp":3189,"Ġsocha":3190,"brid":3191,"ichaarj":3192,"Ġtanaav":3193,"900":3194,"etar":3195,"nokiya":3196,"tch":3197,"Ġkheen":3198,"hamaar":3199,"arch":3200,"Ġbaaton":3201,"Ġkvik":3202,"Ġdooree":3203,"Ġsnaipadrag":3204,"Ġkont":3205,"Ġtraansamishan":3206,"Ġaaait":3207,"ilee":3208,"olooshan":3209,"Ġgaeen":3210,"Ġaaeeoes":3211,"Ġshaim":3212,"Ġminee":3213,"echapee":3214,"pahale":3215,"Ġkainavas":3216,"Ġchunautee":3217,"Ġsikyoritee":3218,"Ġseed":3219,"Ġviv":3220,"ada":3221,"ayaas":3222,"aveyar":3223,"estor":3224,"aship":3225,"vishy":3226,"Ġpooch":3227,"aagar":3228,"aark":3229,"Ġaakaar":3230,"Ġpras":3231,"endraayad":3232,"Ġdijaayan":3233,"Ġvaapas":3234,"haas":3235,"vin":3236,"Ġsentar":3237,"Ġvishv":3238,"Ġkvaadakor":3239,"hahoor":3240,"Ġausat":3241,"kisee":3242,"aabee":3243,"Ġmir":3244,"Ġmimee":3245,"Ġlaal":3246,"Ġrichaarj":3247,"Ġkaranee":3248,"Ġbadhatee":3249,"Ġkumaar":3250,"Ġprabhaavit":3251,"sil":3252,"shar":3253,"Ġshee":3254,"Ġkaarban":3255,"Ġlagaen":3256,"Ġaasus":3257,"Ġsaste":3258,"Ġstaindard":3259,"Ġsnaipadragan":3260,"jaise":3261,"kshan":3262,"Ġkla":3263,"Ġmaal":3264,"Ġphyool":3265,"Ġchhak":3266,"Ġshoot":3267,"Ġdisk":3268,"tiph":3269,"Ġdikkat":3270,"Ġmodals":3271,"Ġvanaplas":3272,"Ġhamaara":3273,"200":3274,"45":3275,"riyar":3276,"Ġmool":3277,"Ġnam":3278,"Ġkoch":3279,"abuk":3280,"Ġtaiks":3281,"Ġyo":3282,"Ġphotoj":3283,"Ġphilmon":3284,"haindaset":3285,"Ġpaate":3286,"Ġhan":3287,"Ġmen":3288,"Ġret":3289,"Ġkost":3290,"Ġinamen":3291,"Ġjeeechajed":3292,"avai":3293,"aabaad":3294,"usane":3295,"Ġbijanes":3296,"iree":3297,"osa":3298,"elajee":3299,"Ġskool":3300,"Ġjaanakaar":3301,"Ġlagega":3302,"Ġshauk":3303,"Ġdaalen":3304,"kohalee":3305,"Ġprakriya":3306,"Ġvyaayaam":3307,"Ġniyamit":3308,"600":3309,"Ġhaibrid":3310,"Ġaqu":3311,"chenj":3312,"Ġvig":3313,"Ġaath":3314,"Ġrananeeti":3315,"Ġjyaadaatar":3316,"Ġmauke":3317,"Ġvaayaras":3318,"pet":3319,"inta":3320,"Ġbaakee":3321,"Ġkaraane":3322,"ame":3323,"Ġphoks":3324,"Ġbhaaree":3325,"ele":3326,"Ġmashahoor":3327,"Ġphesing":3328,"achaar":3329,"dhata":3330,"Ġsant":3331,"Ġltai":3332,"Ġgam":3333,"Ġ49":3334,"oled":3335,"Ġpres":3336,"ashyak":3337,"1080":3338,"inteks":3339,"eshag":3340,"kaimare":3341,"Ġsoochana":3342,"Ġmotorola":3343,"77":3344,"tek":3345,"vi":3346,"vaad":3347,"Ġrij":3348,"Ġvodaaphon":3349,"aberee":3350,"Ġkamaj":3351,"Ġaltra":3352,"Ġtarbo":3353,"Ġlagate":3354,"kareeb":3355,"Ġleek":3356,"Ġghz":3357,"eend":3358,"Ġbhavishy":3359,"Ġaakhir":3360,"vhaatsep":3361,"Ġana":3362,"Ġard":3363,"istar":3364,"asit":3365,"Ġparera":3366,"usake":3367,"Ġbadho":3368,"Ġdekhakar":3369,"Ġsels":3370,"Ġbaje":3371,"Ġsundar":3372,"megaapiksal":3373,"Ġitanee":3374,"Ġpletaphorm":3375,"62":3376,"poor":3377,"Ġkata":3378,"Ġaai":3379,"endar":3380,"Ġyaat":3381,"Ġvahee":3382,"tanar":3383,"Ġbadhotaree":3384,"ojee":3385,"san":3386,"taan":3387,"Ġmon":3388,"Ġaakar":3389,"Ġgaij":3390,"Ġpraiv":3391,"Ġkaary":3392,"Ġmiliyan":3393,"Ġepha":3394,"Ġrakhata":3395,"Ġpahuncha":3396,"Ġthodee":3397,"Ġkainsar":3398,"Ġbaalon":3399,"buk":3400,"ech":3401,"taata":3402,"Ġsid":3403,"Ġkaisha":3404,"Ġvel":3405,"ama":3406,"Ġdekhana":3407,"Ġkapil":3408,"Ġsalaah":3409,"dekhen":3410,"chal":3411,"div":3412,"jen":3413,"ooj":3414,"Ġekses":3415,"thy":3416,"Ġskoda":3417,"Ġkaaranaama":3418,"Ġkhilaadee":3419,"aseedee":3420,"eeem":3421,"phes":3422,"roid":3423,"aapha":3424,"Ġ33":3425,"Ġsambhav":3426,"Ġmilate":3427,"saree":3428,"Ġrakhakar":3429,"Ġkhelana":3430,"Ġmailej":3431,"29":3432,"duniya":3433,"Ġpich":3434,"Ġmar":3435,"ons":3436,"Ġjhata":3437,"ordar":3438,"Ġprograam":3439,"aatak":3440,"Ġdivaalee":3441,"Ġmaang":3442,"Ġhisse":3443,"Ġvibhinn":3444,"Ġklaasik":3445,"Ġardhas":3446,"65":3447,"Ġmaap":3448,"Ġmaalee":3449,"Ġhaik":3450,"aard":3451,"aimps":3452,"undee":3453,"aint":3454,"phail":3455,"Ġdikhane":3456,"Ġjinakee":3457,"Ġvheel":3458,"Ġphitanes":3459,"Ġkaishabaik":3460,"baad":3461,"je":3462,"mahindra":3463,"Ġpush":3464,"Ġseeee":3465,"Ġveeikal":3466,"Ġroshan":3467,"Ġedreno":3468,"raman":3469,"Ġprodakts":3470,"Ġaankhon":3471,"Ġsaajh":3472,"Ġintajaar":3473,"fonai":3474,"jyoom":3475,"yolooshan":3476,"Ġhava":3477,"Ġkadee":3478,"aalay":3479,"Ġinakee":3480,"Ġkhaate":3481,"aino":3482,"Ġbadhakar":3483,"Ġvikasit":3484,"Ġsans":3485,"Ġsubah":3486,"Ġpoorv":3487,"Ġbharosa":3488,"Ġtasveer":3489,"--------":3490,"Ġpaisenjar":3491,"dis":3492,"Ġvin":3493,"esajee":3494,"Ġbanane":3495,"raiad":3496,"Ġvarshon":3497,"Ġshikaar":3498,"Ġkaipchar":3499,"Ġkaaryakram":3500,"kyonki":3501,"jie":3502,"pro":3503,"Ġnyooj":3504,"Ġnau":3505,"Ġvarld":3506,"Ġphain":3507,"voch":3508,"Ġvitaamin":3509,"dual":3510,"haan":3511,"Ġpeed":3512,"Ġmoo":3513,"Ġmumbee":3514,"Ġprayaas":3515,"ela":3516,"Ġelaseedee":3517,"Ġsudhaar":3518,"Ġeksachenj":3519,"Ġkitanee":3520,"Ġrikording":3521,"yaanee":3522,"eem":3523,"Ġbain":3524,"Ġdhon":3525,"Ġmera":3526,"aavadh":3527,"Ġ800":3528,"Ġkhela":3529,"Ġnirmaan":3530,"Ġmaisejing":3531,"Ġdimaag":3532,"iz":3533,"tharanga":3534,"Ġmorai":3535,"Ġraas":3536,"Ġtveet":3537,"thaas":3538,"Ġjisapar":3539,"Ġindast":3540,"Ġtebalet":3541,"yooveejeee":3542,"Ġbole":3543,"Ġgalatee":3544,"Ġyaadav":3545,"Ġbeemaaree":3546,"Ġraidmi":3547,"Ġshaimpen":3548,"oy":3549,"Ġdes":3550,"enament":3551,"Ġul":3552,"apaas":3553,"Ġbhool":3554,"aaka":3555,"Ġbanaana":3556,"Ġniraash":3557,"Ġpuraanee":3558,"Ġtumh":3559,"Ġtumhen":3560,"maikrosopht":3561,"Ġdileet":3562,"lagabhag":3563,"Ġparisthit":3564,"Ġsaajhedaaree":3565,"21":3566,"rsh":3567,"anal":3568,"Ġdheere":3569,"Ġlaava":3570,"Ġvaarantee":3571,"Ġaaid":3572,"Ġkhoj":3573,"kamp":3574,"Ġ70":3575,"ivarsitee":3576,"Ġganvaane":3577,"kro":3578,"ikchar":3579,"Ġanok":3580,"Ġupalabdhata":3581,"ujav":3582,"Ġpaartanar":3583,"Ġaksar":3584,"eshabhar":3585,"Ġvishay":3586,"sad":3587,"Ġsai":3588,"Ġvip":3589,"aisee":3590,"Ġ44":3591,"oki":3592,"Ġtren":3593,"Ġsinh":3594,"Ġkarava":3595,"baara":3596,"kabhee":3597,"Ġmun":3598,"Ġekad":3599,"beees":3600,"Ġ360":3601,"chabaik":3602,"Ġsamaan":3603,"Ġrahegee":3604,"Ġdher":3605,"Ġveel":3606,"Ġesemes":3607,"Ġkantent":3608,"Ġrisarch":3609,"Ġtraansaphar":3610,"tikal":3611,"Ġbur":3612,"Ġmet":3613,"atam":3614,"agaar":3615,"Ġyujav":3616,"Ġrejyolooshan":3617,"doosare":3618,"Ġkhoobasoorat":3619,"Ġyujavendr":3620,"son":3621,"etik":3622,"Ġshaadee":3623,"edit":3624,"Ġplestor":3625,"Ġvikaas":3626,"Ġenesajee":3627,"Ġzain":3628,"Ġpopular":3629,"aanv":3630,"amer":3631,"roport":3632,"Ġkvol":3633,"Ġmadh":3634,"Ġaasapaas":3635,"Ġtekst":3636,"Ġjuda":3637,"Ġshodh":3638,"Ġjeeteees":3639,"Ġpaida":3640,"nal":3641,"Ġhat":3642,"Ġheero":3643,"aayat":3644,"oppo":3645,"Ġupay":3646,"Ġkahaan":3647,"Ġbhugat":3648,"yaapan":3649,"Ġkitana":3650,"haid":3651,"Ġdham":3652,"Ġdakshin":3653,"taee":3654,"Ġlon":3655,"Ġneend":3656,"Ġaaipee":3657,"Ġsaken":3658,"maaruti":3659,"Ġkaimar":3660,"ishiyal":3661,"Ġphai":3662,"Ġupakar":3663,"Ġophars":3664,"Ġ2500":3665,"Ġdarj":3666,"Ġlih":3667,"Ġgendabaajon":3668,"mujhe":3669,"Ġmit":3670,"Ġras":3671,"Ġguru":3672,"aapaan":3673,"uniy":3674,"Ġbadhat":3675,"edaar":3676,"Ġdeelar":3677,"emand":3678,"Ġseesee":3679,"Ġseedhe":3680,"Ġphrend":3681,"Ġbanaen":3682,"pairi":3683,"maana":3684,"intaran":3685,"Ġbaay":3686,"Ġdit":3687,"Ġprophail":3688,"Ġdoodh":3689,"keen":3690,"Ġsadas":3691,"Ġklaud":3692,"Ġseeeeo":3693,"Ġhaichabaik":3694,"heel":3695,"Ġnid":3696,"Ġgaane":3697,"Ġtal":3698,"inging":3699,"agale":3700,"2017":3701,"Ġuttar":3702,"areej":3703,"Ġxiaomi":3704,"Ġpatala":3705,"Ġaavashyak":3706,"avaigan":3707,"Ġpol":3708,"Ġdon":3709,"aarth":3710,"haree":3711,"aimp":3712,"ema":3713,"Ġgraaphiks":3714,"akaraar":3715,"Ġmaarkit":3716,"Ġbarakaraar":3717,"Ġbachaane":3718,"Ġlihaaj":3719,"vig":3720,"Ġhara":3721,"Ġdot":3722,"Ġaaegee":3723,"Ġ1000":3724,"Ġrakhatee":3725,"park":3726,"bheer":3727,"Ġprodakshan":3728,"itihaas":3729,"Ġkaich":3730,"sabhee":3731,"isaan":3732,"Ġash":3733,"Ġvist":3734,"Ġthan":3735,"Ġaat":3736,"yoot":3737,"Ġ35":3738,"antree":3739,"emeech":3740,"Ġlonching":3741,"Ġjariye":3742,"Ġnirbhar":3743,"Ġghoom":3744,"Ġmaisenjar":3745,"Ġkredit":3746,"Ġsvaas":3747,"Ġsastee":3748,"mainne":3749,"Ġnoobiya":3750,"Ġkamajor":3751,"kol":3752,"Ġraah":3753,"hanee":3754,"Ġoon":3755,"ejal":3756,"Ġemoled":3757,"Ġabhy":3758,"Ġdobaara":3759,"Ġkahatee":3760,"honda":3761,"Ġsandesh":3762,"Ġcharcha":3763,"Ġdoktar":3764,"vik":3765,"Ġpos":3766,"Ġjiyaomee":3767,"Ġlav":3768,"Ġesh":3769,"asap":3770,"Ġ45":3771,"Ġanil":3772,"Ġyakeen":3773,"gala":3774,"dha":3775,"hu":3776,"spee":3777,"sonee":3778,"taah":3779,"îģ":3780,"Ġdeshabhar":3781,"aks":3782,"iten":3783,"Ġchinta":3784,"Ġjeeta":3785,"Ġ67":3786,"Ġseekh":3787,"Ġrakt":3788,"Ġkanjyoom":3789,"khud":3790,"istaan":3791,"Ġhaindasets":3792,"regan":3793,"oomiya":3794,"Ġjhataka":3795,"Ġbhugataan":3796,"Ġupakaran":3797,"Ġabhyaas":3798,"îģį":3799,"13":3800,"Ġsvee":3801,"Ġniv":3802,"asik":3803,"abaik":3804,"Ġbanaatee":3805,"Ġpadega":3806,"Ġchaahata":3807,"Ġ95":3808,"Ġphilmen":3809,"Ġshaharon":3810,"Ġjadeja":3811,"Ġijaapha":3812,"Ġseedha":3813,"95":3814,"eleedee":3815,"laee":3816,"rit":3817,"aral":3818,"Ġjiyonee":3819,"Ġrod":3820,"Ġvaas":3821,"eshee":3822,"Ġjeees":3823,"Ġbhoom":3824,"inda":3825,"Ġkhaen":3826,"aagraam":3827,"Ġanalok":3828,"Ġchauke":3829,"jin":3830,"lonch":3831,"Ġphin":3832,"chchha":3833,"Ġchayan":3834,"Ġleval":3835,"Ġvheekal":3836,"Ġgambheer":3837,"diyon":3838,"epal":3839,"haiya":3840,"Ġmak":3841,"Ġbyoo":3842,"Ġaim":3843,"Ġroo":3844,"Ġrek":3845,"Ġaaai":3846,"aput":3847,"upha":3848,"Ġsabj":3849,"Ġstreem":3850,"odhakar":3851,"Ġdikha":3852,"Ġapp":3853,"Ġbharapoor":3854,"Ġsvasth":3855,"Ġshreel":3856,"Ġaaaipshan":3857,"sabase":3858,"Ġnamak":3859,"400":3860,"Ġduk":3861,"unik":3862,"aavaran":3863,"umar":3864,"Ġsangee":3865,"Ġleta":3866,"Ġbajaay":3867,"Ġjinake":3868,"tum":3869,"Ġ99":3870,"Ġpaisa":3871,"antar":3872,"Ġapal":3873,"Ġsetap":3874,"Ġphu":3875,"itv":3876,"endaset":3877,"Ġmaja":3878,"avaans":3879,"omavaar":3880,"Ġuts":3881,"Ġ90":3882,"Ġteenon":3883,"Ġimojee":3884,"Ġhaalaanki":3885,"Ġwhatsapp":3886,"bachch":3887,"Ġstaart":3888,"Ġroshanee":3889,"din":3890,"ww":3891,"Ġitihaas":3892,"Ġbud":3893,"teem":3894,"Ġsamsung":3895,"Ġsaha":3896,"Ġgems":3897,"Ġlambee":3898,"Ġarab":3899,"Ġmuhaiya":3900,"Ġbesd":3901,"Ġsambhaal":3902,"Ġaaipeees":3903,"bat":3904,"Ġuchch":3905,"Ġintee":3906,"Ġsamb":3907,"Ġhonar":3908,"Ġunamen":3909,"tament":3910,"Ġletee":3911,"glai":3912,"Ġdraivar":3913,"Ġtaakat":3914,"Ġbaithe":3915,"Ġdesk":3916,"Ġbhoomika":3917,"baat":3918,"bot":3919,"jis":3920,"îĢ":3921,"Ġsara":3922,"Ġchek":3923,"teejee":3924,"Ġsaptaah":3925,"asht":3926,"Ġpaartee":3927,"Ġabhin":3928,"Ġkapade":3929,"îĢ¼":3930,"480":3931,"no":3932,"sitee":3933,"yek":3934,"à¥":3935,"Ġsaavadh":3936,"Ġmp":3937,"Ġjoom":3938,"Ġvyoo":3939,"Ġinaput":3940,"aayam":3941,"Ġseemit":3942,"Ġindiyan":3943,"Ġballebaajon":3944,"ephatee":3945,"Ġitane":3946,"Ġyootyoob":3947,"umaraah":3948,"Ġapalod":3949,"gyaan":3950,"Ġkin":3951,"araashtreey":3952,"Ġeg":3953,"inglaind":3954,"Ġprais":3955,"Ġpeedee":3956,"Ġvaeephaee":3957,"pheechars":3958,"Ġyoonivarsitee":3959,"Ġpovar":3960,"Ġvigyaapan":3961,"enel":3962,"Ġvaatar":3963,"ampar":3964,"Ġmobil":3965,"Ġ85":3966,"Ġ820":3967,"Ġmilaakar":3968,"aabhar":3969,"Ġballe":3970,"Ġadhikaaree":3971,"istent":3972,"Ġsaamana":3973,"Ġdaala":3974,"Ġaanand":3975,"Ġwi":3976,"Ġphaayademand":3977,"Ġsalaamee":3978,"Ġgujaraatee":3979,"Ġilektronik":3980,"Ġphankshan":3981,"Ġyoga":3982,"Ġkatautee":3983,"Ġsvaasthy":3984,"ped":3985,"Ġkaab":3986,"Ġsuna":3987,"Ġhata":3988,"Ġbi":3989,"Ġbet":3990,"Ġemb":3991,"osport":3992,"shaomee":3993,"riyal":3994,"Ġ215":3995,"Ġkontekt":3996,"Ġardhashatak":3997,"Ġindastree":3998,"uniyaabhar":3999,"aagat":4000,"Ġbumaraah":4001,"Ġjade":4002,"Ġvail":4003,"Ġtik":4004,"aasus":4005,"aiks":4006,"aayatee":4007,"Ġshreyas":4008,"tebal":4009,"Ġprer":4010,"Ġsampark":4011,"Ġprok":4012,"aareerik":4013,"Ġpadaarth":4014,"Ġchaahe":4015,"Ġbeeechapee":4016,"Ġvoch":4017,"Ġelatee":4018,"Ġladak":4019,"kaptaan":4020,"Ġpareeksha":4021,"44":4022,"laava":4023,"uch":4024,"ÃĹ":4025,"Ġbord":4026,"Ġbolee":4027,"Ġnon":4028,"Ġnaino":4029,"Ġriyal":4030,"Ġthak":4031,"amain":4032,"phl":4033,"Ġ42":4034,"Ġ37":4035,"chaee":4036,"Ġpaud":4037,"Ġmax":4038,"Ġteeephatee":4039,"Ġbech":4040,"Ġvisheshag":4041,"keey":4042,"Ġfl":4043,"Ġkhabaren":4044,"Ġsmith":4045,"Ġparaphormens":4046,"Ġsephtee":4047,"asapreet":4048,"Ġvaastav":4049,"lus":4050,"zal":4051,"Ġsig":4052,"Ġpul":4053,"Ġmed":4054,"Ġpary":4055,"deeda":4056,"Ġyog":4057,"Ġdaud":4058,"Ġadhikatar":4059,"Ġsnaipadregan":4060,"Ġxpairi":4061,"Ġphaayade":4062,"Ġsaajha":4063,"ionai":4064,"log":4065,"raaj":4066,"Ġklee":4067,"Ġpaak":4068,"Ġbail":4069,"alait":4070,"ason":4071,"abaar":4072,"Ġjeemel":4073,"Ġjoda":4074,"oge":4075,"Ġank":4076,"Ġendar":4077,"Ġnirn":4078,"photenament":4079,"pahala":4080,"Ġshikaayat":4081,"Ġpepar":4082,"divais":4083,"gen":4084,"sal":4085,"Ġsaid":4086,"Ġped":4087,"Ġaj":4088,"Ġjit":4089,"Ġtool":4090,"Ġtatv":4091,"shik":4092,"Ġjode":4093,"Ġmach":4094,"Ġdekar":4095,"Ġchaahen":4096,"Ġkalars":4097,"Ġjeetane":4098,"Ġovaron":4099,"ablyooveejeee":4100,"ripshan":4101,"Ġilektroniks":4102,"Ġangrejee":4103,"Ġkompaikt":4104,"Ġdhonee":4105,"les":4106,"ĠâĢ":4107,"Ġmana":4108,"Ġbold":4109,"Ġdur":4110,"Ġjitana":4111,"Ġloomiya":4112,"ooglai":4113,"Ġvil":4114,"alon":4115,"Ġpheesad":4116,"oonga":4117,"Ġdho":4118,"max":4119,"Ġlikvid":4120,"riport":4121,"ionaiai":4122,"dakshin":4123,"akta":4124,"Ġram":4125,"Ġreting":4126,"alipht":4127,"Ġtaar":4128,"Ġtim":4129,"Ġelee":4130,"abar":4131,"Ġstok":4132,"hatakeey":4133,"Ġkroo":4134,"Ġpasandeeda":4135,"Ġvidesh":4136,"Ġintaraph":4137,"Ġvaayarales":4138,"Ġyoorop":4139,"Ġphinish":4140,"Ġdava":4141,"Ġlakshan":4142,"Ġhendaset":4143,"ilitee":4144,"dhyaan":4145,"Ġ480":4146,"Ġsaalon":4147,"Ġblootuth":4148,"Ġghanton":4149,"Ġthis":4150,"Ġjeb":4151,"Ġdabaav":4152,"Ġsports":4153,"Ġendarasan":4154,"baal":4155,"ls":4156,"ret":4157,"vud":4158,"Ġkendr":4159,"Ġsiy":4160,"ins":4161,"Ġmanee":4162,"Ġseejan":4163,"Ġbachane":4164,"Ġlagaee":4165,"Ġchak":4166,"Ġoptikal":4167,"Ġbadalane":4168,"Ġblaikaberee":4169,"cheenee":4170,"Ġhalka":4171,"Ġbeemaariyon":4172,"aaeephon":4173,"yoojars":4174,"Ġsheersh":4175,"75":4176,"go":4177,"maas":4178,"ts":4179,"eeph":4180,"oove":4181,"Ġvrd":4182,"Ġhyoon":4183,"Ġaashan":4184,"Ġusen":4185,"Ġjaanie":4186,"ijalee":4187,"Ġimph":4188,"Ġjenareshan":4189,"Ġsamajha":4190,"Ġguruvaar":4191,"31":4192,"hot":4193,"hadee":4194,"Ġmareej":4195,"yata":4196,"Ġdast":4197,"adablyoo":4198,"Ġaau":4199,"Ġgol":4200,"rom":4201,"irai":4202,"Ġ835":4203,"Ġseen":4204,"Ġdensitee":4205,"Ġpadhane":4206,"Ġkanekshan":4207,"akaard":4208,"Ġvaigyaan":4209,"rday":4210,"Ġmishel":4211,"Ġvistaar":4212,"Ġdeskatop":4213,"oovebal":4214,"xail":4215,"Ġlg":4216,"Ġreno":4217,"aanak":4218,"Ġproses":4219,"Ġdeval":4220,"Ġpada":4221,"karan":4222,"Ġchaarjar":4223,"kanekteevitee":4224,"Ġpurush":4225,"Ġaashanka":4226,"bad":4227,"obail":4228,"pain":4229,"resh":4230,"vaee":4231,"Ġsomavaar":4232,"Ġbest":4233,"akaata":4234,"Ġkad":4235,"aasan":4236,"Ġshot":4237,"Ġyukt":4238,"Ġ600":4239,"aijeshan":4240,"chaarj":4241,"Ġpainaasonik":4242,"samay":4243,"Ġprojekt":4244,"Ġsangeet":4245,"Ġthisaara":4246,"gai":4247,"arsh":4248,"inake":4249,"Ġpaee":4250,"Ġmaay":4251,"Ġnai":4252,"Ġhtch":4253,"Ġphood":4254,"Ġaaikan":4255,"Ġtod":4256,"Ġprab":4257,"ulat":4258,"seee":4259,"peeel":4260,"Ġbajaaj":4261,"Ġyuaan":4262,"Ġsuparabaik":4263,"Ġaakhiree":4264,"Ġjaanakaariyaan":4265,"Ġyaatra":4266,"Ġekadam":4267,"41":4268,"den":4269,"ft":4270,"sn":4271,"Ġsail":4272,"Ġditel":4273,"Ġaahaar":4274,"Ġgro":4275,"Ġnevig":4276,"tej":4277,"Ġpra":4278,"Ġyooz":4279,"Ġchan":4280,"sauth":4281,"Ġniraasha":4282,"Ġvois":4283,"mein":4284,"Ġjanareshan":4285,"jeeniyar":4286,"Ġchunaav":4287,"Ġmahilaen":4288,"Ġkaravaaya":4289,"Ġhyoondai":4290,"haav":4291,"jisake":4292,"lain":4293,"Ġpaal":4294,"aii":4295,"aang":4296,"Ġkho":4297,"Ġjeep":4298,"Ġshaareerik":4299,"eshvar":4300,"Ġsabsak":4301,"Ġsapana":4302,"Ġdaure":4303,"sept":4304,"jahaan":4305,"Ġvairients":4306,"echateesee":4307,"Ġkitaab":4308,"Ġteleekom":4309,"baitaree":4310,"Ġditekshan":4311,"28":4312,"gaileksee":4313,"inst":4314,"Ġton":4315,"asa":4316,"Ġbhoo":4317,"ave":4318,"arshak":4319,"eyaratel":4320,"Ġmaanasik":4321,"Ġjinhonne":4322,"Ġmangal":4323,"Ġvaib":4324,"Ġtesting":4325,"Ġplaant":4326,"Ġkhabaron":4327,"Ġ1920":4328,"Ġmasheen":4329,"Ġaankade":4330,"Ġdileevaree":4331,"Ġtamaam":4332,"Ġspinar":4333,"ichromax":4334,"Ġparisthitiyon":4335,"Ġkvolakom":4336,"39":4337,"Ġdhee":4338,"Ġmel":4339,"Ġkahee":4340,"alaimps":4341,"ati":4342,"Ġkare":4343,"asen":4344,"Ġintaix":4345,"Ġchaal":4346,"Ġshu":4347,"Ġ310":4348,"Ġsteshan":4349,"iteej":4350,"estiv":4351,"Ġengal":4352,"Ġglon":4353,"Ġlokal":4354,"Ġbadaulat":4355,"Ġjanaret":4356,"Ġantararaashtreey":4357,"Ġkitane":4358,"Ġgiraavat":4359,"Ġkyooechadee":4360,"Ġvibhaag":4361,"Ġpletaphaarm":4362,"Ġreg":4363,"engaluru":4364,"Ġpaudar":4365,"dhan":4366,"dij":4367,"Ġkuk":4368,"Ġpent":4369,"Ġmagar":4370,"Ġbijalee":4371,"Ġvaise":4372,"Ġtaig":4373,"aapamaan":4374,"Ġbhaav":4375,"Ġkeematon":4376,"Ġdisha":4377,"tamaan":4378,"aiplus":4379,"Ġkanekteevitee":4380,"istree":4381,"Ġveeaar":4382,"Ġtvin":4383,"Ġinstaagraam":4384,"Ġnyootan":4385,"Ġvyaap":4386,"Ġapagreded":4387,"akamal":4388,"Ġshabdon":4389,"Ġghatana":4390,"Ġkramash":4391,"speekars":4392,"uon":4393,"Ġkiye":4394,"Ġsted":4395,"inaam":4396,"Ġmud":4397,"anj":4398,"Ġbag":4399,"Ġmehan":4400,"Ġnait":4401,"gaj":4402,"Ġaaenge":4403,"iyok":4404,"aayata":4405,"Ġbanaata":4406,"Ġskeen":4407,"Ġrakta":4408,"Ġblad":4409,"indar":4410,"toyota":4411,"Ġeksat":4412,"Ġbeeta":4413,"Ġsahit":4414,"Ġbachen":4415,"Ġbhejane":4416,"Ġjaengee":4417,"chhote":4418,"Ġzainfonai":4419,"Ġpaakistaan":4420,"68":4421,"itai":4422,"Ġsaans":4423,"Ġmus":4424,"isako":4425,"tars":4426,"Ġshuk":4427,"Ġ48":4428,"Ġ34":4429,"Ġ84":4430,"hakhabar":4431,"taranaak":4432,"Ġupachaar":4433,"Ġilaaj":4434,"Ġedavaans":4435,"graahak":4436,"Ġsvaip":4437,"hasaas":4438,"spot":4439,"koee":4440,"Ġdraiving":4441,"buking":4442,"Ġnevigeshan":4443,"Ġstediyam":4444,"su":4445,"vijan":4446,"Ġsaik":4447,"Ġsoor":4448,"Ġlaind":4449,"aank":4450,"Ġgipht":4451,"Ġtabhee":4452,"Ġinjeeniyar":4453,"dhon":4454,"Ġemai":4455,"ems":4456,"Ġalart":4457,"Ġephad":4458,"Ġmaith":4459,"umaan":4460,"Ġkhataranaak":4461,"Ġveevo":4462,"Ġghaatak":4463,"Ġvideshee":4464,"aadhaaran":4465,"Ġjoradaar":4466,"Ġniyantrit":4467,"Ġsantul":4468,"Ġnivesh":4469,"53":4470,"idh":4471,"kaise":4472,"mb":4473,"sej":4474,"yaal":4475,"ingat":4476,"Ġruk":4477,"orn":4478,"Ġkamaal":4479,"Ġ650":4480,"use":4481,"uda":4482,"Ġchalaane":4483,"Ġpadh":4484,"Ġdhoon":4485,"Ġkols":4486,"garee":4487,"greted":4488,"Ġpeteeem":4489,"Ġmotarasaikil":4490,"Ġuthaaya":4491,"Ġprojektar":4492,"Ġmooly":4493,"Ġnideshak":4494,"Ġashvin":4495,"Ġsveekaar":4496,"Ġsamband":4497,"don":4498,"inakee":4499,"Ġmait":4500,"Ġata":4501,"aart":4502,"Ġlakamal":4503,"Ġgus":4504,"Ġchha":4505,"une":4506,"Ġshren":4507,"Ġdeezal":4508,"Ġhuaave":4509,"bhaav":4510,"Ġplay":4511,"raiaid":4512,"Ġkhade":4513,"jaya":4514,"vahaar":4515,"Ġaaidiya":4516,"odhakartaon":4517,"Ġintaraphes":4518,"Ġmehanat":4519,"**":4520,"88":4521,"gaahartj":4522,"ostreliya":4523,"rti":4524,"Ġaara":4525,"havaar":4526,"Ġbul":4527,"Ġduniyaabhar":4528,"tair":4529,"Ġaik":4530,"chual":4531,"Ġnisaan":4532,"ootee":4533,"Ġproph":4534,"Ġseema":4535,"Ġskeem":4536,"Ġaaeedee":4537,"Ġmainy":4538,"Ġeen":4539,"Ġkapoor":4540,"Ġichchha":4541,"Ġsahaayata":4542,"rama":4543,"Ġavadh":4544,"Ġaayojan":4545,"Ġparsanal":4546,"Ġamerikee":4547,"Ġeksapo":4548,"blaik":4549,"Ġmaaseraatee":4550,"Ġdaayarektar":4551,"hamaare":4552,"Ġpraivet":4553,"hakhabaree":4554,"raiaidom":4555,"aaz":4556,"inhen":4557,"Ġjaapaan":4558,"Ġnar":4559,"Ġraash":4560,"stor":4561,"Ġkvoch":4562,"Ġdekhee":4563,"Ġvarana":4564,"2016":4565,"Ġchhaatr":4566,"Ġaankada":4567,"Ġpixail":4568,"Ġsankraman":4569,"Ġeyarabaigs":4570,"Ġshaukeen":4571,"Ġveelj":4572,"maaseraatee":4573,"Ġvrddhi":4574,"Ġsambandhee":4575,"Ġkvochroport":4576,"baee":4577,"pons":4578,"iniyam":4579,"Ġpand":4580,"Ġair":4581,"Ġnoki":4582,"Ġrel":4583,"Ġebeees":4584,"aathee":4585,"Ġish":4586,"Ġgps":4587,"ekhar":4588,"Ġutaree":4589,"Ġbadhate":4590,"Ġprem":4591,"elo":4592,"ishk":4593,"Ġaaeepaid":4594,"Ġchalaaya":4595,"Ġgril":4596,"Ġchamak":4597,"Ġpratyek":4598,"Ġ2014":4599,"Ġteemon":4600,"Ġmodalon":4601,"Ġupaay":4602,"vahaan":4603,"Ġavas":4604,"Ġphesalipht":4605,"Ġtasveeron":4606,"Ġyuvaon":4607,"Ġsetings":4608,"Ġneksas":4609,"Ġupabhoktaon":4610,"Ġphoksavaigan":4611,"Ġpeedeeeeph":4612,"manee":4613,"Ġhaikars":4614,"Ġaayar":4615,"aatron":4616,"Ġshaayad":4617,"ateek":4618,"Ġusb":4619,"Ġblok":4620,"Ġavasar":4621,"Ġsunane":4622,"Ġsujhaav":4623,"Ġnooga":4624,"selphee":4625,"poorn":4626,"iyokon":4627,"490":4628,"kl":4629,"Ġip":4630,"Ġper":4631,"any":4632,"Ġhrday":4633,"ikom":4634,"Ġphord":4635,"Ġpholo":4636,"Ġaal":4637,"ahaar":4638,"Ġ250":4639,"Ġekt":4640,"Ġoteejee":4641,"Ġprast":4642,"peeaee":4643,"hamaan":4644,"Ġbechane":4645,"Ġsaphar":4646,"Ġpratik":4647,"Ġedit":4648,"ograam":4649,"Ġskorakaard":4650,"Ġbachat":4651,"Ġkoolapaid":4652,"Ġsmaartavoch":4653,"Ġvisheshataon":4654,"64":4655,"res":4656,"ravaar":4657,"xiaomi":4658,"Ġpita":4659,"Ġriv":4660,"Ġtaapamaan":4661,"ilekt":4662,"Ġgaad":4663,"Ġkhyaal":4664,"Ġprint":4665,"Ġkaaro":4666,"Ġlagjaree":4667,"Ġchaahenge":4668,"Ġnirantar":4669,"eppal":4670,"Ġaipal":4671,"Ġrishte":4672,"Ġvyavahaar":4673,"Ġupabhokta":4674,"Ġpoochha":4675,"Ġaaiphon":4676,"Ġrekord":4677,"Ġavadhi":4678,"199":4679,"bol":4680,"ov":4681,"pi":4682,"smaart":4683,"ui":4684,"yf":4685,"ineej":4686,"Ġboj":4687,"Ġhair":4688,"Ġmega":4689,"chhah":4690,"Ġkaish":4691,"Ġringing":4692,"uroo":4693,"roed":4694,"aapake":4695,"aakaar":4696,"Ġpadane":4697,"Ġpadatee":4698,"Ġbaleno":4699,"Ġvotar":4700,"gres":4701,"aadhaan":4702,"Ġnibh":4703,"Ġhedaset":4704,"Ġphaisale":4705,"Ġmoovee":4706,"Ġshrenee":4707,"kit":4708,"lag":4709,"ogee":4710,"sm":4711,"yaat":4712,"yukt":4713,"Ġkair":4714,"Ġrol":4715,"asha":4716,"Ġparda":4717,"Ġgul":4718,"Ġghata":4719,"Ġinake":4720,"Ġkhu":4721,"Ġodee":4722,"ejar":4723,"Ġyaan":4724,"aaye":4725,"Ġskin":4726,"ashaala":4727,"Ġeeyar":4728,"Ġgho":4729,"yaksh":4730,"Ġstaartap":4731,"simitee":4732,"harmashaala":4733,"kros":4734,"Ġaatm":4735,"Ġpulis":4736,"Ġgroth":4737,"26":4738,"raid":4739,"uga":4740,"ved":4741,"Ġiyar":4742,"Ġ999":4743,"Ġpy":4744,"Ġpabl":4745,"Ġlegee":4746,"Ġkat":4747,"aanadaar":4748,"ura":4749,"Ġkaraar":4750,"aathan":4751,"romeetar":4752,"araphon":4753,"Ġshor":4754,"Ġ57":4755,"Ġbaitar":4756,"Ġdohare":4757,"Ġbataate":4758,"Ġshurooaat":4759,"aahir":4760,"Ġgeegaahar":4761,"Ġdaalana":4762,"Ġsamasyaon":4763,"Ġkonsept":4764,"Ġlaut":4765,"Ġganva":4766,"Ġdabal":4767,"Ġprakaash":4768,"Ġkoold":4769,"Ġsaathee":4770,"Ġstreeming":4771,"Ġbojh":4772,"biteej":4773,"phar":4774,"por":4775,"ux":4776,"vind":4777,"waii":4778,"Ġir":4779,"Ġdu":4780,"Ġkath":4781,"atan":4782,"Ġhundee":4783,"Ġkaro":4784,"phaayatee":4785,"Ġnauk":4786,"Ġbanaam":4787,"Ġblog":4788,"Ġpadhaee":4789,"Ġenj":4790,"Ġgeega":4791,"Ġhalke":4792,"Ġdiggaj":4793,"Ġailaan":4794,"Ġkiradaar":4795,"Ġhans":4796,"Ġbyootee":4797,"painaasonik":4798,"riy":4799,"saip":4800,"Ġ,":4801,"aaie":4802,"Ġsend":4803,"Ġsadee":4804,"Ġstai":4805,"Ġmantr":4806,"Ġraip":4807,"gad":4808,"Ġphool":4809,"adon":4810,"Ġgati":4811,"Ġpaga":4812,"aajan":4813,"Ġdevid":4814,"Ġmaikroyooesabee":4815,"raiv":4816,"Ġdhoom":4817,"Ġphaishan":4818,"Ġkors":4819,"Ġsvaad":4820,"Ġjanm":4821,"Ġkilograam":4822,"6737":4823,"rtik":4824,"Ġportal":4825,"Ġhaardaveyar":4826,"Ġsidain":4827,"Ġsansth":4828,"Ġmangalavaar":4829,"66":4830,"eh":4831,"jyaad":4832,"pl":4833,"sv":4834,"yular":4835,"Ġiph":4836,"Ġpaata":4837,"Ġpink":4838,"Ġbig":4839,"alet":4840,"atta":4841,"rok":4842,"ivar":4843,"ivaree":4844,"Ġchalatee":4845,"Ġhotaspot":4846,"vaneshvar":4847,"Ġbikane":4848,"Ġmadadagaar":4849,"baadha":4850,"Ġbudhavaar":4851,"bon":4852,"baay":4853,"mai":4854,"soshal":4855,"Ġpoj":4856,"Ġdog":4857,"Ġisako":4858,"Ġgad":4859,"Ġgud":4860,"apaan":4861,"Ġmotaee":4862,"avela":4863,"Ġmaip":4864,"Ġ125":4865,"Ġchail":4866,"Ġ93":4867,"Ġsuv":4868,"Ġbaajaaron":4869,"areeban":4870,"astishk":4871,"Ġsuvidhaen":4872,"Ġgarmee":4873,"Ġkarae":4874,"philm":4875,"Ġmileemeetar":4876,"samsung":4877,"Ġikaee":4878,"Ġkhushakhabaree":4879,"Ġkapadon":4880,"sheey":4881,"Ġaaaito":4882,"Ġmirch":4883,"amerika":4884,"Ġproksimitee":4885,"Ġpagabaadha":4886,"lie":4887,"thee":4888,"Ġpok":4889,"ank":4890,"Ġboot":4891,"Ġvaay":4892,"Ġtrai":4893,"aman":4894,"Ġphol":4895,"Ġphij":4896,"hard":4897,"Ġ199":4898,"Ġinaka":4899,"Ġinphotenament":4900,"telee":4901,"Ġaapase":4902,"emadablyoo":4903,"Ġjaanavar":4904,"Ġkhaasataur":4905,"Ġsens":4906,"Ġdikavela":4907,"Ġhartj":4908,"Ġpahunchane":4909,"Ġbachcha":4910,"Ġechapee":4911,"Ġ2300":4912,"Ġreeyar":4913,"Ġabhiyaan":4914,"Ġdres":4915,"Ġbhuvaneshvar":4916,"Ġpravakta":4917,"Ġbels":4918,"izu":4919,"Ġshukravaar":4920,"Ġpratikriya":4921,"icha":4922,"nm":4923,"stee":4924,"Ġmt":4925,"Ġagala":4926,"Ġjat":4927,"Ġjasapreet":4928,"Ġjems":4929,"Ġvaat":4930,"Ġtair":4931,"aapaanee":4932,"Ġkaaraple":4933,"Ġsamaadhaan":4934,"Ġhonee":4935,"Ġteebee":4936,"emem":4937,"udyog":4938,"Ġjisane":4939,"Ġvarchual":4940,"Ġdhoop":4941,"ashekhar":4942,"Ġhiss":4943,"ĠĠĠ":4944,"Ġboling":4945,"Ġachaanak":4946,"Ġkaite":4947,"Ġjodane":4948,"Ġailug":4949,"Ġteleevijan":4950,"Ġchhakka":4951,"Ġupayogee":4952,"Ġelateei":4953,"Ġmaayane":4954,"jiyaomee":4955,"andh":4956,"Ġdol":4957,"Ġkiphaayatee":4958,"undar":4959,"Ġ39":4960,"shiyam":4961,"ulk":4962,"oto":4963,"Ġbaarish":4964,"Ġ74":4965,"Ġpeene":4966,"akaaraatmak":4967,"Ġvebasaits":4968,"Ġ149":4969,"Ġnetavarking":4970,"meediya":4971,"Ġaayan":4972,"Ġkoshika":4973,"Ġmajabootee":4974,"Ġuthaane":4975,"bilitee":4976,"Ġglonaas":4977,"ht":4978,"pu":4979,"pita":4980,"vg":4981,"Ġaana":4982,"Ġkalek":4983,"uree":4984,"Ġgativ":4985,"maark":4986,"Ġtoyota":4987,"Ġbhaavana":4988,"ivaan":4989,"aakhon":4990,"vajan":4991,"indiya":4992,"Ġplai":4993,"Ġpeesee":4994,"Ġrobot":4995,"Ġbataee":4996,"Ġjedateeee":4997,"Ġpien":4998,"Ġrijolyooshan":4999,"Ġgaijets":5000,"Ġshreelanka":5001,"Ġmaithyooj":5002,"Ġaiktiv":5003,"Ġpandya":5004,"Ġyaani":5005,"Ġghoshit":5006,"fl":5007,"jio":5008,"paavar":5009,"yun":5010,"Ġips":5011,"Ġmam":5012,"Ġmiks":5013,"Ġbon":5014,"Ġraay":5015,"phord":5016,"Ġphog":5017,"Ġphestiv":5018,"jeees":5019,"unaka":5020,"dhonee":5021,"Ġshed":5022,"Ġkaartik":5023,"Ġyooaee":5024,"Ġstik":5025,"Ġpade":5026,"Ġsaj":5027,"aaharan":5028,"Ġdikhenge":5029,"Ġechadeeaar":5030,"areeka":5031,"Ġmaarketing":5032,"Ġpradesh":5033,"Ġaajakal":5034,"Ġotomobail":5035,"phrant":5036,"Ġvyavas":5037,"Ġinsaan":5038,"Ġrimot":5039,"Ġaaaitom":5040,"Ġshooting":5041,"Ġpushti":5042,"Ġmobilai":5043,"reshth":5044,"dhavan":5045,"hd":5046,"mera":5047,"ral":5048,"tiyon":5049,"Ġsat":5050,"Ġdha":5051,"ingo":5052,"Ġbadhata":5053,"aget":5054,"Ġpraar":5055,"Ġsamud":5056,"aajakal":5057,"Ġblu":5058,"Ġspasht":5059,"Ġgraind":5060,"Ġdekhe":5061,"Ġpratid":5062,"vanaplas":5063,"Ġveejeee":5064,"aago":5065,"Ġsvipht":5066,"Ġhaart":5067,"deshy":5068,"motorola":5069,"Ġlitai":5070,"Ġrajistar":5071,"Ġmahanga":5072,"Ġmainejar":5073,"Ġsadasyon":5074,"Ġjeeesatee":5075,"Ġhissedaaree":5076,"ae":5077,"kaat":5078,"nyoo":5079,"Ġkait":5080,"Ġsoot":5081,"Ġmy":5082,"Ġdaim":5083,"Ġroom":5084,"oolee":5085,"Ġhejal":5086,"esla":5087,"oran":5088,"Ġinaph":5089,"Ġ430":5090,"Ġanumaan":5091,"iditee":5092,"Ġupalabdhi":5093,"Ġunako":5094,"veee":5095,"Ġ75":5096,"Ġchalie":5097,"igo":5098,"Ġphaib":5099,"Ġadhikaar":5100,"reta":5101,"aahit":5102,"Ġsarvisej":5103,"Ġchunaut":5104,"Ġstailish":5105,"Ġopanar":5106,"Ġaakarshit":5107,"Ġsaavadhaan":5108,"Ġkleen":5109,"Ġkalekshan":5110,"24":5111,"854":5112,"gun":5113,"kaam":5114,"vil":5115,"aach":5116,"aage":5117,"Ġsaadhaaran":5118,"Ġmat":5119,"aancha":5120,"Ġtyo":5121,"Ġhor":5122,"Ġgionaiai":5123,"Ġkamaee":5124,"jeevan":5125,"aape":5126,"aayal":5127,"Ġrach":5128,"agree":5129,"Ġkaars":5130,"Ġdeep":5131,"Ġyooes":5132,"Ġhonor":5133,"Ġ121":5134,"Ġsanyukt":5135,"akartaon":5136,"Ġkhareedaaree":5137,"Ġordar":5138,"Ġdaalakar":5139,"Ġbolt":5140,"Ġvindo":5141,"meree":5142,"Ġchuninda":5143,"Ġkahaanee":5144,"bahut":5145,"Ġtaareekh":5146,"aravaah":5147,"Ġdimaand":5148,"Ġvijay":5149,"Ġshakti":5150,"intaranet":5151,"Ġjeetakar":5152,"uphaikchar":5153,"Ġyogadaan":5154,"Ġtimaahee":5155,"Ġdevalap":5156,"Ġiphekt":5157,"89":5158,"vel":5159,"ws":5160,"Ġshatakeey":5161,"Ġbaan":5162,"Ġbrod":5163,"Ġdai":5164,"Ġdarshak":5165,"aib":5166,"akh":5167,"Ġlaimp":5168,"chaa":5169,"Ġsedaan":5170,"amp":5171,"Ġchom":5172,"unakee":5173,"Ġtakareeban":5174,"thiyam":5175,"avish":5176,"ident":5177,"seereej":5178,"Ġaaeeem":5179,"Ġchauth":5180,"Ġutana":5181,"Ġchhaatron":5182,"Ġnird":5183,"Ġ900":5184,"Ġphreedam":5185,"Ġbharee":5186,"Ġophishiyal":5187,"Ġreddee":5188,"Ġoparet":5189,"pothaas":5190,"Ġpainor":5191,"mehamaan":5192,"Ġgeming":5193,"adhik":5194,"Ġpatr":5195,"doosaree":5196,"Ġlains":5197,"tabuk":5198,"Ġanajaan":5199,"Ġpeedit":5200,"33":5201,"700":5202,"paas":5203,"ris":5204,"vak":5205,"vit":5206,"vaint":5207,"Ġbhaee":5208,"Ġdaan":5209,"Ġdip":5210,"Ġdukh":5211,"Ġlejar":5212,"Ġnak":5213,"Ġhit":5214,"phaay":5215,"asel":5216,"halata":5217,"Ġ220":5218,"deeshan":5219,"ikshan":5220,"geegaahartj":5221,"Ġanur":5222,"avid":5223,"Ġaloy":5224,"Ġjaanane":5225,"Ġlagaakar":5226,"Ġ2020":5227,"asanchaar":5228,"Ġbaikaph":5229,"ashreshth":5230,"igar":5231,"Ġleethiyam":5232,"photo":5233,"Ġteknol":5234,"Ġslim":5235,"jald":5236,"Ġsekshan":5237,"jedaar":5238,"Ġrispons":5239,"Ġtraikar":5240,"Ġyootilitee":5241,"Ġniyantran":5242,"eleromeetar":5243,"kampyootar":5244,"Ġanokha":5245,"Ġeshiya":5246,"Ġchanvas":5247,"Ġnirantarata":5248,"Ġbaikaphut":5249,"ieshan":5250,"kop":5251,"piksal":5252,"yum":5253,"Ġshan":5254,"Ġhais":5255,"Ġmaata":5256,"Ġmastishk":5257,"isak":5258,"ikrama":5259,"Ġaaain":5260,"Ġhol":5261,"Ġinti":5262,"Ġchaay":5263,"chahal":5264,"teevee":5265,"Ġjoki":5266,"Ġproteen":5267,"okar":5268,"Ġ88":5269,"avud":5270,"haalee":5271,"Ġdeth":5272,"areet":5273,"ushka":5274,"Ġpaarking":5275,"Ġpleyar":5276,"Ġsamajhane":5277,"Ġslo":5278,"Ġsheyaring":5279,"Ġarth":5280,"Ġbrauj":5281,"Ġuddeshy":5282,"Ġeseee":5283,"Ġandaaj":5284,"Ġsains":5285,"Ġgaijet":5286,"Ġnirnay":5287,"ĠâĢľ":5288,"Ġsabsakripshan":5289,"Ġeendhan":5290,"Ġektivitee":5291,"Ġkaitegaree":5292,"kaatel":5293,"Ġhejalavud":5294,"bengaluru":5295,"tu":5296,"Ġkoo":5297,"Ġsaad":5298,"Ġsaara":5299,"Ġpaatee":5300,"Ġji":5301,"Ġnaar":5302,"Ġvr":5303,"Ġtro":5304,"Ġthard":5305,"Ġphle":5306,"Ġkament":5307,"aapakee":5308,"Ġkhaalee":5309,"Ġ350":5310,"Ġnaj":5311,"sho":5312,"eediyokon":5313,"Ġ625":5314,"Ġrahenge":5315,"chchhar":5316,"hegee":5317,"sesareej":5318,"Ġbep":5319,"Ġsaphaee":5320,"Ġekseleromeetar":5321,"Ġphiltar":5322,"Ġtrend":5323,"rika":5324,"Ġkhareedana":5325,"Ġkolej":5326,"Ġmaansap":5327,"Ġpaark":5328,"Ġsarvashreshth":5329,"Ġtaibalets":5330,"Ġpothaas":5331,"Ġapadeted":5332,"aastik":5333,"Ġslaid":5334,"Ġphark":5335,"Ġtelikom":5336,"Ġlainovo":5337,"Ġphaibalet":5338,"Ġaaaipar":5339,"raajashekhar":5340,"Ġjitanee":5341,"abarg":5342,"Ġephadablyooveejeee":5343,"Ġpropheshanal":5344,"Ġkaarobaar":5345,"Ġkathin":5346,"36":5347,"dor":5348,"rj":5349,"utak":5350,"zan":5351,"Ġich":5352,"Ġpin":5353,"Ġdood":5354,"ene":5355,"chaal":5356,"atram":5357,"Ġtig":5358,"Ġetam":5359,"Ġphiks":5360,"Ġparinaam":5361,"Ġinav":5362,"aaval":5363,"Ġmodee":5364,"edar":5365,"Ġemold":5366,"iddh":5367,"Ġbeche":5368,"estrol":5369,"Ġbataane":5370,"Ġeek":5371,"Ġadhikatam":5372,"Ġharaane":5373,"Ġlep":5374,"Ġsahaara":5375,"Ġasus":5376,"Ġantargat":5377,"Ġriports":5378,"Ġstetas":5379,"dhaarit":5380,"Ġportebal":5381,"angrejee":5382,"Ġbechatee":5383,"Ġdaayarekt":5384,"khabaron":5385,"Ġsone":5386,"Ġvipareet":5387,"Ġkaimaron":5388,"bachche":5389,"Ġtaaraget":5390,"hotsep":5391,"Ġmainyuphaikchar":5392,"650":5393,"mas":5394,"saam":5395,"vaave":5396,"Ġpaksh":5397,"Ġpasee":5398,"Ġmars":5399,"Ġbhale":5400,"Ġdro":5401,"Ġdais":5402,"onalain":5403,"taim":5404,"Ġlu":5405,"asad":5406,"Ġcho":5407,"Ġ662":5408,"ode":5409,"veelar":5410,"Ġmaikabuk":5411,"Ġupul":5412,"Ġedam":5413,"aprooph":5414,"olyoom":5415,"Ġkampaas":5416,"naya":5417,"Ġdikhega":5418,"kuladeep":5419,"Ġdaayabiteej":5420,"Ġsanket":5421,"Ġboleevud":5422,"Ġvisheshagy":5423,"asonich":5424,"shikhar":5425,"Ġpraudyog":5426,"Ġchauthe":5427,"Ġbeparavaah":5428,"*)":5429,"jon":5430,"veediyo":5431,"Ġsaar":5432,"Ġpleb":5433,"Ġrana":5434,"Ġghadee":5435,"iyaago":5436,"Ġshok":5437,"Ġ55":5438,"shreyas":5439,"Ġmaut":5440,"Ġsamarav":5441,"avaas":5442,"Ġaltr":5443,"usakee":5444,"oded":5445,"Ġbadhiya":5446,"Ġpadegee":5447,"Ġsanar":5448,"Ġnota":5449,"eeboo":5450,"Ġavord":5451,"Ġbheja":5452,"Ġsoochee":5453,"Ġdhang":5454,"Ġnishchit":5455,"Ġkailoree":5456,"ĠĠĠĠĠĠĠĠ":5457,"Ġvinse":5458,"Ġmunh":5459,"Ġtalaash":5460,"Ġaautal":5461,"Ġataik":5462,"Ġnaukaree":5463,"Ġmaansapesh":5464,"Ġplebaik":5465,"38":5466,"paanch":5467,"Ġkaat":5468,"arjee":5469,"intaix":5470,"Ġpaa":5471,"Ġlak":5472,"Ġles":5473,"Ġnaagar":5474,"Ġroot":5475,"Ġraahat":5476,"Ġvent":5477,"Ġech":5478,"ikit":5479,"Ġgaanv":5480,"Ġdilivaree":5481,"Ġsabake":5482,"ust":5483,"kaun":5484,"Ġlagaana":5485,"Ġchalegee":5486,"Ġmaig":5487,"Ġvartamaan":5488,"Ġsarakaaree":5489,"Ġnirdhaarit":5490,"Ġaadhunik":5491,"mahaj":5492,"Ġeluga":5493,"Ġsvich":5494,"Ġasistent":5495,"Ġopshans":5496,"Ġbheje":5497,"Ġpati":5498,"Ġlambaee":5499,"taphorm":5500,"Ġrojaana":5501,"Ġjameen":5502,"Ġandroid":5503,"Ġolto":5504,"Ġaindroyad":5505,"Ġmainejament":5506,"Ġbeeesenel":5507,"Ġghoomane":5508,"Ġkanjyoomars":5509,"vindoj":5510,"Ġsadeera":5511,"Ġsamaravikrama":5512,"kain":5513,"Ġsent":5514,"Ġpaapa":5515,"Ġmantree":5516,"aaraatmak":5517,"Ġkebal":5518,"Ġtil":5519,"amet":5520,"Ġgain":5521,"Ġgooglai":5522,"ekted":5523,"Ġholee":5524,"rot":5525,"yooaee":5526,"Ġsakaaraatmak":5527,"aing":5528,"Ġdeel":5529,"Ġ615":5530,"Ġalpha":5531,"Ġendroed":5532,"aaneey":5533,"Ġchale":5534,"Ġbechee":5535,"Ġkhaasa":5536,"Ġsnaip":5537,"Ġkampas":5538,"Ġitail":5539,"Ġriples":5540,"Ġsalekt":5541,"Ġkhatare":5542,"Ġeksapeer":5543,"Ġpravesh":5544,"Ġmahangee":5545,"Ġmahange":5546,"Ġpareekshan":5547,"Ġmakasad":5548,"Ġchakkar":5549,"Ġditels":5550,"avishvaas":5551,"Ġpraudyogikee":5552,"ghat":5553,"haaree":5554,"ibal":5555,"jisamen":5556,"thar":5557,"vent":5558,"Ġmul":5559,"Ġbampar":5560,"ona":5561,"Ġain":5562,"ensee":5563,"Ġnakaaraatmak":5564,"Ġvhaat":5565,"Ġjagat":5566,"Ġsakriy":5567,"Ġkamyun":5568,"shaanadaar":5569,"Ġkaaragar":5570,"Ġmoshan":5571,"avaab":5572,"Ġchand":5573,"Ġepl":5574,"Ġlogo":5575,"Ġsartiph":5576,"ummeed":5577,"Ġveediyoj":5578,"Ġilaak":5579,"Ġavash":5580,"Ġwind":5581,"Ġvyakt":5582,"aigyaan":5583,"Ġspeekars":5584,"tvitar":5585,"Ġvijeta":5586,"aahatrj":5587,"Ġmonitar":5588,"Ġraasta":5589,"Ġraipid":5590,"ih":5591,"kyoo":5592,"pata":5593,"yaas":5594,"Ġken":5595,"Ġsol":5596,"Ġpaka":5597,"ensh":5598,"Ġkaraana":5599,"Ġaatan":5600,"asaath":5601,"ahiya":5602,"Ġgyaan":5603,"Ġchit":5604,"Ġchot":5605,"Ġchhat":5606,"Ġheel":5607,"aavee":5608,"Ġos":5609,"Ġshiks":5610,"Ġ410":5611,"aakrtik":5612,"Ġjaanee":5613,"hamen":5614,"Ġspor":5615,"Ġphlait":5616,"Ġeeemaee":5617,"Ġbeete":5618,"andhan":5619,"Ġkris":5620,"Ġpradooshan":5621,"Ġjama":5622,"Ġveriyants":5623,"Ġhelth":5624,"Ġpairon":5625,"Ġsony":5626,"----------------":5627,"Ġtumhaare":5628,"Ġparyaapt":5629,"arshiyal":5630,"ingatan":5631,"ashailee":5632,"aajanak":5633,"Ġintigreted":5634,"22":5635,"bik":5636,"chand":5637,"tz":5638,"test":5639,"hatam":5640,"Ġpai":5641,"Ġresh":5642,"Ġvolyoom":5643,"Ġtips":5644,"eschar":5645,"Ġgil":5646,"Ġ110":5647,"Ġchr":5648,"upta":5649,"the":5650,"Ġmachchhar":5651,"avee":5652,"Ġkarengee":5653,"Ġdebit":5654,"Ġphraans":5655,"asand":5656,"Ġchhed":5657,"lars":5658,"taibalet":5659,"Ġonai":5660,"Ġ140":5661,"Ġjarooraton":5662,"aphl":5663,"Ġbola":5664,"Ġpuraana":5665,"Ġmaamalon":5666,"Ġnikalatee":5667,"pataal":5668,"Ġutpaadan":5669,"Ġaidgai":5670,"Ġektivet":5671,"bataaya":5672,"Ġinteeriyar":5673,"Ġpablik":5674,"baj":5675,"edee":5676,"mar":5677,"mil":5678,"oph":5679,"saal":5680,"intar":5681,"Ġben":5682,"Ġdom":5683,"Ġjon":5684,"Ġlaik":5685,"Ġlaagat":5686,"Ġlyf":5687,"chk":5688,"Ġreed":5689,"gam":5690,"Ġtiyaago":5691,"asitee":5692,"etiv":5693,"Ġpaen":5694,"aitis":5695,"Ġdish":5696,"Ġ120":5697,"Ġsaalaana":5698,"Ġbaiktee":5699,"Ġ3200":5700,"Ġkhareeden":5701,"Ġmembar":5702,"Ġsaamagree":5703,"Ġ1500":5704,"Ġjinaka":5705,"andan":5706,"Ġdikhaane":5707,"Ġpratispar":5708,"Ġsaits":5709,"Ġaaaiphars":5710,"Ġsadak":5711,"Ġgunav":5712,"Ġaagaamee":5713,"Ġvivo":5714,"Ġgaadiyaan":5715,"Ġplaitaphorm":5716,"Ġsanarooph":5717,"kin":5718,"lg":5719,"los":5720,"mal":5721,"mimee":5722,"rah":5723,"Ġpest":5724,"Ġbos":5725,"onga":5726,"Ġjara":5727,"Ġjolo":5728,"chaap":5729,"aansh":5730,"phor":5731,"harjee":5732,"atai":5733,"Ġ36":5734,"Ġ38":5735,"Ġprooph":5736,"Ġbanatee":5737,"seen":5738,"Ġbled":5739,"Ġbadhaakar":5740,"Ġchhip":5741,"Ġchaaron":5742,"Ġonaiplus":5743,"Ġkolestrol":5744,"Ġmaanate":5745,"takat":5746,"Ġaares":5747,"Ġavel":5748,"Ġsunakar":5749,"Ġmaamala":5750,"Ġpharm":5751,"Ġsmart":5752,"Ġkholane":5753,"Ġcharan":5754,"Ġvitaara":5755,"Ġkailshiyam":5756,"Ġkhoobasooratee":5757,"petrol":5758,"Ġpraivesee":5759,"kolakaata":5760,"lainovo":5761,"Ġgatividh":5762,"Ġbraujing":5763,"jul":5764,"tim":5765,"Ġpaand":5766,"Ġast":5767,"Ġhil":5768,"Ġkaraee":5769,"Ġkopee":5770,"Ġgaye":5771,"Ġgail":5772,"Ġnetr":5773,"Ġkhoon":5774,"Ġ4100":5775,"ings":5776,"mati":5777,"Ġ63":5778,"Ġ82":5779,"Ġusako":5780,"Ġmaij":5781,"bhaasha":5782,"Ġplaastik":5783,"Ġeksel":5784,"Ġnaamak":5785,"Ġdaale":5786,"iyans":5787,"Ġ1800":5788,"Ġdoorasanchaar":5789,"Ġkaangres":5790,"chhotee":5791,"Ġupakaranon":5792,"Ġpurushon":5793,"Ġaatmavishvaas":5794,"Ġgeegaahartz":5795,"hatamand":5796,"6000":5797,"dr":5798,"lam":5799,"lit":5800,"loded":5801,"muk":5802,"mumbee":5803,"zar":5804,"Ġpash":5805,"Ġhaus":5806,"Ġkes":5807,"Ġven":5808,"Ġvaada":5809,"Ġtoot":5810,"pann":5811,"Ġnem":5812,"yooment":5813,"Ġchoree":5814,"âĢĿ":5815,"ishth":5816,"opo":5817,"Ġgrah":5818,"Ġphlip":5819,"Ġnotabuk":5820,"Ġshaant":5821,"Ġhaaliya":5822,"Ġasap":5823,"Ġasalee":5824,"Ġmaamoolee":5825,"Ġbiliyan":5826,"yorens":5827,"Ġrokane":5828,"Ġjimmedaar":5829,"Ġseets":5830,"Ġeksakloosivalee":5831,"Ġ3310":5832,"Ġprerit":5833,"Ġeksatenshan":5834,"storej":5835,"Ġbaitariyaan":5836,"Ġgunavatta":5837,"dik":5838,"mere":5839,"paan":5840,"rak":5841,"sl":5842,"anas":5843,"Ġehasaas":5844,"phe":5845,"esa":5846,"asy":5847,"asport":5848,"Ġjaj":5849,"Ġsakegee":5850,"unk":5851,"dhaav":5852,"Ġshulk":5853,"teeem":5854,"Ġprim":5855,"Ġmajedaar":5856,"eshiphikeshan":5857,"sarakaar":5858,"Ġstreet":5859,"Ġaaeepeeel":5860,"Ġintaraneshanal":5861,"Ġchaut":5862,"Ġutanee":5863,"eksha":5864,"Ġshahad":5865,"Ġsthaaneey":5866,"Ġjagahon":5867,"Ġsamasyaen":5868,"Ġsilindar":5869,"Ġjeevanashailee":5870,"motar":5871,"Ġ2600":5872,"Ġpahanane":5873,"emesaee":5874,"Ġromaanch":5875,"raamak":5876,"Ġutpaadon":5877,"Ġphormet":5878,"Ġsochate":5879,"Ġsaraund":5880,"Ġsiyaaz":5881,"Ġavasaad":5882,"maarket":5883,"Ġchunautiyon":5884,"Ġteknolajee":5885,"Ġtrophee":5886,"Ġavelebal":5887,"ahan":5888,"osee":5889,"top":5890,"wip":5891,"yaraphon":5892,"Ġpeech":5893,"Ġpaana":5894,"Ġpeshak":5895,"Ġmis":5896,"yav":5897,"Ġdiph":5898,"Ġdablyoo":5899,"Ġjai":5900,"Ġmekap":5901,"Ġkeejie":5902,"aanj":5903,"ikata":5904,"adar":5905,"Ġekasaath":5906,"aasee":5907,"ainal":5908,"chak":5909,"Ġpraakrtik":5910,"Ġpheeld":5911,"Ġkeematen":5912,"Ġanek":5913,"kaha":5914,"Ġdohar":5915,"Ġjaanakar":5916,"raund":5917,"Ġtraee":5918,"Ġgeegaahatrj":5919,"Ġshart":5920,"keem":5921,"Ġios":5922,"Ġaspataal":5923,"Ġpahunchaane":5924,"Ġkhaasiyaten":5925,"Ġbachaav":5926,"Ġlikh":5927,"Ġnikaala":5928,"Ġaips":5929,"2560":5930,"Ġkaib":5931,"Ġ2800":5932,"Ġritelar":5933,"Ġstailas":5934,"Ġchehara":5935,"Ġdastar":5936,"Ġkhoobiyaan":5937,"Ġnishaan":5938,"erepee":5939,"shareer":5940,"Ġphaibar":5941,"Ġpolisee":5942,"Ġeleet":5943,"Ġvaigyaanikon":5944,"Ġchaaloo":5945,"Ġraktachaap":5946,"jayapur":5947,"Ġpojishan":5948,"Ġpholdar":5949,"gunaa":5950,"Ġeekosport":5951,"wipai":5952,"27":5953,"badee":5954,"bina":5955,"facha":5956,"mon":5957,"mej":5958,"stail":5959,"wair":5960,"xon":5961,"aachaar":5962,"Ġsook":5963,"Ġpikchar":5964,"Ġmaaha":5965,"Ġmichro":5966,"Ġjha":5967,"akan":5968,"aksar":5969,"Ġtaal":5970,"Ġtaayar":5971,"ambh":5972,"Ġgais":5973,"Ġnet":5974,"Ġkiran":5975,"Ġkamare":5976,"aapit":5977,"Ġship":5978,"chard":5979,"Ġ810":5980,"stha":5981,"Ġspred":5982,"Ġchaud":5983,"Ġdahee":5984,"Ġchaabee":5985,"Ġkraish":5986,"Ġaadamee":5987,"Ġ1440":5988,"Ġdaalee":5989,"Ġaartiph":5990,"Ġsahaayak":5991,"Ġtakaneekee":5992,"prat":5993,"Ġbesik":5994,"Ġotophoks":5995,"Ġmotaape":5996,"Ġhelamet":5997,"Ġtamil":5998,"yushan":5999,"Ġseekha":6000,"phesing":6001,"Ġraaste":6002,"Ġdheron":6003,"iteniyam":6004,"Ġegj":6005,"Ġdurghat":6006,"Ġmammee":6007,"Ġaaaipareting":6008,"Ġnaagarikon":6009,"Ġitailiyan":6010,"Ġaatank":6011,"Ġbaikteeriya":6012,"evar":6013,"Ġdyoo":6014,"Ġaiks":6015,"Ġti":6016,"Ġtaaja":6017,"Ġheksa":6018,"amejan":6019,"phik":6020,"abord":6021,"iet":6022,"Ġgale":6023,"tarn":6024,"Ġcheyar":6025,"aport":6026,"aeen":6027,"aapur":6028,"ayan":6029,"Ġ51":6030,"Ġpran":6031,"shyorens":6032,"Ġpau":6033,"Ġjob":6034,"eshiya":6035,"Ġstood":6036,"ishchit":6037,"Ġaaeebol":6038,"bhaal":6039,"Ġchhoo":6040,"Ġselph":6041,"Ġdhaar":6042,"Ġamareeka":6043,"Ġstadee":6044,"Ġii":6045,"Ġoparetar":6046,"Ġkaravaane":6047,"Ġravi":6048,"Ġchaiting":6049,"loud":6050,"Ġrimoovebal":6051,"Ġpreshar":6052,"prosesar":6053,"Ġsadasy":6054,"Ġaavashyakata":6055,"lonching":6056,"Ġtikat":6057,"Ġshugar":6058,"vajanik":6059,"Ġnetrtv":6060,"Ġmaahaul":6061,"aen":6062,"ayah":6063,"lin":6064,"lait":6065,"sur":6066,"Ġkreta":6067,"Ġmor":6068,"Ġmood":6069,"Ġbhatak":6070,"Ġdarav":6071,"Ġdaark":6072,"taikt":6073,"Ġagr":6074,"Ġmekar":6075,"Ġneeboo":6076,"Ġri":6077,"ooh":6078,"Ġhim":6079,"adesh":6080,"ask":6081,"Ġgreen":6082,"aiss":6083,"aavind":6084,"Ġoyal":6085,"Ġ3500":6086,"chadhaav":6087,"Ġpaega":6088,"Ġpheed":6089,"Ġ821":6090,"Ġmods":6091,"Ġmodyool":6092,"Ġchhut":6093,"Ġbeeemadablyoo":6094,"Ġbahaad":6095,"Ġvishaal":6096,"Ġbhara":6097,"Ġmahaar":6098,"Ġ119":6099,"Ġvolet":6100,"Ġkastamar":6101,"Ġeksaport":6102,"Ġeksapart":6103,"Ġgira":6104,"Ġpraimaree":6105,"yuva":6106,"Ġdaayam":6107,"Ġmotarasaikals":6108,"vidh":6109,"Ġsignal":6110,"Ġshortakat":6111,"Ġprakaashit":6112,"Ġdolbee":6113,"Ġkoshikaon":6114,"Ġpaande":6115,"motarasaik":6116,"69":6117,"dyool":6118,"ghane":6119,"jiyonee":6120,"li":6121,"michromax":6122,"riyo":6123,"suj":6124,"Ġsair":6125,"Ġdait":6126,"Ġdron":6127,"aarj":6128,"Ġlaakhon":6129,"Ġkahen":6130,"Ġnaak":6131,"Ġtaaj":6132,"Ġtoor":6133,"abaajee":6134,"roj":6135,"Ġekshan":6136,"Ġob":6137,"Ġbadhee":6138,"agraund":6139,"ivo":6140,"Ġpriv":6141,"Ġ83":6142,"Ġmilana":6143,"iphaid":6144,"Ġbanana":6145,"Ġbadhaava":6146,"Ġkaardan":6147,"Ġdinesh":6148,"Ġmadhy":6149,"aishvik":6150,"Ġkhapat":6151,"Ġbreja":6152,"Ġapeksha":6153,"Ġsarve":6154,"Ġpratibha":6155,"Ġtareekon":6156,"pahalee":6157,"Ġaaved":6158,"Ġsevaon":6159,"Ġsevaen":6160,"Ġdekhabhaal":6161,"Ġ2200":6162,"Ġandaaja":6163,"Ġrishton":6164,"ochus":6165,"Ġkirlos":6166,"Ġposhak":6167,"Ġkanjyoomar":6168,"Ġbailens":6169,"Ġmantraalay":6170,"Ġaaaitomaitik":6171,"Ġnirdeshak":6172,"Ġnajadee":6173,"Ġvento":6174,"Ġpeshakash":6175,"Ġkirloskar":6176,"42":6177,"book":6178,"ds":6179,"ix":6180,"not":6181,"room":6182,"vol":6183,"viraat":6184,"eedee":6185,"Ġkaalee":6186,"Ġdi":6187,"Ġjaas":6188,"Ġjoos":6189,"aiph":6190,"Ġnim":6191,"Ġvaik":6192,"Ġvhotsep":6193,"ass":6194,"asus":6195,"abaink":6196,"Ġgaard":6197,"Ġgpu":6198,"Ġ112":6199,"Ġintr":6200,"yoor":6201,"Ġ210":6202,"jeeechajed":6203,"leep":6204,"Ġ3300":6205,"oliyo":6206,"Ġsabako":6207,"seejan":6208,"Ġendroid":6209,"Ġdostee":6210,"Ġsari":6211,"Ġsahaj":6212,"Ġtheem":6213,"aakhoon":6214,"Ġenarjee":6215,"Ġvosh":6216,"Ġmukaam":6217,"Ġ25000":6218,"Ġkort":6219,"Ġbajae":6220,"Ġakasar":6221,"Ġhisson":6222,"Ġpahunchaaya":6223,"Ġjanaral":6224,"Ġjodate":6225,"Ġnikalane":6226,"Ġsoojan":6227,"achait":6228,"Ġgalatiyaan":6229,"Ġroming":6230,"Ġkamaando":6231,"Ġhaidalait":6232,"Ġbura":6233,"Ġlavars":6234,"phlipakaart":6235,"Ġjaanavaron":6236,"Ġdaimenshan":6237,"chaahe":6238,"Ġpainorama":6239,"Ġavashy":6240,"71":6241,"bade":6242,"ns":6243,"ows":6244,"ppi":6245,"vai":6246,"Ġmrt":6247,"Ġniyo":6248,"Ġrs":6249,"urat":6250,"als":6251,"alt":6252,"ath":6253,"ataar":6254,"Ġkophee":6255,"adaaree":6256,"abaind":6257,"Ġchikit":6258,"aishan":6259,"Ġ43":6260,"Ġ6999":6261,"eshiyal":6262,"aitooth":6263,"aabait":6264,"emabee":6265,"Ġseepee":6266,"Ġkaamay":6267,"uddh":6268,"Ġmair":6269,"Ġplet":6270,"Ġplaans":6271,"Ġchaineej":6272,"Ġvarna":6273,"hataig":6274,"Ġutaare":6275,"Ġekspo":6276,"Ġeksatar":6277,"Ġpeepeeaee":6278,"umeh":6279,"daj":6280,"Ġamb":6281,"yakram":6282,"Ġsopht":6283,"aseeaar":6284,"Ġakele":6285,"128":6286,"Ġlaipha":6287,"Ġposhan":6288,"Ġlisting":6289,"6735":6290,"ithiyam":6291,"Ġsadakon":6292,"Ġheliyo":6293,"Ġintelij":6294,"Ġsavaalon":6295,"Ġkaaryakaaree":6296,"Ġdokyooment":6297,"Ġaakraman":6298,"Ġprasiddh":6299,"Ġoonchaee":6300,"Ġsabjiyon":6301,"bachchon":6302,"Ġsambhaalane":6303,"Ġladakiyon":6304,"Ġmedikal":6305,"Ġsamajhauta":6306,"Ġsaikil":6307,"Ġdhoond":6308,"Ġishaare":6309,"Ġbluaitooth":6310,"Ġeksapeeriyans":6311,"Ġgilaas":6312,"motarasaikal":6313,"fochus":6314,"jam":6315,"jiyo":6316,"mais":6317,"magar":6318,"nahin":6319,"pree":6320,"rav":6321,"Ġsaind":6322,"Ġpaayee":6323,"ankaee":6324,"Ġbaaree":6325,"talee":6326,"Ġjaagar":6327,"aarel":6328,"ena":6329,"Ġnatee":6330,"Ġnaabaad":6331,"Ġraink":6332,"Ġruch":6333,"oobar":6334,"Ġsehatamand":6335,"amor":6336,"Ġaaie":6337,"Ġaash":6338,"Ġaair":6339,"Ġgair":6340,"Ġuchit":6341,"itan":6342,"aikho":6343,"Ġ46":6344,"Ġbadhaee":6345,"Ġdedh":6346,"udaaharan":6347,"Ġspot":6348,"Ġ1200":6349,"Ġbaikagraund":6350,"apeeem":6351,"Ġhotal":6352,"Ġkandhon":6353,"Ġdikhata":6354,"Ġena":6355,"Ġpiksals":6356,"Ġrovar":6357,"Ġbadale":6358,"Ġfw":6359,"Ġfraiaidom":6360,"Ġpatale":6361,"Ġvibai":6362,"Ġkilar":6363,"Ġ403":6364,"Ġkholen":6365,"Ġbaitree":6366,"Ġnikaalane":6367,"fiai":6368,"ghareloo":6369,"Ġprashnon":6370,"dispale":6371,"Ġsaibar":6372,"jyaada":6373,"Ġranajee":6374,"Ġmaansapeshiyon":6375,"299":6376,"baajaar":6377,"hs":6378,"htch":6379,"mw":6380,"oh":6381,"paapa":6382,"sta":6383,"tur":6384,"whatsapp":6385,"aache":6386,"Ġstel":6387,"Ġpaancha":6388,"Ġharee":6389,"Ġbejal":6390,"Ġdup":6391,"Ġama":6392,"Ġjaahir":6393,"Ġlega":6394,"Ġnek":6395,"Ġraak":6396,"Ġraashtreey":6397,"Ġtree":6398,"Ġphi":6399,"Ġisen":6400,"Ġtaiteniyam":6401,"Ġinshyorens":6402,"Ġekabaar":6403,"aamataur":6404,"Ġchen":6405,"Ġchloud":6406,"aasking":6407,"Ġshre":6408,"Ġ435":6409,"ivai":6410,"Ġjosh":6411,"Ġdilacha":6412,"avyoo":6413,"saron":6414,"emadee":6415,"Ġalkaatel":6416,"Ġjaanana":6417,"hamaanon":6418,"Ġmaiizu":6419,"balaijeshan":6420,"Ġlogin":6421,"raj":6422,"Ġmodail":6423,"Ġeksamor":6424,"Ġphait":6425,"Ġtrank":6426,"Ġleeg":6427,"Ġleejie":6428,"Ġjinase":6429,"Ġaadha":6430,"spes":6431,"pahar":6432,"Ġnibha":6433,"Ġsektar":6434,"Ġchunen":6435,"Ġhedar":6436,"ubi":6437,"Ġaakraamak":6438,"aayamph":6439,"Ġtatvon":6440,"Ġvyaapaar":6441,"Ġanuroop":6442,"Ġlepatop":6443,"Ġsportee":6444,"Ġspredatram":6445,"Ġdurghatana":6446,"Ġcheyaramain":6447,"Ġshrey":6448,"fai":6449,"raim":6450,"sas":6451,"sir":6452,"zain":6453,"arn":6454,"Ġmuj":6455,"ishal":6456,"Ġdel":6457,"Ġlimit":6458,"ales":6459,"aten":6460,"Ġthand":6461,"Ġtesla":6462,"Ġses":6463,"Ġkaraata":6464,"Ġkohare":6465,"astar":6466,"tarbo":6467,"Ġhot":6468,"Ġtat":6469,"Ġkamod":6470,"Ġphonai":6471,"aapak":6472,"Ġ499":6473,"Ġanup":6474,"Ġankon":6475,"Ġsty":6476,"Ġkaamon":6477,"Ġrakhe":6478,"Ġdenasitee":6479,"Ġdopahar":6480,"Ġchalee":6481,"ooti":6482,"aiptiv":6483,"oongee":6484,"Ġbataatee":6485,"Ġ130":6486,"Ġsanstha":6487,"Ġeeyaraphon":6488,"Ġechadeeemaee":6489,"Ġbadala":6490,"ikeshans":6491,"Ġ148":6492,"Ġthree":6493,"Ġaarapeeem":6494,"Ġesid":6495,"Ġrikaard":6496,"Ġhaaraman":6497,"Ġlamba":6498,"Ġbadhaegee":6499,"vebasait":6500,"Ġjodon":6501,"Ġnavaaja":6502,"Ġprabhaavee":6503,"Ġbachapan":6504,"Ġkshetron":6505,"Ġkamaandoj":6506,"Ġneele":6507,"Ġnekson":6508,"seeseeaee":6509,"Ġchunauteepoorn":6510,"Ġmenyoo":6511,"logon":6512,"Ġajast":6513,"lagaataar":6514,"Ġvaataavaran":6515,"Ġpraaroop":6516,"Ġtyohaar":6517,"Ġtigor":6518,"Ġbahaadur":6519,"sujukee":6520,"799":6521,"mem":6522,"vaigyaan":6523,"Ġsuk":6524,"Ġpik":6525,"Ġpiks":6526,"Ġpait":6527,"Ġbilt":6528,"Ġapha":6529,"Ġlithiyam":6530,"Ġnip":6531,"Ġkeem":6532,"aany":6533,"Ġtuk":6534,"Ġgur":6535,"eka":6536,"Ġchon":6537,"Ġchup":6538,"Ġkhaad":6539,"aavaas":6540,"Ġ59":6541,"olyushan":6542,"Ġ854":6543,"Ġande":6544,"Ġhuveee":6545,"Ġstr":6546,"Ġunheen":6547,"Ġjarmanee":6548,"Ġspeshiphikeshan":6549,"Ġvarishth":6550,"Ġsaja":6551,"Ġchaahat":6552,"Ġkandeeshan":6553,"Ġshurooaatee":6554,"Ġtraanj":6555,"Ġbeej":6556,"Ġupahaar":6557,"Ġsensars":6558,"Ġpratirod":6559,"Ġdaalane":6560,"hasun":6561,"Ġkontaikt":6562,"Ġphailaaya":6563,"eeksha":6564,"Ġdrsh":6565,"Ġaamataur":6566,"phrens":6567,"Ġparaphormesh":6568,"Ġbeeesaee":6569,"Ġhedaphons":6570,"Ġkheench":6571,"Ġeshej":6572,"Ġsabjiyaan":6573,"Ġsahayog":6574,"Ġseeniyar":6575,"subah":6576,"Ġsantulan":6577,"Ġraashi":6578,"Ġaayaris":6579,"Ġstaibilitee":6580,"Ġdarshakon":6581,"Ġdoodal":6582,"ihn":6583,"Ġprimai":6584,"Ġstelth":6585,"Ġkamoditee":6586,"46":6587,"72":6588,"82":6589,"85":6590,"kas":6591,"vaal":6592,"Ġkise":6593,"Ġkreem":6594,"hada":6595,"Ġmand":6596,"Ġdhad":6597,"Ġnaata":6598,"Ġnadaar":6599,"Ġnamee":6600,"Ġrisee":6601,"Ġvaishvik":6602,"Ġest":6603,"phul":6604,"abad":6605,"Ġinj":6606,"yooshan":6607,"Ġchihn":6608,"aapaka":6609,"Ġshr":6610,"Ġshodhakartaon":6611,"ated":6612,"Ġ53":6613,"agoogal":6614,"Ġmota":6615,"eediya":6616,"Ġteesaree":6617,"Ġston":6618,"ektiv":6619,"hakon":6620,"Ġphrij":6621,"Ġbaen":6622,"Ġ750":6623,"yaring":6624,"Ġdayool":6625,"aidar":6626,"oonee":6627,"Ġchhup":6628,"Ġnirdesh":6629,"Ġindakshan":6630,"Ġbeet":6631,"Ġonar":6632,"Ġrotaree":6633,"Ġsthaapit":6634,"Ġpreeped":6635,"Ġmanj":6636,"Ġokseejan":6637,"Ġsunishchit":6638,"Ġ10000":6639,"sapaavar":6640,"Ġhalkee":6641,"Ġbraun":6642,"Ġeksapend":6643,"Ġpahanen":6644,"Ġadaiptiv":6645,"Ġmishran":6646,"Ġpichhalee":6647,"Ġpaartanaraship":6648,"Ġtrening":6649,"Ġthanda":6650,"Ġvheekals":6651,"jisame":6652,"Ġkroojar":6653,"Ġvaigyaanik":6654,"Ġsailfiai":6655,"Ġtraiphik":6656,"Ġhaishataig":6657,"Ġaaainalain":6658,"Ġgatividhiyon":6659,"Ġhedarest":6660,"Ġnadaarad":6661,"boo":6662,"kool":6663,"lap":6664,"noo":6665,"osh":6666,"paanee":6667,"sain":6668,"ute":6669,"Ġdan":6670,"Ġag":6671,"Ġmehamaanon":6672,"Ġneel":6673,"urved":6674,"atantr":6675,"Ġedaj":6676,"Ġsemee":6677,"Ġheyar":6678,"Ġkarma":6679,"astha":6680,"ilated":6681,"Ġubar":6682,"etee":6683,"roshan":6684,"royal":6685,"yoolar":6686,"Ġchet":6687,"aastr":6688,"unee":6689,"teekeem":6690,"olt":6691,"agupta":6692,"Ġlagenge":6693,"indr":6694,"oodar":6695,"Ġdivas":6696,"Ġsenagupta":6697,"Ġdhool":6698,"ashn":6699,"Ġpaavarabaink":6700,"reg":6701,"Ġ950":6702,"Ġamal":6703,"andaaj":6704,"Ġmahendr":6705,"metal":6706,"Ġjang":6707,"Ġmilaen":6708,"Ġbeshak":6709,"ibook":6710,"Ġkshetreey":6711,"Ġgirane":6712,"Ġvitt":6713,"Ġjedeph":6714,"Ġutare":6715,"Ġvyast":6716,"aicht":6717,"Ġchhakke":6718,"Ġyaatree":6719,"Ġvelakam":6720,"Ġpeedhee":6721,"Ġmoov":6722,"Ġtumhaaree":6723,"Ġflash":6724,"Ġkrooz":6725,"Ġvideshon":6726,"Ġpratidin":6727,"Ġpakaen":6728,"Ġchhedon":6729,"Ġhaidalaiten":6730,"Ġseepeeyoo":6731,"Ġruchi":6732,"Ġfwvg":6733,"Ġkarmachaar":6734,"450":6735,"achch":6736,"bair":6737,"gaal":6738,"jise":6739,"kvoch":6740,"miyon":6741,"niyam":6742,"nand":6743,"tvacha":6744,"utar":6745,"vhee":6746,"vaayar":6747,"york":6748,"Ġkur":6749,"aaai":6750,"aran":6751,"Ġbej":6752,"isk":6753,"Ġdhak":6754,"Ġjooree":6755,"Ġjelee":6756,"Ġrie":6757,"Ġreech":6758,"Ġvast":6759,"Ġev":6760,"adaayak":6761,"Ġ230":6762,"Ġchool":6763,"Ġchaaval":6764,"ukool":6765,"teet":6766,"Ġ537":6767,"Ġemaphl":6768,"Ġsammaan":6769,"Ġsamooh":6770,"aito":6771,"uso":6772,"Ġ710":6773,"bhaag":6774,"Ġgrainal":6775,"Ġsaplaee":6776,"âĢĻ,":6777,"Ġchhutak":6778,"Ġentar":6779,"Ġkhelen":6780,"Ġkhelate":6781,"Ġmaanav":6782,"Ġrejolyushan":6783,"aktoobar":6784,"Ġlaib":6785,"Ġaarop":6786,"Ġpowair":6787,"Ġztai":6788,"Ġavataar":6789,"Ġsamajhate":6790,"aadhik":6791,"Ġaayee":6792,"Ġmiui":6793,"doosaron":6794,"Ġbukings":6795,"Ġkalaakaar":6796,"Ġikosport":6797,"lagajaree":6798,"Ġbovar":6799,"Ġhaddiyon":6800,"Ġultr":6801,"Ġbadhatoree":6802,"Ġphrends":6803,"Ġaimfl":6804,"Ġshreelankaee":6805,"Ġbetee":6806,"Ġvilkin":6807,"Ġmaneesh":6808,"Ġmareejon":6809,"baayot":6810,"Ġhorsapaavar":6811,"Ġichchh":6812,"Ġinavait":6813,"Ġsaarvajanik":6814,"Ġgainasport":6815,"Ġriplesament":6816,"ventilated":6817,"mukharjee":6818,"emesaeeel":6819,"Ġrainking":6820,"Ġkarmachaariyon":6821,"kvochroport":6822,"nandinee":6823,"Ġemaphlaks":6824,"Ġgrainaluso":6825,"Ġaimflux":6826,"57":6827,"dok":6828,"opan":6829,"vatar":6830,"yat":6831,"Ġdor":6832,"tata":6833,"Ġadar":6834,"Ġjhan":6835,"Ġjhal":6836,"heed":6837,"Ġkebin":6838,"Ġleed":6839,"Ġkahar":6840,"Ġnaaj":6841,"Ġroos":6842,"Ġter":6843,"Ġhistree":6844,"phit":6845,"esel":6846,"Ġphen":6847,"Ġphold":6848,"iyata":6849,"Ġgai":6850,"Ġhosp":6851,"Ġinph":6852,"etree":6853,"Ġkamaan":6854,"Ġkamarshiyal":6855,"aeees":6856,"Ġ47":6857,"Ġ3100":6858,"deeaara":6859,"imp":6860,"Ġpheel":6861,"thvee":6862,"Ġsamar":6863,"aaki":6864,"aajat":6865,"embal":6866,"ushal":6867,"Ġspais":6868,"Ġlaisens":6869,"yaadh":6870,"oope":6871,"Ġenim":6872,"Ġkhareedate":6873,"Ġklaim":6874,"Ġghum":6875,"Ġleg":6876,"Ġkrej":6877,"aseey":6878,"Ġagalee":6879,"Ġteeveees":6880,"Ġcheeph":6881,"Ġlaits":6882,"Ġnikon":6883,"Ġ2005":6884,"Ġstaark":6885,"6750":6886,"akampanee":6887,"Ġportaph":6888,"Ġhaardik":6889,"Ġijaajat":6890,"Ġpresident":6891,"Ġpichhad":6892,"hua":6893,"Ġaaaiph":6894,"www":6895,"Ġvailiditee":6896,"Ġbhookh":6897,"graahakon":6898,"Ġgussa":6899,"****":6900,"Ġdaanton":6901,"Ġwindows":6902,"Ġheeliyo":6903,"chandran":6904,"Ġchrorai":6905,"Ġpeechha":6906,"Ġambaanee":6907,"jameen":6908,"Ġaairis":6909,"dharmashaala":6910,"fch":6911,"jaapaanee":6912,"kr":6913,"mos":6914,"nir":6915,"rij":6916,"sen":6917,"ua":6918,"uv":6919,"vej":6920,"Ġkut":6921,"Ġbind":6922,"taivaan":6923,"Ġaxon":6924,"Ġneshanal":6925,"Ġrain":6926,"oosee":6927,"Ġvain":6928,"Ġkoting":6929,"ile":6930,"Ġparicha":6931,"abal":6932,"Ġjain":6933,"Ġ299":6934,"aamitv":6935,"Ġchid":6936,"dhik":6937,"shi":6938,"Ġpavil":6939,"Ġdeevaar":6940,"âĢĮ":6941,"Ġ68":6942,"Ġandh":6943,"Ġjarurat":6944,"veedee":6945,"parera":6946,"Ġmaips":6947,"Ġkaards":6948,"Ġ132":6949,"ashvin":6950,"Ġsanchaar":6951,"Ġsanchaal":6952,"Ġkhada":6953,"maujood":6954,"Ġveek":6955,"Ġapaache":6956,"Ġsvaamitv":6957,"Ġthode":6958,"Ġyoonib":6959,"Ġesosee":6960,"Ġasal":6961,"ingaraprint":6962,"Ġnajaron":6963,"visheshag":6964,"Ġriplaee":6965,"Ġchunane":6966,"doosara":6967,"Ġbaiting":6968,"Ġjenaphona":6969,"Ġ652":6970,"Ġshakhs":6971,"Ġchaukon":6972,"Ġparisthitiyaan":6973,"Ġjeeesem":6974,"Ġkinaare":6975,"Ġthakaan":6976,"Ġprabandh":6977,"Ġsantulit":6978,"blaikaberee":6979,"Ġrelave":6980,"Ġghatakar":6981,"Ġaaeeemeksa":6982,"Ġpaachan":6983,"Ġintelijens":6984,"aavaasaakee":6985,"Ġportapholiyo":6986,"Ġpaviliyan":6987,"aut":6988,"kab":6989,"laanch":6990,"Ġqu":6991,"inaph":6992,"Ġpadee":6993,"Ġmaane":6994,"Ġboo":6995,"Ġdaar":6996,"Ġdush":6997,"aarp":6998,"Ġlaimps":6999,"Ġkaisa":7000,"Ġniy":7001,"oola":7002,"Ġvaisa":7003,"alaimp":7004,"atchh":7005,"atne":7006,"Ġtip":7007,"Ġeteeem":7008,"Ġkaran":7009,"Ġaaitam":7010,"abaan":7011,"Ġgaana":7012,"itis":7013,"jeep":7014,"aapaid":7015,"unase":7016,"Ġshipht":7017,"ukar":7018,"Ġ549":7019,"Ġpriy":7020,"shodhakartaon":7021,"Ġanukool":7022,"ipak":7023,"Ġbhaaratee":7024,"Ġseetar":7025,"Ġ700":7026,"Ġchalen":7027,"Ġkvid":7028,"Ġbadhaate":7029,"Ġchaunk":7030,"Ġjisasen":7031,"Ġ2012":7032,"Ġ2019":7033,"Ġeloy":7034,"Ġbrait":7035,"Ġbriten":7036,"Ġxl":7037,"abhaar":7038,"kaarban":7039,"Ġbolane":7040,"Ġsuranga":7041,"Ġdijainar":7042,"aajeel":7043,"Ġlikhane":7044,"adhaanee":7045,"Ġpatnee":7046,"Ġinstent":7047,"Ġkaraen":7048,"6753":7049,"1440":7050,"Ġtraiking":7051,"Ġmaastar":7052,"jaanakaaree":7053,"Ġgujaraat":7054,"tasan":7055,"Ġkheenchane":7056,"Ġsantush":7057,"Ġrijalt":7058,"amerikee":7059,"Ġdhamaak":7060,"Ġaaaipshans":7061,"Ġkaaboo":7062,"Ġbete":7063,"anjasy":7064,"Ġsooraj":7065,"Ġinjeeniyaring":7066,"Ġkhule":7067,"Ġvyavastha":7068,"Ġnaariyal":7069,"Ġphlem":7070,"shodh":7071,"Ġintroodar":7072,"aishanal":7073,"Ġchhutakaara":7074,"Ġhospital":7075,"52":7076,"98":7077,"ian":7078,"iphonai":7079,"ob":7080,"sai":7081,"ulee":7082,"Ġkaal":7083,"Ġsink":7084,"Ġpvaint":7085,"Ġdharmashaala":7086,"akod":7087,"Ġtantr":7088,"Ġkaraate":7089,"amar":7090,"iksh":7091,"Ġpheshiyal":7092,"Ġaaen":7093,"abhar":7094,"itish":7095,"Ġinase":7096,"Ġkamyoon":7097,"Ġpraat":7098,"Ġprintar":7099,"ateedee":7100,"Ġmohaalee":7101,"Ġdilaee":7102,"saras":7103,"isht":7104,"seeaee":7105,"Ġraning":7106,"Ġmaarsh":7107,"Ġjisako":7108,"Ġvarsheey":7109,"Ġlaanching":7110,"Ġmobails":7111,"Ġdhok":7112,"Ġhuawaii":7113,"eksapee":7114,"osis":7115,"Ġghut":7116,"Ġrogee":7117,"Ġbataen":7118,"Ġ259":7119,"Ġeyarasel":7120,"soft":7121,"Ġniroshan":7122,"baen":7123,"Ġanumati":7124,"Ġpramoshan":7125,"vaastav":7126,"Ġkaipes":7127,"Ġkaiptan":7128,"Ġailitai":7129,"Ġvairiyants":7130,"Ġvichaaron":7131,"aagapur":7132,"hamaaree":7133,"Ġvivaad":7134,"Ġtaiksee":7135,"Ġanokhe":7136,"galaxy":7137,"Ġsarajameen":7138,"Ġsaavadhaanee":7139,"Ġembiyant":7140,"Ġsoory":7141,"orniya":7142,"Ġprastut":7143,"Ġdoguna":7144,"Ġmainyuphaikcharing":7145,"Ġeplikeshan":7146,"Ġaartiphishiyal":7147,"askreen":7148,"memoree":7149,"Ġkhaady":7150,"Ġadarak":7151,"Ġnaajuk":7152,"Ġparichay":7153,"//":7154,"05":7155,"fraiaidom":7156,"jolo":7157,"javaab":7158,"ks":7159,"lok":7160,"raat":7161,"sin":7162,"tiyaan":7163,"uaan":7164,"uchar":7165,"wit":7166,"yaalay":7167,"Ġitar":7168,"Ġà¤":7169,"Ġsch":7170,"inaka":7171,"Ġphat":7172,"anch":7173,"Ġbith":7174,"Ġlap":7175,"Ġledar":7176,"Ġkala":7177,"Ġnubi":7178,"Ġrivars":7179,"Ġvais":7180,"Ġeses":7181,"ikr":7182,"Ġpariv":7183,"Ġgard":7184,"aadu":7185,"aamaaha":7186,"Ġjeev":7187,"Ġof":7188,"Ġshep":7189,"Ġ320":7190,"Ġtos":7191,"imaan":7192,"Ġyooaarel":7193,"Ġhuvaave":7194,"Ġstet":7195,"Ġbanakar":7196,"vaj":7197,"Ġdoonga":7198,"Ġaaeepee":7199,"sach":7200,"Ġjisen":7201,"Ġsarjaree":7202,"Ġchaahane":7203,"Ġutpann":7204,"Ġadhyaksh":7205,"Ġpees":7206,"Ġpeeriya":7207,"Ġbataata":7208,"ashot":7209,"Ġkolakaata":7210,"Ġsaamanjasy":7211,"Ġsuvidh":7212,"Ġamit":7213,"Ġnoeda":7214,"Ġkaaranon":7215,"Ġmanga":7216,"aijd":7217,"smaartaphons":7218,"Ġnajarandaaj":7219,"ition":7220,"abloo":7221,"Ġphails":7222,"Ġkalpana":7223,"Ġikat":7224,"Ġdrink":7225,"Ġbreking":7226,"Ġrishta":7227,"Ġsteel":7228,"Ġkoriyaee":7229,"Ġkheencha":7230,"Ġmirar":7231,"jensee":7232,"Ġsanskaran":7233,"Ġnauven":7234,"Ġbaingal":7235,"Ġmadhumeh":7236,"Ġhataane":7237,"Ġheeroin":7238,"intaranal":7239,"Ġdongal":7240,"Ġ9999":7241,"Ġkaabij":7242,"Ġbigad":7243,"Ġpadaarthon":7244,"Ġmachhalee":7245,"snl":7246,"Ġyoozar":7247,"Ġpaalan":7248,"Ġvibhaagon":7249,"Ġlaindalain":7250,"ilektrik":7251,"Ġganvae":7252,"Ġenjelo":7253,"oranjan":7254,"Ġbrodabaind":7255,"Ġjajba":7256,"chardaikho":7257,"Ġravichandran":7258,"Ġdupahiya":7259,"yaadhunik":7260,"Ġgardan":7261,"290":7262,"baind":7263,"dablyoo":7264,"gend":7265,"joo":7266,"jaapaan":7267,"kiya":7268,"khar":7269,"noki":7270,"pai":7271,"aajar":7272,"Ġsos":7273,"Ġhavaee":7274,"yadhik":7275,"Ġdablyooveejeee":7276,"Ġjet":7277,"aarasee":7278,"aio":7279,"Ġlip":7280,"Ġkahane":7281,"Ġnaakhoon":7282,"Ġveediyokon":7283,"Ġelar":7284,"amantree":7285,"esar":7286,"Ġaaudee":7287,"hanon":7288,"ora":7289,"ors":7290,"ity":7291,"tarah":7292,"aastar":7293,"Ġkamar":7294,"Ġkamins":7295,"Ġheen":7296,"apad":7297,"Ġsamart":7298,"Ġ6000":7299,"aajik":7300,"emo":7301,"veejeee":7302,"Ġvard":7303,"Ġsaral":7304,"Ġsardee":7305,"reeno":7306,"Ġsau":7307,"Ġekse":7308,"Ġxz":7309,"Ġedres":7310,"Ġsochane":7311,"eebol":7312,"Ġkriya":7313,"Ġsvayan":7314,"roniks":7315,"Ġmanoranjan":7316,"Ġimphr":7317,"Ġshaanti":7318,"Ġjudane":7319,"Ġmeeting":7320,"telik":7321,"Ġkahoonga":7322,"Ġprots":7323,"ijanal":7324,"Ġluks":7325,"Ġravindr":7326,"Ġraajy":7327,"ript":7328,"Ġbaithane":7329,"Ġutarate":7330,"Ġskootars":7331,"Ġgunag":7332,"Ġjadane":7333,"Ġpaikej":7334,"Ġmainejing":7335,"Ġvaayaralais":7336,"Ġvisheshataen":7337,"Ġniraashaajanak":7338,"Ġdhamaaka":7339,"Ġchayanakartaon":7340,"Ġabhinay":7341,"Ġprerana":7342,"Ġparyaavaran":7343,"Ġprabandhan":7344,"Ġraashtr":7345,"Ġediting":7346,"Ġhairaan":7347,"Ġphijikal":7348,"Ġilaakon":7349,"Ġpaitarn":7350,"Ġreshiyo":7351,"fachai":7352,"Ġpranaalee":7353,"Ġaavedan":7354,"Ġvoshingatan":7355,"Ġjhalak":7356,"Ġyoonibodee":7357,"399":7358,"48":7359,"690":7360,"://":7361,"googlai":7362,"jisaka":7363,"kaal":7364,"lav":7365,"pas":7366,"rab":7367,"vy":7368,"habaar":7369,"Ġmup":7370,"Ġdhar":7371,"enta":7372,"Ġlis":7373,"Ġlut":7374,"Ġlaab":7375,"Ġnij":7376,"Ġnaash":7377,"Ġring":7378,"Ġviyar":7379,"Ġer":7380,"phingaraprint":7381,"Ġphej":7382,"Ġphel":7383,"Ġphaayar":7384,"Ġgaaya":7385,"Ġ180":7386,"Ġkhaata":7387,"Ġraheen":7388,"Ġ399":7389,"ingaapur":7390,"Ġ510":7391,"Ġ540":7392,"Ġtoha":7393,"Ġpraj":7394,"Ġprthvee":7395,"Ġmoon":7396,"peechhe":7397,"vach":7398,"Ġ72":7399,"Ġ77":7400,"balleb":7401,"Ġniryaat":7402,"raiai":7403,"Ġbator":7404,"Ġtrik":7405,"Ġona":7406,"Ġklok":7407,"Ġnirmit":7408,"Ġfacha":7409,"Ġpaariyaan":7410,"aashtr":7411,"Ġsvabhaav":7412,"Ġpreeloded":7413,"Ġpradhaan":7414,"Ġdaalate":7415,"Ġmaarkets":7416,"Ġsuvidhaon":7417,"Ġtaimalain":7418,"Ġplaaning":7419,"Ġbache":7420,"Ġkhoobee":7421,"Ġkriketar":7422,"Ġotometik":7423,"Ġudyog":7424,"Ġniyamon":7425,"Ġpoochhe":7426,"Ġdastak":7427,"Ġseving":7428,"sakate":7429,"Ġlokapriyata":7430,"tabol":7431,"etaitis":7432,"Ġkirin":7433,"Ġvishayon":7434,"Ġsteeyaring":7435,"Ġbotal":7436,"Ġhaidalaimps":7437,"Ġsthitiyon":7438,"Ġmaalik":7439,"Ġapplai":7440,"Ġnirnaayak":7441,"dijain":7442,"anjay":7443,"Ġphestival":7444,"Ġaautalets":7445,"Ġpashch":7446,"anasheel":7447,"vaigyaanikon":7448,"Ġriseev":7449,"ukarabarg":7450,"Ġdhamaakedaar":7451,"Ġmupheed":7452,"dig":7453,"nar":7454,"nolojee":7455,"pekt":7456,"pharm":7457,"tin":7458,"tish":7459,"uaee":7460,"ule":7461,"vivo":7462,"Ġkaala":7463,"Ġmichromax":7464,"Ġbek":7465,"Ġbaaga":7466,"yavaad":7467,"Ġdaay":7468,"Ġjeschar":7469,"Ġvasa":7470,"urg":7471,"Ġesesareej":7472,"Ġhaavee":7473,"Ġphaay":7474,"asaat":7475,"ils":7476,"hart":7477,"Ġgupha":7478,"Ġubhar":7479,"Ġtaink":7480,"Ġjag":7481,"apasand":7482,"Ġom":7483,"Ġ450":7484,"deep":7485,"oloj":7486,"agn":7487,"Ġpach":7488,"endreey":7489,"Ġemes":7490,"Ġmaj":7491,"Ġmilengee":7492,"Ġteejar":7493,"chhaad":7494,"oore":7495,"parth":7496,"Ġlagegee":7497,"Ġmaidi":7498,"indiyan":7499,"honar":7500,"honor":7501,"laj":7502,"Ġtred":7503,"khaane":7504,"Ġphotogr":7505,"ushtik":7506,"phton":7507,"oksavaigan":7508,"Ġpradaata":7509,"Ġchaahega":7510,"Ġrikol":7511,"Ġdikhaata":7512,"Ġbaaharee":7513,"joy":7514,"jedateeee":7515,"Ġatyaadhunik":7516,"Ġsochen":7517,"Ġlaayak":7518,"Ġchhodata":7519,"Ġladakee":7520,"aaeepeeel":7521,"Ġdhananjay":7522,"ikaarak":7523,"Ġutaregee":7524,"Ġprashikshan":7525,"Ġtraansaport":7526,"Ġmidan":7527,"Ġbelt":7528,"Ġviphal":7529,"Ġburee":7530,"Ġutsaahit":7531,"Ġvailyoo":7532,"Ġbaills":7533,"Ġjitane":7534,"chaarjd":7535,"Ġkairektar":7536,"Ġtairiph":7537,"Ġsamudr":7538,"Ġphiksd":7539,"Ġsnaipachait":7540,"lambe":7541,"Ġjaagarook":7542,"Ġamaz":7543,"achchhee":7544,"huawaii":7545,"maujooda":7546,"Ġpraatham":7547,"wittair":7548,"Ġsamarthan":7549,"83":7550,"epar":7551,"jisase":7552,"naye":7553,"otem":7554,"poo":7555,"rapaan":7556,"xt":7557,"Ġkhan":7558,"Ġkhand":7559,"aapane":7560,"aaeebol":7561,"haen":7562,"Ġpaaye":7563,"Ġmm":7564,"Ġbakh":7565,"tach":7566,"Ġahasaas":7567,"aijar":7568,"Ġmesej":7569,"Ġkepata":7570,"akul":7571,"Ġlum":7572,"Ġlandan":7573,"Ġrai":7574,"Ġrait":7575,"aanusaar":7576,"esis":7577,"panasonich":7578,"Ġhold":7579,"Ġtaee":7580,"Ġsaksesar":7581,"Ġost":7582,"Ġ41":7583,"ayyar":7584,"olaid":7585,"agr":7586,"Ġprej":7587,"Ġsamaaj":7588,"Ġ69":7589,"Ġanivaar":7590,"emon":7591,"Ġstrok":7592,"stra":7593,"Ġ76":7594,"Ġaaeetee":7595,"Ġgrej":7596,"Ġplen":7597,"Ġchapet":7598,"Ġvarg":7599,"Ġsardiyon":7600,"Ġsaur":7601,"oonki":7602,"Ġeksapr":7603,"aakhir":7604,"Ġsanvaad":7605,"Ġbalb":7606,"Ġtrip":7607,"eksat":7608,"aahoo":7609,"Ġshatar":7610,"Ġvishaakhaapattanam":7611,"Ġkorteks":7612,"Ġaadhee":7613,"Ġaart":7614,"Ġvikalpon":7615,"Ġ801":7616,"Ġ808":7617,"ormeshan":7618,"Ġdarsh":7619,"Ġrikavar":7620,"Ġsamajhen":7621,"Ġ219":7622,"Ġbukhaar":7623,"Ġsilendar":7624,"Ġmasaaj":7625,"Ġpattee":7626,"phreedam":7627,"Ġaankadon":7628,"redamee":7629,"Ġ405":7630,"stamps":7631,"Ġsmail":7632,"Ġraajadhaanee":7633,"Ġprakrti":7634,"Ġloyan":7635,"Ġpank":7636,"Ġhaanikaarak":7637,"Ġ2900":7638,"Ġsteevan":7639,"Ġganvaana":7640,"à¥į":7641,"Ġvisheshagyon":7642,"Ġvaastavik":7643,"Ġspinaron":7644,"Ġmusk":7645,"Ġgusse":7646,"Ġaaloo":7647,"vitaamin":7648,"Ġmarsidee":7649,"Ġdoharaate":7650,"sarasaij":7651,"eksapeeriya":7652,"Ġkepataun":7653,"ium":7654,"jana":7655,"lik":7656,"plas":7657,"paavaraphul":7658,"Ġ/":7659,"Ġkood":7660,"Ġkaksha":7661,"hair":7662,"Ġsus":7663,"Ġpaim":7664,"Ġhare":7665,"Ġmaanee":7666,"Ġdaans":7667,"Ġdaant":7668,"onaiplus":7669,"taip":7670,"Ġkas":7671,"Ġkatak":7672,"Ġnaathan":7673,"Ġren":7674,"oobee":7675,"Ġvaaka":7676,"atr":7677,"Ġisane":7678,"Ġgaanon":7679,"Ġgaarantee":7680,"Ġulaj":7681,"Ġchikan":7682,"Ġchura":7683,"apati":7684,"Ġkhokar":7685,"aavit":7686,"Ġ425":7687,"ivaseey":7688,"Ġkaaryon":7689,"Ġpaushtik":7690,"eedan":7691,"Ġyun":7692,"Ġyoor":7693,"okalet":7694,"aakshee":7695,"aveer":7696,"emai":7697,"oorat":7698,"Ġephaj":7699,"seem":7700,"Ġdengen":7701,"Ġlekhak":7702,"vars":7703,"veeseee":7704,"Ġspaark":7705,"galane":7706,"Ġ127":7707,"Ġchad":7708,"2015":7709,"Ġphaind":7710,"Ġverients":7711,"iphorniya":7712,"oskop":7713,"sadeera":7714,"Ġbadalate":7715,"Ġdauron":7716,"astik":7717,"Ġmanaaya":7718,"Ġtherepee":7719,"Ġaark":7720,"ioes":7721,"Ġasam":7722,"Ġasembal":7723,"Ġhajaaron":7724,"Ġbhejana":7725,"adhyayan":7726,"skoda":7727,"taput":7728,"Ġsambandhon":7729,"Ġikai":7730,"penshan":7731,"Ġaadaton":7732,"Ġpanj":7733,"Ġdaayal":7734,"Ġseekhane":7735,"Ġrogon":7736,"Ġgarmiyon":7737,"Ġseedhee":7738,"Ġchhakkon":7739,"Ġjaanakaariyon":7740,"peteeem":7741,"divaalee":7742,"Ġphains":7743,"Ġekadivaseey":7744,"dinesh":7745,"Ġtodakar":7746,"Ġyoozars":7747,"Ġpenting":7748,"Ġraktadaan":7749,"yuminiyam":7750,"Ġdrop":7751,"Ġlubh":7752,"kainavas":7753,"Ġvyaktitv":7754,"bajaaj":7755,"yavaahak":7756,"rooment":7757,"maisej":7758,"zainfonai":7759,"noobiya":7760,"ballebaajee":7761,"otemment":7762,"Ġanivaary":7763,"34":7764,"achar":7765,"bor":7766,"bain":7767,"idhi":7768,"kum":7769,"khanee":7770,"mail":7771,"nai":7772,"soo":7773,"sup":7774,"Ġ*":7775,"Ġur":7776,"Ġig":7777,"Ġsolyooshan":7778,"Ġsateek":7779,"Ġhaphton":7780,"anon":7781,"anjaya":7782,"Ġbuj":7783,"tabhee":7784,"Ġais":7785,"Ġjonee":7786,"Ġjaapaanee":7787,"enaseeaar":7788,"Ġlas":7789,"Ġlod":7790,"cht":7791,"Ġnin":7792,"Ġhaara":7793,"Ġkaree":7794,"Ġphepha":7795,"asto":7796,"Ġgand":7797,"Ġnel":7798,"Ġtahal":7799,"ros":7800,"aashee":7801,"Ġkhid":7802,"Ġola":7803,"arajensee":7804,"Ġrautar":7805,"beech":7806,"Ġ3999":7807,"Ġ52":7808,"Ġnaveen":7809,"shuru":7810,"Ġdeetee":7811,"antu":7812,"Ġdilash":7813,"Ġ630":7814,"Ġanaaj":7815,"Ġrahoge":7816,"tamars":7817,"Ġbeyar":7818,"bhp":7819,"Ġpadha":7820,"Ġpeeth":7821,"Ġdhaabee":7822,"Ġsangat":7823,"Ġindas":7824,"Ġkhelega":7825,"akaratne":7826,"Ġ2010":7827,"seph":7828,"Ġsnap":7829,"aapht":7830,"Ġveelar":7831,"Ġdvipak":7832,"Ġmanapasand":7833,"Ġakhabaar":7834,"Ġesateedee":7835,"Ġsahool":7836,"aadhyaksh":7837,"sovar":7838,"Ġmalaan":7839,"Ġatyadhik":7840,"Ġmotaapa":7841,"Ġjamaane":7842,"Ġdhananjaya":7843,"Ġkaunsil":7844,"Ġutarenge":7845,"Ġgoyal":7846,"Ġpakadane":7847,"Ġshaktish":7848,"Ġphalon":7849,"silona":7850,"Ġtarbochaarjd":7851,"phesar":7852,"Ġardhashatakeey":7853,"Ġlong":7854,"Ġdeelaraship":7855,"Ġladakhada":7856,"dena":7857,"Ġdheemee":7858,"Ġpyaaj":7859,"svaip":7860,"Ġsootron":7861,"Ġvijayee":7862,"Ġtilakaratne":7863,"Ġshiksha":7864,"bikree":7865,"mejabaan":7866,"Ġaikses":7867,"Ġlaiphastail":7868,"Ġstonamain":7869,"Ġpeeriyad":7870,"Ġbaingalor":7871,"gendabaajee":7872,"Ġlisted":7873,"Ġlutph":7874,"Ġprajaat":7875,"Ġbaagador":7876,"Ġdilashaan":7877,"Ġdvipaksheey":7878,"239":7879,"599":7880,"gana":7881,"hz":7882,"hel":7883,"if":7884,"jekt":7885,"kreg":7886,"naabaad":7887,"paal":7888,"raan":7889,"rata":7890,"sol":7891,"said":7892,"Ġpune":7893,"Ġmata":7894,"Ġday":7895,"Ġajee":7896,"aartament":7897,"Ġnm":7898,"Ġhe":7899,"iket":7900,"ikyor":7901,"ilaaka":7902,"aalon":7903,"ekva":7904,"atah":7905,"aathilaaka":7906,"Ġeksarasaij":7907,"Ġchur":7908,"Ġchham":7909,"jeei":7910,"aikro":7911,"Ġjeero":7912,"ayee":7913,"Ġpaengee":7914,"elistar":7915,"Ġdeejie":7916,"Ġprov":7917,"aven":7918,"Ġsabak":7919,"omadaar":7920,"peey":7921,"Ġthahar":7922,"sahee":7923,"Ġopera":7924,"Ġkhaasakar":7925,"2018":7926,"Ġ1011":7927,"Ġkanektar":7928,"Ġdikhatee":7929,"vanade":7930,"Ġindon":7931,"Ġharaate":7932,"araphoks":7933,"Ġjalan":7934,"Ġpatakhanee":7935,"Ġmaisejej":7936,"iox":7937,"Ġbartan":7938,"kaaryavaahak":7939,"Ġovaratan":7940,"Ġshatakaveer":7941,"Ġmeel":7942,"Ġantaraashtreey":7943,"Ġbainking":7944,"enjars":7945,"Ġjamaaya":7946,"Ġsteps":7947,"pati":7948,"Ġgunaathilaaka":7949,"jaanen":7950,"Ġtamaatar":7951,"Ġrishted":7952,"Ġphors":7953,"Ġjhooth":7954,"181":7955,"Ġpareshaaniyon":7956,"Ġmarjee":7957,"Ġveeikals":7958,"Ġmadhyakram":7959,"Ġutsaah":7960,"Ġabhinetree":7961,"Ġdhoondh":7962,"Ġperara":7963,"Ġchailenjars":7964,"avidyaalay":7965,"Ġpaseene":7966,"Ġdaisirai":7967,"litrai":7968,"Ġshiping":7969,"Ġpaudhe":7970,"Ġdaravaaj":7971,"Ġdilachasp":7972,"Ġstylai":7973,"koolapaid":7974,"Ġdanushka":7975,"opanar":7976,"veedeeseee":7977,"Ġdaaromadaar":7978,"Ġbithaaya":7979,"Ġmidanait":7980,"Ġbakhoobee":7981,"kumbale":7982,"Ġbeyarasto":7983,"Ġsahooliyat":7984,"Ġshaktishaalee":7985,"bi":7986,"diyaan":7987,"ev":7988,"gaas":7989,"gionaiai":7990,"jindagee":7991,"jasapreet":7992,"met":7993,"piyo":7994,"soot":7995,"sitambar":7996,"ztai":7997,"Ġsit":7998,"Ġsvar":7999,"andar":8000,"Ġjaay":8001,"Ġlaim":8002,"Ġnasht":8003,"Ġrook":8004,"Ġkot":8005,"adaan":8006,"adek":8007,"Ġparat":8008,"Ġubaal":8009,"Ġugalane":8010,"aimar":8011,"aikshan":8012,"cham":8013,"imilee":8014,"Ġsamaapt":8015,"aakoo":8016,"Ġ89":8017,"idai":8018,"Ġseerij":8019,"usb":8020,"Ġabu":8021,"Ġskaip":8022,"udhar":8023,"Ġlagaate":8024,"Ġchalan":8025,"Ġmaitelik":8026,"ootha":8027,"phapaid":8028,"Ġvark":8029,"Ġlenge":8030,"Ġveriphikeshan":8031,"raij":8032,"Ġsaamaajik":8033,"Ġklon":8034,"Ġamolaid":8035,"Ġmukt":8036,"pheechar":8037,"Ġ640":8038,"Ġxolo":8039,"Ġvishl":8040,"jabaradast":8041,"Ġorijanal":8042,"Ġnirmaataon":8043,"Ġ1460":8044,"Ġakila":8045,"Ġ1286":8046,"ensil":8047,"Ġsaspenshan":8048,"Ġjeetaane":8049,"Ġsamajhana":8050,"Ġaayu":8051,"Ġnic":8052,"Ġsalamaan":8053,"Ġpatrika":8054,"Ġanuvaad":8055,"Ġkaraega":8056,"mahila":8057,"haardik":8058,"à¤°":8059,"taped":8060,"ibol":8061,"rananeeti":8062,"Ġraaja":8063,"Ġraajyon":8064,"Ġladake":8065,"Ġaix":8066,"Ġemabeepeees":8067,"Ġejensee":8068,"Ġintaravyoo":8069,"aantik":8070,"Ġaaguaee":8071,"hamaara":8072,"Ġhansee":8073,"beeesenel":8074,"Ġmetro":8075,"Ġthande":8076,"yootyoob":8077,"Ġjeetate":8078,"Ġriyalitee":8079,"Ġmanach":8080,"Ġdavaon":8081,"Ġmooveej":8082,"Ġgulaab":8083,"Ġjataayee":8084,"Ġinaphokas":8085,"Ġpakshiyon":8086,"Ġpaseena":8087,"Ġreedar":8088,"Ġbaareek":8089,"Ġreechaarj":8090,"92":8091,"?âĢĻ":8092,"draiv":8093,"gps":8094,"kai":8095,"kla":8096,"mis":8097,"nisaan":8098,"sd":8099,"shat":8100,"vaa":8101,"vaalee":8102,"eeko":8103,"Ġkshan":8104,"Ġsul":8105,"Ġsatar":8106,"Ġmol":8107,"Ġbok":8108,"Ġboon":8109,"Ġbingo":8110,"Ġhaipar":8111,"Ġhaiking":8112,"Ġdail":8113,"aared":8114,"Ġlaaj":8115,"Ġkayaas":8116,"Ġrep":8117,"oov":8118,"uraak":8119,"atoo":8120,"amaark":8121,"Ġphek":8122,"Ġhaing":8123,"aalik":8124,"Ġgat":8125,"Ġgahare":8126,"atak":8127,"Ġ2999":8128,"jeeee":8129,"Ġshaarp":8130,"chatail":8131,"shuroo":8132,"upachaar":8133,"Ġsamaar":8134,"ematee":8135,"Ġungal":8136,"Ġkaamak":8137,"ujik":8138,"ijm":8139,"Ġplag":8140,"Ġsarkil":8141,"Ġsanghar":8142,"Ġsanved":8143,"Ġenaal":8144,"Ġendee":8145,"Ġtraayamph":8146,"Ġadhikaansh":8147,"osieshan":8148,"Ġupaadhyaksh":8149,"Ġaadhe":8150,"Ġ960":8151,"araphes":8152,"Ġbraajeel":8153,"aansoo":8154,"Ġbharat":8155,"Ġesasee":8156,"vishv":8157,"Ġ2100":8158,"Ġnikaalee":8159,"Ġvolvo":8160,"Ġpharjee":8161,"Ġkonphrens":8162,"Ġaankhen":8163,"ookoj":8164,"samaj":8165,"Ġkrosovar":8166,"Ġbeemaariyaan":8167,"Ġladane":8168,"Ġstej":8169,"Ġstep":8170,"Ġpoochh":8171,"Ġkhushiyon":8172,"Ġneeti":8173,"Ġprashan":8174,"Ġvishvavidyaalay":8175,"Ġmaaloom":8176,"izain":8177,"Ġtumhaara":8178,"Ġembient":8179,"Ġimphotemment":8180,"Ġbagair":8181,"Ġnarendr":8182,"Ġaayaran":8183,"ateekshit":8184,"Ġmyujik":8185,"orantee":8186,"Ġphaibrik":8187,"Ġadhikaariyon":8188,"Ġsentral":8189,"edeej":8190,"Ġpratispardha":8191,"Ġasaphalata":8192,"Ġmairaathan":8193,"Ġraakhee":8194,"spesiphikeshan":8195,"Ġpratirodhak":8196,"Ġteraabait":8197,"visheshagyon":8198,"Ġikattha":8199,"Ġephajed":8200,"Ġsangharsh":8201,"51":8202,"bodee":8203,"gor":8204,"hundee":8205,"ichai":8206,"ibhaav":8207,"ji":8208,"kvaal":8209,"nis":8210,"opar":8211,"paar":8212,"renj":8213,"tree":8214,"uaar":8215,"vain":8216,"vitee":8217,"vij":8218,"vaale":8219,"Ġkaayam":8220,"haik":8221,"Ġsatah":8222,"Ġsaraphes":8223,"ino":8224,"inga":8225,"inabilt":8226,"Ġpensil":8227,"Ġdaeen":8228,"Ġjoo":8229,"Ġjikr":8230,"aardar":8231,"Ġmek":8232,"akin":8233,"Ġraam":8234,"gaya":8235,"urr":8236,"Ġtor":8237,"iko":8238,"phin":8239,"ill":8240,"Ġparl":8241,"abadee":8242,"ekar":8243,"Ġjataee":8244,"Ġinaam":8245,"Ġinebal":8246,"Ġinakam":8247,"Ġintelee":8248,"rodh":8249,"amens":8250,"Ġchenj":8251,"apor":8252,"Ġjeene":8253,"aavej":8254,"Ġaapas":8255,"Ġ4999":8256,"shaadee":8257,"upr":8258,"Ġkaarya":8259,"Ġmacha":8260,"Ġdila":8261,"iphaee":8262,"Ġteedee":8263,"sardiyon":8264,"Ġstan":8265,"Ġbaig":8266,"Ġbanata":8267,"Ġalaarm":8268,"Ġseeen":8269,"veevo":8270,"Ġspen":8271,"Ġmaikrophon":8272,"Ġgra":8273,"Ġsapor":8274,"Ġchat":8275,"ichk":8276,"Ġskreenashot":8277,"Ġpeele":8278,"Ġ160":8279,"tion":8280,"Ġphainal":8281,"Ġ2013":8282,"khoo":8283,"Ġsnaiks":8284,"oomi":8285,"Ġklab":8286,"Ġglookoj":8287,"Ġbhare":8288,"Ġ145":8289,"shay":8290,"Ġaaeephons":8291,"Ġpetent":8292,"Ġasist":8293,"Ġtumane":8294,"Ġlikhe":8295,"Ġdekho":8296,"praapt":8297,"Ġ190":8298,"Ġooparee":8299,"Ġpharst":8300,"Ġ240":8301,"Ġinstrooment":8302,"inalaind":8303,"Ġparaphekt":8304,"Ġiko":8305,"Ġdhanyavaad":8306,"Ġraiding":8307,"Ġutaarane":8308,"Ġaaraamadaayak":8309,"Ġaakhirakaar":8310,"Ġsiyaaj":8311,"Ġaautaput":8312,"Ġprosesing":8313,"Ġkitaaben":8314,"Ġdhoomrapaan":8315,"bonn":8316,"Ġpoket":8317,"jeeesatee":8318,"isakreem":8319,"bhaashay":8320,"Ġstoodents":8321,"sirph":8322,"eselaar":8323,"inaphokas":8324,"Ġpradhaanamantree":8325,"Ġyooreka":8326,"Ġindoneshiya":8327,"Ġinteleej":8328,"63":8329,"890":8330,"gold":8331,"ion":8332,"jaam":8333,"naagapur":8334,"Ġkaid":8335,"Ġkshat":8336,"aai":8337,"hase":8338,"Ġswipai":8339,"inam":8340,"Ġpolo":8341,"Ġbor":8342,"Ġbed":8343,"Ġhaip":8344,"Ġdaayan":8345,"taich":8346,"heero":8347,"Ġmele":8348,"Ġmejoo":8349,"Ġlol":8350,"chcha":8351,"Ġriph":8352,"gain":8353,"galee":8354,"Ġvaar":8355,"Ġving":8356,"Ġvaak":8357,"Ġvait":8358,"Ġvorantee":8359,"Ġhy":8360,"Ġkosm":8361,"Ġaaioes":8362,"askaar":8363,"iyaana":8364,"Ġbheed":8365,"Ġinov":8366,"etan":8367,"Ġkichan":8368,"Ġekam":8369,"Ġeksee":8370,"Ġchn":8371,"apur":8372,"apraij":8373,"leetar":8374,"chait":8375,"Ġ530":8376,"ola":8377,"Ġbadhegee":8378,"shaayad":8379,"Ġtakalee":8380,"Ġkaart":8381,"Ġphees":8382,"eedaaree":8383,"Ġdeevaan":8384,"antul":8385,"okrom":8386,"Ġmilen":8387,"aaba":8388,"eme":8389,"oorti":8390,"Ġseeriyal":8391,"peene":8392,"Ġrakam":8393,"hakti":8394,"Ġtarm":8395,"Ġintaranaishanal":8396,"Ġbadhaata":8397,"Ġchaik":8398,"Ġsauda":8399,"Ġpeena":8400,"Ġsandar":8401,"Ġmaujoodagee":8402,"ight":8403,"Ġbahupr":8404,"Ġleevar":8405,"Ġkhareedadaaree":8406,"ooman":8407,"Ġmaanga":8408,"Ġbrash":8409,"Ġpoorn":8410,"Ġxa":8411,"astaar":8412,"Ġfon":8413,"Ġbharane":8414,"Ġimport":8415,"Ġmahaan":8416,"takanee":8417,"Ġmini":8418,"traee":8419,"kaard":8420,"Ġwatchh":8421,"Ġbachaata":8422,"visheshata":8423,"Ġlaipatops":8424,"taviyar":8425,"Ġtaiping":8426,"Ġkontr":8427,"Ġummeedavaar":8428,"Ġtraansalet":8429,"Ġlahasun":8430,"à¤¸":8431,"Ġkaravaana":8432,"ideejeei":8433,"Ġchhodakar":8434,"Ġrisar":8435,"Ġsikh":8436,"Ġhedalaimp":8437,"Ġbaithak":8438,"Ġdileevar":8439,"Ġpanjee":8440,"Ġmaask":8441,"chanaatmak":8442,"Ġredee":8443,"Ġchainals":8444,"Ġvigyaan":8445,"Ġmittee":8446,"Ġoonchee":8447,"Ġdukhee":8448,"Ġsunahare":8449,"Ġkleeyar":8450,"Ġphinishing":8451,"Ġkendrit":8452,"Ġavastha":8453,"Ġsansthaan":8454,"Ġedamin":8455,"Ġshokes":8456,"Ġmaign":8457,"Ġchauthee":8458,"Ġkaamayaab":8459,"Ġpiksel":8460,"kastamars":8461,"Ġandhere":8462,"Ġostiyo":8463,"Ġeksapres":8464,"Ġsandarbh":8465,"09":8466,"320":8467,"699":8468,"ben":8469,"dv":8470,"gaar":8471,"ging":8472,"haath":8473,"jit":8474,"jay":8475,"jaane":8476,"naam":8477,"oteejee":8478,"rs":8479,"rid":8480,"sit":8481,"sth":8482,"vodaaphon":8483,"Ġkind":8484,"habord":8485,"Ġsolar":8486,"Ġsukh":8487,"Ġsingaapur":8488,"inase":8489,"anaatmak":8490,"Ġbro":8491,"Ġbaaki":8492,"yavas":8493,"Ġjukarabarg":8494,"Ġkeyar":8495,"akat":8496,"chorai":8497,"Ġkaisee":8498,"Ġnit":8499,"Ġnigar":8500,"ural":8501,"atenament":8502,"Ġty":8503,"Ġesar":8504,"Ġhp":8505,"esasee":8506,"Ġphe":8507,"Ġphis":8508,"Ġaalo":8509,"Ġaaisakreem":8510,"iyas":8511,"Ġistam":8512,"Ġparich":8513,"Ġparivar":8514,"abai":8515,"Ġgahar":8516,"Ġgaan":8517,"Ġgst":8518,"atair":8519,"Ġsaka":8520,"ains":8521,"Ġrachanaatmak":8522,"chais":8523,"Ġ54":8524,"Ġmote":8525,"eedent":8526,"Ġyaamaaha":8527,"jarooree":8528,"Ġteechar":8529,"Ġvauchar":8530,"iseelie":8531,"ujalee":8532,"Ġblach":8533,"Ġderee":8534,"Ġsarph":8535,"Ġkansol":8536,"aships":8537,"Ġphaimilee":8538,"Ġtrak":8539,"Ġtroo":8540,"akarta":8541,"Ġhaindal":8542,"garmee":8543,"Ġrobin":8544,"Ġmukesh":8545,"Ġedreeno":8546,"Ġ153":8547,"Ġredieshan":8548,"Ġaankh":8549,"Ġglaasa":8550,"Ġdekhie":8551,"Ġvolt":8552,"Ġports":8553,"Ġkilo":8554,"Ġkhula":8555,"Ġ505":8556,"Ġnyootr":8557,"Ġkastamaij":8558,"Ġkhola":8559,"Ġkalaak":8560,"Ġhedalaimps":8561,"Ġkhusha":8562,"Ġdhaniya":8563,"phrend":8564,"Ġdashak":8565,"Ġrahengee":8566,"Ġresing":8567,"Ġdaamon":8568,"Ġseekhen":8569,"Ġvaidhata":8570,"Ġsteeriyo":8571,"Ġhaidaset":8572,"silendar":8573,"tiphikeshan":8574,"Ġull":8575,"Ġmadhyam":8576,"tumhen":8577,"instol":8578,"Ġshaukeenon":8579,"jyaadaatar":8580,"Ġnakalee":8581,"Ġkoopan":8582,"Ġsartiphikeshan":8583,"Ġsartiphiket":8584,"Ġdipholt":8585,"Ġmahaaraashtr":8586,"Ġmrtyu":8587,"Ġdhoondhane":8588,"Ġdhadakan":8589,"Ġeksapendebal":8590,"Ġesesadee":8591,"Ġbahuprateekshit":8592,"Ġnigaraanee":8593,"Ġistamaal":8594,"Ġblachk":8595,"23":8596,"360":8597,"achh":8598,"dhee":8599,"duk":8600,"goo":8601,"gol":8602,"ichadee":8603,"jisakee":8604,"jaisa":8605,"kail":8606,"mek":8607,"madh":8608,"nait":8609,"oee":8610,"pm":8611,"pak":8612,"pes":8613,"ri":8614,"rn":8615,"rtj":8616,"ste":8617,"seting":8618,"vest":8619,"vaah":8620,"xolo":8621,"yaay":8622,"Ġid":8623,"eejan":8624,"Ġkaavaasaakee":8625,"aagee":8626,"Ġhath":8627,"Ġbaant":8628,"Ġdej":8629,"Ġded":8630,"Ġdib":8631,"Ġdaada":8632,"tat":8633,"Ġalee":8634,"Ġjaaya":8635,"aksee":8636,"Ġlaee":8637,"cho":8638,"churee":8639,"Ġkatee":8640,"Ġnorm":8641,"Ġrot":8642,"Ġvdai":8643,"Ġtyoon":8644,"Ġkarn":8645,"amaar":8646,"phtar":8647,"phokas":8648,"ashah":8649,"haroom":8650,"Ġgaid":8651,"orp":8652,"Ġtaivaan":8653,"Ġinheen":8654,"Ġsakengee":8655,"Ġekstra":8656,"Ġchokalet":8657,"aask":8658,"aeetee":8659,"aaphar":8660,"chat":8661,"Ġ5999":8662,"agan":8663,"Ġnahee":8664,"Ġjokh":8665,"Ġdeedeeaara":8666,"Ġprobl":8667,"Ġanaavaran":8668,"Ġanadek":8669,"ipop":8670,"ishor":8671,"usandh":8672,"iyars":8673,"Ġraksha":8674,"Ġdenim":8675,"Ġdengee":8676,"vartamaan":8677,"ujaara":8678,"Ġkahata":8679,"Ġ78":8680,"Ġgred":8681,"Ġ2030":8682,"Ġsarvar":8683,"Ġsapane":8684,"âĢĻâĢĻ":8685,"Ġeeko":8686,"daun":8687,"Ġklastar":8688,"Ġkorapor":8689,"Ġpratibandh":8690,"Ġimarajensee":8691,"Ġyoonik":8692,"Ġyooneeb":8693,"Ġgoldan":8694,"Ġhaalaat":8695,"Ġsunana":8696,"undeshan":8697,"Ġaayog":8698,"Ġmastee":8699,"Ġgraameen":8700,"Ġrojagaar":8701,"Ġmotok":8702,"Ġkros":8703,"Ġdabaane":8704,"Ġkholakar":8705,"Ġchard":8706,"Ġkism":8707,"Ġbraands":8708,"bloot":8709,"Ġkhoobiyon":8710,"Ġpanasonich":8711,"Ġmaasik":8712,"Ġkhushiyaan":8713,"puraane":8714,"Ġjhel":8715,"Ġjhurr":8716,"Ġkramashah":8717,"Ġsundarata":8718,"buks":8719,"Ġdeelars":8720,"Ġinteegreted":8721,"Ġabhineta":8722,"Ġdastaavej":8723,"Ġkitaabon":8724,"Ġregyular":8725,"porosis":8726,"Ġhansate":8727,"Ġsansthaapak":8728,"maiizu":8729,"Ġbhaavanaon":8730,"Ġtatkaal":8731,"doktar":8732,"Ġkaipesitee":8733,"Ġfachaibook":8734,"sootron":8735,"Ġekamaatr":8736,"Ġtakaleeph":8737,"Ġparivartan":8738,"Ġvdaio":8739,"79":8740,"960":8741,"bes":8742,"baink":8743,"daata":8744,"door":8745,"fair":8746,"ipal":8747,"ly":8748,"litee":8749,"lene":8750,"phal":8751,"ry":8752,"ras":8753,"taav":8754,"taasking":8755,"umaar":8756,"vyoo":8757,"yaam":8758,"Ġkaaga":8759,"Ġpay":8760,"Ġmeen":8761,"anaadu":8762,"Ġbu":8763,"Ġbesab":8764,"Ġbook":8765,"yaomee":8766,"Ġdaakh":8767,"Ġdraigan":8768,"one":8769,"Ġada":8770,"Ġjaayar":8771,"Ġjuta":8772,"Ġjooj":8773,"aaratee":8774,"Ġlaana":8775,"Ġlanch":8776,"choonki":8777,"Ġkaushal":8778,"Ġru":8779,"Ġrit":8780,"Ġraast":8781,"Ġringat":8782,"atane":8783,"Ġet":8784,"Ġeriya":8785,"Ġkaraatee":8786,"amas":8787,"esapee":8788,"Ġphyoo":8789,"Ġphaarm":8790,"adraiv":8791,"ilar":8792,"aboo":8793,"Ġupar":8794,"Ġjao":8795,"rolar":8796,"aapiksal":8797,"aavik":8798,"Ġov":8799,"deejal":8800,"Ġnazar":8801,"sheyar":8802,"Ġkaimpen":8803,"Ġkaimpas":8804,"Ġpaund":8805,"elap":8806,"Ġmohit":8807,"avhaatsep":8808,"janak":8809,"omas":8810,"ustak":8811,"Ġdosh":8812,"staar":8813,"Ġ7000":8814,"Ġspo":8815,"Ġchalaate":8816,"Ġmaital":8817,"Ġgret":8818,"Ġroopaye":8819,"Ġkhareedee":8820,"Ġ105":8821,"Ġeksaboks":8822,"Ġkanpharm":8823,"iphaayar":8824,"Ġmaddena":8825,"Ġbadalakar":8826,"Ġpahiyon":8827,"Ġsvaagat":8828,"Ġtebal":8829,"Ġaarth":8830,"Ġsurfachai":8831,"Ġwww":8832,"Ġsunee":8833,"Ġhaarmon":8834,"Ġaayurved":8835,"Ġskorpiyo":8836,"Ġsupara":8837,"Ġjangal":8838,"yalet":8839,"Ġvijan":8840,"lass":8841,"Ġbaithakar":8842,"yaark":8843,"aklooj":8844,"achchhe":8845,"Ġaidition":8846,"Ġaakaash":8847,"Ġkromabuk":8848,"asthaan":8849,"Ġsambhaavanaen":8850,"Ġhaddiyaan":8851,"Ġpoochhen":8852,"Ġprasaad":8853,"teknolojee":8854,"Ġkamajoree":8855,"disple":8856,"Ġultee":8857,"Ġbhoolen":8858,"Ġupayukt":8859,"Ġdeelaraships":8860,"Ġpostaped":8861,"Ġbyootiphikeshan":8862,"odhakarta":8863,"bataate":8864,"Ġvaataraprooph":8865,"Ġsabsakrai":8866,"avegan":8867,"Ġrivyoo":8868,"teleekom":8869,"Ġsheds":8870,"Ġkenavas":8871,"Ġchitr":8872,"Ġdomin":8873,"Ġnajadeekee":8874,"lapakaart":8875,"Ġevenjar":8876,"Ġphenk":8877,"Ġklaimet":8878,"Ġsanchaalit":8879,"amarra":8880,"Ġgaayab":8881,"soochana":8882,"Ġsatark":8883,"Ġjokhim":8884,"Ġmaddenajar":8885,"gaane":8886,"ginee":8887,"jing":8888,"jim":8889,"kad":8890,"laid":8891,"laip":8892,"mars":8893,"sikyor":8894,"tm":8895,"vis":8896,"veediyokon":8897,"Ġsaa":8898,"Ġsav":8899,"Ġsrot":8900,"Ġsleep":8901,"initee":8902,"infochus":8903,"Ġhast":8904,"Ġby":8905,"Ġbenj":8906,"Ġbita":8907,"Ġbengal":8908,"Ġbengaluru":8909,"Ġhaidar":8910,"Ġdal":8911,"tag":8912,"Ġjur":8913,"Ġjvel":8914,"entee":8915,"ental":8916,"Ġkav":8917,"Ġnadee":8918,"Ġrestor":8919,"Ġvas":8920,"Ġvir":8921,"Ġvaakee":8922,"aanti":8923,"amit":8924,"amel":8925,"adisk":8926,"ietar":8927,"ekh":8928,"Ġudaan":8929,"Ġ1999":8930,"tarik":8931,"Ġtain":8932,"Ġbheem":8933,"aadoo":8934,"Ġchoo":8935,"Ġkama":8936,"apej":8937,"Ġkhaam":8938,"ukaam":8939,"deel":8940,"Ġbhp":8941,"Ġpheet":8942,"thiyon":8943,"jaroorat":8944,"Ġprophesar":8945,"Ġanushka":8946,"avaan":8947,"oma":8948,"peeai":8949,"Ġlekh":8950,"Ġendraid":8951,"Ġbaarsilona":8952,"Ġbachana":8953,"Ġ728":8954,"Ġspa":8955,"Ġstoree":8956,"Ġbecheen":8957,"Ġpadhana":8958,"Ġmaarooti":8959,"kart":8960,"Ġsaum":8961,"Ġmodarn":8962,"Ġutsar":8963,"umakin":8964,"Ġphilips":8965,"Ġbike":8966,"Ġindi":8967,"Ġphab":8968,"Ġkhadee":8969,"Ġaasha":8970,"adeh":8971,"Ġrotee":8972,"Ġgeegaah":8973,"Ġbataur":8974,"Ġmukti":8975,"Ġkorpor":8976,"Ġfor":8977,"gret":8978,"Ġsvatantr":8979,"tanaav":8980,"Ġimphotenament":8981,"aphesabuk":8982,"Ġvaigan":8983,"ramit":8984,"Ġprodekt":8985,"Ġnikhaar":8986,"Ġjanata":8987,"Ġminaton":8988,"prooph":8989,"Ġsinema":8990,"Ġvirodh":8991,"Ġkhulane":8992,"Ġbanegee":8993,"Ġabhaav":8994,"Ġejuk":8995,"Ġlions":8996,"Ġstebalaijeshan":8997,"Ġpahanana":8998,"Ġphans":8999,"Ġvotsaip":9000,"Ġkaanoon":9001,"Ġmaalaveyar":9002,"7731":9003,"Ġdhone":9004,"Ġkhojane":9005,"Ġmethee":9006,"sony":9007,"Ġtalaas":9008,"haneey":9009,"Ġrodhee":9010,"Ġphutabol":9011,"Ġphutaviyar":9012,"amparik":9013,"Ġmobilitee":9014,"Ġbhookamp":9015,"bhaavastha":9016,"Ġpixails":9017,"Ġprastaav":9018,"Ġnibhaane":9019,"Ġpratidvan":9020,"Ġedamaayar":9021,"Ġechemadee":9022,"Ġvhaatsaip":9023,"enshiyal":9024,"Ġagranee":9025,"Ġdaayamand":9026,"Ġdaayamenshan":9027,"Ġeksatarnal":9028,"Ġnateeja":9029,"Ġtreetament":9030,"vheelar":9031,"Ġchaunkaane":9032,"Ġparivahan":9033,"Ġelarjee":9034,"Ġprotsaahit":9035,"Ġdharatee":9036,"Ġnijaat":9037,"Ġpaimaane":9038,"Ġbujurg":9039,"Ġkareebee":9040,"Ġsangathan":9041,"Ġsamaaroh":9042,"Ġgaharaee":9043,"Ġproblam":9044,"01":9045,"76":9046,"790":9047,"gvej":9048,"him":9049,"ktar":9050,"kod":9051,"kabhaar":9052,"nikon":9053,"pich":9054,"pooree":9055,"raas":9056,"sus":9057,"tiphaid":9058,"vaala":9059,"vaach":9060,"wch":9061,"zz":9062,"zed":9063,"Ġkaaj":9064,"Ġpaiga":9065,"Ġmwch":9066,"Ġbin":9067,"Ġbot":9068,"Ġdav":9069,"Ġdaadee":9070,"Ġjaij":9071,"aix":9072,"Ġmegaap":9073,"Ġkek":9074,"Ġnan":9075,"alaind":9076,"Ġkarv":9077,"Ġphork":9078,"adaasht":9079,"asam":9080,"ild":9081,"abeer":9082,"Ġgaharee":9083,"Ġghabar":9084,"ekchar":9085,"Ġtail":9086,"Ġtaphapaid":9087,"yooro":9088,"Ġchaand":9089,"app":9090,"Ġkhujalee":9091,"Ġkhichadee":9092,"Ġjeete":9093,"aavashyak":9094,"Ġsher":9095,"Ġ56":9096,"Ġpahana":9097,"Ġpachhaad":9098,"Ġyaatr":9099,"Ġsameeksha":9100,"Ġyooke":9101,"aakaat":9102,"Ġ62":9103,"ula":9104,"ipkart":9105,"oorn":9106,"eriyo":9107,"Ġbaadha":9108,"Ġseeree":9109,"ushee":9110,"Ġvayas":9111,"Ġtaral":9112,"vajah":9113,"Ġmaiken":9114,"Ġmaikron":9115,"staart":9116,"Ġbahan":9117,"parinaam":9118,"oothee":9119,"Ġbadhaana":9120,"Ġdinachar":9121,"Ġkharaabee":9122,"Ġkanaada":9123,"Ġ1600":9124,"Ġbataana":9125,"Ġleeph":9126,"Ġaasamaan":9127,"Ġinjanon":9128,"Ġmemaree":9129,"Ġklip":9130,"Ġsuz":9131,"Ġbatae":9132,"Ġbred":9133,"Ġbritish":9134,"yakti":9135,"Ġ15000":9136,"Ġoriyo":9137,"eebat":9138,"Ġkriet":9139,"Ġsvaabh":9140,"Ġakshar":9141,"bandee":9142,"eena":9143,"jaega":9144,"aandhee":9145,"Ġpoint":9146,"traans":9147,"Ġzar":9148,"Ġlenevo":9149,"aadhaar":9150,"Ġsupreem":9151,"Ġbandal":9152,"Ġbilakul":9153,"Ġnigam":9154,"Ġpatthar":9155,"Ġ2400":9156,"braan":9157,"Ġphailon":9158,"Ġlaen":9159,"Ġantariksh":9160,"Ġnyooyork":9161,"Ġpakshee":9162,"ithi":9163,"Ġchamair":9164,"Ġophisar":9165,"Ġsekendaree":9166,"laiph":9167,"khaasakar":9168,"aicho":9169,"Ġsachin":9170,"Ġqhd":9171,"Ġ2700":9172,"bineshan":9173,"Ġlonchar":9174,"huvaave":9175,"Ġgambheerata":9176,"Ġbuddh":9177,"Ġegree":9178,"Ġelateepeees":9179,"baalon":9180,"instold":9181,"ation":9182,"play":9183,"Ġjatil":9184,"Ġsatr":9185,"Ġpraarambh":9186,"adhikatar":9187,"Ġastitv":9188,"Ġasaphal":9189,"Ġtamilanaadu":9190,"Ġtaajagee":9191,"Ġjaasoos":9192,"Ġchikitsa":9193,"Ġedajast":9194,"vyaayaam":9195,"Ġphaayaraphoks":9196,"Ġjaagarookata":9197,"Ġlubhaane":9198,"Ġgandagee":9199,"Ġnaveenatam":9200,"Ġajeeb":9201,"Ġsanvedanasheel":9202,"Ġkosmetik":9203,"Ġmotokorp":9204,"Ġraaston":9205,"Ġhaidaraabaad":9206,"Ġpaigasus":9207,"350":9208,"43":9209,"87":9210,"850":9211,"achchha":9212,"bs":9213,"bara":9214,"bhale":9215,"baadee":9216,"dd":9217,"diya":9218,"kvik":9219,"lad":9220,"let":9221,"leks":9222,"maatr":9223,"rad":9224,"ringing":9225,"tor":9226,"tveet":9227,"tesla":9228,"vaane":9229,"Ġaanch":9230,"Ġkaa":9231,"Ġkendreey":9232,"Ġsoda":9233,"Ġpoon":9234,"Ġpolee":9235,"Ġmur":9236,"Ġmint":9237,"ishee":9238,"Ġdizain":9239,"Ġkem":9240,"Ġlaap":9241,"Ġlos":9242,"Ġleyar":9243,"Ġkash":9244,"Ġnas":9245,"Ġnfch":9246,"Ġnayee":9247,"Ġvh":9248,"alaava":9249,"Ġhin":9250,"Ġher":9251,"Ġkarmach":9252,"amai":9253,"phoksavaigan":9254,"aataavind":9255,"panon":9256,"Ġui":9257,"ito":9258,"Ġtaitan":9259,"iyog":9260,"atach":9261,"yooes":9262,"Ġsakht":9263,"aadha":9264,"Ġchol":9265,"Ġshaahar":9266,"beete":9267,"teebee":9268,"teesh":9269,"Ġnaheen":9270,"Ġapanaakar":9271,"Ġmotee":9272,"thodee":9273,"Ġjoging":9274,"jarmanee":9275,"Ġpros":9276,"ailitee":9277,"ipaid":9278,"Ġbanate":9279,"usamen":9280,"Ġjariya":9281,"Ġskaee":9282,"vahee":9283,"Ġdohara":9284,"Ġspekt":9285,"Ġchalenge":9286,"yaada":9287,"Ġgrepha":9288,"karsh":9289,"asanee":9290,"Ġdivelap":9291,"Ġsartiphaid":9292,"Ġlenee":9293,"Ġchhaan":9294,"Ġkanekted":9295,"raich":9296,"uma":9297,"Ġdikhen":9298,"Ġdikhate":9299,"Ġbanaegee":9300,"Ġphaundeshan":9301,"akaree":9302,"Ġbeeseeseeaee":9303,"Ġaaspekt":9304,"Ġmaanak":9305,"Ġrochak":9306,"Ġbataega":9307,"apradesh":9308,"Ġpaarts":9309,"Ġsarvaadhik":9310,"Ġaadesh":9311,"ronik":9312,"Ġyooneek":9313,"Ġesosieshan":9314,"Ġapadets":9315,"Ġkantrolar":9316,"Ġpuraskaar":9317,"Ġdikhaana":9318,"Ġkshamataon":9319,"Ġsets":9320,"Ġkaibin":9321,"Ġgarbhaashay":9322,"Ġkainavaas":9323,"Ġganit":9324,"Ġartha":9325,"Ġakaunts":9326,"saphaee":9327,"à¤ķ":9328,"Ġhaldee":9329,"Ġrojamarra":9330,"Ġsambhaavit":9331,"Ġkalaee":9332,"Ġabhibhaav":9333,"Ġshopaklooj":9334,"Ġangon":9335,"Ġsachchaee":9336,"Ġhaddee":9337,"Ġretina":9338,"poorv":9339,"Ġmonokrom":9340,"Ġmaraathee":9341,"Ġanokhee":9342,"haidret":9343,"Ġpolish":9344,"Ġdukaan":9345,"Ġladakiyaan":9346,"snaipad":9347,"dijital":9348,"Ġpremiyon":9349,"ilektroniks":9350,"Ġhairaanee":9351,"Ġduo":9352,"Ġdevidasan":9353,"jeeesem":9354,"Ġrajistard":9355,"teeveees":9356,"Ġjionee":9357,"Ġaltraapiksal":9358,"Ġsentrik":9359,"tharaitis":9360,"Ġmulaayam":9361,"Ġmulaakaat":9362,"Ġkamyunikeshan":9363,"Ġkiranon":9364,"Ġnaakaam":9365,"Ġjaasoosee":9366,"Ġnekst":9367,"Ġrikaarding":9368,"Ġsukoon":9369,"Ġkeemata":9370,"Ġdrshti":9371,"Ġjhanj":9372,"Ġsantusht":9373,"olojist":9374,"agnishan":9375,"Ġpraathamikata":9376,"Ġikaiyon":9377,"Ġkhidakee":9378,"Ġgraund":9379,"visheshataon":9380,"usandhaan":9381,"Ġyooneebodee":9382,"Ġbesabree":9383,"Ġjaayaroskop":9384,"Ġyaatriyon":9385,"Ġdinacharya":9386,"Ġsvaabhaavik":9387,"braaniks":9388,"Ġkarmachaaree":9389,"):":9390,"540":9391,"750":9392,"baahar":9393,"eaee":9394,"fps":9395,"ghan":9396,"get":9397,"hp":9398,"lat":9399,"luk":9400,"mad":9401,"ni":9402,"non":9403,"ptar":9404,"rain":9405,"sek":9406,"set":9407,"sub":9408,"swipai":9409,"vat":9410,"vheel":9411,"ych":9412,"Ġiy":9413,"Ġpyoor":9414,"Ġbhat":9415,"Ġbmw":9416,"Ġdat":9417,"taig":9418,"Ġjut":9419,"akaast":9420,"Ġvis":9421,"Ġteksat":9422,"Ġeaar":9423,"Ġsevar":9424,"Ġhep":9425,"Ġkaroon":9426,"Ġkolar":9427,"phaayar":9428,"Ġisame":9429,"Ġgajab":9430,"Ġguj":9431,"oramens":9432,"Ġinv":9433,"Ġinsp":9434,"Ġ260":9435,"aade":9436,"Ġeksesareej":9437,"anem":9438,"Ġchin":9439,"Ġchint":9440,"Ġjeelaind":9441,"aavan":9442,"Ġshvaas":9443,"deej":9444,"Ġbadhe":9445,"Ġapanaane":9446,"iran":9447,"iksar":9448,"Ġemadee":9449,"Ġsampoorn":9450,"Ġ699":9451,"Ġstaaya":9452,"Ġstrai":9453,"Ġstets":9454,"Ġepee":9455,"Ġunn":9456,"Ġjarman":9457,"Ġskrab":9458,"Ġdop":9459,"varsh":9460,"Ġphran":9461,"Ġbeta":9462,"Ġgrast":9463,"Ġchaimp":9464,"oondai":9465,"Ġpeetar":9466,"Ġdikhe":9467,"Ġpratiyog":9468,"Ġsimpal":9469,"Ġphaik":9470,"Ġphaikt":9471,"daf":9472,"yaani":9473,"Ġkolam":9474,"maus":9475,"Ġame":9476,"Ġmaheena":9477,"Ġfirai":9478,"Ġpaaramparik":9479,"Ġrejistent":9480,"Ġkrooj":9481,"Ġ143":9482,"Ġ144":9483,"Ġmano":9484,"Ġitalee":9485,"Ġvaibr":9486,"Ġsunen":9487,"Ġvidaio":9488,"Ġlikhen":9489,"Ġmeediyaapaid":9490,"hyoondai":9491,"Ġmasaala":9492,"Ġtopik":9493,"briten":9494,"Ġphailen":9495,"Ġkaraegee":9496,"Ġmix":9497,"maikroesadee":9498,"yoonar":9499,"Ġmajaboor":9500,"Ġnikalate":9501,"Ġmotorol":9502,"Ġraajasthaan":9503,"Ġudaaharan":9504,"Ġvyaav":9505,"Ġmalteetaasking":9506,"Ġdraee":9507,"Ġstetament":9508,"Ġrakhega":9509,"Ġheldee":9510,"patnee":9511,"Ġnikaalen":9512,"Ġjedi":9513,"Ġpankh":9514,"Ġolaid":9515,"Ġdaayariya":9516,"ugaatee":9517,"Ġpals":9518,"Ġrogiyon":9519,"Ġbhaageedaaree":9520,"Ġkhaanapaan":9521,"Ġsmaartavaach":9522,"Ġenteebaayot":9523,"Ġshaimpoo":9524,"Ġphoksavegan":9525,"Ġsoochanaen":9526,"Ġsiddh":9527,"Ġpichhala":9528,"2160":9529,"krom":9530,"Ġthandar":9531,"Ġooncha":9532,"Ġwifi":9533,"Ġyogyata":9534,"Ġajay":9535,"Ġvilen":9536,"Ġyooropiyan":9537,"instaagraam":9538,"Ġtaigar":9539,"aankhon":9540,"Ġnarvas":9541,"Ġishaara":9542,"Ġchamakadaar":9543,"Ġgulaabee":9544,"Ġtyohaaree":9545,"Ġdevalapament":9546,"Ġshanivaar":9547,"Ġdaishabord":9548,"Ġilaake":9549,"julata":9550,"Ġgailaksee":9551,"Ġdhaarana":9552,"Ġoparetars":9553,"Ġobjekt":9554,"Ġnajadeek":9555,"Ġanupaat":9556,"Ġkandeeshanar":9557,"Ġvastu":9558,"aitouchh":9559,"sensar":9560,"Ġpriyanka":9561,"Ġraashtrapati":9562,"Ġviyarebal":9563,"varseshan":9564,"borginee":9565,"Ġignis":9566,"Ġchhamaahee":9567,"avenchar":9568,"Ġostiyoporosis":9569,"Ġaalochana":9570,"daunalod":9571,"Ġjvelaree":9572,"Ġrestorent":9573,"Ġcholor":9574,"Ġshaaharukh":9575,"Ġgrephait":9576,"Ġjhanjhat":9577,"Ġiyaraphon":9578,"56":9579,"7000":9580,"97":9581,":-":9582,"apana":9583,"baaree":9584,"hindee":9585,"krt":9586,"nav":9587,"naicht":9588,"pit":9589,"raashtreey":9590,"roope":9591,"sait":9592,"von":9593,"wn":9594,"wind":9595,"Ġkishor":9596,"Ġsok":9597,"Ġsud":9598,"inai":9599,"Ġpanee":9600,"Ġmaa":9601,"Ġbard":9602,"Ġbsnl":9603,"isame":9604,"Ġdharm":9605,"Ġahan":9606,"Ġjun":9607,"Ġjinda":9608,"aiya":9609,"akchar":9610,"Ġlaas":9611,"chen":9612,"Ġnaaran":9613,"Ġvok":9614,"alit":9615,"atv":9616,"Ġsele":9617,"Ġhoo":9618,"iketar":9619,"Ġphut":9620,"adaata":9621,"Ġaais":9622,"Ġaaaik":9623,"Ġaadar":9624,"Ġaauta":9625,"asoon":9626,"abam":9627,"haron":9628,"Ġgahara":9629,"Ġgin":9630,"itr":9631,"ataik":9632,"Ġkid":9633,"Ġeka":9634,"Ġekseen":9635,"Ġchor":9636,"apepar":9637,"Ġkhaamee":9638,"Ġshish":9639,"Ġshyaam":9640,"Ġ4500":9641,"beeseeseeaee":9642,"Ġbhaaga":9643,"ivaanee":9644,"Ġprachaar":9645,"Ġkaarrav":9646,"iming":9647,"Ġmaje":9648,"Ġdilaane":9649,"Ġyooai":9650,"okt":9651,"ogn":9652,"Ġ66":9653,"Ġ620":9654,"ulin":9655,"Ġsabs":9656,"peel":9657,"pada":9658,"vard":9659,"stet":9660,"hama":9661,"Ġspre":9662,"ijon":9663,"karane":9664,"Ġ12999":9665,"Ġchab":9666,"Ġchadh":9667,"Ġchaudee":9668,"Ġvarun":9669,"Ġsarphes":9670,"Ġsarapraij":9671,"Ġchhil":9672,"ĠâĢĺâĢĺ":9673,"Ġdhaansoo":9674,"Ġenjoy":9675,"arshal":9676,"Ġ2011":9677,"kanekt":9678,"Ġgeet":9679,"Ġamej":9680,"voyas":9681,"Ġmukh":9682,"Ġ649":9683,"Ġpaasaport":9684,"Ġkhila":9685,"Ġora":9686,"Ġ1400":9687,"Ġmanam":9688,"Ġimx":9689,"Ġimpr":9690,"riyata":9691,"Ġaantarik":9692,"Ġasantul":9693,"Ġkantree":9694,"Ġnambaron":9695,"Ġwatair":9696,"Ġsamajhad":9697,"Ġdikhaate":9698,"Ġteknolojeej":9699,"telait":9700,"Ġvidh":9701,"Ġgarv":9702,"Ġyaadadaasht":9703,"Ġtelalaimps":9704,"Ġpramaan":9705,"Ġritelars":9706,"vensee":9707,"Ġbhaga":9708,"tvs":9709,"Ġpaidal":9710,"Ġbainds":9711,"tailik":9712,"Ġuthaen":9713,"555":9714,"Ġutaaregee":9715,"Ġsona":9716,"Ġvijual":9717,"Ġkailiphorniya":9718,"Ġghataane":9719,"Ġbobar":9720,"Ġvisheshataur":9721,"777":9722,"Ġvheels":9723,"Ġbaing":9724,"Ġhataaya":9725,"Ġmithaee":9726,"Ġdikhae":9727,"Ġdukaatee":9728,"à¥ĩ":9729,"Ġdhoen":9730,"Ġregular":9731,"Ġphoolon":9732,"Ġtraival":9733,"Ġdevalapars":9734,"Ġdipaartament":9735,"Ġpropheshanals":9736,"Ġmarsedeej":9737,"Ġmembaraship":9738,"pratyek":9739,"suraksha":9740,"Ġgaardan":9741,"Ġeksataranal":9742,"preemiyam":9743,"Ġaashchar":9744,"staind":9745,"Ġmujhase":9746,"Ġmandir":9747,"aastrakchar":9748,"Ġriekshan":9749,"Ġchoolpad":9750,"Ġbraitanes":9751,"ianchai":9752,"Ġgunagune":9753,"Ġtohapha":9754,"Ġpashchim":9755,"Ġomega":9756,"Ġgreju":9757,"Ġnichale":9758,"Ġsarphing":9759,"Ġpratiyogita":9760,"Ġekseenos":9761,"93":9762,"ding":9763,"duniyaabhar":9764,"ibr":9765,"kis":9766,"kaip":9767,"khala":9768,"lon":9769,"lyf":9770,"mod":9771,"mirai":9772,"mhz":9773,"roo":9774,"rim":9775,"rast":9776,"sis":9777,"tt":9778,"tyoon":9779,"vs":9780,"vot":9781,"vaay":9782,"ver":9783,"Ġ=":9784,"Ġkana":9785,"aachh":9786,"aaaip":9787,"aaiye":9788,"arilaayans":9789,"Ġpdaf":9790,"Ġment":9791,"Ġbhala":9792,"istemaal":9793,"yash":9794,"Ġdain":9795,"taj":9796,"Ġjashn":9797,"heer":9798,"Ġmetailik":9799,"Ġlaiks":9800,"Ġnah":9801,"Ġrap":9802,"Ġtaask":9803,"Ġhaathee":9804,"Ġkome":9805,"Ġphevar":9806,"Ġaaikon":9807,"Ġpari":9808,"aba":9809,"aalan":9810,"iek":9811,"Ġget":9812,"hans":9813,"iyaar":9814,"yood":9815,"yoomee":9816,"aadesh":9817,"aamaany":9818,"aasiya":9819,"Ġkhuraak":9820,"aavanee":9821,"aavalee":9822,"Ġoaeees":9823,"Ġ330":9824,"Ġ550":9825,"Ġtol":9826,"Ġnavar":9827,"Ġpraan":9828,"Ġpaegee":9829,"edikal":9830,"Ġjopo":9831,"Ġdeeeselaar":9832,"Ġemp":9833,"Ġemee":9834,"ulakar":9835,"avan":9836,"Ġsabjee":9837,"uttar":9838,"Ġsthal":9839,"Ġbanen":9840,"usaka":9841,"Ġabs":9842,"Ġskript":9843,"Ġdenee":9844,"kaheen":9845,"Ġrangee":9846,"Ġlagaam":9847,"hamesha":9848,"Ġaaeen":9849,"Ġmaarg":9850,"Ġgrip":9851,"Ġgraaph":9852,"Ġchaina":9853,"Ġsapanon":9854,"apeedee":9855,"Ġuthane":9856,"Ġjabard":9857,"Ġekson":9858,"Ġeksatee":9859,"Ġchhid":9860,"Ġsenk":9861,"Ġdikhana":9862,"Ġsande":9863,"Ġapanaen":9864,"Ġeeema":9865,"Ġtrel":9866,"Ġonabord":9867,"Ġkliyar":9868,"Ġklaint":9869,"Ġmaans":9870,"Ġelyuminiyam":9871,"Ġlebal":9872,"Ġbadalana":9873,"Ġkorn":9874,"Ġkvaadechadee":9875,"Ġ155":9876,"Ġumda":9877,"Ġhaalat":9878,"Ġ309":9879,"Ġ3080":9880,"Ġzoom":9881,"Ġbolate":9882,"Ġsurkh":9883,"behad":9884,"Ġsunaee":9885,"Ġiseelie":9886,"Ġrikagnishan":9887,"Ġvajanee":9888,"prs":9889,"Ġsileriyo":9890,"Ġsaabun":9891,"Ġkaiy":9892,"skool":9893,"Ġgaram":9894,"Ġlauta":9895,"Ġkhulega":9896,"yogee":9897,"Ġjodakar":9898,"Ġchhodane":9899,"Ġudaas":9900,"Ġmalteemeediya":9901,"Ġnikaalakar":9902,"Ġbechainee":9903,"Ġphorch":9904,"Ġneksan":9905,"Ġkombineshan":9906,"jenaphon":9907,"eemiya":9908,"Ġindastreej":9909,"haidreshan":9910,"Ġrasoee":9911,"Ġphrendalee":9912,"Ġthandee":9913,"Ġaimi":9914,"à¥Ģ":9915,"Ġsigaret":9916,"Ġdaudane":9917,"Ġnaio":9918,"Ġvyaapak":9919,"Ġvyaapaaree":9920,"Ġghatanaon":9921,"Ġmuseebat":9922,"mbps":9923,"Ġchhavi":9924,"Ġaarajeebee":9925,"Ġipad":9926,"Ġiraada":9927,"Ġstaibalaijeshan":9928,"Ġdaitasan":9929,"Ġkaatane":9930,"Ġlakadee":9931,"Ġkamyunikeshans":9932,"Ġmachchharon":9933,"ophis":9934,"Ġchaudaee":9935,"Ġagravaal":9936,"Ġpaanchaven":9937,"Ġchennee":9938,"ablooveejeee":9939,"entain":9940,"Ġamazon":9941,"Ġlumi":9942,"Ġmarsideej":9943,"Ġphephadon":9944,"Ġkaartoon":9945,"sitent":9946,"Ġkalaakaaron":9947,"Ġkarnaatak":9948,"Ġaarthik":9949,"Ġpyooriphaayar":9950,"Ġpaneer":9951,"Ġnaarangee":9952,"Ġkomedee":9953,"yoomeeniyam":9954,"240":9955,"baakee":9956,"iai":9957,"jaish":9958,"kaaphee":9959,"kayaas":9960,"laal":9961,"maee":9962,"maata":9963,"natee":9964,"rait":9965,"sail":9966,"thak":9967,"ĠâĢĻ":9968,"Ġikon":9969,"Ġkaata":9970,"Ġsd":9971,"Ġsoon":9972,"intee":9973,"Ġpaath":9974,"Ġphand":9975,"Ġpustak":9976,"Ġhak":9977,"Ġbak":9978,"Ġbaand":9979,"isko":9980,"Ġdaish":9981,"Ġdaag":9982,"Ġaph":9983,"Ġjheel":9984,"Ġkeral":9985,"akripshan":9986,"Ġlakee":9987,"Ġloon":9988,"Ġkaph":9989,"Ġnaiv":9990,"Ġrooph":9991,"urai":9992,"ataap":9993,"Ġtes":9994,"Ġedee":9995,"Ġkobaal":9996,"phed":9997,"Ġphaas":9998,"Ġparamishan":9999,"abooj":10000,"Ġgaay":10001,"Ġgprs":10002,"ortar":10003,"Ġub":10004,"Ġhosh":10005,"Ġtait":10006,"Ġinfochus":10007,"phonais":10008,"Ġchch":10009,"Ġchmos":10010,"Ġphont":10011,"aphar":10012,"aeeeph":10013,"Ġjeena":10014,"arachar":10015,"Ġshaak":10016,"Ġshort":10017,"Ġshyaomee":10018,"Ġraund":10019,"beeemadablyoo":10020,"teey":10021,"Ġbhoore":10022,"Ġpray":10023,"Ġtakar":10024,"els":10025,"elasee":10026,"thon":10027,"Ġ617":10028,"Ġmilaan":10029,"Ġanush":10030,"Ġpahaloo":10031,"otom":10032,"emee":10033,"Ġungalee":10034,"Ġvazan":10035,"Ġskraich":10036,"Ġyaheen":10037,"Ġtarn":10038,"Ġjaanata":10039,"iyojana":10040,"Ġdev":10041,"Ġdelee":10042,"pareeksha":10043,"hamee":10044,"ijja":10045,"Ġbadhega":10046,"Ġpadate":10047,"Ġchash":10048,"Ġdeka":10049,"Ġdaphtar":10050,"Ġsareek":10051,"Ġsahakar":10052,"Ġsena":10053,"Ġpeek":10054,"igra":10055,"Ġeem":10056,"Ġeemaan":10057,"khel":10058,"istr":10059,"Ġelabam":10060,"Ġelyoomeeniyam":10061,"Ġ96":10062,"Ġ97":10063,"Ġamoled":10064,"Ġmukad":10065,"Ġ2560":10066,"Ġsharaab":10067,"Ġfraiai":10068,"Ġsote":10069,"Ġsochana":10070,"Ġ154":10071,"Ġpaart":10072,"oleevud":10073,"gren":10074,"grah":10075,"Ġmanush":10076,"Ġakshay":10077,"Ġimyoon":10078,"alpik":10079,"Ġnotis":10080,"Ġaartharaitis":10081,"Ġsahej":10082,"Ġopareshan":10083,"Ġaajaadee":10084,"Ġaajama":10085,"Ġdarasal":10086,"Ġlikhana":10087,"Ġlikhakar":10088,"Ġrakhenge":10089,"prabhaav":10090,"prashn":10091,"Ġkone":10092,"itabit":10093,"Ġesayooveej":10094,"Ġeksazed":10095,"Ġvyaktigat":10096,"Ġsuparakaar":10097,"Ġlae":10098,"Ġsaamaanon":10099,"Ġantaraal":10100,"Ġchune":10101,"ookolar":10102,"Ġbadhaen":10103,"Ġmausamee":10104,"Ġupayogita":10105,"à¤¾":10106,"makaast":10107,"Ġinglish":10108,"motorol":10109,"Ġcharchit":10110,"Ġreetveet":10111,"Ġhedalait":10112,"Ġparaphoramens":10113,"Ġkisaan":10114,"Ġejens":10115,"Ġraidar":10116,"quai":10117,"Ġsthaanon":10118,"Ġopaning":10119,"Ġpahachaanane":10120,"Ġgunjaish":10121,"Ġahamiyat":10122,"Ġturbo":10123,"Ġgova":10124,"Ġparaphormensh":10125,"Ġpaison":10126,"Ġpareshaaniyaan":10127,"ubai":10128,"Ġbijanas":10129,"Ġmaalish":10130,"Ġretro":10131,"Ġaakarshan":10132,"Ġsudhaarane":10133,"Ġupayok":10134,"Ġvistrt":10135,"Ġaatma":10136,"Ġaimui":10137,"Ġsahayogee":10138,"Ġvigyaapanon":10139,"Ġflipkart":10140,"Ġshikaayaten":10141,"Ġdevalapar":10142,"badal":10143,"Ġpaalatoo":10144,"Ġataich":10145,"Ġkhulee":10146,"Ġbaitariyon":10147,"Ġgadabadee":10148,"Ġsaadhe":10149,"Ġnaaraaj":10150,"Ġsolid":10151,"--------------------------------":10152,"Ġtootane":10153,"Ġmichrosoft":10154,"Ġdokyooments":10155,"Ġtraanjekshan":10156,"Ġinjekshan":10157,"Ġneelaamee":10158,"Ġchetaavanee":10159,"bhaagiyon":10160,"Ġentaratenament":10161,"Ġgaiar":10162,"shiba":10163,"Ġkamyoonikeshan":10164,"Ġdhokha":10165,"Ġghutane":10166,"Ġbekaar":10167,"supar":10168,"sephtee":10169,"Ġdaravaaje":10170,"Ġsulaj":10171,"Ġungaliyon":10172,"Ġhyundee":10173,"lenevo":10174,"3000":10175,"899":10176,"aya":10177,"gul":10178,"gaalee":10179,"getiv":10180,"hed":10181,"hom":10182,"ial":10183,"joon":10184,"jaahir":10185,"kaan":10186,"kais":10187,"nol":10188,"nish":10189,"neks":10190,"neshanal":10191,"oga":10192,"pais":10193,"paraph":10194,"saat":10195,"uvan":10196,"vr":10197,"vatee":10198,"wi":10199,"Ġkm":10200,"Ġkup":10201,"Ġkoope":10202,"Ġsaim":10203,"Ġsne":10204,"Ġsaaha":10205,"Ġpun":10206,"Ġpot":10207,"Ġmaath":10208,"Ġmaaph":10209,"Ġboom":10210,"Ġbaag":10211,"ischar":10212,"Ġdiye":10213,"Ġatr":10214,"Ġaphord":10215,"Ġaupachaar":10216,"ench":10217,"akha":10218,"Ġkada":10219,"Ġkahenge":10220,"Ġraee":10221,"Ġrid":10222,"alar":10223,"ataal":10224,"atti":10225,"Ġtyoo":10226,"Ġtaavar":10227,"Ġhaad":10228,"Ġkarant":10229,"adin":10230,"adars":10231,"adaabaad":10232,"Ġaaengee":10233,"Ġaaibol":10234,"ahej":10235,"Ġparahej":10236,"Ġgaajar":10237,"Ġhod":10238,"iyaam":10239,"rojan":10240,"robot":10241,"Ġsakriyata":10242,"Ġekting":10243,"Ġchorai":10244,"Ġkamarshal":10245,"dhr":10246,"Ġkhit":10247,"Ġkhinch":10248,"chail":10249,"teeta":10250,"agaanv":10251,"Ġpraikt":10252,"shaak":10253,"Ġpahane":10254,"therepee":10255,"Ġmaun":10256,"aakarshak":10257,"Ġsabaka":10258,"utubai":10259,"sarve":10260,"Ġsten":10261,"Ġstop":10262,"Ġstron":10263,"Ġstrot":10264,"oorvak":10265,"Ġbanaayee":10266,"Ġrahakar":10267,"Ġepp":10268,"peetee":10269,"Ġthai":10270,"Ġrahit":10271,"kaut":10272,"Ġblar":10273,"Ġ799":10274,"ude":10275,"pars":10276,"Ġranabeer":10277,"Ġaaeetyoon":10278,"Ġstorai":10279,"kig":10280,"Ġmaite":10281,"Ġbadhaatee":10282,"bhinn":10283,"Ġpadhate":10284,"Ġmaarane":10285,"Ġ123":10286,"Ġdekhata":10287,"Ġphlor":10288,"Ġbaikalit":10289,"Ġeksasee":10290,"Ġkanvarseshan":10291,"Ġselibr":10292,"Ġbanaega":10293,"Ġeevee":10294,"Ġindiketar":10295,"Ġphaundar":10296,"Ġtraayal":10297,"kanjyoom":10298,"Ġonaitouchh":10299,"majee":10300,"Ġveelars":10301,"Ġmaangee":10302,"Ġmaanakon":10303,"Ġelim":10304,"Ġelapeedee":10305,"Ġghir":10306,"lekhaneey":10307,"Ġchaarjig":10308,"Ġsarvekshan":10309,"Ġorenj":10310,"ikalee":10311,"Ġpatalee":10312,"Ġpreevyoo":10313,"Ġgharon":10314,"Ġpratibad":10315,"Ġaanval":10316,"Ġbarlin":10317,"Ġ11999":10318,"vishesh":10319,"aastree":10320,"Ġbadalaavon":10321,"Ġsile":10322,"Ġsilk":10323,"yanaka":10324,"Ġkaiphe":10325,"Ġ2450":10326,"Ġ2008":10327,"à¤¿":10328,"Ġnukasaanadeh":10329,"venyoo":10330,"Ġchaits":10331,"Ġeksapaind":10332,"Ġladaee":10333,"Ġkooling":10334,"Ġskaining":10335,"Ġkyoob":10336,"Ġbaitha":10337,"Ġuthaate":10338,"dhaarth":10339,"yoomar":10340,"551":10341,"innee":10342,"Ġadmirai":10343,"Ġnishaana":10344,"Ġnishkarsh":10345,"puraanee":10346,"Ġinsta":10347,"chehare":10348,"Ġpalsar":10349,"Ġphormoola":10350,"Ġkomars":10351,"Ġkontent":10352,"Ġausatan":10353,"Ġkvolitee":10354,"Ġkahaaniyaan":10355,"huaave":10356,"Ġsabjekt":10357,"Ġpeedeeeph":10358,"Ġkontekts":10359,"444":10360,"Ġtools":10361,"Ġmachhal":10362,"Ġkadaahee":10363,"aangulee":10364,"klik":10365,"klaas":10366,"Ġaaliya":10367,"Ġsansthaanon":10368,"Ġdogunee":10369,"Ġpokemon":10370,"Ġvyavasthit":10371,"Ġsamudree":10372,"Ġdeepika":10373,"Ġbaanta":10374,"saamaany":10375,"Ġvhaats":10376,"Ġchautha":10377,"Ġpaudhon":10378,"Ġchhuttee":10379,"Ġaphavaa":10380,"Ġmanjooree":10381,"niyamit":10382,"phitanes":10383,"********":10384,"Ġraina":10385,"Ġniyaam":10386,"Ġmaidiataik":10387,"Ġphotograaphar":10388,"Ġsusaid":10389,"shuruaat":10390,"Ġmanachaahee":10391,"jionee":10392,"haikars":10393,"Ġhaippee":10394,"Ġlolipop":10395,"Ġchng":10396,"Ġringaton":10397,"laipatop":10398,"sikyoritee":10399,"Ġejukeshan":10400,"Ġhepetaitis":10401,"Ġamezan":10402,"Ġaaaiktaakor":10403,"Ġmenten":10404,"Ġjabardast":10405,"Ġeeemayooaee":10406,"Ġphorchyoonar":10407,"02":10408,"1000":10409,"120":10410,"150":10411,"2000":10412,"250":10413,"550":10414,"950":10415,"by":10416,"baap":10417,"bra":10418,"ero":10419,"gra":10420,"iquai":10421,"jet":10422,"jun":10423,"min":10424,"men":10425,"mun":10426,"phan":10427,"pyaar":10428,"soor":10429,"vair":10430,"vaag":10431,"Ġkun":10432,"Ġking":10433,"aaain":10434,"Ġsy":10435,"Ġsaan":10436,"Ġpig":10437,"Ġpyor":10438,"Ġhala":10439,"Ġdaak":10440,"Ġdaave":10441,"tasvee":10442,"Ġapeel":10443,"aaradee":10444,"Ġlivai":10445,"Ġkais":10446,"Ġnyoon":10447,"Ġriyo":10448,"Ġvaan":10449,"Ġvaaya":10450,"Ġveting":10451,"Ġvyas":10452,"Ġvimaan":10453,"Ġeaee":10454,"Ġseb":10455,"Ġhtt":10456,"amareeka":10457,"amaikro":10458,"aden":10459,"Ġaaair":10460,"Ġaakal":10461,"asaathee":10462,"Ġpariyojana":10463,"ietiv":10464,"Ġgeschar":10465,"Ġgaandhee":10466,"Ġuchh":10467,"Ġuda":10468,"itiv":10469,"Ġhokee":10470,"Ġjaya":10471,"Ġink":10472,"aamik":10473,"Ġchutak":10474,"Ġchesis":10475,"Ġkamaane":10476,"aped":10477,"tejee":10478,"Ġray":10479,"leen":10480,"Ġ3400":10481,"chaineej":10482,"uka":10483,"Ġ599":10484,"Ġbhoon":10485,"she":10486,"Ġmoj":10487,"Ġmoischar":10488,"iry":10489,"thoda":10490,"lechadee":10491,"Ġyaahoo":10492,"aakhe":10493,"Ġanusandhaan":10494,"avain":10495,"avich":10496,"aabes":10497,"aabol":10498,"sarphar":10499,"janon":10500,"Ġbangaalee":10501,"omik":10502,"Ġalph":10503,"Ġseedee":10504,"agadh":10505,"agast":10506,"Ġtarang":10507,"Ġrahaane":10508,"kamee":10509,"kampan":10510,"Ġdephin":10511,"veer":10512,"Ġlagen":10513,"Ġaaeeped":10514,"Ġaaeeaeetee":10515,"Ġbechana":10516,"yaadi":10517,"Ġmaidam":10518,"Ġbadhaayee":10519,"saphed":10520,"karata":10521,"Ġ129":10522,"Ġples":10523,"aidal":10524,"Ġvegaas":10525,"Ġpeeem":10526,"Ġsansk":10527,"igeshan":10528,"Ġphaitee":10529,"Ġtraind":10530,"khaana":10531,"eksap":10532,"Ġhariyaana":10533,"Ġkhareede":10534,"Ġsaamp":10535,"Ġaman":10536,"voint":10537,"Ġnov":10538,"Ġapek":10539,"Ġrejal":10540,"eebrid":10541,"greshan":10542,"ahaalaanki":10543,"Ġif":10544,"Ġnots":10545,"takon":10546,"Ġaarambh":10547,"Ġminaral":10548,"Ġmaarshamelo":10549,"Ġassitent":10550,"Ġrikvest":10551,"Ġvidyaar":10552,"Ġlikhee":10553,"Ġnikaale":10554,"kohal":10555,"ivaarik":10556,"Ġtabdeel":10557,"Ġsalaad":10558,"mpl":10559,"braand":10560,"Ġtraansal":10561,"Ġphailaane":10562,"Ġ170":10563,"Ġlaun":10564,"vev":10565,"à¤ĵ":10566,"Ġatom":10567,"Ġrokath":10568,"Ġsms":10569,"Ġkromakaast":10570,"rtti":10571,"Ġreem":10572,"Ġreedh":10573,"Ġreeyal":10574,"Ġbaithate":10575,"kalar":10576,"Ġuthaana":10577,"Ġpooja":10578,"Ġseeten":10579,"vasth":10580,"anghan":10581,"Ġutarane":10582,"aatri":10583,"teenon":10584,"Ġdaayare":10585,"Ġbob":10586,"asthiti":10587,"Ġvotsep":10588,"Ġparisth":10589,"Ġkheenchee":10590,"Ġdiskavaree":10591,"Ġdikkaton":10592,"ametal":10593,"Ġsiddhaarth":10594,"jena":10595,"Ġ3340":10596,"kampaas":10597,"Ġmuno":10598,"Ġkahaaniyon":10599,"Ġbaayo":10600,"Ġbaayom":10601,"Ġdonktar":10602,"Ġphulechadee":10603,"Ġutsuk":10604,"Ġbihaar":10605,"Ġyogy":10606,"Ġdurust":10607,"Ġdheema":10608,"lagjaree":10609,"undary":10610,"Ġanumaanit":10611,"risar":10612,"Ġchopada":10613,"ĠĠĠĠĠĠĠĠĠĠĠĠĠĠĠĠ":10614,"Ġaautalet":10615,"Ġchandrama":10616,"Ġsmartphonai":10617,"Ġjaie":10618,"Ġprivyoo":10619,"eedeejeeee":10620,"Ġvaikseen":10621,"Ġvaikalpik":10622,"Ġkaamayaabee":10623,"rajistreshan":10624,"Ġbeejing":10625,"Ġkutte":10626,"Ġamitaabh":10627,"Ġimphraared":10628,"Ġimphraastrakchar":10629,"Ġnaashte":10630,"Ġkhangaal":10631,"Ġvishleshan":10632,"misaal":10633,"Ġdeevaanon":10634,"Ġkindal":10635,"Ġparichaalan":10636,"Ġullanghan":10637,"esapeee":10638,"Ġovara":10639,"lassich":10640,"Ġdominar":10641,"Ġbengaluroo":10642,"Ġutsarjan":10643,"applai":10644,"teeshiyan":10645,"subishee":10646,"Ġbhatt":10647,"Ġstaayalas":10648,"Ġaadarsh":10649,"inteeriyar":10650,"ataapoorvak":10651,"Ġkhitaab":10652,"Ġhalachal":10653,"Ġaakalan":10654,"Ġrokathaam":10655,"59":10656,"520":10657,"768":10658,"aqu":10659,"du":10660,"fin":10661,"fon":10662,"gak":10663,"gaan":10664,"gaadee":10665,"gment":10666,"jor":10667,"jag":10668,"laar":10669,"lip":10670,"ltai":10671,"ms":10672,"myoojik":10673,"michro":10674,"naar":10675,"ova":10676,"pe":10677,"paayar":10678,"phalee":10679,"rakshan":10680,"saar":10681,"sos":10682,"saaph":10683,"tb":10684,"uee":10685,"uchch":10686,"vaakar":10687,"vaahan":10688,"Ġ)":10689,"Ġ[":10690,"Ġkyooveejeee":10691,"aae":10692,"Ġshat":10693,"Ġsum":10694,"Ġpes":10695,"Ġpijja":10696,"Ġhakee":10697,"Ġbiyar":10698,"ong":10699,"oniya":10700,"Ġjid":10701,"Ġjaadoo":10702,"Ġlaakar":10703,"Ġlaast":10704,"Ġlivar":10705,"chural":10706,"Ġkahe":10707,"Ġkahakar":10708,"Ġkavach":10709,"Ġnok":10710,"Ġritar":10711,"Ġrukh":10712,"gaut":10713,"Ġvs":10714,"Ġves":10715,"alab":10716,"alaiph":10717,"Ġtya":10718,"Ġten":10719,"Ġtyoob":10720,"Ġtithi":10721,"Ġseshan":10722,"Ġkaroonga":10723,"phestiv":10724,"adam":10725,"asaimasang":10726,"asheel":10727,"ilik":10728,"Ġparv":10729,"Ġparya":10730,"orth":10731,"eko":10732,"itanee":10733,"Ġtathy":10734,"Ġtaingo":10735,"Ġkireen":10736,"apha":10737,"Ġjeens":10738,"Ġshesh":10739,"Ġshuddh":10740,"uki":10741,"Ġbadhana":10742,"agir":10743,"Ġprasan":10744,"shaam":10745,"Ġkaarbo":10746,"ateei":10747,"aakor":10748,"Ġ660":10749,"Ġ830":10750,"Ġdisordar":10751,"Ġdiskaun":10752,"emel":10753,"Ġstichk":10754,"Ġalaav":10755,"Ġjarnal":10756,"hakaaree":10757,"Ġleksas":10758,"orts":10759,"Ġbaarakod":10760,"veeaar":10761,"Ġphresh":10762,"Ġ79":10763,"Ġaaeeseesee":10764,"Ġspai":10765,"galat":10766,"balee":10767,"bhut":10768,"bhaavana":10769,"Ġmaare":10770,"Ġplait":10771,"Ġchap":10772,"Ġsarason":10773,"Ġkansal":10774,"Ġseling":10775,"Ġsentee":10776,"Ġpeete":10777,"umr":10778,"Ġ135":10779,"Ġsangh":10780,"iged":10781,"Ġbikeen":10782,"akaaron":10783,"Ġphaila":10784,"Ġtripal":10785,"Ġbeen":10786,"oothe":10787,"istens":10788,"802":10789,"Ġupavaas":10790,"aahaar":10791,"garmiyon":10792,"Ġmaanyata":10793,"Ġdetaavind":10794,"Ġtaijan":10795,"Ġbadalen":10796,"Ġbadalatee":10797,"Ġbren":10798,"Ġfz":10799,"Ġapach":10800,"Ġjinako":10801,"alains":10802,"Ġphreek":10803,"keval":10804,"Ġmanch":10805,"Ġoks":10806,"Ġdaalata":10807,"Ġkampyoo":10808,"Ġhueen":10809,"Ġyoonivars":10810,"Ġshreevaastav":10811,"Ġbaraten":10812,"Ġ3020":10813,"Ġ3050":10814,"Ġdaunaloding":10815,"Ġzed":10816,"Ġwr":10817,"Ġsunate":10818,"Ġtareek":10819,"glaadesh":10820,"Ġbhejata":10821,"pradesh":10822,"Ġsilas":10823,"Ġsilikon":10824,"Ġvindoja":10825,"Ġsaiton":10826,"Ġ249":10827,"Ġpradarshit":10828,"Ġkaindee":10829,"Ġtokyo":10830,"Ġjeevanasaathee":10831,"Ġbadhae":10832,"Ġ4050":10833,"haaron":10834,"jost":10835,"Ġandaroonee":10836,"Ġroka":10837,"Ġlaingvej":10838,"Ġnikalana":10839,"Ġbesiks":10840,"ibilitee":10841,"Ġityaadi":10842,"Ġdabaakar":10843,"Ġlakshyon":10844,"Ġjamakar":10845,"Ġabhiv":10846,"Ġsekands":10847,"Ġmalteepal":10848,"Ġpahanakar":10849,"Ġgalatiyon":10850,"sakon":10851,"emesema":10852,"Ġgunon":10853,"Ġresipee":10854,"Ġresistent":10855,"Ġsankramit":10856,"Ġinsteeta":10857,"etasarphar":10858,"selkan":10859,"Ġbhaagon":10860,"Ġyooropeey":10861,"Ġmileg":10862,"Ġsochata":10863,"Ġklach":10864,"Ġskoolon":10865,"Ġephasee":10866,"Ġpaisenjars":10867,"Ġaaidal":10868,"Ġburaee":10869,"Ġrasaayan":10870,"Ġutsav":10871,"amparaagat":10872,"Ġprokseem":10873,"Ġflamai":10874,"Ġdavaen":10875,"Ġimphormeshan":10876,"Ġsailaree":10877,"Ġghatanaen":10878,"Ġmuskar":10879,"Ġpholoars":10880,"Ġgudagaanv":10881,"theek":10882,"nyooyork":10883,"ampara":10884,"Ġshikshak":10885,"Ġdomen":10886,"Ġgailaree":10887,"Ġjimmedaariyon":10888,"Ġhimmat":10889,"Ġmujh":10890,"Ġmanjil":10891,"Ġenimeshan":10892,"Ġquad":10893,"Ġsuvidhaajanak":10894,"digree":10895,"Ġmajaak":10896,"Ġninja":10897,"mahilaon":10898,"Ġinteleejens":10899,"Ġkhushaboo":10900,"dukaatee":10901,"Ġkoraporet":10902,"Ġjhurriyaan":10903,"Ġjoojh":10904,"Ġphyoochar":10905,"Ġforchai":10906,"Ġdaval":10907,"Ġpoonam":10908,"Ġdikhengee":10909,"Ġabhibhaavak":10910,"Ġphaiktree":10911,"Ġthandarab":10912,"Ġkidanee":10913,"Ġekaunt":10914,"Ġkaarravaee":10915,"Ġrangeen":10916,"Ġkuposhan":10917,"Ġaaeetyoons":10918,"Ġniyaamak":10919,"Ġuchhaal":10920,"Ġrejalyooshan":10921,"Ġparisthiti":10922,"Ġhakeekat":10923,"Ġprokseemitee":10924,")-":10925,"73":10926,"91":10927,"aha":10928,"boot":10929,"det":10930,"eg":10931,"ejee":10932,"evil":10933,"gre":10934,"kara":10935,"kvaad":10936,"loo":10937,"ling":10938,"list":10939,"landan":10940,"mch":10941,"mair":10942,"matalab":10943,"masal":10944,"nad":10945,"nair":10946,"ovar":10947,"paikt":10948,"twittair":10949,"vast":10950,"wu":10951,"yual":10952,"za":10953,"Ġ$":10954,"aaap":10955,"aaid":10956,"aachal":10957,"aring":10958,"Ġsteev":10959,"Ġsaavan":10960,"intel":10961,"Ġpit":10962,"Ġhaeebrid":10963,"andee":10964,"Ġbistar":10965,"Ġbaaz":10966,"Ġhait":10967,"Ġhaikar":10968,"Ġdaad":10969,"onomas":10970,"taphon":10971,"Ġjah":10972,"Ġjaam":10973,"Ġjhad":10974,"Ġmeg":10975,"akol":10976,"akumaar":10977,"Ġlin":10978,"chi":10979,"chek":10980,"chaaval":10981,"Ġnaap":10982,"oodee":10983,"alkaatel":10984,"aton":10985,"Ġtish":10986,"Ġhen":10987,"Ġkareena":10988,"ikyoo":10989,"pho":10990,"Ġphish":10991,"ashan":10992,"Ġparampara":10993,"aaleen":10994,"Ġgs":10995,"Ġgt":10996,"Ġgu":10997,"Ġghee":10998,"ekabaar":10999,"Ġnegetiv":11000,"Ġtaga":11001,"Ġinova":11002,"yoos":11003,"Ġaapatti":11004,"Ġrajan":11005,"been":11006,"beeem":11007,"Ġ3600":11008,"Ġ365":11009,"chair":11010,"tees":11011,"teeriyal":11012,"Ġ58":11013,"deezal":11014,"deemal":11015,"Ġprateek":11016,"shop":11017,"upayog":11018,"Ġapanaaya":11019,"elidee":11020,"isebal":11021,"Ġyor":11022,"Ġpropar":11023,"Ġdilaata":11024,"Ġyooth":11025,"âĢľ":11026,"Ġ61":11027,"Ġ8000":11028,"ult":11029,"otiv":11030,"uto":11031,"Ġteeyoovee":11032,"Ġteechars":11033,"Ġstrip":11034,"Ġbanaavat":11035,"aayars":11036,"aayurved":11037,"Ġbaadh":11038,"seeel":11039,"Ġskel":11040,"Ġskrol":11041,"Ġbaatharoom":11042,"Ġ73":11043,"Ġspaim":11044,"Ġspraid":11045,"Ġchalana":11046,"Ġchalakar":11047,"ijinal":11048,"Ġsaalagir":11049,"Ġsarkal":11050,"Ġphlop":11051,"neta":11052,"2010":11053,"Ġutane":11054,"Ġutaaree":11055,"Ġuttaree":11056,"Ġuthata":11057,"Ġdivaison":11058,"totaip":11059,"Ġchaarakol":11060,"Ġselyular":11061,"estik":11062,"Ġsenchuree":11063,"Ġpeepeeai":11064,"Ġ1300":11065,"ashaalee":11066,"Ġenajee":11067,"Ġsnaan":11068,"garm":11069,"maj":11070,"Ġveer":11071,"Ġelyoom":11072,"Ġ98":11073,"Ġghus":11074,"Ġamooman":11075,"Ġtaichh":11076,"Ġbhaarateeyon":11077,"areeb":11078,"Ġsnaipadrai":11079,"aston":11080,"andal":11081,"andhak":11082,"Ġilektraan":11083,"Ġbhartee":11084,"ikala":11085,"Ġ1499":11086,"Ġimoshan":11087,"Ġkamphart":11088,"Ġvaiphai":11089,"Ġaaeephona":11090,"tres":11091,"Ġ306":11092,"Ġziox":11093,"Ġasth":11094,"Ġasaamaany":11095,"Ġlaitin":11096,"Ġkarodon":11097,"Ġbachaaya":11098,"Ġvidya":11099,"spais":11100,"glo":11101,"tivai":11102,"Ġbhejakar":11103,"Ġvolapepar":11104,"bahan":11105,"Ġsaabut":11106,"Ġvidhi":11107,"Ġpattiyon":11108,"Ġ2009":11109,"Ġtvs":11110,"Ġganametal":11111,"Ġkhulakar":11112,"Ġbainkon":11113,"sambhav":11114,"sambandh":11115,"Ġjodana":11116,"uteen":11117,"yamantree":11118,"Ġprabhaavashaalee":11119,"Ġsmok":11120,"Ġpakaane":11121,"Ġchhoden":11122,"Ġrisk":11123,"Ġkhole":11124,"Ġkholana":11125,"Ġudaasee":11126,"Ġvitteey":11127,"Ġchalaen":11128,"aravaahee":11129,"achaap":11130,"achaanak":11131,"Ġkavars":11132,"Ġdekhenge":11133,"Ġbitaate":11134,"Ġoled":11135,"Ġpaayalat":11136,"Ġuthae":11137,"Ġpopyular":11138,"Ġsonam":11139,"Ġrespons":11140,"Ġpravaah":11141,"Ġpey":11142,"Ġ653":11143,"Ġkhaansee":11144,"utakee":11145,"Ġsambhaavanaon":11146,"Ġenteeoks":11147,"Ġvivaran":11148,"poore":11149,"Ġpahunchate":11150,"Ġjhatake":11151,"6580":11152,"diskaunt":11153,"Ġprayaason":11154,"Ġbainar":11155,"Ġmunaapha":11156,"Ġloncha":11157,"Ġdoktaron":11158,"antararaashtreey":11159,"Ġdraivars":11160,"Ġkinaaron":11161,"Ġsailent":11162,"Ġshumaar":11163,"Ġbhaavanaatmak":11164,"Ġmudde":11165,"Ġbladai":11166,"Ġbulet":11167,"Ġbulaaya":11168,"Ġmainyual":11169,"Ġgeegaahartaj":11170,"Ġiris":11171,"Ġjanmadin":11172,"Ġkoshikaen":11173,"Ġrobotiks":11174,"Ġinaphinitee":11175,"Ġbrodakaast":11176,"Ġchomp":11177,"Ġmembars":11178,"Ġchhipa":11179,"Ġvenyoo":11180,"Ġdablyooaar":11181,"Ġtaalamel":11182,"Ġkiranen":11183,"Ġchaude":11184,"Ġdaravaaja":11185,"Ġchhuttiyon":11186,"Ġdijee":11187,"Ġnimn":11188,"Ġanupam":11189,"Ġshrrn":11190,"Ġmoovament":11191,"bairry":11192,"Ġichchhuk":11193,"Ġveekend":11194,"Ġnaakhoonon":11195,"Ġnaashta":11196,"Ġyuniquai":11197,"Ġpanjaab":11198,"ross":11199,"Ġprajaati":11200,"Ġprovaidar":11201,"Ġrishtedaar":11202,"Ġsitaaron":11203,"klaud":11204,"kvaalitee":11205,"Ġjoote":11206,"khoob":11207,"yavastha":11208,"blootooth":11209,"Ġkaagaj":11210,"Ġspoilar":11211,"Ġsaahas":11212,"Ġspektram":11213,"Ġsandeh":11214,"Ġnaivigeshan":11215,"Ġstrong":11216,"Ġnyoonatam":11217,"Ġtraansaleshan":11218,"michrosoft":11219,"Ġinsteetayoot":11220,"masalan":11221,"Ġshrrnkhala":11222,"08":11223,"530":11224,"860":11225,"bait":11226,"dim":11227,"del":11228,"drai":11229,"dila":11230,"drag":11231,"gon":11232,"gem":11233,"gair":11234,"ghaat":11235,"gaij":11236,"guru":11237,"jopo":11238,"jukaam":11239,"lais":11240,"loleepop":11241,"laiv":11242,"md":11243,"mor":11244,"nam":11245,"otee":11246,"pth":11247,"pul":11248,"praiv":11249,"rin":11250,"rup":11251,"rant":11252,"somavaar":11253,"ten":11254,"tok":11255,"vaaya":11256,"vip":11257,"vaanee":11258,"yaap":11259,"yot":11260,"Ġ@":11261,"eepee":11262,"Ġsod":11263,"Ġsleek":11264,"Ġsaakaar":11265,"Ġpaat":11266,"Ġpyoo":11267,"Ġbs":11268,"Ġbaee":11269,"Ġblee":11270,"Ġbhand":11271,"Ġbrok":11272,"Ġbaeen":11273,"ishen":11274,"Ġhail":11275,"Ġdaane":11276,"Ġdub":11277,"takareeb":11278,"Ġaiv":11279,"Ġjiksar":11280,"aie":11281,"aitee":11282,"aited":11283,"Ġkeyoovee":11284,"akanee":11285,"akhabar":11286,"Ġlaar":11287,"Ġloop":11288,"Ġkaishal":11289,"Ġron":11290,"Ġrist":11291,"oopar":11292,"Ġvg":11293,"Ġvoo":11294,"Ġvitar":11295,"uratalab":11296,"alchatail":11297,"ator":11298,"atrel":11299,"Ġtaad":11300,"Ġtir":11301,"Ġtang":11302,"Ġhaayar":11303,"Ġhicha":11304,"Ġkopar":11305,"amaana":11306,"adaba":11307,"Ġaaye":11308,"Ġaabaadee":11309,"Ġisapar":11310,"ahol":11311,"Ġparantu":11312,"aalam":11313,"hars":11314,"Ġgaar":11315,"Ġgum":11316,"Ġgif":11317,"orld":11318,"Ġuj":11319,"taraan":11320,"Ġtaist":11321,"Ġtailee":11322,"atavar":11323,"yoosee":11324,"Ġsakee":11325,"Ġkids":11326,"Ġchlassich":11327,"Ġchutakee":11328,"Ġkaments":11329,"apa":11330,"aaphat":11331,"Ġkhet":11332,"Ġkhaaya":11333,"Ġkhaatee":11334,"aindar":11335,"Ġshiv":11336,"Ġshaah":11337,"Ġshodhakarta":11338,"Ġ4199":11339,"leement":11340,"chasp":11341,"Ġ520":11342,"agair":11343,"Ġbhigo":11344,"upt":11345,"edis":11346,"Ġsamaachaar":11347,"oke":11348,"oging":11349,"oglo":11350,"Ġmilaaya":11351,"Ġanda":11352,"Ġanaavashyak":11353,"ullekhaneey":11354,"Ġsabakee":11355,"onchh":11356,"Ġstaaph":11357,"ida":11358,"eriya":11359,"Ġskils":11360,"Ġrakhanee":11361,"Ġrakhegee":11362,"Ġdengoo":11363,"agati":11364,"Ġtarj":11365,"baroo":11366,"varkig":11367,"chche":11368,"Ġmaiksim":11369,"Ġlagava":11370,"hep":11371,"Ġpheecharsis":11372,"Ġchalaana":11373,"indi":11374,"phaundar":11375,"Ġgraasiya":11376,"Ġchauda":11377,"Ġkaardabord":11378,"Ġkhaasee":11379,"Ġlenaden":11380,"2014":11381,"ojen":11382,"Ġdinabhar":11383,"Ġeksis":11384,"Ġdhaara":11385,"Ġpratim":11386,"Ġsanjay":11387,"Ġeetee":11388,"Ġtrookolar":11389,"osemand":11390,"Ġdijit":11391,"Ġharakat":11392,"Ġupasthiti":11393,"Ġkold":11394,"Ġmaano":11395,"Ġmaanata":11396,"Ġmaanatee":11397,"Ġ92":11398,"areekee":11399,"Ġchukaane":11400,"Ġeditar":11401,"Ġsharton":11402,"vidiyo":11403,"aprail":11404,"Ġfee":11405,"Ġpahie":11406,"Ġbharana":11407,"Ġbharamaar":11408,"Ġbharosemand":11409,"grej":11410,"Ġkampoj":11411,"Ġyoonait":11412,"Ġaarkit":11413,"Ġministree":11414,"Ġtaimar":11415,"traayamph":11416,"Ġbarn":11417,"Ġbarphee":11418,"Ġbolakar":11419,"Ġlaiting":11420,"post":11421,"Ġlikhate":11422,"Ġdikhaatee":11423,"sophtaveyar":11424,"Ġmaukon":11425,"italee":11426,"Ġpatte":11427,"Ġ1700":11428,"Ġlaega":11429,"Ġlaegee":11430,"abeeaee":11431,"ookhe":11432,"veb":11433,"Ġchipaka":11434,"kular":11435,"Ġyaadagaar":11436,"Ġnikalee":11437,"Ġbanega":11438,"Ġdabadaba":11439,"eelaind":11440,"Ġchhodate":11441,"Ġladakon":11442,"149":11443,"Ġbraanded":11444,"chitr":11445,"Ġkabj":11446,"eshakon":11447,"Ġaadaten":11448,"Ġkharchon":11449,"Ġahamadaabaad":11450,"552":11451,"Ġphanatach":11452,"Ġsonaakshee":11453,"Ġadbhut":11454,"Ġneem":11455,"Ġneela":11456,"Ġneemb":11457,"ugaat":11458,"Ġinsaanon":11459,"Ġinsulin":11460,"1800":11461,"Ġsteekar":11462,"Ġektiva":11463,"Ġrimoov":11464,"Ġsephaayar":11465,"Ġenteena":11466,"Ġlaidar":11467,"Ġvishvasanee":11468,"Ġveliditee":11469,"Ġphainens":11470,"Ġdhaman":11471,"Ġpostar":11472,"Ġroobaroo":11473,"Ġsahamati":11474,"phliks":11475,"ĠâĢĵ":11476,"Ġlakshanon":11477,"snaip":11478,"dijaayar":11479,"Ġprophit":11480,"Ġperents":11481,"Ġnibhaata":11482,"Ġkairiyar":11483,"uxus":11484,"Ġpoketasarphar":11485,"htt":11486,"Ġdaimej":11487,"Ġchomio":11488,"Ġnirdeshan":11489,"aingair":11490,"Ġkristal":11491,"bajat":11492,"Ġasthama":11493,"Ġgrahon":11494,"Ġsookhe":11495,"Ġpletinam":11496,"Ġsaindavich":11497,"Ġtyohaaron":11498,"Ġchupachaap":11499,"Ġkursee":11500,"Ġbinduon":11501,"Ġsantushti":11502,"Ġkhulegee":11503,"Ġxzs":11504,"Ġerar":11505,"Ġphotograaph":11506,"Ġpanjaabee":11507,"Ġmatailik":11508,"Ġsabakuchh":11509,"Ġriphresh":11510,"Ġvaaky":11511,"Ġtarminal":11512,"takaneek":11513,"Ġpanjeekaran":11514,"Ġbroshar":11515,"Ġtypai":11516,"abairee":11517,"achhid":11518,"step":11519,"Ġnormal":11520,"Ġuparokt":11521,"Ġsabsakraibar":11522,"Ġjurmaana":11523,"Ġlekhika":11524,"snaipadeel":11525,"Ġinspaayar":11526,"navambar":11527,"Ġbhagavaan":11528,"Ġaashchary":11529,"Ġapheyar":11530,"igrahan":11531,"alabdh":11532,"Ġprasann":11533,"Ġphreekvensee":11534,"Ġjahaaj":11535,"ikyootiv":11536,"Ġsnaipadraigana":11537,"global":11538,"dilachasp":11539,"takareeban":11540,"oglobin":11541,"Ġneemboo":11542,"410":11543,"74":11544,"78":11545,"84":11546,"810":11547,"ax":11548,"bud":11549,"bbe":11550,"badh":11551,"daaya":11552,"haad":11553,"ken":11554,"laksh":11555,"loomiya":11556,"moo":11557,"moglobin":11558,"ost":11559,"ount":11560,"pos":11561,"raast":11562,"vaib":11563,"yant":11564,"zaar":11565,"zaree":11566,"ees":11567,"eeaee":11568,"Ġkik":11569,"Ġkhal":11570,"Ġkra":11571,"aaait":11572,"aacheen":11573,"haip":11574,"Ġsr":11575,"Ġsaata":11576,"Ġsind":11577,"inheen":11578,"Ġpil":11579,"Ġhab":11580,"Ġmumakin":11581,"Ġbya":11582,"Ġbaas":11583,"Ġbid":11584,"Ġboos":11585,"Ġbhad":11586,"Ġdiy":11587,"Ġdisebal":11588,"tatha":11589,"takh":11590,"Ġjel":11591,"Ġjadee":11592,"aioch":11593,"ented":11594,"akaim":11595,"akap":11596,"akiyon":11597,"akasar":11598,"Ġliv":11599,"Ġrr":11600,"Ġraakh":11601,"Ġraajee":11602,"Ġruteen":11603,"Ġvet":11604,"Ġvaisee":11605,"urit":11606,"Ġtw":11607,"Ġedeeshan":11608,"Ġsegment":11609,"Ġkaraayee":11610,"Ġkarbonn":11611,"Ġkoted":11612,"amaaree":11613,"phaast":11614,"phinalaind":11615,"Ġaabh":11616,"Ġaatha":11617,"Ġaaeediya":11618,"ilahaal":11619,"aaloo":11620,"Ġgod":11621,"Ġgupta":11622,"iyaapaid":11623,"Ġ280":11624,"Ġchaav":11625,"Ġchheen":11626,"aist":11627,"aiksee":11628,"Ġkhin":11629,"Ġjeen":11630,"Ġoth":11631,"Ġoeleedee":11632,"Ġshub":11633,"Ġaapasee":11634,"Ġaapoorti":11635,"Ġbhaap":11636,"Ġbhoot":11637,"ivud":11638,"Ġpragati":11639,"upalabdh":11640,"Ġmotiv":11641,"geet":11642,"Ġjoy":11643,"Ġdeeel":11644,"Ġdeels":11645,"Ġdeehaidreshan":11646,"lem":11647,"Ġemishan":11648,"Ġemadablyoo":11649,"Ġpheecharon":11650,"Ġprototaip":11651,"enteshan":11652,"Ġ899":11653,"Ġansh":11654,"oting":11655,"utop":11656,"Ġdist":11657,"Ġdisplay":11658,"Ġbaadaam":11659,"Ġseemos":11660,"padhane":11661,"agal":11662,"agam":11663,"agauratalab":11664,"Ġtarak":11665,"Ġdoshee":11666,"varana":11667,"veep":11668,"stop":11669,"Ġ71":11670,"Ġaaeeeph":11671,"sesaree":11672,"ijy":11673,"indus":11674,"Ġvarkaut":11675,"Ġsarkit":11676,"Ġphlaim":11677,"Ġphleks":11678,"raha":11679,"Ġsaundary":11680,"Ġmodai":11681,"Ġmodam":11682,"oone":11683,"Ġuthakar":11684,"Ġdinar":11685,"Ġeksent":11686,"Ġkand":11687,"Ġadhigrahan":11688,"Ġachchount":11689,"Ġpeela":11690,"Ġdhvan":11691,"Ġnaamee":11692,"Ġsantar":11693,"Ġenaseeaar":11694,"Ġphiltars":11695,"igrast":11696,"Ġbikee":11697,"Ġtrek":11698,"Ġechadeeemai":11699,"Ġaasan":11700,"Ġkhareedaar":11701,"Ġ9000":11702,"Ġ930":11703,"Ġrohan":11704,"voy":11705,"Ġchukaanee":11706,"Ġvarjans":11707,"Ġapair":11708,"meer":11709,"Ġpaarivaarik":11710,"Ġmaiss":11711,"Ġsthaayee":11712,"Ġteksa":11713,"Ġpreeaardar":11714,"Ġ14999":11715,"Ġmanu":11716,"Ġkampon":11717,"Ġimaar":11718,"Ġesus":11719,"Ġtaiyaariyaan":11720,"Ġsuraksh":11721,"Ġkantraast":11722,"Ġdijaining":11723,"Ġavish":11724,"Ġwvg":11725,"Ġbachchan":11726,"povar":11727,"deta":11728,"bhavatee":11729,"Ġslet":11730,"prati":11731,"jaldee":11732,"Ġsinha":11733,"Ġotg":11734,"aahanee":11735,"Ġpatang":11736,"Ġpataakhon":11737,"Ġgarbhaavastha":11738,"Ġphailane":11739,"Ġ1750":11740,"kaimar":11741,"Ġseks":11742,"Ġchunate":11743,"Ġarban":11744,"Ġ401":11745,"Ġprotektiv":11746,"Ġroket":11747,"Ġrokata":11748,"Ġpramot":11749,"Ġlainar":11750,"Ġkaipheen":11751,"Ġdaba":11752,"reemoovebal":11753,"Ġstaindabai":11754,"Ġcharbee":11755,"Ġvheelar":11756,"Ġparaphaarm":11757,"Ġkisane":11758,"Ġtoote":11759,"Ġemateeke":11760,"Ġchamma":11761,"Ġkabja":11762,"patrika":11763,"Ġshaharee":11764,"Ġnikaalana":11765,"Ġbitaana":11766,"Ġhdr":11767,"Ġromachhid":11768,"Ġrevenyoo":11769,"Ġvijit":11770,"daial":11771,"Ġ294":11772,"Ġinsteet":11773,"Ġneksat":11774,"Ġseekhate":11775,"khaasataur":11776,"Ġmailaveyar":11777,"Ġostreliyaee":11778,"Ġintair":11779,"Ġkompekt":11780,"Ġvebapej":11781,"Ġemaeeyooaee":11782,"Ġprasaar":11783,"Ġprasaaran":11784,"Ġsheet":11785,"vibhinn":11786,"Ġvelyoo":11787,"chalate":11788,"phesalipht":11789,"Ġtebalets":11790,"Ġsaiph":11791,"Ġmetaabol":11792,"Ġmitsubishee":11793,"Ġdikhaega":11794,"Ġsahavaag":11795,"Ġsambhal":11796,"Ġkaabil":11797,"Ġsunahara":11798,"Ġtaarget":11799,"Ġsamajhaute":11800,"chaarjing":11801,"Ġregyoolar":11802,"Ġeksatreem":11803,"Ġipl":11804,"ahaarik":11805,"raidmi":11806,"Ġgatividhi":11807,"Ġbonevil":11808,"Ġdeepaavalee":11809,"Ġdipreshan":11810,"Ġtrending":11811,"saamane":11812,"Ġpratispardhee":11813,"Ġjaiz":11814,"fachaibook":11815,"Ġjhapak":11816,"Ġegjikyootiv":11817,"Ġdyooal":11818,"Ġeksaparts":11819,"notiphikeshan":11820,"volet":11821,"Ġnipatane":11822,"Ġshrad":11823,"Ġedajas":11824,"Ġaaaiphishal":11825,"Ġbindu":11826,"Ġdeevaaron":11827,"Ġghutanon":11828,"Ġpramoshanal":11829,"Ġdaayara":11830,"Ġsaurabh":11831,"Ġulajhan":11832,"Ġlasair":11833,"Ġrishtedaaron":11834,"Ġrookhee":11835,"chamuch":11836,"Ġkshanon":11837,"Ġlaajavaab":11838,"Ġkaamakaajee":11839,"vaintar":11840,"Ġinakaming":11841,"Ġkshatigrast":11842,"Ġnitin":11843,"Ġanadekha":11844,"Ġsavaaree":11845,"Ġbyaaj":11846,"Ġsvatantrata":11847,"pichhalee":11848,"Ġphorks":11849,"ghante":11850,"Ġeaarem":11851,"Ġchintit":11852,"Ġaautador":11853,"Ġasantulan":11854,"Ġkanavar":11855,"Ġkobaalt":11856,"paisenjar":11857,"Ġpraiktis":11858,"Ġjayapur":11859,"Ġspraidatram":11860,"Ġsaalagirah":11861,"Ġtaileey":11862,"Ġmaiksimam":11863,"hepetaitis":11864,"aiochon":11865,"Ġemadablyoosee":11866,"utopi":11867,"/-":11868,"04":11869,"099":11870,"310":11871,"330":11872,"bish":11873,"band":11874,"bsnl":11875,"boleevud":11876,"daar":11877,"die":11878,"dop":11879,"daadee":11880,"gs":11881,"hoo":11882,"haane":11883,"holee":11884,"hrday":11885,"iens":11886,"jaga":11887,"kahaan":11888,"kendr":11889,"laik":11890,"neend":11891,"odh":11892,"ritel":11893,"sat":11894,"sut":11895,"sistam":11896,"than":11897,"ubh":11898,"vyavastha":11899,"ziox":11900,"hais":11901,"Ġsiv":11902,"Ġsust":11903,"Ġsors":11904,"Ġpep":11905,"Ġpvoint":11906,"Ġmatee":11907,"Ġmyooj":11908,"anr":11909,"anna":11910,"Ġbaaya":11911,"Ġbaaj":11912,"isai":11913,"isapar":11914,"yapradesh":11915,"Ġhaiv":11916,"Ġhaivee":11917,"Ġdak":11918,"Ġdhaee":11919,"Ġdang":11920,"Ġdemo":11921,"Ġaich":11922,"Ġatak":11923,"Ġlat":11924,"Ġliyon":11925,"chd":11926,"Ġnal":11927,"Ġrx":11928,"Ġraig":11929,"Ġraing":11930,"Ġkeen":11931,"Ġvor":11932,"Ġvest":11933,"alan":11934,"Ġtu":11935,"Ġtend":11936,"Ġtant":11937,"Ġtvee":11938,"Ġtika":11939,"Ġtft":11940,"Ġtwittair":11941,"Ġero":11942,"Ġevar":11943,"Ġhi":11944,"Ġkarem":11945,"ikar":11946,"esaee":11947,"estament":11948,"Ġphem":11949,"Ġphinalaind":11950,"adard":11951,"Ġaabhaar":11952,"aaton":11953,"ilai":11954,"Ġparavar":11955,"Ġparidh":11956,"Ġhaingaut":11957,"abha":11958,"panan":11959,"Ġgha":11960,"Ġgej":11961,"Ġgoon":11962,"itor":11963,"Ġhoge":11964,"Ġnepaal":11965,"Ġtad":11966,"Ġtavaj":11967,"iyaa":11968,"Ġbheeg":11969,"Ġjau":11970,"Ġint":11971,"etrik":11972,"aadamee":11973,"Ġekaag":11974,"maaree":11975,"Ġchoos":11976,"Ġphonabuk":11977,"apat":11978,"unamen":11979,"Ġkhone":11980,"Ġjeera":11981,"aayachee":11982,"Ġoonch":11983,"tebalet":11984,"ayaalam":11985,"leet":11986,"Ġ349":11987,"Ġtoshiba":11988,"Ġbadhen":11989,"agrah":11990,"Ġbhejee":11991,"Ġpavan":11992,"iron":11993,"Ġemigo":11994,"aseptar":11995,"Ġyur":11996,"Ġyoopeeaee":11997,"ailing":11998,"Ġ816":11999,"Ġmilk":12000,"Ġandi":12001,"Ġaninstol":12002,"Ġsabab":12003,"Ġteeseeel":12004,"emik":12005,"ooral":12006,"Ġseeio":12007,"peedee":12008,"Ġtarot":12009,"Ġjaanatee":12010,"Ġblaast":12011,"Ġdepth":12012,"Ġphrench":12013,"Ġbachee":12014,"Ġaaeev":12015,"Ġchall":12016,"Ġmaiga":12017,"ball":12018,"balki":12019,"bhojan":12020,"Ġhamase":12021,"Ġhamala":12022,"Ġjisame":12023,"Ġdivijan":12024,"Ġphloo":12025,"Ġsaugaat":12026,"Ġsachamuch":12027,"nechar":12028,"Ġkhara":12029,"Ġ108":12030,"Ġeksem":12031,"Ġchhoda":12032,"Ġkanvar":12033,"Ġselekt":12034,"Ġdhaak":12035,"Ġ169":12036,"Ġmainyoo":12037,"Ġpratish":12038,"Ġeekomars":12039,"Ġeemajee":12040,"Ġphaee":12041,"Ġechadeeephasee":12042,"sev":12043,"Ġpaavard":12044,"Ġkhareedaaron":12045,"Ġupagrah":12046,"aahaaree":12047,"Ġklin":12048,"Ġghaav":12049,"Ġgher":12050,"Ġdetaabes":12051,"Ġameer":12052,"Ġletar":12053,"Ġlepht":12054,"Ġsire":12055,"Ġmukharjee":12056,"areen":12057,"Ġxb":12058,"Ġglaimar":12059,"Ġsharm":12060,"Ġorijinal":12061,"Ġkrip":12062,"Ġsviming":12063,"Ġ142":12064,"Ġ1450":12065,"Ġmanaane":12066,"Ġpahunchee":12067,"Ġthin":12068,"Ġibe":12069,"Ġrangolee":12070,"Ġeyaraport":12071,"Ġminim":12072,"Ġaandhr":12073,"Ġbarph":12074,"Ġbarasaat":12075,"Ġzopo":12076,"Ġnajaren":12077,"Ġnambars":12078,"Ġtakaneekon":12079,"Ġrikavaree":12080,"Ġsamajhakar":12081,"Ġaayaat":12082,"labes":12083,"Ġslip":12084,"Ġbill":12085,"Ġbillee":12086,"pras":12087,"print":12088,"Ġmask":12089,"Ġsalai":12090,"Ġvipanan":12091,"Ġpataakhe":12092,"Ġmalhot":12093,"Ġmaleshiya":12094,"Ġtaakatavar":12095,"brek":12096,"Ġtvist":12097,"hadaayak":12098,"Ġedishanal":12099,"Ġpradarshanee":12100,"yoga":12101,"Ġchipak":12102,"saphalata":12103,"doodh":12104,"à¤ľ":12105,"Ġ222":12106,"Ġkroma":12107,"Ġjamaana":12108,"Ġtoota":12109,"Ġjaiket":12110,"Ġaamir":12111,"Ġchalae":12112,"Ġkaunsal":12113,"Ġrakho":12114,"baarish":12115,"Ġhelp":12116,"Ġintarnal":12117,"Ġporn":12118,"Ġgunaa":12119,"jaanate":12120,"ojitek":12121,"chanvas":12122,"Ġangoor":12123,"Ġmaeekro":12124,"Ġbaithen":12125,"Ġjhuk":12126,"Ġgaurav":12127,"Ġseekhana":12128,"dost":12129,"Ġausha":12130,"sansth":12131,"Ġpahunchatee":12132,"6582":12133,"Ġphainains":12134,"aavadhaan":12135,"Ġkaravaen":12136,"Ġbure":12137,"vigyaan":12138,"huveee":12139,"notai":12140,"Ġegjost":12141,"phlaish":12142,"Ġbechegee":12143,"Ġpedon":12144,"Ġmachaane":12145,"ĠâĢ¢":12146,"Ġmanachaahe":12147,"Ġchakr":12148,"romai":12149,"Ġkaddoo":12150,"Ġtodane":12151,"Ġsteshanon":12152,"Ġkuking":12153,"Ġedavaansd":12154,"Ġriveejan":12155,"Ġnibhaate":12156,"Ġpyaaree":12157,"Ġgadabad":12158,"Ġchaild":12159,"Ġdresing":12160,"Ġbonas":12161,"Ġsajaavat":12162,"Ġsaty":12163,"Ġdhairy":12164,"Ġsamudaay":12165,"Ġkleenar":12166,"Ġkleenik":12167,"Ġiphekts":12168,"Ġbaanglaadesh":12169,"risarch":12170,"Ġvrat":12171,"Ġmaansapeshiyaan":12172,"Ġpaagal":12173,"iball":12174,"Ġaintee":12175,"Ġkamyunitee":12176,"Ġphraansisko":12177,"Ġjobs":12178,"linai":12179,"Ġtaaje":12180,"Ġnateeje":12181,"Ġdilachaspee":12182,"Ġthreedee":12183,"Ġtukade":12184,"Ġtukadon":12185,"Ġtraanjaikshan":12186,"Ġkontaikts":12187,"vheelars":12188,"Ġvastuon":12189,"Ġleedar":12190,"Ġdushman":12191,"Ġdushprabhaav":12192,"Ġtippanee":12193,"seeaeeseeaee":12194,"Ġoffair":12195,"Ġlaabhadaayak":12196,"vachchh":12197,"Ġjaguaar":12198,"Ġemesema":12199,"Ġprejident":12200,"Ġdeeteeech":12201,"Ġsnapdrag":12202,"Ġprovaid":12203,"Ġprashansa":12204,"treeb":12205,"Ġteedeeaee":12206,"Ġinoveshan":12207,"Ġrisarchar":12208,"Ġmaignet":12209,"Ġgaanth":12210,"Ġidhar":12211,"taaviya":12212,"Ġaayurvedik":12213,"Ġkavita":12214,"Ġvayask":12215,"Ġsuzuki":12216,"letest":12217,"Ġlaaparavaahee":12218,"Ġunnat":12219,"Ġchaimpiyan":12220,"Ġvaibreshan":12221,"Ġmukhyamantree":12222,"Ġsamajhadaaree":12223,"Ġbainganee":12224,"staindard":12225,"rimoovebal":12226,"yashaalee":12227,"Ġphevaret":12228,"nateeja":12229,"Ġmukadama":12230,"Ġelapeedeedeeaara":12231,"Ġvyastata":12232,"gakaang":12233,"Ġkaarbohaidret":12234,"Ġsenteemeetar":12235,"Ġbaazaar":12236,"netavark":12237,"rupaye":12238,"Ġdeeelene":12239,"Ġinsteetyoot":12240,"bishd":12241,"Ġrainglar":12242,"Ġparavarish":12243,"Ġmalhotra":12244,"Ġsnapdragon":12245,"06":12246,"190":12247,"47":12248,"61":12249,"8000":12250,"980":12251,"bilt":12252,"eval":12253,"ebraaniks":12254,"fo":12255,"for":12256,"gaanv":12257,"iq":12258,"ijar":12259,"julaee":12260,"km":12261,"kait":12262,"kort":12263,"kaale":12264,"kaavaasaakee":12265,"link":12266,"my":12267,"maal":12268,"maich":12269,"ping":12270,"per":12271,"paans":12272,"ril":12273,"rakta":12274,"raitis":12275,"sor":12276,"sand":12277,"tyo":12278,"uai":12279,"vhaat":12280,"vhotsep":12281,"vyakti":12282,"was":12283,"xb":12284,"yara":12285,"Ġikala":12286,"Ġkhee":12287,"Ġkveen":12288,"haus":12289,"arenj":12290,"Ġsis":12291,"Ġsph":12292,"Ġsaak":12293,"Ġsva":12294,"Ġpate":12295,"Ġpaayad":12296,"Ġpanka":12297,"Ġpamp":12298,"Ġpvaintar":12299,"Ġmant":12300,"Ġmaaphee":12301,"Ġmyoot":12302,"Ġmatai":12303,"ano":12304,"anet":12305,"aning":12306,"Ġbuniy":12307,"yatha":12308,"Ġdreem":12309,"tabandee":12310,"Ġavar":12311,"Ġatai":12312,"Ġjile":12313,"Ġmedis":12314,"Ġmegaahartj":12315,"akyoo":12316,"Ġlaan":12317,"Ġlaata":12318,"Ġlem":12319,"Ġlaate":12320,"chun":12321,"chaay":12322,"chool":12323,"Ġkade":12324,"Ġnxt":12325,"Ġrad":12326,"Ġrais":12327,"Ġrash":12328,"Ġraich":12329,"Ġviya":12330,"Ġvagair":12331,"uran":12332,"atenshan":12333,"Ġtendar":12334,"Ġkaruna":12335,"Ġkaroongee":12336,"amoto":12337,"amaastar":12338,"eso":12339,"esem":12340,"esus":12341,"eshakar":12342,"Ġpho":12343,"Ġphed":12344,"Ġpher":12345,"Ġphigar":12346,"Ġphitabit":12347,"Ġaavish":12348,"iyalee":12349,"asmaartaphon":12350,"asent":12351,"asvar":12352,"Ġparamparaagat":12353,"aald":12354,"Ġgub":12355,"Ġhobee":12356,"Ġnevee":12357,"Ġtath":12358,"iyolojee":12359,"Ġinak":12360,"Ġinakaar":12361,"roy":12362,"Ġektres":12363,"Ġchl":12364,"Ġchook":12365,"Ġchoorn":12366,"Ġheels":12367,"apool":12368,"aika":12369,"uns":12370,"Ġjeeaeeeph":12371,"aavaah":12372,"Ġshaastree":12373,"Ġrag":12374,"Ġ390":12375,"chaut":12376,"Ġtoyalet":12377,"deeaee":12378,"Ġbhram":12379,"Ġpraap":12380,"Ġkaarl":12381,"Ġkaarok":12382,"Ġkaarning":12383,"Ġapanon":12384,"Ġmoonga":12385,"leval":12386,"Ġyutopi":12387,"Ġmauj":12388,"shanuma":12389,"Ġprostet":12390,"Ġdilait":12391,"okol":12392,"âĢĵ":12393,"aakhand":12394,"Ġ616":12395,"Ġanas":12396,"Ġanjaam":12397,"tareey":12398,"avej":12399,"Ġsabamit":12400,"Ġdistreeb":12401,"Ġstree":12402,"Ġbanaanee":12403,"Ġbansal":12404,"aayik":12405,"akaunt":12406,"Ġalchatail":12407,"Ġalkohal":12408,"Ġalamaaree":12409,"idais":12410,"peesee":12411,"Ġyalo":12412,"hakt":12413,"odhan":12414,"Ġjaanale":12415,"hatya":12416,"stree":12417,"Ġ7999":12418,"Ġstorm":12419,"ijal":12420,"ijing":12421,"ophar":12422,"ooto":12423,"Ġkvortar":12424,"Ġpadhakar":12425,"Ġmaartin":12426,"Ġsapleement":12427,"Ġdekhatee":12428,"Ġuthate":12429,"Ġvikram":12430,"Ġkanek":12431,"Ġselkan":12432,"Ġpeejee":12433,"Ġ162":12434,"Ġ138":12435,"Ġ13999":12436,"Ġdikhegee":12437,"ashaah":12438,"Ġpratin":12439,"Ġsanjee":12440,"Ġsansh":12441,"Ġenasee":12442,"Ġenakripshan":12443,"Ġphilip":12444,"Ġphileepee":12445,"igaree":12446,"Ġeedee":12447,"akarabarg":12448,"khaan":12449,"iyaano":12450,"istik":12451,"eksatar":12452,"Ġvanadraiv":12453,"daud":12454,"Ġmaanie":12455,"Ġmaange":12456,"Ġmaanakar":12457,"Ġshailee":12458,"bhavee":12459,"Ġdeting":12460,"ordan":12461,"Ġdaura":12462,"Ġkoriyan":12463,"Ġkornar":12464,"Ġapps":12465,"Ġapamaan":12466,"Ġpahaad":12467,"Ġsthir":12468,"Ġsthaapan":12469,"Ġblaikabairee":12470,"Ġkraanti":12471,"Ġpratibhaagiyon":12472,"Ġoktaaviya":12473,"Ġakela":12474,"aphree":12475,"Ġlaiaicho":12476,"Ġtaims":12477,"Ġtaiyaariyon":12478,"trim":12479,"Ġbargar":12480,"Ġ304":12481,"Ġnetaphliks":12482,"Ġjener":12483,"Ġnajariya":12484,"bebee":12485,"Ġdarshan":12486,"Ġbachchee":12487,"Ġvidy":12488,"Ġ2160":12489,"Ġachtivai":12490,"aleek":12491,"Ġsupair":12492,"tavi":12493,"Ġjudaav":12494,"Ġjank":12495,"Ġkampyootars":12496,"pacht":12497,"prad":12498,"praiss":12499,"Ġjaengen":12500,"bacha":12501,"Ġmeet":12502,"Ġjiyophon":12503,"Ġaippal":12504,"Ġummeedon":12505,"2500":12506,"Ġgarbh":12507,"Ġlahar":12508,"Ġlachee":12509,"philips":12510,"Ġ506":12511,"Ġ4070":12512,"Ġmuhim":12513,"mahaar":12514,"Ġyaadon":12515,"haard":12516,"Ġupayogakarta":12517,"Ġgrevitee":12518,"Ġnikalen":12519,"Ġnikalata":12520,"Ġsookh":12521,"Ġnyooyaark":12522,"Ġmotor":12523,"Ġsmooth":12524,"Ġlakshmee":12525,"Ġbachaen":12526,"Ġsaphalataapoorvak":12527,"Ġikan":12528,"bits":12529,"Ġbhay":12530,"Ġbason":12531,"Ġbaraabaree":12532,"Ġintaraseptar":12533,"railianchai":12534,"bloo":12535,"Ġpairel":12536,"Ġpraimium":12537,"Ġbitaane":12538,"Ġromaans":12539,"Ġkaaryakshamata":12540,"701":12541,"Ġkodiek":12542,"Ġsaphaaree":12543,"Ġadr":12544,"Ġpravrtti":12545,"Ġangootha":12546,"Ġneelee":12547,"Ġphoravard":12548,"Ġjhaank":12549,"Ġglosee":12550,"Ġpaishan":12551,"Ġpentee":12552,"Ġbhaagyashaalee":12553,"hogee":12554,"neechar":12555,"Ġsachiv":12556,"Ġpoochhane":12557,"Ġmaalikon":12558,"Ġkoching":12559,"Ġpahunchata":12560,"echemadee":12561,"Ġbaayars":12562,"Ġdono":12563,"Ġashok":12564,"Ġraahul":12565,"Ġroopee":12566,"tumane":12567,"Ġinteegret":12568,"à¥ĭ":12569,"Ġsignechar":12570,"riports":12571,"Ġshots":12572,"Ġbhaavon":12573,"Ġmudra":12574,"Ġmuddon":12575,"aankshee":12576,"Ġchhathe":12577,"Ġupaayon":12578,"Ġkaarobaaree":12579,"ovaigyaan":12580,"Ġkaishe":12581,"Ġvotaraprooph":12582,"Ġshedyool":12583,"Ġsootr":12584,"Ġaaeeemeeaee":12585,"avida":12586,"Ġpaateen":12587,"Ġlubha":12588,"Ġkrisamas":12589,"maltee":12590,"julate":12591,"Ġmaijik":12592,"Ġstoodiyo":12593,"Ġdhaaraavaah":12594,"leepaaaip":12595,"Ġpikap":12596,"Ġkeematee":12597,"aaaileepaaaip":12598,"Ġbejel":12599,"Ġpholdebal":12600,"Ġchidach":12601,"Ġsanchaalan":12602,"Ġboost":12603,"Ġphatane":12604,"Ġphataaphat":12605,"Ġdrinks":12606,"aaraseeteesee":12607,"Ġmoong":12608,"uletar":12609,"Ġmaidiapad":12610,"Ġprejenteshan":12611,"Ġmarsideez":12612,"Ġurdoo":12613,"Ġsvaroop":12614,"Ġbokeh":12615,"Ġboonden":12616,"Ġkaamakaaj":12617,"gaaroo":12618,"Ġkorporeshan":12619,"Ġaksharon":12620,"Ġmintra":12621,"Ġkemikal":12622,"adaataon":12623,"Ġparibhaasha":12624,"Ġemplo":12625,"Ġtaitoo":12626,"Ġeemaanadaaree":12627,"Ġmanushy":12628,"nolog":12629,"Ġsaahab":12630,"Ġaphordebal":12631,"Ġaupachaarik":12632,"Ġmentenens":12633,"Ġdephineshan":12634,"Ġvidyaarthiyon":12635,"Ġreemoovebal":12636,"Ġovarahee":12637,"aaidiya":12638,"teesagadh":12639,"Ġelyoominiyam":12640,"Ġtaichhnolog":12641,"Ġpyooree":12642,"Ġfeechar":12643,"haadhadee":12644,"Ġboostar":12645,"Ġtarakkee":12646,"Ġtavajjo":12647,"Ġoonche":12648,"wasaki":12649,"Ġpaayadaan":12650,"Ġpankaj":12651,"Ġvagairah":12652,"Ġaavishkaar":12653,"asvaroop":12654,"Ġmoongaphalee":12655,"Ġjaanaleva":12656,"Ġsthaapana":12657,"417":12658,"5000":12659,"590":12660,"bro":12661,"byoo":12662,"baakoo":12663,"biran":12664,"dur":12665,"deshabhar":12666,"daleek":12667,"eps":12668,"gin":12669,"gait":12670,"gaama":12671,"hendaset":12672,"iais":12673,"jh":12674,"joor":12675,"jod":12676,"jaimar":12677,"krik":12678,"kris":12679,"nament":12680,"naino":12681,"oin":12682,"ose":12683,"peed":12684,"pok":12685,"pujaara":12686,"rish":12687,"sent":12688,"sid":12689,"saij":12690,"taaja":12691,"tyoob":12692,"ubar":12693,"varaphul":12694,"xus":12695,"xpairi":12696,"yaahoo":12697,"zai":12698,"zopo":12699,"Ġkushal":12700,"aao":12701,"arning":12702,"Ġsf":12703,"Ġspark":12704,"Ġsvachchh":12705,"inako":12706,"Ġps":12707,"Ġpaad":12708,"Ġpaatr":12709,"Ġmoor":12710,"ans":12711,"Ġbaah":12712,"Ġbugaatee":12713,"isitee":12714,"Ġdesee":12715,"Ġdaanv":12716,"Ġdaataavind":12717,"Ġdyual":12718,"taiks":12719,"tayoob":12720,"Ġath":12721,"Ġaish":12722,"Ġaitam":12723,"Ġachai":12724,"Ġaseem":12725,"Ġauto":12726,"Ġjaal":12727,"Ġmehamaan":12728,"Ġker":12729,"akr":12730,"akad":12731,"Ġling":12732,"Ġlaaaileepaaaip":12733,"chross":12734,"Ġkahal":12735,"Ġkasar":12736,"Ġnat":12737,"Ġnol":12738,"Ġnagar":12739,"Ġneksa":12740,"Ġnakal":12741,"Ġnorth":12742,"Ġrail":12743,"Ġkeepaid":12744,"Ġkeetaan":12745,"Ġvinee":12746,"Ġvetan":12747,"aanik":12748,"aantar":12749,"alais":12750,"Ġtuaan":12751,"Ġtaayars":12752,"Ġsem":12753,"Ġhid":12754,"Ġhrtik":12755,"Ġkoi":12756,"Ġkoman":12757,"ampanee":12758,"phoo":12759,"phaan":12760,"esing":12761,"adi":12762,"Ġaao":12763,"Ġaalas":12764,"Ġaastreliya":12765,"aatma":12766,"aatkaar":12767,"ashee":12768,"Ġparaam":12769,"Ġparade":12770,"Ġparde":12771,"pannee":12772,"harahaal":12773,"Ġgatha":12774,"ory":12775,"orar":12776,"ekst":12777,"Ġuk":12778,"Ġuch":12779,"Ġinako":12780,"Ġintal":12781,"Ġintail":12782,"Ġinjin":12783,"Ġindeej":12784,"Ġinfin":12785,"atawind":12786,"aamp":12787,"Ġchop":12788,"Ġchild":12789,"aasit":12790,"aashakti":12791,"Ġphona":12792,"Ġsaathiyon":12793,"jeepee":12794,"dhaaran":12795,"Ġkhisak":12796,"Ġkhvaah":12797,"aavastha":12798,"Ġaapada":12799,"ukon":12800,"teesara":12801,"Ġtom":12802,"Ġtotal":12803,"oldar":12804,"Ġbhooshan":12805,"Ġnavaj":12806,"Ġprin":12807,"Ġpraay":12808,"Ġprach":12809,"shish":12810,"shoot":12811,"shaant":12812,"elitee":12813,"Ġdeedee":12814,"leyar":12815,"Ġsammel":12816,"Ġ655":12817,"ulas":12818,"otek":12819,"avet":12820,"aveen":12821,"Ġteevr":12822,"Ġstro":12823,"Ġchana":12824,"Ġusasen":12825,"erep":12826,"Ġseetee":12827,"Ġseeem":12828,"Ġseevee":12829,"Ġeparachar":12830,"usk":12831,"seetee":12832,"seema":12833,"Ġabatak":12834,"Ġthail":12835,"Ġtarbain":12836,"Ġjaancha":12837,"varaaj":12838,"veel":12839,"Ġphraee":12840,"stan":12841,"Ġlagana":12842,"Ġlagaata":12843,"Ġaaeekan":12844,"Ġspain":12845,"Ġspaidar":12846,"Ġpheecharsisamen":12847,"Ġkuv":12848,"Ġmaigren":12849,"baleno":12850,"Ġpadenge":12851,"Ġpadataal":12852,"phaishan":12853,"karee":12854,"Ġchais":12855,"Ġkaardiyo":12856,"ichs":12857,"Ġvebas":12858,"Ġ101":12859,"Ġverijon":12860,"Ġchhaatee":12861,"Ġchhaachh":12862,"Ġkanj":12863,"Ġkangaaroo":12864,"raiain":12865,"Ġchaart":12866,"Ġachchhaee":12867,"Ġpeetee":12868,"Ġdhaava":12869,"Ġbattakh":12870,"umee":12871,"ashop":12872,"lahasun":12873,"Ġsann":12874,"Ġbanava":12875,"Ġindeks":12876,"iphit":12877,"Ġtriks":12878,"shama":12879,"darshan":12880,"iston":12881,"rechar":12882,"Ġonalee":12883,"Ġmemo":12884,"Ġupd":12885,"Ġupaj":12886,"oomee":12887,"Ġkolaaj":12888,"majedaar":12889,"Ġklaid":12890,"Ġelig":12891,"Ġ94":12892,"Ġghul":12893,"Ġrote":12894,"Ġamar":12895,"aretar":12896,"Ġilaayachee":12897,"Ġchukandar":12898,"Ġvebasaiton":12899,"Ġxt":12900,"Ġxch":12901,"Ġxuv":12902,"Ġeds":12903,"Ġbajaane":12904,"Ġfai":12905,"Ġfhd":12906,"Ġ157":12907,"Ġapahol":12908,"Ġkrietiv":12909,"aashingatan":12910,"Ġ147":12911,"tanaam":12912,"Ġthink":12913,"Ġimar":12914,"Ġimel":12915,"Ġjaldabaajee":12916,"Ġchaahiye":12917,"aphaast":12918,"Ġesoes":12919,"Ġeyaralains":12920,"ikaon":12921,"Ġnetavarkig":12922,"Ġzyaada":12923,"Ġkantet":12924,"beree":12925,"Ġwai":12926,"Ġpahunchega":12927,"Ġpahunchaata":12928,"Ġpahunchaatee":12929,"Ġpahunchaana":12930,"Ġlaiten":12931,"Ġpainik":12932,"sports":12933,"koch":12934,"Ġbhejega":12935,"Ġmasaalon":12936,"Ġmeethe":12937,"Ġummeeden":12938,"Ġsaitting":12939,"Ġmalayaalam":12940,"Ġ20000":12941,"british":12942,"Ġeksajed":12943,"Ġphailee":12944,"Ġantarraashtreey":12945,"Ġchunakar":12946,"Ġarti":12947,"Ġprotokol":12948,"Ġupayogakartaon":12949,"samasya":12950,"sambhaavana":12951,"Ġroken":12952,"ideej":12953,"Ġchhodana":12954,"Ġladdoo":12955,"Ġudane":12956,"Ġhaeetek":12957,"bahoo":12958,"Ġkyooaar":12959,"phrem":12960,"Ġkaunasa":12961,"Ġrakhie":12962,"Ġyojanaon":12963,"Ġhelo":12964,"Ġmahatvaak":12965,"Ġteleephoto":12966,"Ġloyal":12967,"sakata":12968,"Ġsamajhaaya":12969,"jaanie":12970,"Ġromaantik":12971,"Ġaavaajon":12972,"Ġrestaraan":12973,"dekha":12974,"Ġnotiphikeshans":12975,"Ġkailendar":12976,"Ġpalooshan":12977,"Ġ3120":12978,"Ġadhyayanon":12979,"Ġkompitee":12980,"Ġkomarshiyal":12981,"pairon":12982,"Ġkontin":12983,"Ġmiraral":12984,"Ġtaikst":12985,"Ġyoutubai":12986,"Ġhangaama":12987,"Ġvinir":12988,"Ġaaident":12989,"Ġtrenar":12990,"Ġmetaalik":12991,"haidar":12992,"Ġmitha":12993,"Ġuttarapradesh":12994,"Ġmaarkits":12995,"Ġsveek":12996,"tumhaaree":12997,"Ġdraivarales":12998,"Ġphankshanailitee":12999,"Ġbijee":13000,"Ġembes":13001,"Ġthakkar":13002,"Ġeleeeeko":13003,"Ġprachal":13004,"Ġpaalak":13005,"Ġshubh":13006,"Ġnaitro":13007,"Ġinjeeniyaron":13008,"Ġchhapee":13009,"ilektronik":13010,"gresiv":13011,"kitane":13012,"Ġpyaas":13013,"Ġnaukar":13014,"Ġsvaadisht":13015,"Ġbigaad":13016,"bonet":13017,"Ġgadakaree":13018,"Ġchailenj":13019,"Ġ1998":13020,"nyooyaark":13021,"Ġchunautiyaan":13022,"kaamars":13023,"Ġpleyars":13024,"Ġsainsai":13025,"Ġsaadhan":13026,"Ġphlevar":13027,"Ġmainyuphaikcharars":13028,"Ġmaigna":13029,"Ġholeevud":13030,"Ġeksapeeriens":13031,"Ġchitron":13032,"Ġbenelee":13033,"Ġbeniphit":13034,"aanshu":13035,"phoriya":13036,"Ġgatividhiyaan":13037,"julatee":13038,"rakchar":13039,"Ġaartiphishal":13040,"turai":13041,"Ġpratirodhee":13042,"Ġnirdeshit":13043,"vaayaras":13044,"aaaidee":13045,"Ġbejaan":13046,"Ġlaibre":13047,"saibar":13048,"singal":13049,"Ġschraiain":13050,"kharaab":13051,"Ġlaabhakaaree":13052,"Ġpachhat":13053,"Ġshataraprooph":13054,"Ġmuskaan":13055,"shuruaatee":13056,"kvaalakom":13057,"8909":13058,"Ġkshati":13059,"Ġinovetiv":13060,"takaneekee":13061,"Ġkleeyarens":13062,"Ġnyootral":13063,"Ġdastaavejon":13064,"jima":13065,"Ġtalaashane":13066,"Ġseereez":13067,"Ġkaaailing":13068,"Ġvhaata":13069,"Ġarthavyavastha":13070,"sekend":13071,"mausam":13072,"Ġenteebaayotiks":13073,"Ġmaaaidal":13074,"Ġahankaar":13075,"Ġhoobahoo":13076,"Ġdainik":13077,"Ġeksateeriyar":13078,"Ġkaatakar":13079,"istration":13080,"Ġaatmahatya":13081,"adarshee":13082,"Ġpratibaddh":13083,"Ġsilebas":13084,"Ġvaanijy":13085,"Ġmojila":13086,"Ġritarn":13087,"Ġapachhai":13088,"Ġkampyooting":13089,"Ġyoonivarsal":13090,"Ġdavalap":13091,"listing":13092,"Ġaapattijanak":13093,"Ġkaishales":13094,"snaipachait":13095,"Ġbyaura":13096,"Ġaaeeephe":13097,"Ġteksachar":13098,"Ġavishkaar":13099,"jagah":13100,"Ġmateeriyal":13101,"Ġbaayabaik":13102,"Ġtendulakar":13103,"Ġtantrika":13104,"Ġtarotaaja":13105,"Ġataicha":13106,"Ġparaamarsh":13107,"86":13108,"bana":13109,"bul":13110,"big":13111,"bada":13112,"dais":13113,"dhat":13114,"daayar":13115,"dabal":13116,"epee":13117,"ghee":13118,"gus":13119,"geshan":13120,"ghaee":13121,"jai":13122,"jaana":13123,"jitana":13124,"kant":13125,"krsh":13126,"kmpl":13127,"mam":13128,"moshan":13129,"niv":13130,"ow":13131,"pp":13132,"polee":13133,"ru":13134,"rat":13135,"raaja":13136,"saim":13137,"tis":13138,"uchit":13139,"uhaaree":13140,"wd":13141,"wal":13142,"xi":13143,"Ġare":13144,"eeee":13145,"Ġkshama":13146,"aaaito":13147,"aaibol":13148,"Ġsham":13149,"Ġsiph":13150,"Ġsveet":13151,"inas":13152,"Ġpool":13153,"Ġpudee":13154,"Ġpaich":13155,"Ġpass":13156,"Ġhaj":13157,"Ġmaaya":13158,"Ġmay":13159,"Ġmaak":13160,"anumaan":13161,"Ġbaab":13162,"Ġbre":13163,"isar":13164,"ista":13165,"isen":13166,"Ġhaive":13167,"Ġdaav":13168,"Ġdul":13169,"Ġdaks":13170,"ond":13171,"onar":13172,"Ġati":13173,"heesh":13174,"Ġmela":13175,"Ġmejab":13176,"akiyaan":13177,"Ġloo":13178,"Ġlim":13179,"Ġlchd":13180,"chhat":13181,"Ġnaav":13182,"Ġneed":13183,"Ġneen":13184,"Ġnyaay":13185,"Ġrabar":13186,"Ġrooral":13187,"Ġkeede":13188,"Ġval":13189,"Ġvim":13190,"Ġvyar":13191,"aling":13192,"alenovo":13193,"atig":13194,"Ġtaare":13195,"Ġtharm":13196,"Ġthaalee":13197,"Ġtitan":13198,"Ġtaasking":13199,"Ġejeepeees":13200,"Ġseleb":13201,"Ġkarj":13202,"Ġkaroge":13203,"phi":13204,"phyoo":13205,"estar":13206,"Ġpheyar":13207,"Ġaadee":13208,"Ġaaaid":13209,"iyaee":13210,"Ġist":13211,"abase":13212,"aaledaar":13213,"Ġgaaj":13214,"Ġghon":13215,"Ġghatee":13216,"Ġgaangulee":13217,"hanoo":13218,"orama":13219,"ekses":13220,"Ġnechar":13221,"iyaak":13222,"iyomee":13223,"iyaabaad":13224,"Ġinphr":13225,"aimmee":13226,"Ġsakane":13227,"Ġ225":13228,"Ġkira":13229,"Ġeked":13230,"maarooti":13231,"Ġchaan":13232,"Ġchik":13233,"Ġchpu":13234,"Ġheemoglobin":13235,"aphart":13236,"dhit":13237,"dhoop":13238,"Ġjeeele":13239,"Ġotee":13240,"araundar":13241,"Ġshi":13242,"Ġshoj":13243,"beedee":13244,"beesee":13245,"leel":13246,"olik":13247,"Ġbadon":13248,"Ġbadham":13249,"Ġbadaboo":13250,"ago":13251,"Ġbhr":13252,"Ġbhent":13253,"Ġbhuj":13254,"Ġpraij":13255,"shaareerik":13256,"shuda":13257,"upabhok":13258,"upavaas":13259,"ateet":13260,"iksha":13261,"eedents":13262,"edan":13263,"three":13264,"Ġdeen":13265,"Ġdeetek":13266,"Ġemajee":13267,"Ġyang":13268,"Ġyetee":13269,"Ġsampann":13270,"Ġyooeks":13271,"ogan":13272,"aakistaan":13273,"Ġ86":13274,"Ġ87":13275,"Ġ828":13276,"Ġmilit":13277,"Ġanaar":13278,"Ġaniyam":13279,"tareena":13280,"aajit":13281,"ots":13282,"Ġsaboot":13283,"Ġteeke":13284,"aabad":13285,"sardee":13286,"sarvis":13287,"Ġstend":13288,"Ġstre":13289,"aayara":13290,"Ġalavida":13291,"Ġrahas":13292,"idra":13293,"Ġseeaar":13294,"Ġseeton":13295,"Ġupalabdhiyon":13296,"Ġjaruree":13297,"Ġkaamphrens":13298,"seeee":13299,"Ġthaeelaind":13300,"Ġmaiksa":13301,"Ġmaikra":13302,"Ġphroot":13303,"Ġbaul":13304,"hammad":13305,"Ġaaeetel":13306,"Ġspash":13307,"Ġpheecharsayah":13308,"Ġchalaee":13309,"tamee":13310,"tamaatar":13311,"Ġbebee":13312,"Ġmaigan":13313,"opera":13314,"ooton":13315,"bhoo":13316,"indair":13317,"Ġmaarjin":13318,"Ġgrahan":13319,"karen":13320,"Ġ124":13321,"Ġdekor":13322,"ichi":13323,"Ġoptim":13324,"Ġsaraaha":13325,"Ġdoob":13326,"Ġchaaha":13327,"Ġmodyoolar":13328,"205":13329,"Ġvikaar":13330,"Ġ1024":13331,"Ġveriphaee":13332,"Ġchhaap":13333,"Ġchhua":13334,"Ġkandhe":13335,"Ġ139":13336,"thade":13337,"Ġenk":13338,"Ġenav":13339,"Ġenivar":13340,"Ġeneemiya":13341,"Ġphauran":13342,"Ġbahaane":13343,"Ġpaavarap":13344,"Ġmodaling":13345,"kanaada":13346,"taib":13347,"Ġhoteen":13348,"bhaaratee":13349,"Ġghere":13350,"Ġghode":13351,"Ġampaayar":13352,"Ġtaital":13353,"talait":13354,"lekar":13355,"Ġsiradard":13356,"ajaan":13357,"Ġbraav":13358,"Ġbreks":13359,"vois":13360,"Ġedavar":13361,"aaglaid":13362,"videshee":13363,"keel":13364,"aayaniyar":13365,"Ġ152":13366,"Ġpaartan":13367,"Ġpaaradarshee":13368,"Ġkrash":13369,"grup":13370,"Ġaadaan":13371,"Ġpratibh":13372,"Ġmanovaigyaan":13373,"Ġvairn":13374,"1200":13375,"Ġtho":13376,"Ġthik":13377,"Ġkampharm":13378,"Ġmahaas":13379,"Ġmahaajan":13380,"aphrant":13381,"Ġpoonchh":13382,"Ġpovaraphul":13383,"Ġbarst":13384,"Ġ302":13385,"Ġaajam":13386,"Ġzai":13387,"Ġwaib":13388,"Ġteknikal":13389,"Ġrikogn":13390,"haspati":13391,"ainkaphart":13392,"soch":13393,"Ġripeyar":13394,"inkoo":13395,"Ġoobar":13396,"odafonai":13397,"prast":13398,"Ġyug":13399,"Ġtablait":13400,"bach":13401,"bachcha":13402,"baharahaal":13403,"baikap":13404,"Ġmeetha":13405,"Ġsinem":13406,"itata":13407,"ukhta":13408,"Ġportret":13409,"Ġmali":13410,"skootar":13411,"Ġ2499":13412,"Ġ2003":13413,"Ġstaars":13414,"Ġinstold":13415,"Ġanubhavee":13416,"Ġgandh":13417,"Ġ501":13418,"Ġchunana":13419,"Ġarjun":13420,"taphesing":13421,"Ġ4010":13422,"Ġmuhaan":13423,"Ġchipake":13424,"tedaar":13425,"Ġtelug":13426,"motee":13427,"yoonivarsitee":13428,"Ġrokana":13429,"eekrt":13430,"Ġnikalakar":13431,"rang":13432,"Ġamerikan":13433,"Ġivok":13434,"Ġraajakumaar":13435,"Ġeksapl":13436,"Ġanubhavon":13437,"Ġememes":13438,"Ġcharitr":13439,"Ġaiar":13440,"Ġgirakar":13441,"Ġjooniyar":13442,"Ġdragan":13443,"Ġstebil":13444,"patti":13445,"Ġteleephon":13446,"apheed":13447,"Ġdasha":13448,"Ġdasta":13449,"Ġoliv":13450,"Ġsamajhaane":13451,"Ġromaancha":13452,"Ġpichaee":13453,"Ġ6020":13454,"Ġdaayalog":13455,"Ġhaangakaang":13456,"lagata":13457,"Ġneecha":13458,"purush":13459,"Ġmaahir":13460,"Ġjhoothee":13461,"sels":13462,"mangal":13463,"Ġpalon":13464,"Ġsachet":13465,"Ġkomiyo":13466,"Ġsochakar":13467,"Ġvivek":13468,"Ġanaveel":13469,"Ġvelanes":13470,"Ġvelentain":13471,"6572":13472,"Ġvinam":13473,"Ġphainenshiyal":13474,"Ġraasaayan":13475,"Ġsaitelait":13476,"kolej":13477,"aralaind":13478,"Ġroosee":13479,"Ġphulee":13480,"Ġphankshans":13481,"Ġhatakar":13482,"hotsaip":13483,"Ġgoloo":13484,"Ġmudda":13485,"Ġrukaavat":13486,"aarthak":13487,"Ġbula":13488,"Ġperis":13489,"ovair":13490,"pixail":13491,"Ġhairat":13492,"Ġkataar":13493,"Ġkiradaaron":13494,"Ġportals":13495,"ehoon":13496,"Ġphijiyo":13497,"Ġ19999":13498,"teleevijan":13499,"Ġbhaavanaen":13500,"Ġrobotik":13501,"Ġaiktiva":13502,"Ġbonat":13503,"Ġsaavadhaaniyaan":13504,"Ġdeepak":13505,"Ġbaandh":13506,"Ġdaiteeshiyan":13507,"Ġchompacht":13508,"Ġaaeeemeks":13509,"kophee":13510,"Ġholdar":13511,"Ġechesapeee":13512,"Ġgaanvon":13513,"Ġsolv":13514,"Ġkrista":13515,"Ġreshyo":13516,"phors":13517,"Ġpashu":13518,"slim":13519,"Ġchaudharee":13520,"Ġdyook":13521,"Ġmahaaraaj":13522,"volvo":13523,"enajar":13524,"Ġnibhaee":13525,"Ġstylus":13526,"Ġpiksee":13527,"Ġchupake":13528,"Ġinphiniyam":13529,"Ġghumaav":13530,"Ġniyukt":13531,"Ġkamyoonikeshans":13532,"Ġmangava":13533,"Ġkheenchakar":13534,"apadet":13535,"Ġtohaphe":13536,"Ġpraathamik":13537,"Ġtaeevaan":13538,"Ġgrejiya":13539,"Ġdarshaata":13540,"Ġpankhon":13541,"Ġsnapdaial":13542,"Ġjhoothe":13543,"Ġdaravaajon":13544,"Ġjaayenge":13545,"Ġlaimborginee":13546,"aantikaaree":13547,"Ġmanachaaha":13548,"Ġhaiparatenshan":13549,"Ġseeenavai":13550,"Ġsaported":13551,"khoobasoor":13552,"Ġdaayanaamik":13553,"Ġpanjeekrt":13554,"Ġphisal":13555,"setings":13556,"Ġdaakhil":13557,"Ġbitaen":13558,"Ġkorporet":13559,"Ġmegaapik":13560,"parinaamon":13561,"Ġzarie":13562,"leksas":13563,"Ġepeeke":13564,"Ġphrantaphesing":13565,"Ġvyaavahaarik":13566,"Ġjunoon":13567,"Ġseleriyo":13568,"Ġchabaane":13569,"Ġmanamutaabik":13570,"Ġgrejuet":13571,"Ġsurkhiyon":13572,"paraphorm":13573,"Ġsnepad":13574,"Ġmaathur":13575,"Ġatraikt":13576,"Ġmaunted":13577,"Ġseedeeeme":13578,"Ġsanskrti":13579,"guruvaar":13580,"Ġsodiyam":13581,"Ġtaadaad":13582,"Ġpratimaah":13583,"Ġdhamaniyon":13584,"daayabiteej":13585,"Ġdistens":13586,"Ġmaissaingair":13587,"Ġdakhal":13588,"Ġyuraik":13589,"Ġaushadhi":13590,"Ġbuniyaadee":13591,"choolpad":13592,"Ġphileepeens":13593,"eksataranal":13594,"Ġnavajaat":13595,"Ġsammelan":13596,"Ġembesadar":13597,"Ġlaibreree":13598,"poleemar":13599,"Ġsiphaar":13600,"Ġbreza":13601,"Ġdakshata":13602,"Ġkirae":13603,"Ġenivarsaree":13604,"Ġromaanchak":13605,"03":13606,"339":13607,"880":13608,"au":13609,"ahee":13610,"bps":13611,"bmw":13612,"dap":13613,"daava":13614,"dook":13615,"ebilitee":13616,"gaajar":13617,"hin":13618,"hol":13619,"ios":13620,"ifai":13621,"jaik":13622,"jara":13623,"jinamen":13624,"kt":13625,"koo":13626,"kut":13627,"kood":13628,"kendreey":13629,"mt":13630,"mu":13631,"mik":13632,"miyar":13633,"nd":13634,"net":13635,"neeche":13636,"neeboo":13637,"pod":13638,"prod":13639,"raanee":13640,"rpm":13641,"si":13642,"sch":13643,"ugat":13644,"vaana":13645,"vaatar":13646,"watchh":13647,"yur":13648,"yok":13649,"Ġeed":13650,"eet":13651,"eeyar":13652,"Ġkaaya":13653,"Ġkus":13654,"Ġkisase":13655,"Ġkukee":13656,"aacha":13657,"aaudee":13658,"haiv":13659,"Ġsiks":13660,"Ġstam":13661,"Ġsanee":13662,"Ġschan":13663,"Ġssd":13664,"Ġsrs":13665,"ineshan":13666,"Ġpm":13667,"Ġpaakar":13668,"Ġpasaat":13669,"Ġpujaara":13670,"Ġhavaale":13671,"Ġmap":13672,"Ġmeer":13673,"Ġmith":13674,"anaalee":13675,"Ġbam":13676,"Ġbrai":13677,"Ġbagal":13678,"Ġhaiad":13679,"Ġhailait":13680,"Ġdaiv":13681,"Ġdroid":13682,"Ġdmch":13683,"Ġdveep":13684,"tain":13685,"taik":13686,"taid":13687,"Ġakh":13688,"Ġaikt":13689,"Ġjip":13690,"Ġjhatak":13691,"Ġjvaint":13692,"Ġjakarabarg":13693,"aarph":13694,"entar":13695,"Ġmekars":13696,"Ġmeve":13697,"akaal":13698,"akalee":13699,"Ġlarning":13700,"ching":13701,"Ġkathit":13702,"Ġnain":13703,"Ġnum":13704,"Ġnig":13705,"Ġnaasa":13706,"Ġnaayak":13707,"Ġnusk":13708,"Ġraanee":13709,"oole":13710,"gav":13711,"gade":13712,"gabi":13713,"gadarshan":13714,"Ġvaah":13715,"aanyas":13716,"uram":13717,"atek":13718,"Ġtiv":13719,"Ġtenshan":13720,"Ġselar":13721,"ammat":13722,"amandal":13723,"iku":13724,"phu":13725,"phij":13726,"eshar":13727,"Ġphrod":13728,"adiyon":13729,"Ġaaiye":13730,"Ġaaipaid":13731,"asv":13732,"asta":13733,"asthit":13734,"asaayik":13735,"Ġparish":13736,"Ġparos":13737,"Ġparijan":13738,"abat":13739,"panj":13740,"harekh":13741,"Ġgadhe":13742,"Ġgareeb":13743,"Ġgehoon":13744,"oritee":13745,"ekhaas":13746,"its":13747,"itane":13748,"Ġ111":13749,"taraph":13750,"Ġtaul":13751,"Ġjavaan":13752,"Ġjaharee":13753,"Ġjaoge":13754,"Ġinchee":13755,"Ġinaboks":13756,"etiks":13757,"rop":13758,"Ġektar":13759,"Ġeksesaree":13760,"Ġchust":13761,"aasaan":13762,"Ġkamiyaan":13763,"Ġphonon":13764,"aisl":13765,"jeemel":13766,"jeelaind":13767,"jeekyoo":13768,"aikchar":13769,"Ġjeebh":13770,"Ġjeeelasee":13771,"Ġoke":13772,"Ġshek":13773,"Ġ4800":13774,"Ġragad":13775,"beeechapee":13776,"leej":13777,"Ġ340":13778,"ateras":13779,"Ġ5499":13780,"Ġtouchh":13781,"ivarsh":13782,"Ġpraacheen":13783,"shor":13784,"shulk":13785,"ateen":13786,"eluga":13787,"irail":13788,"iriyars":13789,"iksel":13790,"akeel":13791,"akeemat":13792,"Ġsama":13793,"jarman":13794,"aild":13795,"ogo":13796,"Ġ8999":13797,"Ġankal":13798,"ull":13799,"Ġhond":13800,"ipeediya":13801,"Ġhuaavee":13802,"Ġdisp":13803,"Ġteek":13804,"sart":13805,"janaral":13806,"oora":13807,"Ġbandar":13808,"Ġbangaal":13809,"ido":13810,"idin":13811,"Ġbaadal":13812,"Ġseebee":13813,"usee":13814,"usase":13815,"seemit":13816,"Ġskil":13817,"Ġskaut":13818,"Ġskaarph":13819,"peeem":13820,"peeke":13821,"Ġyaug":13822,"Ġendr":13823,"Ġtark":13824,"Ġdoon":13825,"Ġdown":13826,"bart":13827,"varjan":13828,"Ġbaaraha":13829,"eshans":13830,"Ġblink":13831,"Ġmaikal":13832,"Ġphraikchar":13833,"Ġ768":13834,"Ġlagaatee":13835,"heyar":13836,"Ġaaeeseeaeeseeaee":13837,"Ġspl":13838,"Ġpheecharsakampanee":13839,"hanebal":13840,"Ġmaikrovev":13841,"bala":13842,"bhed":13843,"Ġpadaav":13844,"Ġmaargadarshan":13845,"Ġgrh":13846,"karbonn":13847,"oophar":13848,"Ġdekharekh":13849,"Ġhamamen":13850,"Ġoptik":13851,"Ġdaen":13852,"raph":13853,"aips":13854,"airs":13855,"aneetik":13856,"Ġdivaises":13857,"Ġeksavain":13858,"Ġchheda":13859,"Ġkannad":13860,"Ġselular":13861,"Ġadhyaay":13862,"Ġpratham":13863,"Ġpeshaab":13864,"Ġsimakaard":13865,"Ġtrim":13866,"khus":13867,"khush":13868,"khushee":13869,"Ġadhikaaron":13870,"Ġleeko":13871,"osistam":13872,"Ġsnek":13873,"Ġupasthit":13874,"Ġ91":13875,"Ġroz":13876,"Ġamigo":13877,"Ġtaibale":13878,"Ġbadalee":13879,"Ġbadalata":13880,"Ġbron":13881,"areekan":13882,"ganoo":13883,"Ġglaiksee":13884,"Ġedavenchar":13885,"Ġvishisht":13886,"Ġnirmata":13887,"Ġkoral":13888,"Ġbajane":13889,"videsh":13890,"Ġsoph":13891,"Ġmeediyam":13892,"ishanal":13893,"Ġbharen":13894,"Ġkraim":13895,"Ġkrtrim":13896,"Ġkraantikaaree":13897,"Ġpreemiyar":13898,"Ġophish":13899,"Ġthietar":13900,"Ġkampaikt":13901,"Ġvaidh":13902,"takom":13903,"Ġesabeeaee":13904,"Ġbarbaad":13905,"Ġbarthade":13906,"Ġephish":13907,"Ġbolivud":13908,"Ġnajarie":13909,"beha":13910,"Ġworld":13911,"Ġdaron":13912,"Ġtekneek":13913,"Ġbachaate":13914,"Ġhaarlee":13915,"Ġaparaadh":13916,"Ġnikale":13917,"yoojo":13918,"pau":13919,"Ġbhejen":13920,"pradaan":13921,"pranaalee":13922,"Ġyuvak":13923,"Ġ196":13924,
[...]
