{"<s>":0,"<pad>":1,"</s>":2,"<unk>":3,"<mask>":4,"!":5,"\"":6,"$":7,"%":8,"'":9,"(":10,")":11,"*":12,",":13,"-":14,"/":15,"0":16,"1":17,"2":18,"3":19,"4":20,"5":21,"6":22,"7":23,"8":24,"9":25,":":26,";":27,"<":28,"=":29,">":30,"?":31,"@":32,"[":33,"]":34,"_":35,"`":36,"a":37,"b":38,"c":39,"d":40,"e":41,"f":42,"g":43,"h":44,"i":45,"j":46,"k":47,"l":48,"m":49,"n":50,"o":51,"p":52,"q":53,"r":54,"s":55,"t":56,"u":57,"v":58,"w":59,"x":60,"y":61,"z":62,"|":63,"~":64,"°":65,"×":66,"þ":67,"ƒ":68,"̈":69,"μ":70,"ं":71,"ः":72,"अ":73,"आ":74,"इ":75,"ई":76,"उ":77,"ऊ":78,"ए":79,"ओ":80,"क":81,"ख":82,"ग":83,"च":84,"छ":85,"ज":86,"ट":87,"ड":88,"ण":89,"त":90,"थ":91,"द":92,"ध":93,"न":94,"प":95,"फ":96,"ब":97,"भ":98,"म":99,"य":100,"र":101,"ल":102,"व":103,"श":104,"ष":105,"स":106,"ह":107,"़":108,"ा":109,"ि":110,"ी":111,"ु":112,"ू":113,"े":114,"ै":115,"ॉ":116,"ो":117,"्":118,"॰":119,"‌":120,"‍":121,"–":122,"—":123,"‘":124,"’":125,"“":126,"”":127,"•":128,"⁄":129,"₹":130,"▁":131,"❤":132,"":133,"":134,"ee":135,"▁k":136,"aa":137,"ha":138,"ar":139,"▁s":140,"in":141,"▁p":142,"▁m":143,"▁ha":144,"an":145,"▁b":146,"is":147,"▁hai":148,"ya":149,"▁d":150,"▁a":151,"on":152,"ta":153,"▁j":154,"▁ka":155,"aar":156,"▁me":157,"hee":158,"en":159,"▁ke":160,"▁l":161,"ak":162,"▁n":163,"▁mein":164,"ch":165,"ai":166,"▁r":167,"▁v":168,"▁kee":169,"oo":170,"▁is":171,"ga":172,"aan":173,"▁t":174,"ur":175,"al":176,"at":177,"▁e":178,"▁h":179,"▁se":180,"▁kar":181,"▁ko":182,"▁ph":183,"▁aur":184,"▁aa":185,"ik":186,"es":187,"ad":188,"iya":189,"am":190,"ph":191,"aat":192,"as":193,"il":194,"ah":195,"▁par":196,"▁hain":197,"▁ya":198,"▁g":199,"aal":200,"pan":201,"▁1":202,"ie":203,"▁ga":204,"ab":205,"▁u":206,"cha":207,"or":208,"it":209,"ek":210,"han":211,"▁in":212,"▁ta":213,"▁ho":214,"▁yah":215,"tar":216,"▁ne":217,"iy":218,"▁bhee":219,"ree":220,"▁ja":221,"ata":222,"et":223,"im":224,"▁2":225,"ro":226,"▁kam":227,"▁na":228,"▁y":229,"▁lie":230,"▁ek":231,"▁sak":232,"aath":233,"le":234,"▁ch":235,"▁phon":236,"aad":237,"ane":238,"▁ki":239,"phon":240,"aam":241,"maar":242,"amen":243,"panee":244,"▁saath":245,"ake":246,"aha":247,"00":248,"▁5":249,"aas":250,"▁hee":251,"▁4":252,"▁3":253,"lee":254,"▁la":255,"▁smaar":256,"▁aap":257,"▁kh":258,"▁sh":259,"har":260,"ap":261,"▁gaya":262,"aik":263,"▁jee":264,"▁o":265,"dh":266,"jee":267,"▁smaarta":268,"▁smaartaphon":269,"▁kiya":270,"aaya":271,"aav":272,"ara":273,"ay":274,"▁isamen":275,"aap":276,"te":277,"ing":278,"bee":279,"▁kampanee":280,"▁bh":281,"ain":282,"uk":283,"▁to":284,"un":285,"ate":286,"▁vaal":287,"tee":288,"ana":289,"ahin":290,"▁diya":291,"ise":292,"dee":293,"▁bad":294,"▁pr":295,"char":296,"▁nahin":297,"▁kaim":298,"iv":299,"▁kaar":300,"▁mo":301,"la":302,"▁apan":303,"▁tak":304,"up":305,"gee":306,"atee":307,"▁phee":308,"aane":309,"▁va":310,"yoo":311,"ir":312,"iks":313,"ol":314,"▁isake":315,"ej":316,"▁ma":317,"pal":318,"end":319,"▁jo":320,"sh":321,"▁bhaar":322,"mat":323,"ega":324,"▁kaimara":325,"aim":326,"▁dee":327,"th":328,"▁em":329,"akee":330,"ase":331,"▁keemat":332,"▁sam":333,"▁hai,":334,"ed":335,"▁6":336,"▁an":337,"▁8":338,"▁yoo":339,"▁cha":340,"ish":341,"▁pheechar":342,"▁rup":343,"▁dil":344,"▁pro":345,"▁karane":346,"jar":347,"▁jeebee":348,"▁paha":349,"shan":350,"▁un":351,"hen":352,"▁naee":353,"ent":354,"▁apane":355,"▁gaee":356,"el":357,"ok":358,"ip":359,"iksal":360,"og":361,"aaree":362,"▁mil":363,"aak":364,"▁hon":365,"esh":366,"ant":367,"▁ab":368,"▁hu":369,"taree":370,"▁tee":371,"aata":372,"▁sab":373,"▁ra":374,"ail":375,"heen":376,"pee":377,"99":378,"▁sakata":379,"▁us":380,"▁bai":381,"▁dillee":382,"▁lon":383,"▁lek":384,"▁dis":385,"jan":386,"aab":387,"ut":388,"ge":389,"▁st":390,"▁lonch":391,"ul":392,"aaj":393,"sar":394,"ait":395,"ot":396,"oor":397,"chh":398,"▁bhaarat":399,"▁see":400,"em":401,"aay":402,"av":403,"▁pad":404,"om":405,"▁jis":406,"aka":407,"▁ban":408,"▁sakate":409,"aye":410,"▁raha":411,"▁ep":412,"id":413,"▁upal":414,"▁ve":415,"▁upalab":416,"▁rupaye":417,"▁baad":418,"▁baitaree":419,"▁sk":420,"▁(":421,"▁jar":422,"▁7":423,"▁upalabdh":424,"▁end":425,"aava":426,"▁ye":427,"▁kaam":428,"itee":429,"see":430,"▁rak":431,"iyar":432,"da":433,"gaap":434,"ekt":435,"▁den":436,"gaapiksal":437,"sha":438,"▁tha":439,"▁vaale":440,"adee":441,"▁hoga":442,"eech":443,"isee":444,"▁karen":445,"▁maik":446,"▁do":447,"▁de":448,"▁jaan":449,"▁megaapiksal":450,"▁tar":451,"▁ba":452,"ort":453,"▁pahale":454,"▁rah":455,"▁inch":456,"▁kha":457,"ako":458,"iyo":459,"eed":460,"▁raim":461,"▁baar":462,"bar":463,"ka":464,"▁al":465,"▁0":466,"var":467,"iyon":468,"▁karata":469,"uj":470,"▁phr":471,"▁kaha":472,"▁yoojar":473,"▁bl":474,"eshan":475,"chch":476,"▁baat":477,"▁op":478,"ses":479,"aip":480,"▁ise":481,"▁ku":482,"▁rahee":483,"▁aaee":484,"he":485,"st":486,"▁laga":487,"vee":488,"kar":489,"ra":490,"▁be":491,"▁ran":492,"▁intar":493,"▁maikro":494,"000":495,"us":496,"▁lekin":497,"▁pheechars":498,"▁ham":499,"aanch":500,"oop":501,"yar":502,"od":503,"aanee":504,"▁sha":505,"▁gae":506,"▁mai":507,"▁stor":508,"▁isakee":509,"sesar":510,"▁apanee":511,"▁gr":512,"▁maar":513,"▁kan":514,"▁lais":515,"ij":516,"▁kv":517,"tam":518,"▁intaran":519,"▁aapako":520,"ki":521,"ais":522,"yaad":523,"▁kuchh":524,"ud":525,"▁prosesar":526,"oot":527,"▁badh":528,"ib":529,"▁jyaad":530,"▁phrant":531,"▁sabase":532,"▁dek":533,"▁tarah":534,"▁rahe":535,"gal":536,"▁riyar":537,"▁hone":538,"▁20":539,"▁12":540,"hat":541,"pha":542,"aara":543,"▁jab":544,"ri":545,"▁sap":546,"▁doo":547,"op":548,"▁shur":549,"▁alaava":550,"ich":551,"gar":552,"ne":553,"▁disp":554,"▁sar":555,"▁jyaada":556,"▁eks":557,"▁disple":558,"▁var":559,"▁pl":560,"▁div":561,"esab":562,"▁khaas":563,"▁kaard":564,"▁len":565,"▁vah":566,"▁log":567,"▁laanch":568,"hane":569,"aaphee":570,"▁da":571,"▁saal":572,"▁ap":573,"asan":574,"va":575,"▁emeech":576,"▁kisee":577,"aayad":578,"▁hue":579,"egee":580,"▁sa":581,"reen":582,"▁naya":583,"▁chaa":584,"▁kaee":585,"-k":586,"▁lag":587,"ho":588,"▁beha":589,"▁mod":590,"▁baik":591,"▁chal":592,"▁hain,":593,"▁jaega":594,"▁jaise":595,"▁es":596,"tha":597,"▁sp":598,"apee":599,"rient":600,"oj":601,"▁mob":602,"▁roop":603,"▁vaala":604,"▁die":605,"▁main":606,"▁padhen":607,"▁din":608,"hon":609,"▁vik":610,"aatee":611,"aana":612,"▁vaalee":613,"aset":614,"▁nae":615,"▁thee":616,"▁‘":617,"▁10":618,"▁haal":619,"▁samay":620,"▁don":621,"▁phil":622,"▁echa":623,"anee":624,"ind":625,"▁karate":626,"20":627,"▁mobail":628,"rik":629,"aid":630,"▁pa":631,"ood":632,"▁karana":633,"▁storej":634,"▁koee":635,"▁hota":636,"▁sel":637,"▁nir":638,"▁endr":639,"oree":640,"▁divais":641,"▁4jee":642,"▁adh":643,"▁isaka":644,"▁donon":645,"reej":646,"▁chaar":647,"▁skreen":648,"lar":649,"hak":650,"▁sakatee":651,"▁endraayad":652,"enge":653,"oon":654,"▁kanekt":655,"▁pee":656,"▁bat":657,"▁pha":658,"▁16":659,"▁saport":660,"▁achch":661,"▁aise":662,"to":663,"▁hogee":664,"▁ut":665,"▁bana":666,"▁yoojars":667,"▁seereej":668,"▁13":669,"▁intaranal":670,"aee":671,"▁paav":672,"▁sen":673,"▁phot":674,"▁san":675,"est":676,"tem":677,"aate":678,"▁prat":679,"▁shuroo":680,"▁9":681,"ti":682,"▁en":683,"▁isase":684,"▁dik":685,"▁naam":686,"rai":687,"isa":688,"▁c":689,"oogal":690,"▁maich":691,"▁istem":692,"▁jarie":693,"▁istemaal":694,"▁mauj":695,"aahar":696,"▁ind":697,"▁kie":698,"▁haind":699,"▁ee":700,"▁apana":701,"▁jise":702,"▁vai":703,"▁bal":704,"▁pesh":705,"tak":706,"yad":707,"▁sim":708,"re":709,"▁bee":710,"ash":711,"ivitee":712,"▁201":713,"▁bik":714,"aakh":715,"ual":716,"▁agar":717,"▁32":718,"▁bhaaratee":719,"um":720,"▁teem":721,"▁googal":722,"▁haindaset":723,"▁jaata":724,"▁endro":725,"akaar":726,"peees":727,"▁verient":728,"▁mad":729,"▁doosar":730,"▁bhaarateey":731,"▁padhen:":732,"▁echadee":733,"▁injan":734,"▁dh":735,"▁bah":736,"▁aas":737,"▁lekar":738,"▁paavar":739,"▁adhik":740,"▁kaaphee":741,"akar":742,"jeebee":743,"▁van":744,"▁kanektivitee":745,"▁am":746,"▁lee":747,"sham":748,"iph":749,"van":750,"▁hua":751,"▁dene":752,"▁so":753,"▁ro":754,"eks":755,"iyaan":756,"ars":757,"hal":758,"▁har":759,"999":760,"ooth":761,"▁tr":762,"▁rupe":763,"▁vish":764,"▁sis":765,"▁vo":766,"▁modal":767,"-pha":768,"▁on":769,"▁vaheen":770,"ist":771,"ooree":772,"ig":773,"▁deta":774,"▁sistam":775,"bas":776,"▁baare":777,"▁endroyad":778,"▁aapake":779,"▁dij":780,"ord":781,"▁bloot":782,"▁bata":783,"bal":784,"ep":785,"▁emapee":786,"and":787,"▁jin":788,"▁kharee":789,"adaar":790,"▁up":791,"hate":792,"▁piksal":793,"honne":794,"yon":795,"▁badhaaya":796,"ade":797,"▁sn":798,"▁veed":799,"esadee":800,"▁mem":801,"ool":802,"▁sabhee":803,"hana":804,"▁su":805,"80":806,"aind":807,"▁bahut":808,"▁kol":809,"esabuk":810,"▁gee":811,"▁aadh":812,"▁vee":813,"▁maikroesadee":814,"▁ghan":815,"▁chh":816,"▁maan":817,"▁el":818,"▁sensar":819,"akaaree":820,"aanki":821,"laish":822,"oom":823,"▁saam":824,"▁aisa":825,"asang":826,"▁maujood":827,"▁11":828,"▁25":829,"▁bikree":830,"aah":831,"aimasang":832,"aaph":833,"gan":834,"▁hotee":835,"▁kl":836,"yaan":837,"▁blootooth":838,"▁veediyo":839,"-kor":840,"▁phlaish":841,"▁15":842,"▁madad":843,"▁unhonne":844,"▁kalar":845,"▁haalaanki":846,"▁logon":847,"are":848,"▁laakh":849,"▁phesabuk":850,"iyam":851,"▁det":852,"▁memoree":853,"▁jal":854,"▁x":855,"▁saimasang":856,"▁kya":857,"▁snaip":858,"▁il":859,"▁br":860,"▁pich":861,"▁jaanakaaree":862,"▁spee":863,"ag":864,"tj":865,"▁baaj":866,"▁kap":867,"aayar":868,"di":869,"▁geeg":870,"-s":871,"▁le":872,"utaab":873,"anka":874,"▁sir":875,"▁muk":876,"araph":877,"aree":878,"▁dual":879,"▁pichha":880,"utaabik":881,"▁jaroor":882,"▁baajaar":883,"tai":884,"tal":885,"▁the":886,"ibal":887,"▁vebas":888,"▁tatha":889,"▁mutaabik":890,"▁vaee":891,"hata":892,"▁roope":893,"▁behatar":894,"▁vebasait":895,"▁badal":896,"▁maark":897,"eyar":898,"▁poor":899,"ambar":900,"▁shree":901,"▁chuk":902,"▁unhen":903,"bha":904,"▁ed":905,"▁maheen":906,"▁indiya":907,"▁gl":908,"▁64":909,"▁baj":910,"▁no":911,"val":912,"▁yahaan":913,"▁abhee":914,"▁kor":915,"▁ophar":916,"▁aane":917,"old":918,"▁daur":919,"▁geegaahar":920,"isej":921,"gat":922,"▁dar":923,"▁-":924,"▁nirm":925,"▁f":926,"ush":927,"ma":928,"▁phir":929,"▁kvaad":930,"yak":931,"▁motar":932,"ast":933,"▁desh":934,"▁chaarj":935,"▁cheen":936,"aag":937,"gb":938,"▁badee":939,"▁khareed":940,"▁pichhale":941,"▁kaimare":942,",000":943,"ikeshan":944,"aj":945,"kh":946,"▁philm":947,"▁kaaran":948,"yool":949,"ee,":950,"10":951,"▁any":952,"▁paas":953,"ibalet":954,"▁elee":955,"▁teen":956,"▁aadhaar":957,"▁kaha,":958,"▁phl":959,"chhe":960,"aret":961,"vo":962,"aahak":963,"▁lanka":964,"▁sirph":965,"▁geegaahartj":966,"▁sta":967,"▁taiy":968,"vid":969,"▁khel":970,"een":971,",999":972,"aki":973,"▁isee":974,"ron":975,"▁dun":976,"lag":977,"▁phree":978,"▁phees":979,"aakar":980,"▁varjan":981,"▁sarv":982,"▁use":983,"▁po":984,"▁paar":985,"rol":986,"▁shaam":987,"▁meed":988,"▁kyon":989,"aayan":990,"▁blaik":991,"▁ilekt":992,"▁banaane":993,"▁aga":994,"50":995,"ishan":996,"▁ghar":997,"▁jabaki":998,"apr":999,"aans":1000,"▁it":1001,"▁jaatee":1002,"omee":1003,"▁ak":1004,"alain":1005,"▁ghante":1006,"▁khil":1007,"▁graahak":1008,"▁rej":1009,"aare":1010,"phee":1011,"▁sv":1012,"▁phul":1013,"▁taibalet":1014,"▁14":1015,"▁sth":1016,"▁tek":1017,"ale":1018,"esabee":1019,"▁snaipad":1020,"▁lo":1021,"▁pah":1022,"▁gail":1023,"▁bo":1024,"▁te":1025,"ogr":1026,"▁vaee-pha":1027,"▁tahat":1028,"aksh":1029,"▁alag":1030,"pale":1031,"▁balle":1032,"▁jisamen":1033,"▁dhyaan":1034,"int":1035,"▁intaranet":1036,"▁milega":1037,"sep":1038,"bh":1039,"▁dispale":1040,"▁khud":1041,"▁unake":1042,"▁vanade":1043,"dar":1044,"▁bataaya":1045,"▁man":1046,"▁maheene":1047,"▁pree":1048,"pht":1049,"air":1050,"▁shaamil":1051,"▁nik":1052,"unt":1053,"▁eleedee":1054,"▁jaane":1055,"▁smaartaphons":1056,"▁maha":1057,"▁or":1058,"▁bachch":1059,"eksee":1060,"▁achchhee":1061,"▁speed":1062,"▁viket":1063,"▁kamp":1064,"▁nirmaata":1065,"▁ok":1066,"▁pata":1067,"▁dv":1068,"olo":1069,"▁duniya":1070,"olyoo":1071,"▁ple":1072,"▁prad":1073,"▁achchha":1074,"▁maarket":1075,"oks":1076,"▁pahalee":1077,"▁gaileksee":1078,"▁aaj":1079,"aash":1080,"▁im":1081,"▁jald":1082,"▁eyar":1083,"▁oto":1084,"▁kvaal":1085,"▁dauraan":1086,"▁pheesadee":1087,"▁oph":1088,"▁kr":1089,"▁shaan":1090,"▁plas":1091,"▁spes":1092,"▁aaeephon":1093,"akt":1094,"▁mah":1095,"▁daal":1096,"▁doosare":1097,"eeb":1098,"▁pahun":1099,"▁jaroorat":1100,"ahaal":1101,"▁i":1102,"▁yoon":1103,"haee":1104,"▁his":1105,"▁hamaar":1106,"asee":1107,"▁vh":1108,"▁taraph":1109,"▁aar":1110,"▁um":1111,"▁not":1112,"-b":1113,"▁photogr":1114,"▁balleb":1115,"▁ril":1116,"tan":1117,"alp":1118,"olyooshan":1119,"▁dvaara":1120,"▁rang":1121,"▁maisej":1122,"▁red":1123,"▁khabar":1124,"una":1125,"▁128":1126,"kaunt":1127,"▁khe":1128,"▁chaah":1129,"▁pet":1130,"▁aaya":1131,"▁gend":1132,"ham":1133,"aij":1134,"▁vaheen,":1135,"▁usake":1136,"aph":1137,"▁paaree":1138,"eek":1139,"riya":1140,"▁photograaphee":1141,"▁philahaal":1142,"▁daava":1143,"iphikeshan":1144,"▁beech":1145,"aadee":1146,"▁z":1147,"▁selphee":1148,"en,":1149,"aalee":1150,"▁as":1151,"▁lai":1152,"▁huee":1153,"sara":1154,"▁kyonki":1155,"▁dyool":1156,"ard":1157,"▁3jee":1158,"▁kab":1159,"▁vikalp":1160,"▁sah":1161,"▁min":1162,"▁onalain":1163,"vidha":1164,"▁shuru":1165,"jah":1166,"▁aan":1167,"▁karaaya":1168,"▁hote":1169,"▁jaaree":1170,"atop":1171,"▁pahala":1172,"io":1173,"▁photo":1174,"▁rakhee":1175,"▁taim":1176,"▁daun":1177,"▁shaanadaar":1178,"▁80":1179,"▁jaga":1180,"▁bha":1181,"▁kampan":1182,"▁jeepeees":1183,"▁suvidha":1184,"▁karega":1185,"▁taur":1186,"s,":1187,"aand":1188,"▁aapakee":1189,"sa":1190,"iyan":1191,"▁prati":1192,"▁taiyaar":1193,"enj":1194,"▁keval":1195,"▁gold":1196,"▁hoon":1197,"▁utaara":1198,"▁vajah":1199,"▁test":1200,"▁maat":1201,"▁30":1202,"usaar":1203,"leep":1204,"aatsep":1205,"▁apad":1206,"▁kvaad-kor":1207,"orm":1208,"iyant":1209,"▁jaegee":1210,"hit":1211,"alie":1212,"▁karatee":1213,"▁sek":1214,"abh":1215,"▁badha":1216,"▁kul":1217,"▁apadet":1218,"▁isalie":1219,"▁son":1220,"▁klik":1221,"jaar":1222,"▁bar":1223,"▁lok":1224,"▁chaahie":1225,"ment":1226,"▁chho":1227,"ens":1228,"▁rakha":1229,"▁graahakon":1230,"▁aage":1231,"ekshan":1232,"▁bhar":1233,"iyat":1234,"ban":1235,"alod":1236,"▁jarooree":1237,"▁pheechars:":1238,"▁maarsham":1239,"▁jen":1240,"akom":1241,"▁teevee":1242,"raigan":1243,"aneek":1244,"12":1245,"▁anusaar":1246,"aayans":1247,"ayog":1248,"▁takaneek":1249,"▁eph":1250,"▁w":1251,"ala":1252,"▁moto":1253,"▁neta":1254,"▁paanee":1255,"▁yadi":1256,"▁mukaab":1257,"▁rejolyooshan":1258,"▁daunalod":1259,"ja":1260,"▁sun":1261,"▁nok":1262,"▁sarvis":1263,"--":1264,"60":1265,"ailo":1266,"▁sur":1267,"▁pur":1268,"▁tum":1269,"▁ilektrik":1270,"▁sas":1271,"▁ju":1272,"esha":1273,"▁jagah":1274,"▁4g":1275,"reer":1276,"▁jisase":1277,"▁laip":1278,"echa":1279,"leepop":1280,"▁let":1281,"▁shareer":1282,"▁yooesabee":1283,"▁gh":1284,"▁maarshamailo":1285,"ram":1286,"▁tab":1287,"os":1288,"ina":1289,"▁loleepop":1290,"▁vaee-phaee":1291,"▁honge":1292,"▁dijain":1293,"▁haar":1294,"▁prod":1295,"▁jaanen":1296,"▁100":1297,"▁lagata":1298,"▁glaas":1299,"▁aata":1300,"▁banaaya":1301,"▁oes":1302,"▁snaipadraigan":1303,"▁vhaatsep":1304,"▁pooree":1305,"▁kapt":1306,"▁najar":1307,"▁kant":1308,"▁pasan":1309,"▁chee":1310,"▁netavar":1311,"ingar":1312,"▁pain":1313,"▁lene":1314,"▁aadhaarit":1315,"▁liya":1316,"na":1317,"▁nambar":1318,"▁chaahate":1319,"▁rip":1320,"▁bada":1321,"▁plaan":1322,"oos":1323,"yas":1324,"▁daata":1325,"▁karake":1326,"▁oparet":1327,"▁tekn":1328,"▁jisaka":1329,"▁netavark":1330,"▁phingar":1331,"▁vind":1332,"▁vid":1333,"▁jae":1334,"aiks":1335,"▁jisake":1336,"▁bach":1337,"▁av":1338,"okas":1339,"-p":1340,"▁lait":1341,"▁muj":1342,"▁rik":1343,"gr":1344,"aajee":1345,"▁unakee":1346,"▁jeet":1347,"▁rilaayans":1348,"▁pahunch":1349,"gl":1350,"▁shatak":1351,"▁khaasiyat":1352,"mee":1353,"▁vajan":1354,"▁karod":1355,"yootar":1356,"▁samaj":1357,"▁behad":1358,"▁aasaanee":1359,"▁jaate":1360,"▁peechhe":1361,"▁rohit":1362,"▁laipatop":1363,"daan":1364,"▁leetar":1365,"aprint":1366,"▁aisee":1367,"aast":1368,"shak":1369,"▁gho":1370,"▁ballebaaj":1371,"halee":1372,"▁samas":1373,"▁bajat":1374,"▁ranon":1375,"▁aay":1376,"er":1377,"ovo":1378,"oovee":1379,"▁khar":1380,"▁ach":1381,"▁sahee":1382,"imit":1383,"▁saamane":1384,"▁chalata":1385,"▁kareeb":1386,"ila":1387,"▁21":1388,"▁ovar":1389,"▁phingaraprint":1390,"archar":1391,"▁lik":1392,"▁dete":1393,"▁usakee":1394,"olojee":1395,"▁samasya":1396,"chee":1397,"aasha":1398,"aink":1399,"olar":1400,"▁kvaalakom":1401,"imee":1402,"▁yu":1403,"▁phlip":1404,"▁buk":1405,"▁kit":1406,"ilt":1407,"▁varsh":1408,"▁vairient":1409,"▁kampyootar":1410,"akaart":1411,"▁opareting":1412,"▁agale":1413,"▁mujhe":1414,"▁karegee":1415,"▁cheej":1416,"▁banae":1417,"▁hajaar":1418,"▁doosara":1419,"bhag":1420,"▁meediy":1421,"▁maam":1422,"▁dikh":1423,"▁sup":1424,"▁kahana":1425,"▁opshan":1426,"▁nyoo":1427,"▁haath":1428,"und":1429,"aadh":1430,"▁shik":1431,"meed":1432,"ikal":1433,"▁sthit":1434,"▁18":1435,"▁bina":1436,"aadiyon":1437,"▁rakhane":1438,"▁badalaav":1439,"▁nokiya":1440,"▁pasand":1441,"▁jisakee":1442,"▁dekha":1443,"lab":1444,"tr":1445,"▁jio":1446,"▁khilaaph":1447,"▁jan":1448,"▁okta":1449,"▁mas":1450,"▁skor":1451,"/2":1452,"▁802":1453,"30":1454,"▁nogat":1455,"▁suj":1456,"▁prosesar,":1457,"▁aparchar":1458,"iye":1459,"ach":1460,"▁2017":1461,"▁vyak":1462,"▁gem":1463,"▁19":1464,"imited":1465,"▁sin":1466,"▁balki":1467,"tav":1468,"ork":1469,"uti":1470,"▁kaaron":1471,"tiv":1472,"▁mee":1473,"▁kohalee":1474,"▁staind":1475,"▁inamen":1476,"▁aapaka":1477,"▁teknolojee":1478,"uth":1479,"aatek":1480,"▁ummeed":1481,"▁gar":1482,"▁mauk":1483,"▁dinon":1484,"ld":1485,"▁rakhen":1486,"▁sl":1487,"▁jed":1488,"▁vol":1489,"de":1490,"▁vindoj":1491,"▁bil":1492,"▁tv":1493,"▁meediyaatek":1494,"▁sil":1495,"▁jiyo":1496,"bhav":1497,"po":1498,"▁aaaip":1499,"▁band":1500,"▁phlipakaart":1501,"abl":1502,"▁inab":1503,"▁batan":1504,"▁khoo":1505,"▁jeepee":1506,"▁drai":1507,"alee":1508,"so":1509,"too":1510,"▁bhej":1511,"riyant":1512,"▁minat":1513,"shal":1514,"▁spesiphikeshan":1515,"gament":1516,"itar":1517,"▁taip":1518,"▁phar":1519,"▁hed":1520,"▁4000":1521,"▁top":1522,"lajee":1523,"sare":1524,"▁jaisee":1525,"ejan":1526,"▁segament":1527,"▁kon":1528,"▁dega":1529,"▁door":1530,"▁kosh":1531,"atalab":1532,"shamata":1533,"dam":1534,"ahaan":1535,"▁detee":1536,"shana":1537,"▁pat":1538,"▁maj":1539,"▁dha":1540,"▁honda":1541,"▁inabilt":1542,"maiks":1543,"ting":1544,"▁kabhee":1545,"▁ghoshana":1546,"▁oop":1547,"▁gay":1548,"▁sal":1549,"ink":1550,"▁’":1551,"▁ot":1552,"▁lagee":1553,"▁sakenge":1554,"▁ame":1555,"▁aip":1556,"▁kain":1557,"itel":1558,"ivaar":1559,"▁poore":1560,"ateeee":1561,"▁yooj":1562,"▁kshamata":1563,"▁17":1564,"▁lam":1565,"▁jahaan":1566,"ayoovee":1567,"▁kampaniyon":1568,"iyal":1569,"▁aakar":1570,"▁bade":1571,"▁amejan":1572,"▁prodakt":1573,"edaaree":1574,"ren":1575,"▁shar":1576,"▁inst":1577,"▁okta-kor":1578,"-d":1579,"mp":1580,"▁dolar":1581,"▁sheyar":1582,"▁jeevan":1583,"▁poora":1584,"▁itana":1585,"▁saab":1586,"▁padhe":1587,"▁24":1588,"▁dekh":1589,"-phai":1590,"yal":1591,"▁hamen":1592,"hy":1593,"ujar":1594,"▁mal":1595,"ukee":1596,"▁doosaree":1597,"tv":1598,"▁pratis":1599,"▁traans":1600,"▁riport":1601,"ita":1602,"▁sait":1603,"▁gan":1604,"▁sho":1605,"▁haas":1606,"ook":1607,"▁bachche":1608,"▁200":1609,"▁smaart":1610,"▁port":1611,"▁taak":1612,"▁epal":1613,"▁aaeepeees":1614,"▁aank":1615,"ibh":1616,"▁behataree":1617,"dra":1618,"aahan":1619,"ukh":1620,"▁lonch,":1621,"▁petrol":1622,"▁amerik":1623,"yan":1624,"hah":1625,"▁oopar":1626,"▁50":1627,"▁bachchon":1628,"▁phes":1629,"▁esayoovee":1630,"ke":1631,"▁bacha":1632,"▁vyakti":1633,"teks":1634,"▁kil":1635,"▁mi":1636,"▁dost":1637,"▁taata":1638,"▁aav":1639,",4":1640,"▁staar":1641,"▁maaruti":1642,"toobar":1643,"▁behatareen":1644,"▁jaen":1645,"varee":1646,"▁vai-phai":1647,"▁saamaan":1648,"▁sonee":1649,"aphon":1650,"▁mu":1651,"jeen":1652,"▁antar":1653,"▁aktoobar":1654,"▁pradar":1655,"▁supar":1656,"▁haasil":1657,"mel":1658,"abee":1659,"atel":1660,"▁shuruaat":1661,"▁bol":1662,"▁dam":1663,"▁hona":1664,"▁chukee":1665,"kee":1666,"hare":1667,"▁od":1668,"▁yoonit":1669,"▁gendab":1670,"▁mahin":1671,"▁aadi":1672,"▁jaenge":1673,"epha":1674,"▁tas":1675,"▁maikromaiks":1676,"▁phail":1677,"▁meediya":1678,"▁ar":1679,"▁dekhane":1680,"▁mahila":1681,"▁anu":1682,"▁ste":1683,"▁kaise":1684,"▁ingl":1685,"▁kaptaan":1686,"ps":1687,"▁vaap":1688,"▁lagabhag":1689,"tm":1690,"▁tasvee":1691,"anga":1692,"▁tork":1693,"▁yahee":1694,"▁tok":1695,"▁mot":1696,"vacha":1697,"ijan":1698,"▁list":1699,"▁gal":1700,"aataar":1701,"▁mahindra":1702,"ital":1703,"▁tej":1704,"▁chun":1705,"▁3000":1706,"kaar":1707,"▁baink":1708,"ament":1709,"▁edishan":1710,"▁krik":1711,"▁tvacha":1712,"▁esa":1713,"▁vaahan":1714,"▁lagaataar":1715,"▁pradarshan":1716,"▁tho":1717,"▁paanch":1718,"▁th":1719,"▁28":1720,"amee":1721,"▁40":1722,"laee":1723,"▁teesare":1724,"▁kara":1725,"▁1,":1726,"990":1727,"▁kantrol":1728,"akor":1729,"▁tul":1730,"▁hamaare":1731,"▁otom":1732,"▁yaad":1733,"▁ant":1734,"▁sujukee":1735,"▁koshish":1736,"▁gayee":1737,"vaar":1738,"▁elajee":1739,"▁inglaind":1740,"▁maim":1741,"▁kas":1742,"▁lenovo":1743,"/jee":1744,"ton":1745,"▁gaur":1746,"▁maatr":1747,"taph":1748,"▁maus":1749,"abhaav":1750,"500":1751,"▁aaega":1752,"baik":1753,"▁eps":1754,"▁khele":1755,"▁saabit":1756,"eej":1757,"▁baahar":1758,"▁baiks":1759,"▁lain":1760,"▁mahaj":1761,"▁lagaaya":1762,"enjar":1763,"▁raaj":1764,"▁vaayar":1765,"▁akaunt":1766,"90":1767,"isha":1768,"▁je":1769,"▁chip":1770,"▁dekhen":1771,"▁aph":1772,"▁luk":1773,"▁tach":1774,"▁renj":1775,"▁diskaunt":1776,"ichaar":1777,"▁tulana":1778,"/jee/":1779,"▁\"":1780,"▁thar":1781,"pane":1782,"itam":1783,"jal":1784,"▁pratishat":1785,"▁unaka":1786,"▁maichon":1787,"▁mukaabale":1788,"▁inteks":1789,"▁eyaratel":1790,"sopht":1791,"▁odiyo":1792,"▁prot":1793,"▁hamane":1794,"▁aasaan":1795,"▁soshal":1796,"▁khatar":1797,"▁kal":1798,"dagee":1799,"▁karenge":1800,"▁shaomee":1801,"▁esadee":1802,"▁maimoree":1803,"leek":1804,"tel":1805,"▁upayog":1806,"▁aad":1807,"▁mila":1808,"▁chaarjing":1809,"▁rikord":1810,"▁kriket":1811,"▁jud":1812,"bo":1813,"▁at":1814,"▁samet":1815,"▁achchhe":1816,"haan":1817,"par":1818,"▁nahin,":1819,"▁tel":1820,"▁milee":1821,"▁koling":1822,"▁khaane":1823,"▁soo":1824,"▁hal":1825,"▁ni":1826,"yo":1827,"▁vakt":1828,"▁soch":1829,"ika":1830,"▁preem":1831,"▁sthiti":1832,"▁paresh":1833,"▁500":1834,"▁andar":1835,"takait":1836,"▁maana":1837,"▁jod":1838,"se":1839,"▁bra":1840,"▁khul":1841,"▁bhaasha":1842,"▁karav":1843,"aatar":1844,"▁badhaane":1845,"▁vishv":1846,"▁22":1847,"▁kastam":1848,"yor":1849,"▁aae":1850,"-1":1851,"▁roj":1852,"▁ud":1853,"▁oppo":1854,"red":1855,"▁chuna":1856,"▁kitakait":1857,"▁lage":1858,"▁bodee":1859,"tap":1860,"▁rok":1861,"▁graam":1862,"▁post":1863,"▁draiv":1864,"40":1865,"▁jim":1866,"▁dikhaee":1867,"▁bes":1868,"▁pram":1869,"▁raim,":1870,"▁seva":1871,"▁gb":1872,"▁chuka":1873,"▁rahane":1874,"▁sahaare":1875,"yooj":1876,"▁tha,":1877,"▁tejee":1878,"▁preemiyam":1879,"▁maujoo":1880,"▁maikrosopht":1881,"endr":1882,"bandh":1883,"▁maamale":1884,"ih":1885,"mak":1886,"las":1887,"chaar":1888,"omars":1889,"▁kro":1890,"▁too":1891,"▁usaka":1892,"▁gre":1893,"a,":1894,"-in":1895,"gh":1896,"▁char":1897,"asaik":1898,"▁voyas":1899,"▁aphree":1900,"oroom":1901,"▁khareedane":1902,"▁dhavan":1903,"port":1904,"▁2,":1905,"▁majab":1906,"teesee":1907,"▁becha":1908,"▁motarasaik":1909,"aaran":1910,"alag":1911,"▁nav":1912,"▁phons":1913,"mah":1914,"▁aam":1915,"asaan":1916,"▁mainne":1917,"ye":1918,"▁iv":1919,"▁ris":1920,"▁sambandh":1921,"▁ritel":1922,"▁pars":1923,"▁sambh":1924,"▁motars":1925,"-m":1926,"utee":1927,"▁kaip":1928,"▁nuk":1929,"▁anal":1930,"▁sarakaar":1931,"67":1932,"▁sm":1933,"▁eppal":1934,"▁aphreeka":1935,"▁lagaane":1936,"▁jana":1937,"▁maidaan":1938,"▁lamb":1939,"kil":1940,"▁baal":1941,"▁bane":1942,"aapt":1943,"▁dijital":1944,"ob":1945,"▁kool":1946,"▁chale":1947,"▁milegee":1948,"▁tareek":1949,"▁stail":1950,"▁nukasaan":1951,"▁kis":1952,"-komars":1953,"tree":1954,"▁deejal":1955,"▁rav":1956,"ipht":1957,"▁khelane":1958,"▁alag-":1959,"▁prabhaav":1960,"35":1961,"▁janavaree":1962,"▁chait":1963,"▁hamesha":1964,"▁otoph":1965,"▁yuva":1966,"▁23":1967,"▁graaph":1968,"▁vahaan":1969,"▁alag-alag":1970,"yoon":1971,"▁pais":1972,"yam":1973,"▁dab":1974,"aksha":1975,"▁mauka":1976,"▁maujooda":1977,"bhar":1978,"▁ik":1979,"en)":1980,"▁sik":1981,"▁gor":1982,"ablyoo":1983,"▁saare":1984,"▁maas":1985,"▁chalate":1986,"▁nikaal":1987,"▁ai":1988,"heere":1989,"▁eksap":1990,"atar":1991,"▁kimee":1992,"akshan":1993,"▁giyar":1994,"str":1995,"▁jeepeeyoo":1996,"▁kaheen":1997,"▁ree":1998,"▁vy":1999,"▁laiph":2000,"itambar":2001,"sap":2002,"hait":2003,"▁pai":2004,"▁usane":2005,"▁0,":2006,"/jee/en,":2007,"ebal":2008,"idee":2009,"▁laksh":2010,"▁gaadee":2011,"aitik":2012,"▁26":2013,"▁bloo":2014,"▁lad":2015,"▁vit":2016,"▁chalane":2017,"▁beemaar":2018,"▁pak":2019,"apoor":2020,"▁bas":2021,"illa":2022,"▁hom":2023,"▁che":2024,"▁mutaabik,":2025,"▁hissa":2026,"▁laaya":2027,"▁khareeda":2028,"▁aakarshak":2029,"taon":2030,"▁yaanee":2031,"▁saksham":2032,"▁echateesee":2033,"▁chhod":2034,"▁sasta":2035,",990":2036,"▁saphal":2037,"▁nikal":2038,"ven":2039,"▁kyoo":2040,"▁2016":2041,"▁jindagee":2042,"▁sitambar":2043,"▁chahal":2044,"▁theek":2045,"▁blootooth,":2046,"jeenen)":2047,"▁abh":2048,"▁buking":2049,"ektar":2050,"▁inhen":2051,"▁sake":2052,"▁prak":2053,"shet":2054,"omeetar":2055,"▁star":2056,"▁vhait":2057,"▁eksapee":2058,"rt":2059,"reem":2060,"▁haee":2061,"▁chom":2062,"▁sarch":2063,"▁vishesh":2064,"▁jimm":2065,"▁graaphiks":2066,"▁limited":2067,"----":2068,"▁anubhav":2069,"▁staindab":2070,"xy":2071,"▁agast":2072,"-see":2073,"▁emem":2074,"▁gorilla":2075,"▁paraph":2076,"▁plus":2077,"▁aaaiphar":2078,"▁mausam":2079,"▁kshet":2080,"▁taaki":2081,"▁jam":2082,"▁vhee":2083,"▁tharanga":2084,"haar":2085,"ion":2086,"inal":2087,"▁niyam":2088,"▁raid":2089,"▁sauth":2090,"▁kvaalitee":2091,"ran":2092,"eeche":2093,"▁maltee":2094,"▁29":2095,"▁kamee":2096,"kul":2097,"▁sad":2098,"ikt":2099,"▁joon":2100,"▁milane":2101,"▁sekand":2102,"ojan":2103,"▁gala":2104,"▁prayog":2105,"eliya":2106,"▁skain":2107,"▁mush":2108,"▁neeche":2109,"▁phit":2110,"▁gir":2111,"▁mushkil":2112,"▁dhan":2113,"▁jeetee":2114,"yav":2115,"▁aakh":2116,"▁gaadiyon":2117,"▁(jeenen)":2118,"▁eph/2":2119,"aapat":2120,"tanam":2121,"▁mukaabala":2122,"▁suraksha":2123,"ola":2124,"▁ail":2125,"▁utha":2126,"aasa":2127,"▁speekar":2128,"▁khaana":2129,"▁emabee":2130,"▁epha":2131,"echadee":2132,"▁sharma":2133,"▁damadaar":2134,"streliya":2135,"reshan":2136,"▁aaut":2137,"aakhaapat":2138,"▁vishaakhaapat":2139,"▁voltai":2140,"▁vishaakhaapattanam":2141,"era":2142,"▁taaree":2143,"▁naye":2144,"▁baikap":2145,"25":2146,"▁saaph":2147,"▁py":2148,"▁dig":2149,"▁31":2150,"▁khu":2151,"yooesabee":2152,"▁haalaanki,":2153,"▁vaee-phaee,":2154,"▁sitee":2155,"▁opan":2156,"ted":2157,"▁protekshan":2158,"▁aate":2159,"▁galaxy":2160,"▁jaakar":2161,"▁ej":2162,"aple":2163,"▁letest":2164,"▁motor":2165,"▁staindabaay":2166,"▁kaun":2167,"▁re":2168,"▁vir":2169,"chana":2170,"▁ang":2171,"avaal":2172,"▁rahata":2173,"art":2174,"ith":2175,"adeep":2176,"▁jaana":2177,"▁aatee":2178,"▁guna":2179,"▁ekva":2180,"phonai":2181,"▁vaalon":2182,"▁piksal)":2183,"jed":2184,"▁saij":2185,"▁phaaya":2186,"▁veriyant":2187,"▁2018":2188,"▁chuke":2189,"▁cheenee":2190,"▁taiyaaree":2191,"▁amerika":2192,"ooshan":2193,"▁phais":2194,"▁laiv":2195,"▁mere":2196,"uru":2197,"▁dilee":2198,"hatee":2199,"▁jaik":2200,"eno":2201,"aig":2202,"ootar":2203,"▁dekhate":2204,"yah":2205,"aiga":2206,"▁kaaren":2207,"▁ematee":2208,"▁raj":2209,"ular":2210,"▁painal":2211,"▁tvitar":2212,"acha":2213,"▁uth":2214,"▁khatm":2215,"▁royal":2216,"▁ret":2217,"▁milata":2218,"aaja":2219,"▁spesiphikeshans":2220,"▁otophokas":2221,"▁poo":2222,"▁vibh":2223,"aavana":2224,"yoom":2225,"ship":2226,"thit":2227,"▁720":2228,"▁braand":2229,"▁imej":2230,"▁saaj":2231,"aamee":2232,"▁lens":2233,"ojana":2234,"▁ee-komars":2235,"▁soph":2236,"aboks":2237,"▁ostreliya":2238,"aakee":2239,"-spee":2240,"▁kuladeep":2241,"▁chhote":2242,"▁pan":2243,"agred":2244,"▁pramukh":2245,"▁hel":2246,"▁usamen":2247,"▁eksa":2248,"taveyar":2249,"▁lakshy":2250,"▁phaayada":2251,"▁99":2252,"▁karv":2253,"▁bilkul":2254,"▁256":2255,"19":2256,"dhe":2257,"jeee":2258,"▁cham":2259,"▁chala":2260,"▁pahach":2261,"▁apagred":2262,"▁deshon":2263,"▁asar":2264,"▁2000":2265,"lej":2266,"▁prash":2267,"▁seet":2268,"desh":2269,"qu":2270,"aiv":2271,"▁shop":2272,"▁ophis":2273,"▁kampaniyaan":2274,"mb":2275,"▁por":2276,"▁matalab":2277,"▁sakega":2278,"▁navambar":2279,"▁ivent":2280,"▁kaal":2281,"▁rediyo":2282,"11":2283,"br":2284,"▁nee":2285,"▁aapane":2286,"▁tay":2287,"▁jaisa":2288,"80x":2289,"▁tareeke":2290,"▁kadam":2291,"heer":2292,"▁yojana":2293,"▁umr":2294,"▁rangon":2295,"▁apr":2296,"ikon":2297,"▁ema":2298,"▁traik":2299,"▁kilomeetar":2300,"▁phaayad":2301,"▁khol":2302,"arav":2303,"▁maikro-":2304,"▁aasus":2305,"▁metal":2306,"▁tan":2307,"▁esee":2308,"jeepeees":2309,"▁praim":2310,"▁dok":2311,"▁takkar":2312,"araphul":2313,"▁khoob":2314,"och":2315,"akam":2316,"chit":2317,"▁sthaan":2318,"▁khelee":2319,"▁sekend":2320,"aigaship":2321,"akl":2322,"avaar":2323,"▁phlaigaship":2324,"▁mahatv":2325,"▁puraane":2326,"▁padhe,":2327,"▁sophtaveyar":2328,"▁phaast":2329,"led":2330,"ukt":2331,"▁vaise":2332,"▁kaimara,":2333,"▁rahate":2334,"▁kahate":2335,"▁ilektron":2336,"▁baraab":2337,"▁viraat":2338,"sun":2339,"▁intel":2340,"khya":2341,"▁redamee":2342,"1280":2343,"▁suraksh":2344,"sk":2345,"▁das":2346,"▁dim":2347,"▁chhoot":2348,"▁3jee,":2349,"▁shikhar":2350,"arad":2351,"▁phokas":2352,"▁go":2353,"aason":2354,"▁der":2355,"▁eemel":2356,"▁pletaph":2357,"▁hisaab":2358,"asal":2359,"▁smaartaphon,":2360,"▁grup":2361,"▁lena":2362,"▁motarasaikal":2363,"▁kavar":2364,"ooph":2365,"▁and":2366,"▁disple,":2367,"▁251":2368,"▁galat":2369,"ning":2370,"aaha":2371,"▁haan":2372,"dhaar":2373,"▁disambar":2374,"▁kharaab":2375,"▁singal":2376,"sp":2377,"aarik":2378,"orai":2379,"▁jeepeees,":2380,"areshan":2381,"▁sain":2382,"▁theen":2383,"▁sev":2384,"▁seting":2385,"avaree":2386,"▁hoga,":2387,"▁sankhya":2388,"▁vaapasee":2389,"▁noo":2390,"▁lagatee":2391,"▁khulaasa":2392,"▁jimmedaaree":2393,"▁skootar":2394,"▁rakh":2395,"▁saund":2396,"▁vidiyo":2397,"▁silvar":2398,"▁pop":2399,"▁laane":2400,"▁utar":2401,"aphee":2402,"▁doosaron":2403,"▁paariyon":2404,"▁hamaaree":2405,"▁doston":2406,"▁pahachaan":2407,"-ph":2408,"▁baind":2409,"▁jabarad":2410,"▁elatee":2411,"▁notai":2412,"shit":2413,"aabh":2414,"▁dena":2415,"▁degee":2416,"▁shahar":2417,"▁maatra":2418,"▁phan":2419,"▁meree":2420,"teev":2421,"▁kanek":2422,"▁bee/jee/en,":2423,"▁mukhy":2424,"▁ballebaajee":2425,"17":2426,"chan":2427,"▁karvd":2428,"oes":2429,"rd":2430,"aplas":2431,"▁hongee":2432,"▁haard":2433,"▁baraabar":2434,"▁bit":2435,"▁pahan":2436,"▁klaas":2437,"▁aprail":2438,"▁jabaradast":2439,"▁boks":2440,"▁jav":2441,"▁rakhate":2442,"▁brek":2443,"▁lete":2444,"▁kharch":2445,"akshin":2446,"▁aadat":2447,"▁kom":2448,"▁chipaset":2449,"▁majaboot":2450,"▁savaal":2451,"▁pand":2452,"▁tur":2453,"▁surakshit":2454,"▁daaya":2455,"aatmak":2456,"▁inakee":2457,"▁rahatee":2458,"▁kvod":2459,"▁thee,":2460,"▁otomaitik":2461,"▁jit":2462,"avas":2463,"▁saph":2464,"▁2015":2465,"▁hd":2466,"▁gun":2467,"apar":2468,"▁60":2469,"aavaj":2470,"▁jenaphon":2471,"▁paaya":2472,"▁myooj":2473,"▁dakshin":2474,"▁kod":2475,"ips":2476,"▁jaanate":2477,"▁darasal":2478,"▁gendabaaj":2479,"▁dr":2480,"▁rom":2481,"eshak":2482,"▁gujar":2483,"-jeepeees":2484,"▁aham":2485,"enshan":2486,"adh":2487,"▁bhu":2488,"▁badhane":2489,"▁usase":2490,"▁rakhana":2491,"▁paenge":2492,"▁sank":2493,"▁eksapeeriya":2494,"bd":2495,"▁laava":2496,"▁neks":2497,"▁tam":2498,"emapee":2499,"hoon":2500,"▁sport":2501,"▁lokapr":2502,"▁samajh":2503,"eph":2504,"ia":2505,"eshanal":2506,"▁pahuncha":2507,"▁kah":2508,"ets":2509,"emes":2510,"▁(4":2511,"▁julaee":2512,"▁maadh":2513,"yayan":2514,"▁paavaraphul":2515,"▁sikyor":2516,"bord":2517,"▁baavaj":2518,"engee":2519,"phte":2520,"imp":2521,"▁saath-s":2522,"aikt":2523,"▁kaaryak":2524,"ojit":2525,"▁ghanta":2526,"ghz":2527,"▁baavajood":2528,"hakar":2529,"▁ad":2530,"▁raat":2531,"▁rish":2532,"▁shre":2533,"▁maarch":2534,"▁elateeee":2535,"treey":2536,"kal":2537,"▁kail":2538,"aarm":2539,"eloo":2540,"▁shabd":2541,"halain":2542,"▁saaree":2543,"aanon":2544,"▁khush":2545,"▁beees":2546,"▁32jeebee":2547,"aashtreey":2548,"▁thoda":2549,"▁kastamars":2550,"aasonik":2551,"▁javaab":2552,"▁saath-saath":2553,"soos":2554,"▁pi":2555,"▁haphte":2556,"tail":2557,"▁65":2558,"aakor":2559,"▁maiks":2560,"▁adhyayan":2561,"▁vanaplas":2562,"▁mahasoos":2563,"▁judee":2564,"▁atir":2565,"▁motorola":2566,"▁pandya":2567,"kars":2568,"▁mainual":2569,"bah":2570,"ele":2571,"▁:":2572,"▁ol":2573,"aave":2574,"aavar":2575,"-sh":2576,"720":2577,"fi":2578,"raam":2579,"▁vichaar":2580,"▁praapt":2581,"▁chehare":2582,"▁atirikt":2583,"▁vij":2584,"▁ins":2585,"▁milenge":2586,"▁vairiyant":2587,"bale":2588,"▁ghareloo":2589,"▁jeda":2590,"▁bhaashaon":2591,"anes":2592,"▁ay":2593,"▁jad":2594,"▁ho,":2595,"mach":2596,"▁khilaadiyon":2597,"▁braujar":2598,"▁maadhyam":2599,"paad":2600,"▁33":2601,"▁teesara":2602,"▁jaldee":2603,"▁kaptaanee":2604,"ephasee":2605,"▁giyaraboks":2606,"apheeld":2607,"idh":2608,"▁yoot":2609,"▁proj":2610,"▁aavaaj":2611,"▁mum":2612,"▁daayar":2613,"▁45":2614,"▁unase":2615,"omi":2616,"▁eksakl":2617,"▁mupht":2618,"▁myoojik":2619,"▁hai?":2620,"▁dhon":2621,"▁nish":2622,"▁prav":2623,"▁padata":2624,"oosiv":2625,"▁garm":2626,"▁jude":2627,"▁ayyar":2628,"ajee":2629,"lai":2630,"▁paane":2631,"▁phor":2632,"aada":2633,"jaree":2634,"▁ophalain":2635,"▁sach":2636,"▁notiphikeshan":2637,"▁lokeshan":2638,"▁ephem":2639,"iaomi":2640,"▁res":2641,"▁iphonai":2642,"echajed":2643,"oda":2644,"inn":2645,"aayee":2646,"▁kum":2647,"▁vaahanon":2648,"▁vaayaral":2649,"▁pakad":2650,"aahee":2651,"▁set":2652,"ilitee":2653,"▁kamaand":2654,"antr":2655,"avard":2656,"▁utaar":2657,"▁socha":2658,"▁parsent":2659,"the":2660,"▁dijaayar":2661,"▁glo":2662,"▁krom":2663,"▁analimited":2664,"aisej":2665,"▁stee":2666,"▁aind":2667,"akon":2668,"▁braind":2669,"▁pharavaree":2670,"▁hin":2671,"ordar":2672,"▁okt":2673,"▁jenaret":2674,"▁paraphorm":2675,"lo":2676,"▁saha":2677,"amishan":2678,"▁taib":2679,"leev":2680,"▁lagae":2681,"▁padhen,":2682,"basoor":2683,"▁lambe":2684,"-v":2685,"rip":2686,"shee":2687,"tik":2688,"▁pen":2689,"▁link":2690,"▁27":2691,"▁milatee":2692,"▁divaisej":2693,"▁pradaan":2694,"▁mahilaon":2695,"leekeshan":2696,"▁taareeph":2697,"▁eksakloosiv":2698,"▁maah":2699,"▁jaap":2700,"▁mahan":2701,"▁lagane":2702,"▁xiaomi":2703,"▁yoonits":2704,"▁ravivaar":2705,"▁kumbale":2706,"dha":2707,"eree":2708,"▁men":2709,"▁kariyar":2710,"ivars":2711,"▁milakar":2712,"▁enapheeld":2713,"▁vishes":2714,"▁saphed":2715,"100":2716,"▁aid":2717,"▁viv":2718,"▁enem":2719,"▁khoobasoor":2720,"▁shoping":2721,"▁saat":2722,"▁mera":2723,"▁aag":2724,"iyaomee":2725,"amaan":2726,"▁mainej":2727,"▁maikro-yooesabee":2728,"aapan":2729,"▁paik":2730,"aayak":2731,"▁snaipadee":2732,"▁instol":2733,"▁gendabaajee":2734,"▁chalega":2735,"▁saphalata":2736,"▁kshetr":2737,"sung":2738,"37":2739,"▁ent":2740,"▁pal":2741,"▁aak":2742,"▁tacha":2743,"▁2jeebee":2744,"▁prakaar":2745,"▁stors":2746,"▁utpaad":2747,"istreshan":2748,"▁traansap":2749,"1920":2750,"▁ben":2751,"ement":2752,"▁chhotee":2753,"▁prashn":2754,"▁visheshata":2755,"),":2756,"e,":2757,"▁oor":2758,"aaphon":2759,"▁pej":2760,"tas":2761,"▁pareek":2762,"▁1jeebee":2763,"▁khaan":2764,"yoob":2765,"▁disaple":2766,"▁chhota":2767,"▁cheejon":2768,"▁khatara":2769,"teevitee":2770,"ug":2771,"▁pair":2772,"edaar":2773,"avar":2774,"▁chaahen":2775,"meetar":2776,"55":2777,"x1280":2778,"▁seph":2779,"▁ghat":2780,"ataim":2781,"▁3,":2782,"▁jaanch":2783,"▁saamaany":2784,"▁pareshaan":2785,"▁kvodakor":2786,"▁snaipadeel":2787,"kat":2788,"▁baata":2789,"▁seek":2790,"aayaam":2791,"▁paise":2792,"▁pyaar":2793,"▁turant":2794,"▁mumbee":2795,"▁daam":2796,"▁3jeebee":2797,"▁slot":2798,"▁sambandhit":2799,"▁kanekteevitee":2800,"oel":2801,"▁ij":2802,"▁than":2803,"▁parera":2804,"▁rananee":2805,"▁enephasee":2806,"▁leek":2807,"▁150":2808,"-inch":2809,"oov":2810,"aala":2811,"▁kir":2812,"▁kaarban":2813,"▁yooro":2814,"▁usee":2815,"▁epleekeshan":2816,"▁veb":2817,"ushee":2818,"eksa":2819,"graam":2820,"▁rog":2821,"▁vaid":2822,"▁5dee":2823,"▁elidee":2824,"eey":2825,"▁jor":2826,"▁rai":2827,"▁keebord":2828,"ikaarik":2829,"aamin":2830,"▁maee":2831,"▁70":2832,"odaaphon":2833,"▁chaahatee":2834,"▁4jeebee":2835,"▁avas":2836,"▁skainar":2837,"aares":2838,"▁visha":2839,"▁8jeebee":2840,"veen":2841,"▁dard":2842,"▁kainavas":2843,"tra":2844,"ub":2845,"▁pement":2846,"▁haik":2847,"▁ektiv":2848,"▁85":2849,"▁banaate":2850,"▁kram":2851,"▁lokapriy":2852,"aark":2853,"▁komp":2854,"▁phorm":2855,"ataur":2856,"▁emaee":2857,"▁karen,":2858,"▁rahen":2859,"▁entee":2860,"▁aadhikaarik":2861,"▁hamaara":2862,"▁shuruaatee":2863,"▁sambhaavana":2864,"eta":2865,"▁had":2866,"▁evan":2867,"aavat":2868,"▁samsung":2869,"▁rananeeti":2870,"▁aaait":2871,"▁300":2872,"▁chan":2873,"▁taree":2874,"▁jinamen":2875,",499":2876,"▁chammach":2877,"▁hava":2878,"aaron":2879,"abaig":2880,"reet":2881,"▁95":2882,"▁aakhir":2883,"▁kaan":2884,"▁mid":2885,"▁inta":2886,"▁bhojan":2887,"eja":2888,"▁imph":2889,"abhok":2890,"▁tanaav":2891,"dai":2892,"aahat":2893,"▁bijan":2894,"▁sevan":2895,"aatr":2896,"phtaar":2897,"▁gendon":2898,"ardha":2899,"▁hedaphon":2900,"skreen":2901,"▁tareeka":2902,"vaan":2903,"vish":2904,"▁q":2905,"▁haid":2906,"▁atha":2907,"▁maheenon":2908,"apoorn":2909,"▁oorja":2910,"▁athava":2911,"▁phoks":2912,"▁512":2913,"▁49":2914,"▁rupaye)":2915,"▁jyaadaatar":2916,"▁peees":2917,"▁veeoel":2918,"▁maanana":2919,"▁paasavard":2920,"▁aayojit":2921,"▁antim":2922,"▁nijee":2923,"▁digree":2924,"▁hindee":2925,"▁entree":2926,"-l":2927,"16":2928,"inee":2929,"▁rim":2930,"▁44":2931,"ayaan":2932,"▁skoda":2933,"▁kvik":2934,"▁koriya":2935,"▁aksar":2936,"▁meetar":2937,"▁kont":2938,"▁tokataim":2939,"▁tachaskreen":2940,"aaga":2941,"▁laal":2942,"▁laag":2943,"▁vodaaphon":2944,"veet":2945,"▁upabhok":2946,"▁soochana":2947,"▁global":2948,"▁baatachee":2949,"▁bel":2950,"▁laabh":2951,"▁vot":2952,"▁aau":2953,"▁inake":2954,"▁chhah":2955,"▁shoroom":2956,"▁baaten":2957,"▁bech":2958,"▁tebal":2959,"▁speshal":2960,"▁bayaan":2961,"▁jh":2962,"▁chauk":2963,"▁chainal":2964,"▁banee":2965,"▁banaakar":2966,"▁spin":2967,"▁likha":2968,"▁ganv":2969,"▁oktaakor":2970,"800":2971,"asth":2972,"▁400":2973,"▁lonching":2974,"iyonee":2975,"▁subah":2976,"▁eyarabaig":2977,"▁vyaayaam":2978,"▁dhonee":2979,"▁baatacheet":2980,",9":2981,"▁yo":2982,"eraatee":2983,"▁dikhaaya":2984,"▁maaseraatee":2985,"▁sikyoritee":2986,"biya":2987,"oy":2988,"▁mish":2989,"▁mais":2990,"aimp":2991,"▁rahega":2992,"▁divaalee":2993,"▁pae":2994,"rejee":2995,"▁jinhen":2996,"▁aaraam":2997,"▁haathon":2998,"▁jeepeeaares":2999,"▁mahatvapoorn":3000,"-vee":3001,"14":3002,"▁sai":3003,"ros":3004,"▁raphtaar":3005,"ragan":3006,"▁vaapas":3007,"▁gauratalab":3008,"aarantee":3009,"▁niyamit":3010,"▁shreyas":3011,"onai":3012,"ada":3013,"rod":3014,"▁pras":3015,"▁skool":3016,"taix":3017,"▁rileej":3018,"▁vishvaas":3019,"mi":3020,"yog":3021,"▁baakee":3022,"▁vahee":3023,"yota":3024,"o,":3025,"eted":3026,"ing,":3027,"▁aaeeoes":3028,"▁1080":3029,"▁painaasonik":3030,"▁baalon":3031,"-speed":3032,"-j":3033,"▁jiyaomee":3034,"▁parivaar":3035,"▁5000":3036,"ents":3037,"▁pahunche":3038,"▁tasveeren":3039,"▁rajistreshan":3040,"had":3041,"▁ash":3042,"▁aqu":3043,"▁jiyonee":3044,"▁liye":3045,"chai":3046,"▁denge":3047,"▁jaanakaar":3048,"▁bhavish":3049,"▁pareshaanee":3050,"▁phaisala":3051,"▁laagoo":3052,"pai":3053,"▁kla":3054,"▁han":3055,"▁khushee":3056,"▁phal":3057,"▁traansamishan":3058,"elee":3059,"tab":3060,"▁kait":3061,"▁ht":3062,"▁sehat":3063,"▁hokar":3064,"▁shoot":3065,"▁phrem":3066,"▁shaimp":3067,"▁korning":3068,"▁itanee":3069,"▁angrejee":3070,"15":3071,"▁mar":3072,"▁phyool":3073,"▁bheetar":3074,"apaid":3075,"▁baaton":3076,"▁banaee":3077,"▁saste":3078,"▁staindard":3079,"▁vitaamin":3080,"-ch":3081,"iree":3082,"mm":3083,"▁niyant":3084,"▁toyota":3085,"▁dijaayan":3086,"▁cheejen":3087,"▁thodee":3088,"sapp":3089,"▁maal":3090,"▁laid":3091,"akal":3092,"▁nam":3093,"hara":3094,"▁jodee":3095,"▁rahana":3096,"▁disk":3097,"▁f/2":3098,"▁kvaadakor":3099,"▁zain":3100,"▁badhatee":3101,"▁chunautee":3102,"▁kheen":3103,"▁vig":3104,"ame":3105,"▁pray":3106,"seesee":3107,"▁dooree":3108,"▁tumhen":3109,"ichaarj":3110,"▁mon":3111,"▁mir":3112,"▁aus":3113,"▁gaij":3114,"▁35":3115,"teen":3116,"▁praiv":3117,"▁ank":3118,"hatsapp":3119,"▁pooch":3120,"-shoroom":3121,"-t":3122,"pat":3123,"▁richaarj":3124,"▁vyav":3125,"▁aakaar":3126,"olooshan":3127,"▁sambhav":3128,"▁gaeen":3129,"ipee":3130,"ava":3131,"▁sentar":3132,"▁photoj":3133,"▁maanen":3134,"▁sensar,":3135,"▁poorv":3136,"▁shodh":3137,"▁aankhon":3138,"▁ausat":3139,"isthit":3140,"▁reno":3141,"▁taiks":3142,"estor":3143,"aship":3144,"▁vishesha":3145,"▁phul-":3146,"▁vaayaras":3147,"▁prabhaavit":3148,"▁bhavishy":3149,"aagar":3150,"▁kaisha":3151,"adon":3152,"▁kumaar":3153,"▁philmon":3154,"▁khabaron":3155,"▁phitanes":3156,"▁ematee67":3157,"▁vibhinn":3158,"brid":3159,"nee":3160,"habar":3161,"▁sant":3162,"▁mich":3163,"▁haibrid":3164,"▁isako":3165,"▁karanee":3166,"▁koch":3167,"esee":3168,"▁1280":3169,"▁mashah":3170,"▁mashahoor":3171,"-3":3172,"harm":3173,"▁‘m":3174,"tiph":3175,"▁snaipadragan":3176,"▁padhe:":3177,"▁bijanes":3178,"aabee":3179,"▁kost":3180,"▁aai":3181,"ahaar":3182,"▁paristhit":3183,"▁2jee":3184,"▁kamaj":3185,"▁34":3186,"aapa":3187,"▁bhaag":3188,"▁altra":3189,"kshan":3190,"▁ana":3191,"▁mool":3192,"pana":3193,"▁chhak":3194,"▁dikkat":3195,"▁vai-phai,":3196,"itai":3197,"ojee":3198,"paid":3199,"▁mimee":3200,"▁neen":3201,"▁vin":3202,"abuk":3203,"▁ul":3204,"▁shauk":3205,"▁blaikab":3206,"▁minee":3207,"▁puraanee":3208,"▁tumh":3209,"-20":3210,"▁sid":3211,"▁paate":3212,"▁aath":3213,"▁yaat":3214,"▁jeeechajed":3215,"aabaad":3216,"▁dekhana":3217,"▁kainsar":3218,"▁prakriya":3219,"▁noobiya":3220,"vin":3221,"ang":3222,"▁dheere":3223,"▁karaane":3224,"▁shaadee":3225,"▁pres":3226,"▁lagega":3227,"▁mauke":3228,"▁risar":3229,"▁paisenjar":3230,"gyaan":3231,"anal":3232,"▁lg":3233,"▁intaix":3234,"▁chin":3235,"▁oon":3236,"avai":3237,"▁tarbo":3238,"▁raidmi":3239,"▁mit":3240,"aant":3241,"▁mile":3242,"▁modals":3243,"▁whatsapp":3244,"▁sundar":3245,"▁dekhakar":3246,"▁phesing":3247,"▁kaishabaik":3248,"▁ltai":3249,"ooj":3250,"▁aaid":3251,"▁ekses":3252,"▁lagate":3253,"▁mailej":3254,"▁sans":3255,"▁dikhane":3256,"ashyak":3257,"▁kaaranaam":3258,"▁bharo":3259,"▁kaale":3260,"iz":3261,"oled":3262,"▁kata":3263,"▁rij":3264,"ikchar":3265,"▁kaary":3266,"▁bhaaree":3267,"aatak":3268,"▁padhen-":3269,"▁paartan":3270,"▁ghz":3271,"▁tasveer":3272,"dhata":3273,"asit":3274,"▁heero":3275,"▁4k":3276,"▁honar":3277,"emaee":3278,"veejeee":3279,"▁kanj":3280,"▁badho":3281,"▁sels":3282,"▁baje":3283,"▁pletaphorm":3284,"istar":3285,"▁met":3286,"▁miliyan":3287,"▁(eks":3288,"▁jinakee":3289,"▁kapil":3290,"▁taip-see":3291,"▁kaipchar":3292,"▁badhotaree":3293,"sak":3294,"aard":3295,"▁raas":3296,"aastav":3297,"▁prograam":3298,"▁rakhata":3299,"▁varld":3300,"▁madh":3301,"▁anusaar,":3302,"▁salaah":3303,"reno":3304,"-dheere":3305,"▁doktar":3306,"▁risarch":3307,"▁roshan":3308,"▁jeepeees/":3309,"achenj":3310,"▁michro":3311,"king":3312,"▁phu":3313,"endar":3314,"thy":3315,"shatak":3316,"▁khelana":3317,"▁khilaadee":3318,"aseedee":3319,"▁kitanee":3320,"▁nyooj":3321,"▁galatee":3322,"70":3323,"▁ardha":3324,"eeem":3325,"▁push":3326,"▁maap":3327,"▁jeees":3328,"▁milate":3329,"▁lagaen":3330,"▁veeikal":3331,"▁daalen":3332,"▁maisejing":3333,"▁rakhakar":3334,"▁saajh":3335,"▁dimaag":3336,"▁klaasik":3337,"▁intajaar":3338,"▁visheshag":3339,"▁dheere-dheere":3340,"uda":3341,"yu":3342,"▁maalee":3343,"▁desha":3344,"▁nau":3345,"aapha":3346,"aint":3347,"▁seem":3348,"▁seeee":3349,"▁shak":3350,"▁phain":3351,"▁maang":3352,"▁hisse":3353,"▁vheel":3354,"▁htch":3355,"ve":3356,"▁saav":3357,"▁mun":3358,"▁des":3359,"▁(2":3360,"▁eksachenj":3361,"▁indast":3362,"▁the,":3363,"▁edreno":3364,"▁gold,":3365,"▁neend":3366,"▁bharosa":3367,"▁ardhashatak":3368,"bit":3369,"has":3370,"an,":3371,"▁vel":3372,"aalay":3373,"▁khaate":3374,"undee":3375,"▁600":3376,"▁bole":3377,"▁yoonivars":3378,"77":3379,"fonai":3380,"yolooshan":3381,"▁kadee":3382,"▁800":3383,"▁doodh":3384,"▁esemes":3385,"▁vikasit":3386,"▁vaigyaan":3387,"▁badhakar":3388,"▁shikaar":3389,"▁prodakts":3390,"▁kaaryakram":3391,"32":3392,"▁guru":3393,"▁inph":3394,"▁magar":3395,"▁banane":3396,"▁indiyan":3397,"▁sudhaar":3398,"▁elaseedee":3399,"raman":3400,"▁varshon":3401,"▁popular":3402,"jie":3403,"ino":3404,"▁duk":3405,"▁dhe":3406,"▁ring":3407,"▁vip":3408,"▁tveet":3409,"esajee":3410,"▁360":3411,"▁tren":3412,"▁nirmaan":3413,"▁pree-":3414,"--------":3415,"▁baay":3416,"▁khoj":3417,"aveyar":3418,"▁jisapar":3419,"▁skreen,":3420,"▁khela":3421,"▁dileet":3422,"▁khoobasoorat":3423,"▁blaikaberee":3424,"▁kaaranaama,":3425,",500":3426,"-6":3427,"▁tim":3428,"▁yak":3429,"▁jeep":3430,"▁16jeebee":3431,"-sim":3432,"▁yaadav":3433,"▁raiad":3434,"▁klaud":3435,"▁saajhedaaree":3436,"300":3437,"▁morai":3438,"▁kahaan":3439,"▁vaarantee":3440,"▁bhool":3441,"thaas":3442,"▁banaana":3443,"▁app":3444,"▁niraash":3445,"aarth":3446,"enament":3447,"▁lih":3448,"▁gaane":3449,"apaas":3450,"▁kaimar":3451,"▁anok":3452,"phail":3453,"▁2500":3454,"▁pothaas":3455,"achaar":3456,"▁sinh":3457,"▁beemaaree":3458,"80x1920":3459,"-jeepeees,":3460,"▁paartanar":3461,"▁kanjyoom":3462,"yaapan":3463,"ilee":3464,"phaee":3465,"▁aajakal":3466,"▁traansaphar":3467,"▁vishay":3468,"▁ganvaane":3469,"ela":3470,"eem":3471,"▁peed":3472,"▁intee":3473,"▁82":3474,"▁upalabdhata":3475,"ujav":3476,"▁aasapaas":3477,"▁darj":3478,"▁teenon":3479,"▁kantent":3480,"▁karava":3481,",2":3482,"ech":3483,"▁bur":3484,"▁dham":3485,"adam":3486,"dhi":3487,"▁plestor":3488,"▁32gb":3489,"epar":3490,"▁blaik,":3491,"▁deshabhar":3492,"pr":3493,"▁hat":3494,"ikan":3495,"atam":3496,"▁samaan":3497,"aaka":3498,"▁seedhe":3499,"▁phrend":3500,"kareeb":3501,"▁kvol":3502,"▁rahegee":3503,"▁vikaas":3504,"▁veel":3505,"▁tekst":3506,"▁kitana":3507,"▁yootyoob":3508,"▁tebalet":3509,"▁morai:":3510,"65":3511,"egaapiksal":3512,"tikal":3513,"▁med":3514,"▁yujav":3515,"▁uttar":3516,"▁enesajee":3517,"▁rejyolooshan":3518,"▁charcha":3519,"▁paida":3520,"▁yujavendr":3521,"a2":3522,"baara":3523,"aich":3524,"▁ras":3525,"abhee":3526,"chabaik":3527,"etik":3528,"▁deelar":3529,"▁prophail":3530,"▁adhikatar":3531,"▁juda":3532,"▁haan,":3533,"▁bhugat":3534,"▁ashvin":3535,"▁hara":3536,"▁meham":3537,"roport":3538,"▁3g":3539,"▁aaeepee":3540,"▁kvoch":3541,"▁chaahe":3542,"▁upay":3543,"agaar":3544,"▁bajaaj":3545,"▁ophars":3546,"▁sadas":3547,"▁jeeteees":3548,"▁yakeen":3549,"▁kvochroport":3550,"pur":3551,"▁loom":3552,"▁phord":3553,"▁aaipee":3554,"▁proph":3555,"▁seesee":3556,"▁upakar":3557,"-2":3558,"-r":3559,"▁pol":3560,"▁vist":3561,"▁hain?":3562,"royad":3563,"laga":3564,"ishiyal":3565,"▁unamen":3566,"▁teleek":3567,"▁manga":3568,"▁kred":3569,"▁sastee":3570,"echapee":3571,"▁gendabaajon":3572,"▁sephtee":3573,"▁maisenjar":3574,",7":3575,"nal":3576,"▁bud":3577,"▁haichabaik":3578,"▁dit":3579,"▁jhata":3580,"▁roo":3581,"▁raah":3582,"aanv":3583,"▁tal":3584,"▁yog":3585,"▁badhat":3586,"▁rakt":3587,"▁90":3588,"▁maarkit":3589,"▁ghoom":3590,"▁aavashyak":3591,"ihaas":3592,"▁ilektroniks":3593,"pairi":3594,"▁kamajor":3595,"▁lihaaj":3596,"▁som":3597,"▁nid":3598,"▁aaie":3599,"amp":3600,"▁67":3601,"emand":3602,"▁sangee":3603,"▁povar":3604,"▁patala":3605,"▁hiss":3606,"▁rikording":3607,"▁elateeee,":3608,"▁chinta":3609,"▁nis":3610,"▁esh":3611,"▁aaegee":3612,"▁1000":3613,"▁uchch":3614,"▁42":3615,"▁(20":3616,"▁dobaara":3617,"▁vaib":3618,"▁svaas":3619,"▁svasth":3620,"▁prodakshan":3621,"▁amerikee":3622,"▁jadeja":3623,"avaigan":3624,"▁seeeeo":3625,"▁anil":3626,"▁sabj":3627,"▁dillee)":3628,"akaraar":3629,"areej":3630,"▁barakaraar":3631,"▁bachaane":3632,"▁pareeksha":3633,"▁shaimpen":3634,"▁kredit":3635,"/1":3636,"aral":3637,"▁dot":3638,"▁aj":3639,"▁kaich":3640,"▁hend":3641,"▁hyoon":3642,"▁mota":3643,"▁tee20":3644,"▁75":3645,"▁bataaya,":3646,"▁draivar":3647,"mbheer":3648,"▁jeepeeaares/":3649,"ks":3650,"lanka":3651,"heel":3652,"▁vaastav":3653,"▁gambheer":3654,"aadha":3655,"aayat":3656,"antree":3657,"▁abhy":3658,"▁jariye":3659,"▁nirbhar":3660,"▁sandesh":3661,"▁dikha":3662,"▁shreelanka":3663,"▁rakhatee":3664,"▁jaapaan":3665,"▁namak":3666,"18":3667,"rit":3668,"vas":3669,"▁svee":3670,"▁byoo":3671,"▁rod":3672,"▁shod":3673,"ejal":3674,"▁emoled":3675,"▁kahatee":3676,"▁banaen":3677,"▁jinake":3678,"▁noki":3679,"obail":3680,"▁bengal":3681,"▁prayaas":3682,"▁bhugataan":3683,"agar":3684,"i-":3685,"▁maip":3686,"▁bain":3687,"▁non":3688,"▁niv":3689,"▁phin":3690,"oorn":3691,"▁rob":3692,"▁itane":3693,"▁svaip":3694,"▁tabhee":3695,"▁lainovo":3696,"▁zainfonai":3697,"▁yoonivarsitee":3698,"▁teleekom":3699,"▁jhataka":3700,"▁abhyaas":3701,"ar,":3702,"▁saken":3703,"▁kho":3704,"▁jeeta":3705,"▁chayan":3706,"▁seedha":3707,"▁(s":3708,"▁sapt":3709,"regan":3710,"▁haindasets":3711,"istaan":3712,"▁suv":3713,"▁leval":3714,"-bit":3715,"▁peteeem":3716,"▁analok":3717,"▁shaharon":3718,"▁ijaapha":3719,"▁upakaran":3720,"▁said":3721,"▁vaatar":3722,"▁tik":3723,"asik":3724,"▁bhoom":3725,"▁padega":3726,"▁banaatee":3727,"▁chaahata":3728,"▁veevo":3729,"▁xpairi":3730,"▁bharapoor":3731,"▁staart":3732,"▁ilektronik":3733,"▁chauke":3734,"▁yoga":3735,"▁hyoondai":3736,"i,":3737,"vaas":3738,"aach":3739,"▁mak":3740,"▁streem":3741,"▁adhikaaree":3742,"aagraam":3743,"▁lambee":3744,"▁abhin":3745,"▁desk":3746,"▁saptaah":3747,"▁rek":3748,"eshee":3749,"abaik":3750,"tars":3751,"▁37":3752,"▁maja":3753,"▁seekh":3754,"▁‘k":3755,"▁imojee":3756,"▁aaaipshan":3757,"▁vheekal":3758,"▁vigyaapan":3759,"▁roshanee":3760,"▁loomiya":3761,"lagabhag":3762,"diyon":3763,"haiya":3764,"haid":3765,"▁pul":3766,"▁apal":3767,"asap":3768,"▁inap":3769,"unik":3770,"upha":3771,"▁‘s":3772,"▁uts":3773,"▁edav":3774,"▁itihaas":3775,"▁arab":3776,"park":3777,"▁paisa":3778,"▁kin":3779,"araah":3780,"▁aim":3781,"on,":3782,"▁eg":3783,"▁setap":3784,"▁praty":3785,"▁leta":3786,"▁bajaay":3787,"▁paartee":3788,"▁taakat":3789,"▁sambhaal":3790,"▁jitana":3791,"▁seemit":3792,"▁nisaan":3793,"▁siy":3794,"ons":3795,"▁joom":3796,"aiai":3797,"iten":3798,"▁jee4":3799,"▁(lagabhag":3800,"▁kapade":3801,"▁64-bit":3802,"▁philmen":3803,"▁muhaiya":3804,"▁besd":3805,"▁koolapaid":3806,"▁voltai,":3807,"▁indastree":3808,"▁hendaset":3809,"-cha":3810,"ls":3811,"▁kendr":3812,"amain":3813,"▁pary":3814,"itv":3815,"▁inaka":3816,"iyaab":3817,"irai":3818,"▁baitha":3819,"▁(kareeb":3820,"▁ladak":3821,"aavaran":3822,"▁aaipeees":3823,"▁somavaar":3824,"▁sadee":3825,"▁bet":3826,"▁vyoo":3827,"ason":3828,"▁chek":3829,"▁shaayad":3830,"▁mach":3831,"▁sampark":3832,"▁baithe":3833,"▁padhane":3834,"▁jaanie":3835,"tament":3836,"▁voch":3837,"▁asus":3838,"glai":3839,"▁kontekt":3840,"▁bhoomika":3841,"▁apalod":3842,"▁inaput":3843,"/bee":3844,"vig":3845,"▁mp":3846,"ilai":3847,"▁naino":3848,"teejee":3849,"▁prais":3850,"▁samb":3851,"▁(720":3852,"▁eek":3853,"asht":3854,"▁aanand":3855,"▁ballebaajon":3856,"▁esa6":3857,"▁gujaraatee":3858,"▁svaasthy":3859,"▁ped":3860,"▁paak":3861,"▁bum":3862,"▁4,":3863,"▁jeemel":3864,"▁emb":3865,"raee":3866,"▁blootuth":3867,"▁daala":3868,"▁letee":3869,"▁salaamee":3870,"▁instaagraam":3871,"ephatee":3872,"▁yoorop":3873,"▁shodhakar":3874,"▁bumaraah":3875,"get":3876,"riyar":3877,"▁kaab":3878,"haree":3879,"araashtreey":3880,"▁mana":3881,"▁kad":3882,"aks":3883,"▁riyal":3884,"▁vail":3885,"▁kamar":3886,"▁prer":3887,"▁84":3888,"emeech":3889,"▁peedee":3890,"▁khabaren":3891,"▁phankshan":3892,"▁guruvaar":3893,"aajan":3894,"▁paid":3895,"▁bord":3896,"enel":3897,"tebal":3898,"▁820":3899,"▁milaakar":3900,"▁enj":3901,"istent":3902,"▁saamana":3903,"▁64jeebee":3904,"▁duniyaab":3905,"▁snaipadregan":3906,"▁purush":3907,"▁videsh":3908,"▁215":3909,"▁phaayademand":3910,"▁paraphormens":3911,"▁phul-echadee":3912,"▁katautee":3913,"▁bold":3914,"ampar":3915,"▁echapee":3916,"osport":3917,"▁antararaashtreey":3918,"▁smith":3919,"▁saajha":3920,"▁sports":3921,"▁kompaikt":3922,"▁duniyaabhar":3923,"sitee":3924,"uch":3925,"aagat":3926,"▁mareej":3927,"andh":3928,"▁bail":3929,"▁dast":3930,"▁jade":3931,"▁vent":3932,"▁yaan":3933,"aayam":3934,"aayatee":3935,"▁max":3936,"aareerik":3937,"▁padaarth":3938,"▁endar":3939,"▁paud":3940,"▁beeechapee":3941,"▁shikaayat":3942,"▁gems":3943,"▁visheshataon":3944,"▁phoksavaigan":3945,"▁klee":3946,"▁pepar":3947,"▁manee":3948,"▁hata":3949,"▁dava":3950,"▁jasap":3951,"▁nai":3952,"▁ram":3953,"▁ton":3954,"▁hundee":3955,"▁aatm":3956,"▁odee":3957,"▁emai":3958,"henge":3959,"▁huaave":3960,"▁teeephatee":3961,"▁nirn":3962,"▁bataate":3963,"▁likvid":3964,"▁halka":3965,"▁vaayarales":3966,"▁sangeet":3967,"▁jasapreet":3968,"-g":3969,"49":3970,"dablyoo":3971,"icha":3972,"zal":3973,"eeph":3974,"▁s8":3975,"▁soor":3976,"▁sheer":3977,"chaee":3978,"▁4gb":3979,"deeda":3980,"▁chak":3981,"▁jedateeee":3982,"▁jeb":3983,"-megaapiksal":3984,"▁veeoelateeee":3985,"igar":3986,"lus":3987,"ret":3988,"▁sara":3989,"▁vil":3990,"alait":3991,"▁shaareerik":3992,"▁joda":3993,"▁honor":3994,"▁stok":3995,"otenament":3996,"▁seen":3997,"▁jarm":3998,"▁hogee,":3999,"▁pasandeeda":4000,"▁jeetane":4001,"▁this":4002,"eleedee":4003,"ww":4004,"▁bij":4005,"▁tool":4006,"▁aal":4007,"▁aahaar":4008,"abaar":4009,"▁tatv":4010,"▁jode":4011,"▁deezal":4012,"▁saalon":4013,"▁ghanton":4014,"▁ovaron":4015,"▁phesal":4016,"▁reting":4017,"▁phaayade":4018,"ripshan":4019,"▁deskatop":4020,"▁pratyek":4021,"thar":4022,"anj":4023,"▁haikars":4024,"▁dho":4025,"▁dharm":4026,"▁lakshan":4027,"ooglai":4028,"alon":4029,"beees":4030,"▁(10":4031,"chchha":4032,"▁intaraph":4033,"▁kalars":4034,"▁fl":4035,"▁kroo":4036,"▁kitane":4037,"ionaiai":4038,"▁opanar":4039,"▁projekt":4040,"yata":4041,"astha":4042,"▁3gb":4043,"▁to,":4044,"▁seejan":4045,"▁rakta":4046,"▁badalane":4047,"max":4048,"▁dabaav":4049,"▁beemaariyon":4050,"▁neksas":4051,"▁tamaam":4052,"▁vistaar":4053,"▁phinish":4054,"gen":4055,"▁paal":4056,"▁ditel":4057,"abar":4058,"uking":4059,"▁kanekshan":4060,"▁jaega,":4061,"▁pheesad":4062,"▁samajha":4063,"▁dekhen:":4064,"▁aakhiree":4065,",900":4066,"▁endarasan":4067,"62":4068,"ba":4069,"maan":4070,"▁soot":4071,"anaak":4072,"▁best":4073,"▁dablyoo":4074,"▁vrd":4075,"▁aashan":4076,"ama":4077,"▁gionaiai":4078,"▁inaph":4079,"▁proses":4080,"eshan,":4081,"▁optikal":4082,"▁lagaee":4083,"▁dekar":4084,"▁varana":4085,"▁lagjaree":4086,"▁jenareshan":4087,"▁kitaab":4088,"▁bachane":4089,"▁sheersh":4090,"600":4091,"jab":4092,"odee":4093,"▁sail":4094,"▁naak":4095,"▁phold":4096,"▁gol":4097,"▁2-1":4098,"▁chaal":4099,"▁laind":4100,"▁shu":4101,"▁usen":4102,"▁thak":4103,"▁deval":4104,"▁pratib":4105,"▁maanasik":4106,"▁masheen":4107,"▁garmee":4108,"▁chunaav":4109,"leevud":4110,"▁mishel":4111,"▁yaatra":4112,"▁aaidiya":4113,"▁ringing":4114,"▁phesalipht":4115,"54":4116,"uta":4117,"adablyoo":4118,"▁nevig":4119,"▁pra":4120,"▁835":4121,"▁yooz":4122,"▁densitee":4123,"▁chaarjar":4124,"akaard":4125,"▁kolak":4126,"riyal":4127,"▁lokal":4128,"▁mahilaen":4129,"rday":4130,"oovebal":4131,"▁aashanka":4132,"-en":4133,"resh":4134,"xail":4135,"▁pe":4136,"▁pent":4137,"▁mek":4138,"ensee":4139,"▁nait":4140,"aanak":4141,"▁phood":4142,"▁yukt":4143,"▁shot":4144,"▁khaen":4145,"▁eksat":4146,"▁daud":4147,"▁upachaar":4148,"▁testing":4149,"▁reg":4150,"▁jaanakaariyaan":4151,"je":4152,"▁*":4153,"▁maay":4154,"hand":4155,"▁39":4156,"▁tod":4157,"▁prab":4158,"▁sabsak":4159,"▁pada":4160,"seee":4161,"▁niraasha":4162,"▁2014":4163,"▁frai":4164,"▁yuaan":4165,"▁jeepeees/e":4166,"▁edavaans":4167,"▁sadeera":4168,"▁paakistaan":4169,"▁thisaara":4170,"▁bijalee":4171,"haav":4172,"oshan":4173,"vik":4174,"▁dhee":4175,"▁jon":4176,"aang":4177,"▁ekadam":4178,"▁48":4179,"▁lav":4180,"▁bhaav":4181,"▁62":4182,"ulat":4183,"▁blad":4184,"▁maith":4185,"▁beeta":4186,"▁vois":4187,"▁ilaaj":4188,"▁phreedam":4189,"▁videshee":4190,"▁janareshan":4191,"▁karavaaya":4192,"▁720x1280":4193,"▁praivet":4194,"▁paristhitiyon":4195,"▁kvolakom":4196,"▁yaani":4197,"bol":4198,"ft":4199,"vaad":4200,"▁ip":4201,"▁aara":4202,"▁mehan":4203,"▁taap":4204,"▁hrday":4205,"▁aaikan":4206,"rom":4207,"▁6,999":4208,"▁engal":4209,"▁jinhonne":4210,"▁64gb":4211,"▁kors":4212,"▁plaant":4213,"▁1920":4214,"▁aankade":4215,"jeeniyar":4216,"▁tasveeron":4217,"▁shabdon":4218,"▁kramash":4219,"▁ditekshan":4220,"▁saik":4221,"▁saans":4222,"▁e/bee":4223,"▁shuk":4224,"▁smaartavo":4225,"▁prast":4226,"oge":4227,"eshvar":4228,"▁sapana":4229,"▁baleno":4230,"▁chhaatr":4231,"▁suparabaik":4232,"▁dileevaree":4233,"i-fi":4234,"▁kolakaata":4235,"▁kre":4236,"▁mel":4237,"akta":4238,"▁tes":4239,"▁phest":4240,"hanee":4241,"▁chha":4242,"aimps":4243,"▁veeaar":4244,"▁daure":4245,"▁badaulat":4246,"▁parsanal":4247,"▁vibhaag":4248,"▁pletaphaarm":4249,"▁spinar":4250,"▁santul":4251,"/3":4252,"gai":4253,"nd":4254,"sal":4255,"▁dur":4256,"▁kahee":4257,"▁raash":4258,"▁aayar":4259,"▁310":4260,"▁keematon":4261,"▁disha":4262,"▁16gb":4263,"▁9,999":4264,"▁amaree":4265,"▁glon":4266,"▁hoon,":4267,"▁vairients":4268,"▁janaret":4269,"▁tvin":4270,"▁bhejane":4271,"▁draiving":4272,"▁yuvaon":4273,"▁vyaap":4274,"▁kyooechadee":4275,"▁giraavat":4276,"▁apagreded":4277,"▁pixail":4278,"▁ghatana":4279,"▁kramash:":4280,"a1":4281,"▁air":4282,"asar":4283,"asen":4284,"▁gha":4285,"▁gro":4286,"▁gus":4287,"▁injeeniyar":4288,"▁74":4289,"aiplus":4290,"▁aaeepaid":4291,"tamaan":4292,"▁paee":4293,"▁93":4294,"istree":4295,"-baar":4296,"▁nyootan":4297,"▁projektar":4298,"▁jeeesatee":4299,"▁bengaluru":4300,"etar":4301,"uon":4302,"▁kiye":4303,"inaam":4304,"▁pita":4305,"▁mait":4306,"tair":4307,"▁lakam":4308,"gab":4309,"gaj":4310,"▁ech":4311,"▁aaenge":4312,"iyok":4313,"▁650":4314,"▁padh":4315,"▁banaata":4316,"▁skeen":4317,"karan":4318,"▁khaasataur":4319,"▁vaeephaee":4320,"▁sahit":4321,"▁achaanak":4322,"▁jaengee":4323,"▁sted":4324,"▁khushak":4325,"-speekars":4326,"▁vivo":4327,"▁aaiphon":4328,"▁nivesh":4329,"▁lakamal":4330,"sil":4331,"ts":4332,"▁mud":4333,"▁mars":4334,"aii":4335,"adhaan":4336,"▁gipht":4337,"aayata":4338,"▁prem":4339,"oto":4340,"iteej":4341,"▁baar-baar":4342,"▁ee-":4343,"▁janm":4344,"▁khataranaak":4345,"▁motarasaikil":4346,"▁aipal":4347,"▁aaeepeeel":4348,"▁sveekaar":4349,"▁pulis":4350,"▁mehanat":4351,"▁taapamaan":4352,"▁stediyam":4353,"▁du":4354,"▁dhoon":4355,"▁kaib":4356,"▁taaja":4357,"▁gul":4358,"orn":4359,"roid":4360,"▁kamaal":4361,"lavaar":4362,"yoot":4363,"▁steshan":4364,"▁alart":4365,"▁chalaane":4366,"▁mainy":4367,"▁phaishan":4368,"umaan":4369,"▁kapoor":4370,"▁ichchha":4371,"▁sunane":4372,"▁ghaatak":4373,"aadhaaran":4374,"▁darasal,":4375,"▁joradaar":4376,"▁niyantrit":4377,"▁mooly":4378,"hasaas":4379,"▁phestiv":4380,"uchh":4381,"▁saar":4382,"inda":4383,"ingat":4384,"▁nar":4385,"chual":4386,"▁ruk":4387,"▁vaay":4388,"iya,":4389,"▁57":4390,"▁khy":4391,"aikro":4392,"ivar":4393,"▁seema":4394,"▁khade":4395,"indar":4396,"▁onaiplus":4397,"▁teleev":4398,"greted":4399,"▁uthaaya":4400,"▁sains":4401,"▁nideshak":4402,"▁samband":4403,"▁khushakhabar":4404,"53":4405,"be":4406,"▁sig":4407,"antar":4408,"▁ata":4409,"▁aik":4410,"▁jolo":4411,"aiph":4412,"aathee":4413,"reey":4414,"▁ek-d":4415,"▁shren":4416,"▁badhate":4417,"shiyal":4418,"▁88":4419,"▁skeem":4420,"▁bag":4421,"▁baarish":4422,"▁aaeedee":4423,"▁vartamaan":4424,"▁play":4425,"▁chalaaya":4426,"▁4jee,":4427,"sept":4428,"▁128jeebee":4429,"▁bhale":4430,"▁bachat":4431,"▁aamataur":4432,"▁daayarektar":4433,"▁aaaito":4434,"▁upabhokta":4435,"▁upabhoktaon":4436,"▁vaigyaanikon":4437,"▁pree-ordar":4438,"▁mangalavaar":4439,"▁intaraphes":4440,"1)":4441,"jaan":4442,"ov":4443,"ped":4444,"rti":4445,"havaar":4446,"▁per":4447,"isk":4448,"▁jha":4449,"▁kair":4450,"▁googlai":4451,"▁taiv":4452,"▁2gb":4453,"dhon":4454,"▁dekhee":4455,"aidom":4456,"▁edit":4457,"▁sahaayata":4458,"▁wi-fi":4459,"▁aayojan":4460,"▁eksapo":4461,"▁diggaj":4462,"adhaanee":4463,"▁beeesenel":4464,"▁shaukeen":4465,"▁budhavaar":4466,"▁(720x1280":4467,"▁vrddhi":4468,"▁smaartavoch":4469,"aaz":4470,"▁bon":4471,"▁kath":4472,"▁riv":4473,"▁ebeees":4474,"▁utaree":4475,"▁usb":4476,"▁gril":4477,"▁pratik":4478,"▁teemon":4479,"▁votar":4480,"▁upaay":4481,"▁250":4482,"▁sony":4483,"rama":4484,"▁aankada":4485,"▁halke":4486,"▁dabal":4487,"adhi":4488,"▁sankraman":4489,"▁veelj":4490,"▁teleevijan":4491,"▁sambandhee":4492,"**":4493,"les":4494,"pons":4495,"s)":4496,"▁kra":4497,"ins":4498,"iniyam":4499,"▁pok":4500,"▁big":4501,"▁day":4502,"▁mega":4503,"▁ly":4504,"▁mein,":4505,"ikee":4506,"▁parinaam":4507,"ekhar":4508,"▁4ke":4509,"▁6es":4510,"▁chamak":4511,"peeaee":4512,"vars":4513,"▁blok":4514,"▁saphar":4515,"garee":4516,"▁dinesh":4517,"▁shurooaat":4518,"▁dhoop":4519,"▁modalon":4520,"▁sujhaav":4521,"spot":4522,"▁haardaveyar":4523,"▁rishte":4524,"▁avasar":4525,"▁hans":4526,"▁michromax":4527,"▁peedeeeeph":4528,"▁shukr":4529,"kan":4530,"▁“":4531,"▁999":4532,"▁kuk":4533,"▁bi":4534,"isamen":4535,"▁hair":4536,"▁dai":4537,"ootee":4538,"▁ish":4539,"aatron":4540,"▁par,":4541,"chal":4542,"▁ekt":4543,"ahar":4544,"▁oteejee":4545,"ateek":4546,"▁deep":4547,"ishk":4548,"▁20,000":4549,"▁nirantar":4550,"▁beete":4551,"▁bachcha":4552,"▁bechane":4553,"▁setings":4554,"▁nooga":4555,"▁robot":4556,"68":4557,"i":4558,"kon":4559,"▁hai-":4560,"▁jem":4561,"▁kaish":4562,"gad":4563,"▁kare":4564,"▁phij":4565,"▁pholo":4566,"ikom":4567,"▁gad":4568,"▁nauk":4569,"▁shor":4570,"▁baith":4571,"▁padhaee":4572,"▁skin":4573,"▁(em":4574,"▁72":4575,"▁aaeeem":4576,"▁sany":4577,"ograam":4578,"▁pree-b":4579,"aijeshan":4580,"▁avadhi":4581,"gres":4582,"▁skorakaard":4583,"▁hedaset":4584,"▁ailug":4585,"17)":4586,"▁bels":4587,"▁poochha":4588,"▁sansth":4589,"iyokon":4590,"utak":4591,"▁send":4592,"▁pabl":4593,"▁moovee":4594,"▁mantr":4595,"▁kat":4596,"▁tyo":4597,"phr":4598,"▁ghata":4599,"▁199":4600,"▁praar":4601,"▁print":4602,"▁kaarob":4603,"▁yooes":4604,"chho":4605,"▁blog":4606,"▁aaeebol":4607,"▁dhoom":4608,"▁kols":4609,"▁phlaish,":4610,"▁svaad":4611,"▁128gb":4612,"▁konsept":4613,"▁esa8":4614,"▁chaahenge":4615,"▁vyavahaar":4616,"▁dher":4617,"▁rekord":4618,"▁shodhakartaon":4619,"bl":4620,"ineej":4621,"▁pink":4622,"▁boj":4623,"▁nibh":4624,"esing":4625,"asha":4626,"▁38":4627,"▁laut":4628,"▁8gb":4629,"▁padane":4630,"▁padatee":4631,"▁baen":4632,"▁eeyar":4633,"▁kapadon":4634,"aadhaan":4635,"▁ganva":4636,"▁staartap":4637,"▁phaisale":4638,"▁mehamaan":4639,"▁byootee":4640,"▁paudar":4641,"▁khyaal":4642,"▁shrenee":4643,"edee":4644,"poorn":4645,"▁,":4646,"▁ir":4647,"▁iyar":4648,"▁laimp":4649,"▁raip":4650,"▁karaar":4651,"▁parda":4652,"▁1-":4653,"imitee":4654,"▁chaay":4655,"▁alk":4656,"ashaala":4657,"aahir":4658,"-sa":4659,"yaksh":4660,"▁prakaash":4661,"▁saathee":4662,"▁kiradaar":4663,"▁aaaitom":4664,"▁dharmashaala":4665,"▁groth":4666,"n,":4667,"ogee":4668,"riy":4669,"ta,":4670,"▁legee":4671,"▁nak":4672,"▁traee":4673,"ura":4674,"atan":4675,"▁phool":4676,"▁aaain":4677,"aathan":4678,"romeetar":4679,"araphon":4680,"▁baitar":4681,"▁dop":4682,"▁dohare":4683,"▁graind":4684,"▁pratid":4685,"▁beeem":4686,"▁nota":4687,"▁daalana":4688,"▁samasyaon":4689,"▁koold":4690,"▁2300":4691,"▁portal":4692,"▁bhuvan":4693,"▁chanvas":4694,"▁kheencha":4695,"▁shukravaar":4696,"▁bojh":4697,"-tar":4698,"biteej":4699,"ui":4700,"ux":4701,"uga":4702,"yaas":4703,"▁mis":4704,"▁mam":4705,"▁kee,":4706,"▁trai":4707,"phaayatee":4708,"asa":4709,"▁gaad":4710,"▁gati":4711,"▁aapase":4712,"▁shed":4713,"une":4714,"ejar":4715,"edan":4716,"▁proks":4717,"▁unako":4718,"saree":4719,"▁banaam":4720,"▁baitaree,":4721,"▁(m":4722,"▁devid":4723,"▁125":4724,"▁eks-shoroom":4725,"▁laanch,":4726,"▁geega":4727,"▁149":4728,"▁suvidhaen":4729,"▁kantrol,":4730,"▁(eks-shoroom":4731,"▁lyf":4732,"▁jems":4733,"-4":4734,"ow":4735,"waii":4736,"▁sat":4737,"▁paata":4738,"▁poj":4739,"▁naar":4740,"▁rol":4741,"alet":4742,"▁chik":4743,"▁36":4744,"▁samud":4745,"▁samaadhaan":4746,"aakaar":4747,"▁jaanavar":4748,"▁varchual":4749,"esabee,":4750,"-kros":4751,"▁sens":4752,"▁bikane":4753,"▁baajaaron":4754,"▁agala":4755,"▁vhot":4756,"▁riports":4757,"▁kilograam":4758,"▁mileemeetar":4759,"rtik":4760,"▁ailaan":4761,"▁insaan":4762,"▁shooting":4763,"▁gaijets":4764,"▁sidain":4765,"▁inteeriyar":4766,"▁streeming":4767,"▁khushakhabaree":4768,"▁pree-buking":4769,"▁proksimitee":4770,"gaahar":4771,"ral":4772,"saip":4773,"yular":4774,"▁iph":4775,"▁mast":4776,"▁dog":4777,"aarat":4778,"▁tig":4779,"▁1gb":4780,"▁tair":4781,"▁shiks":4782,"▁kiya,":4783,"ivaree":4784,"elo":4785,"▁tee-20":4786,"aaye":4787,"▁blu":4788,"raund":4789,"▁chalatee":4790,"▁hotaspot":4791,"areeban":4792,"▁boleevud":4793,"▁bachen":4794,"▁inphotenament":4795,"▁pratikriya":4796,"▁bhuvaneshvar":4797,"-n":4798,"/g":4799,"▁koo":4800,"▁boot":4801,"▁jat":4802,"aar,":4803,"▁e-jeepeees,":4804,"▁kiphaayatee":4805,"apaan":4806,"▁bhaavana":4807,"avela":4808,"▁jisane":4809,"▁pagab":4810,"▁peesee":4811,"▁dikavela":4812,"▁chhaatron":4813,"▁madadagaar":4814,"▁pos":4815,"▁karae":4816,"▁otomobail":4817,"▁ikaee":4818,"▁reeyar":4819,"▁rajistar":4820,"▁pravakta":4821,"sheey":4822,"▁kaite":4823,"▁mirch":4824,"▁gaijet":4825,"▁pagabaadha":4826,"dr":4827,"go":4828,"▁saadhaaran":4829,"▁mt":4830,"▁miks":4831,"▁dais":4832,"ena":4833,"▁nakaar":4834,"▁room":4835,"▁taara":4836,"▁hol":4837,"▁badhata":4838,"▁anumaan":4839,"▁yooaee":4840,"▁stik":4841,"▁saj":4842,"▁chalie":4843,"▁philtar":4844,"▁phaib":4845,"▁hartj":4846,"▁dual-sim":4847,"▁khareedaaree":4848,"▁pradesh":4849,"▁telikom":4850,"▁jodane":4851,"chaarj":4852,"▁majabootee":4853,"▁abhiyaan":4854,"▁daayabiteej":4855,"▁pahunchane":4856,"▁vijay":4857,"▁enephasee,":4858,"izu":4859,"▁motaee":4860,"▁maithyooj":4861,"199":4862,"39":4863,"66":4864,"don":4865,"nm":4866,"res":4867,"ank":4868,"▁baan":4869,"▁bul":4870,"▁daan":4871,"▁dukh":4872,"▁lak":4873,"alaimp":4874,"▁gp":4875,"chak":4876,"▁kaaraple":4877,"▁honee":4878,"▁teebee":4879,"avee":4880,"▁mobilai":4881,"rika":4882,"▁peene":4883,"ashekhar":4884,"▁vee4":4885,"▁svipht":4886,"▁haart":4887,"▁boling":4888,"▁esa7":4889,"▁chunaut":4890,"▁uthaane":4891,"▁kahaanee":4892,"▁chhakka":4893,"▁saavadhaan":4894,"▁munh":4895,"▁upayogee":4896,"▁(2017)":4897,"▁maayane":4898,"▁fraiaidom":4899,"vg":4900,"▁sw":4901,"▁shan":4902,"▁my":4903,"▁mat":4904,"taphon":4905,"▁raay":4906,"oolee":4907,"▁kolej":4908,"▁phog":4909,"▁g5":4910,"▁kaartik":4911,"shiyam":4912,"ulk":4913,"emem":4914,"▁es-kros":4915,"▁saport,":4916,"▁eend":4917,"▁vebasaits":4918,"▁netavarking":4919,"▁aayan":4920,"▁koshika":4921,"▁kabhee-k":4922,"▁chuninda":4923,"▁kalekshan":4924,"▁rediyo,":4925,"▁haardik":4926,"▁jaapaanee":4927,"▁glonaas":4928,"cheen":4929,"▁aana":4930,"aaee":4931,"▁saara":4932,"▁paapa":4933,"yapur":4934,"▁gativ":4935,"ateeee,":4936,"▁kaimara-":4937,"aakhon":4938,"stha":4939,"▁maiizu":4940,"▁alaava,":4941,"▁plai":4942,"▁huawaii":4943,"▁eluga":4944,"▁kris":4945,"▁vhaat":4946,"▁ztai":4947,"▁ghoshit":4948,"▁slim":4949,"▁bolt":4950,"▁stailish":4951,"▁rimot":4952,"▁rijolyooshan":4953,"▁visheshagy":4954,"▁shakti":4955,"▁kanjyoomars":4956,"▁kleen":4957,"▁aiktiv":4958,"▁kathin":4959,"gaahartj":4960,"▁gatividh":4961,"pp":4962,"thee":4963,"▁ips":4964,"▁ordar":4965,"▁mus":4966,"▁tiy":4967,"▁e7":4968,"▁eksee":4969,"▁3dee":4970,"undar":4971,"▁chail":4972,"ema":4973,"▁(n":4974,"veee":4975,"udyog":4976,"▁sarakaaree":4977,"▁10,000":4978,"▁nird":4979,"enge,":4980,"▁dikhenge":4981,"aaharan":4982,"▁maarketing":4983,"▁phark":4984,"▁patr":4985,",490":4986,"▁mahanga":4987,"▁pushti":4988,"▁propheshanal":4989,"▁hissedaaree":4990,"uphaikchar":4991,"reshth":4992,"▁sanyukt":4993,"▁beeemadablyoo":4994,"tiyon":4995,"▁ich":4996,"▁dip":4997,"▁litai":4998,"chk":4999,"▁rana":5000,"atta":5001,"▁phle":5002,"rot":5003,"▁5-inch":5004,"▁480":5005,"▁430":5006,"▁3ghz":5007,"jee,":5008,"aapako":5009,"▁bhoo":5010,"lav":5011,"▁karen\"":5012,"▁dekhe":5013,"▁2020":5014,"▁spasht":5015,"▁bataee":5016,"▁veejeee":5017,"▁chhed":5018,"▁darshak":5019,"▁sarvisej":5020,"▁kampaas":5021,"▁ophishiyal":5022,"▁slaid":5023,"keemat":5024,"▁uddesh":5025,"▁portebal":5026,"▁sadasyon":5027,"▁egj":5028,"▁mastishk":5029,"dal":5030,"pad":5031,"yaat":5032,"▁maata":5033,"▁hais":5034,"▁brod":5035,"▁dol":5036,"▁lep":5037,"oo,":5038,"oosare":5039,"▁hor":5040,"▁hit":5041,"▁hejal":5042,"oran":5043,"▁taig":5044,"▁220":5045,"▁55":5046,"▁khaalee":5047,"▁gaya,":5048,"▁proteen":5049,"iditee":5050,"▁upalabdhi":5051,"▁aloy":5052,"▁12,999":5053,"▁saphaee":5054,"▁apek":5055,"▁utana":5056,"▁saamag":5057,"aahit":5058,"-sam":5059,"▁sarve":5060,"▁apadeted":5061,"▁geming":5062,"▁pati":5063,"▁aakarshit":5064,"▁lains":5065,"▁\"ab":5066,"▁thard":5067,"▁taareekh":5068,"▁ema5":5069,"▁dimaand":5070,"▁jitanee":5071,"▁daayarekt":5072,"-chhah":5073,"▁anajaan":5074,"▁devalap":5075,"▁tesla":5076,"▁mainyuphaikchar":5077,"▁eendhan":5078,"ae":5079,"ieshan":5080,"▁ken":5081,"▁pav":5082,"▁daim":5083,"▁vr":5084,"uree":5085,"▁sedaan":5086,"▁jayapur":5087,"▁kamaee":5088,"▁chaav":5089,"▁kaars":5090,"▁takareeban":5091,"▁63":5092,"▁chauth":5093,"▁pahal":5094,"▁rach":5095,"▁maikabuk":5096,"▁maikroyooesabee":5097,"▁121":5098,"riph":5099,"▁mod,":5100,"akartaon":5101,"▁telee":5102,"▁milega,":5103,"▁daalakar":5104,"▁sone":5105,"▁nyooy":5106,"▁brauj":5107,"40x":5108,"▁ephadablyoo":5109,"aravaah":5110,"▁yootilitee":5111,"▁veeoelateeee,":5112,"▁timaahee":5113,"▁peedit":5114,"▁jeetakar":5115,"▁yogadaan":5116,"▁amareeka":5117,"▁ek-doosare":5118,"▁iphekt":5119,"▁uddeshy":5120,"hd":5121,"▁—":5122,"inch":5123,"▁natee":5124,"▁karo":5125,"aman":5126,"aape":5127,"ings":5128,"▁joki":5129,"thiyam":5130,"asel":5131,"▁anur":5132,"avish":5133,"▁eksele":5134,"▁900":5135,"▁endroed":5136,"▁leethiyam":5137,"▁trend":5138,"▁aadhunik":5139,"▁maansap":5140,"▁deth":5141,"▁reddee":5142,"▁bharee":5143,"▁eph/1":5144,"▁painor":5145,"▁shatakeey":5146,"▁garbh":5147,"▁arth":5148,"▁pairon":5149,"tabuk":5150,"▁nirnay":5151,"▁jarmanee":5152,"▁sabsakripshan":5153,"89":5154,"vaint":5155,"yun":5156,"▁s‍":5157,"▁sent":5158,"▁bhaee":5159,"▁etam":5160,"▁gaanv":5161,"▁1-1":5162,"▁kament":5163,"▁chhat":5164,"▁52":5165,"▁43":5166,"▁350":5167,"ident":5168,"▁jaanane":5169,"▁altr":5170,"asanchaar":5171,"▁lagaakar":5172,"▁baikaph":5173,"ashreshth":5174,"▁adhikaar":5175,"▁memoree,":5176,"▁pleyar":5177,"▁sekshan":5178,"▁samajhane":5179,"▁majedaar":5180,"▁28ven":5181,"▁rispons":5182,"▁andaaj":5183,"▁pien":5184,"▁nishchit":5185,"▁niyantran":5186,"▁anokha":5187,"abarg":5188,"▁ghadee":5189,"▁nirantarata":5190,"▁naukaree":5191,"▁(eks-shoroom,":5192,"▁nakaaraatmak":5193,"▁ekseleromeetar":5194,"▁baikaphut":5195,"64":5196,"ht":5197,"yum":5198,"▁s7":5199,"intar":5200,"▁dro":5201,"aaraatmak":5202,"▁lu":5203,"▁lejar":5204,"▁vaat":5205,"gam":5206,"▁phiks":5207,"ikrama":5208,"aatel":5209,"▁gud":5210,"▁inav":5211,"▁inti":5212,"▁naj":5213,"▁sakaaraatmak":5214,"▁phon,":5215,"aasan":5216,"aayal":5217,"ingo":5218,"▁kaimp":5219,"▁emold":5220,"avud":5221,"▁pade":5222,"chchhar":5223,"-kh":5224,"▁phaibalet":5225,"igo":5226,"▁kolest":5227,"areet":5228,"ushka":5229,"aago":5230,"▁khareedana":5231,"▁paark":5232,"▁paarking":5233,"▁bola":5234,"▁itail":5235,"▁tekno":5236,"▁raajashekhar":5237,"▁rojaana":5238,"▁bloo,":5239,"▁helth":5240,"▁eseee":5241,"▁olto":5242,"▁vipareet":5243,"▁ghoomane":5244,"▁taivaan":5245,"▁ektivitee":5246,"▁kaitegaree":5247,"▁hejalavud":5248,"854":5249,"bon":5250,"fl":5251,"gun":5252,"vak":5253,"▁kaat":5254,"▁paatee":5255,"▁dom":5256,"▁vi":5257,"▁til":5258,"▁tro":5259,"esee,":5260,"▁inase":5261,"▁5,":5262,"deeshan":5263,"▁modee":5264,"▁kaimara:":5265,"▁6,":5266,"▁chaineej":5267,"▁alpha":5268,"hegee":5269,"sesareej":5270,"▁saalaana":5271,"▁1080x1920":5272,"▁bataane":5273,"▁adhikatam":5274,"▁sarvashreshth":5275,"▁taibalets":5276,"▁pradooshan":5277,"▁asal":5278,"▁sahaara":5279,"▁chaahie,":5280,"▁teeveees":5281,"aastik":5282,"▁sheyaring":5283,"▁udaaharan":5284,"▁khule":5285,"▁kaimaron":5286,"▁paryaapt":5287,"▁ataik":5288,"▁kaarobaar":5289,"▁taaraget":5290,"▁ephadablyooveejeee":5291,"▁eseee-vee":5292,"-ta":5293,"ibar":5294,"rj":5295,"▁pikchar":5296,"iss":5297,"▁ain":5298,"▁jaahir":5299,"atram":5300,"▁2,000":5301,"ej,":5302,"edar":5303,"okar":5304,"▁epl":5305,"▁phraans":5306,"▁bep":5307,"▁maig":5308,"▁badhiya":5309,"▁spor":5310,"▁haraane":5311,"▁sistam,":5312,"▁1500":5313,"▁edam":5314,"▁wind":5315,"▁slo":5316,"▁doorasanchaar":5317,"▁antargat":5318,"▁bechatee":5319,"▁jameen":5320,"▁sadak":5321,"▁android":5322,"dhaarit":5323,"▁kailoree":5324,"▁aindroyad":5325,"▁mainejar":5326,"▁prasid":5327,"▁talaash":5328,"▁praudyog":5329,"▁chauthe":5330,"▁maansapesh":5331,"-chho":5332,"eh":5333,"haatsep":5334,"vaave":5335,"▁paa":5336,"▁paksh":5337,"▁dish":5338,"▁jai":5339,"▁jara":5340,"▁naagar":5341,"▁raahat":5342,"asad":5343,"▁gain":5344,"itr":5345,"apat":5346,"▁jee5":5347,"ayoo":5348,"▁diya,":5349,"▁maut":5350,"▁machchhar":5351,"▁deel":5352,"▁625":5353,"▁662":5354,"▁chaut":5355,"▁sabake":5356,"▁padegee":5357,"▁12vaan":5358,"▁skreen-":5359,"▁upul":5360,"areting":5361,"aprooph":5362,"▁akasar":5363,"▁nikon":5364,"▁kampas":5365,"olyoom":5366,"▁plebaik":5367,"▁z5":5368,"▁vindo":5369,"▁avord":5370,"▁dikhega":5371,"▁stetas":5372,"▁khatare":5373,"▁chard":5374,"▁lambaee":5375,"▁sanket":5376,"▁aautal":5377,"asonich":5378,"▁purushon":5379,"▁alkaatel":5380,"▁saamagree":5381,"▁beparavaah":5382,"*)":5383,"googal":5384,"rij":5385,"sm":5386,"shar":5387,"udee":5388,"▁sol":5389,"▁pin":5390,"▁root":5391,"▁ev":5392,"▁aatan":5393,"▁ub":5394,"▁shok":5395,"▁samarav":5396,"▁83":5397,"▁dilacha":5398,"▁dilivaree":5399,"▁huvaave":5400,"▁(14":5401,"oded":5402,"ibilitee":5403,"▁nirdhaarit":5404,"▁chaaron":5405,"▁sanar":5406,"▁140":5407,"▁asistent":5408,"▁takaneekee":5409,"▁bheja":5410,"▁bheje":5411,"▁soochee":5412,"▁dhang":5413,"▁traikar":5414,"▁kailshiyam":5415,"▁pravesh":5416,"▁mahangee":5417,"▁mainejament":5418,"-veelar":5419,"▁vinse":5420,"▁tumhaare":5421,"▁visheshagyon":5422,"▁chakkar":5423,"/g/":5424,"▁kolestrol":5425,"dak":5426,"por":5427,"hai":5428,"▁suna":5429,"▁mul":5430,"▁mantree":5431,"▁kebal":5432,"▁les":5433,"akh":5434,"▁neeb":5435,"▁ven":5436,"▁volyoom":5437,"▁inf":5438,"▁kamyun":5439,"▁chr":5440,"▁chot":5441,"▁4-":5442,"▁4,000":5443,"aphal":5444,"▁moshan":5445,"laj":5446,"ikshan":5447,"avaas":5448,"▁(3":5449,"▁(emes":5450,"ode":5451,"▁intaraneshanal":5452,"▁lagaana":5453,"▁svich":5454,"▁puraana":5455,"▁opshans":5456,"▁vyakt":5457,"▁salekt":5458,"taphorm":5459,"/jee/en":5460,"▁chalegee":5461,"▁khoobiyaan":5462,"▁mahange":5463,"▁pareekshan":5464,"▁beche":5465,"▁monitar":5466,"▁raasta":5467,"▁makasad":5468,"▁(1080x1920":5469,"▁vhotsep":5470,"▁samaravikrama":5471,"▁sook":5472,"▁paka":5473,"▁bampar":5474,"▁vaada":5475,"▁tips":5476,"eschar":5477,"amet":5478,"ask":5479,"▁gur":5480,"▁gps":5481,"▁ekas":5482,"▁sakriy":5483,"▁3-":5484,"▁khoon":5485,"▁praak":5486,"▁kaaragar":5487,"▁615":5488,"el)":5489,"▁jaanee":5490,"▁bechee":5491,"aaneey":5492,"▁sardiyon":5493,"▁eksatar":5494,"▁khaasa":5495,"▁eeemaee":5496,"▁onai":5497,"▁veediyoj":5498,"▁notabuk":5499,"▁phlait":5500,"▁asalee":5501,"▁riples":5502,"-pita":5503,"▁pharm":5504,"▁listing":5505,"▁too-veelar":5506,"▁smart":5507,"▁dres":5508,"▁vijeta":5509,"▁utpaadan":5510,"▁praivesee":5511,"▁eshiya":5512,"▁aatmavish":5513,"▁pablik":5514,"▁neeboo":5515,"-7":5516,"88":5517,"bin":5518,"tz":5519,"tek":5520,"arjee":5521,"▁shee":5522,"▁paan":5523,"▁pas":5524,"▁bled":5525,"ona":5526,"▁nim":5527,"▁vib":5528,"▁e6":5529,"▁heksa":5530,"▁gil":5531,"▁gyaan":5532,"▁gais":5533,"▁net":5534,"▁jagat":5535,"00mah":5536,"▁8,000":5537,"▁hon,":5538,"aitis":5539,"▁maij":5540,"▁sartiph":5541,"▁plaastik":5542,"▁logo":5543,"▁dahee":5544,"▁phaibar":5545,"▁amb":5546,"andhan":5547,"▁chhip":5548,"▁ilaak":5549,"▁port,":5550,"▁veriyants":5551,"▁aidgai":5552,"▁avasaad":5553,"aahatrj":5554,"▁sootron":5555,"▁raipid":5556,"▁aatmavishvaas":5557,"laind":5558,"zan":5559,"▁laik":5560,"▁nib":5561,"chaal":5562,"▁isen":5563,"▁taayar":5564,"▁karaana":5565,"▁aadam":5566,"asthit":5567,"▁kamare":5568,"▁heel":5569,"▁410":5570,"aavee":5571,"▁street":5572,"▁baiktee":5573,"▁haaliya":5574,"▁beej":5575,"▁jinaka":5576,"▁110":5577,"▁pichhalee":5578,"▁smaartaphons,":5579,"▁ios":5580,"-ba":5581,"▁jae,":5582,"▁bachaav":5583,"▁aaaiphars":5584,"▁jama":5585,"▁aagaamee":5586,"----------------":5587,"aajanak":5588,"▁chaaloo":5589,"ingatan":5590,"▁tiyaago":5591,"▁intigreted":5592,"▁praudyogikee":5593,"1,":5594,"hatam":5595,"▁del":5596,"▁resh":5597,"▁reed":5598,"▁keem":5599,"aansh":5600,"▁green":5601,"▁inj":5602,"rok":5603,"▁54":5604,"▁5,000":5605,"▁3,000":5606,"teeem":5607,"chars":5608,"▁usako":5609,"▁bait":5610,"▁jisame":5611,"▁karengee":5612,"▁debit":5613,"▁120":5614,"▁eksel":5615,"▁rupe)":5616,"▁veediyokon":5617,"▁membar":5618,"▁vee8":5619,"▁xolo":5620,"▁briten":5621,"▁mukhar":5622,"▁eleet":5623,"▁sthaaneey":5624,"▁shaant":5625,"aphl":5626,"▁aspat":5627,"▁asaphal":5628,"▁maamalon":5629,"▁dikhaane":5630,"▁motaape":5631,"▁gre,":5632,"▁nikalatee":5633,"▁panasonich":5634,"▁khoobasooratee":5635,"▁ektivet":5636,"▁phormet":5637,"▁saibar":5638,"▁raaste":5639,"▁mekap":5640,"▁maata-pita":5641,"▁ekasaath":5642,"▁praakrtik":5643,"▁aspataal":5644,"baay":5645,"if":5646,"ix":5647,"sej":5648,"hab":5649,"▁pash":5650,"▁paand":5651,"yast":5652,"▁laagat":5653,"alaimps":5654,"▁sehatam":5655,"ampanee":5656,"ambh":5657,"asitee":5658,"ahiya":5659,"aasee":5660,"▁str":5661,"▁stood":5662,"▁7-inch":5663,"▁shahad":5664,"▁maanate":5665,"▁kort":5666,"eena":5667,"▁jarooraton":5668,"▁aark":5669,"▁sunakar":5670,"▁maamala":5671,"▁charan":5672,"▁eksapart":5673,"▁gunav":5674,"▁tamil":5675,"▁kaangres":5676,"▁ditels":5677,"▁eksatenshan":5678,"▁mammee":5679,"▁gaadiyaan":5680,"▁plaitaphorm":5681,"▁sanarooph":5682,"ghat":5683,"▁saad":5684,"▁pest":5685,"▁haus":5686,"isake":5687,"▁daay":5688,"▁agr":5689,"chaap":5690,"▁hil":5691,"▁kopee":5692,"▁holee":5693,"▁nem":5694,"▁netr":5695,"▁jaj":5696,"▁ekabaar":5697,"▁sakegee":5698,"▁5jee":5699,"▁5emapee":5700,"▁46":5701,"▁prooph":5702,"▁anek":5703,"▁huveee":5704,"▁banatee":5705,"▁badhaakar":5706,"▁pau":5707,"takat":5708,"▁kanektivitee:":5709,"▁stadee":5710,"▁bos":5711,"▁daale":5712,"▁i-komars":5713,"▁aares":5714,"▁1800":5715,"▁janaral":5716,"▁biliyan":5717,"▁shart":5718,"▁saits":5719,"▁besik":5720,"▁chaiting":5721,"▁2600":5722,"▁vitaara":5723,"▁chehara":5724,"▁vhait,":5725,"▁speekars":5726,"▁kholane":5727,"-phaay":5728,"▁prerit":5729,"-engal":5730,"▁vaay-phaay":5731,"ashailee":5732,"▁aaaitomaitik":5733,"-st":5734,"33":5735,"ev":5736,"ksha":5737,"riyan":5738,"stee":5739,"▁haree":5740,"▁dait":5741,"▁darav":5742,"onga":5743,"▁kes":5744,"▁toot":5745,"▁him":5746,"▁karaee":5747,"esar":5748,"▁tat":5749,"▁chen":5750,"▁choree":5751,"maartaphon":5752,"▁4100":5753,"▁prim":5754,"▁8,":5755,"▁rahenge":5756,"▁grah":5757,"▁sari":5758,"▁khaasakar":5759,"▁‘p":5760,"▁naamak":5761,"repee":5762,"▁geegaahartz":5763,"▁akele":5764,"▁aartiph":5765,"▁likh":5766,"▁aparchar,":5767,"▁stailas":5768,"▁ravi":5769,"▁jimmedaar":5770,"▁helamet":5771,"▁daayam":5772,"▁romaanch":5773,"▁sochate":5774,"▁inaphokas":5775,"▁kraish":5776,"▁tyohaar":5777,"▁chunautiyon":5778,"▁prasiddh":5779,"▁vibai":5780,"▁sehatamand":5781,"ghar":5782,"kyoo":5783,"phar":5784,"aagee":5785,"▁mor":5786,"▁bu":5787,"▁dyoo":5788,"▁apha":5789,"▁taal":5790,"▁aais":5791,"atai":5792,"▁saath,":5793,"▁53":5794,"▁5,999":5795,"yooment":5796,"mati":5797,"ishth":5798,"▁mair":5799,"vajan":5800,"▁spais":5801,"oonga":5802,"yadi":5803,"▁dhaar":5804,"▁ama":5805,"▁maamoolee":5806,"▁rokane":5807,"▁ritelar":5808,"▁dastar":5809,"▁pahanane":5810,"▁rishton":5811,"▁3310":5812,"▁eksakloosivalee":5813,"▁shoroom)":5814,"▁tumhaaree":5815,"▁dheron":5816,"▁kanjyoomar":5817,"▁upakaranon":5818,"▁eekosport":5819,"▁aaainalain":5820,"▁baitariyaan":5821,"▁tigor":5822,"▁aatank":5823,"▁aadamee":5824,"▁gunavatta":5825,"los":5826,"vel":5827,"▁peech":5828,"▁diph":5829,"▁ehasaas":5830,"▁ses":5831,"▁kohare":5832,"asport":5833,"asheel":5834,"pann":5835,"▁gale":5836,"▁ubar":5837,"▁insh":5838,"▁51":5839,"▁shulk":5840,"dhaav":5841,"▁job":5842,"eshiphikeshan":5843,"▁opare":5844,"▁len,":5845,"▁‘d":5846,"▁paen":5847,"▁hotal":5848,"▁utanee":5849,"▁enarjee":5850,"raiv":5851,"▁vosh":5852,"▁onar":5853,"▁chhut":5854,"▁geegaahatrj":5855,"▁poshak":5856,"▁jagahon":5857,"▁avele":5858,"▁samasyaen":5859,"▁2800":5860,"achai":5861,"▁seets":5862,"raamak":5863,"▁eyarabaigs,":5864,"▁kheench":5865,"▁preshar":5866,"▁siyaaz":5867,"▁saraund":5868,"▁raktachaap":5869,"▁shugar":5870,"▁durghat":5871,"▁mantraalay":5872,"▁mt67":5873,"▁teknolajee":5874,"▁trophee":5875,"▁baikteeriya":5876,"▁avelebal":5877,"dor":5878,"osee":5879,"▁paana":5880,"▁peshak":5881,"▁maaha":5882,"▁dron":5883,"▁mej":5884,"▁laakhon":5885,"▁rain":5886,"▁keejie":5887,"▁e-jeepeees":5888,"▁kiran":5889,"▁ship":5890,"▁ob":5891,"▁os":5892,"ainal":5893,"▁badhee":5894,"▁priv":5895,"geegaahartj":5896,"▁pheeld":5897,"▁vaish":5898,"▁keematen":5899,"▁8-speed":5900,"ipai":5901,"avid":5902,"▁dohar":5903,"▁jaanakar":5904,"▁prosesar-":5905,"▁sarph":5906,"asand":5907,"▁chaabee":5908,"▁modyool":5909,"▁‘l":5910,"▁endroid":5911,"▁echadeeaar":5912,"▁119":5913,"▁oksee":5914,"▁sahaayak":5915,"▁bhatak":5916,"▁pahunchaane":5917,"▁khaasiyaten":5918,"▁aaaipareting":5919,"▁gaye":5920,"▁aips":5921,"▁jeevanashailee":5922,"2560":5923,"▁nishaan":5924,"▁utpaadon":5925,"▁eyarabaig,":5926,"▁applai":5927,"▁medikal":5928,"▁sadasy":5929,"▁polisee":5930,"▁pholdar":5931,"▁e/bee/jee/en,":5932,"▁dopahar":5933,"▁pojishan":5934,"▁chaaval":5935,"-pee":5936,"dran":5937,"rad":5938,"▁sing":5939,"▁daark":5940,"▁land":5941,"▁e5":5942,"▁aair":5943,"▁phonai":5944,"▁5mp":5945,"▁3500":5946,"aapit":5947,"unk":5948,"▁moh":5949,"lave":5950,"▁810":5951,"▁chap":5952,"▁chat":5953,"▁spred":5954,"▁selph":5955,"▁3200":5956,"▁veelar":5957,"▁maanav":5958,"▁poshan":5959,"▁daalee":5960,"▁volet":5961,"▁silindar":5962,"▁bachapan":5963,"▁otophoks":5964,"▁nikaala":5965,"▁praimaree":5966,"-phesing":5967,"▁vaid-engal":5968,"yushan":5969,"▁sabjiyon":5970,"▁tikat":5971,"iteniyam":5972,"▁krooz":5973,"▁signal":5974,"▁kabhee-kabhee":5975,"▁braujing":5976,"▁itailiyan":5977,"gunaa":5978,"▁naagarikon":5979,"▁maahaul":5980,"-ton":5981,"doo":5982,"gon":5983,"gaal":5984,"lie":5985,"xon":5986,"yaraphon":5987,"▁kaalee":5988,"▁mood":5989,"▁mrt":5990,"▁bs":5991,"▁aiks":5992,"aarj":5993,"▁mekar":5994,"▁kebin":5995,"aib":5996,"▁raashtreey":5997,"▁vaik":5998,"ooh":5999,"aanj":6000,"▁kophee":6001,"▁aash":6002,"phik":6003,"▁ghane":6004,"aale":6005,"iet":6006,"abord":6007,"▁2-3":6008,"▁chool":6009,"▁cheyar":6010,"aapur":6011,"▁pran":6012,"▁pheed":6013,"▁69":6014,"▁teesaree":6015,"▁phrij":6016,"▁badhaava":6017,"ibook":6018,"▁phrant-phesing":6019,"▁storej,":6020,"▁vishaal":6021,"▁chhoo":6022,"▁khareeden":6023,"1080":6024,"▁mahaar":6025,"▁bhara":6026,"▁instr":6027,"▁soojan":6028,"▁karavaane":6029,"▁kastamar":6030,"▁eksaport":6031,"▁sadakon":6032,"▁dokyooment":6033,"▁andaaja":6034,"▁galatiyaan":6035,"loud":6036,"▁seekha":6037,"▁rimoovebal":6038,"-jul":6039,"▁vaigyaanik":6040,"▁aavashyakata":6041,"▁ladakiyon":6042,"▁saarvajan":6043,"▁shortakat":6044,"▁pratidin":6045,"▁chikit":6046,"▁swipai":6047,"▁nirdeshak":6048,"▁netrtv":6049,"▁inshyor":6050,"▁saarvajanik":6051,"ayah":6052,"evar":6053,"m)":6054,"mimee":6055,"wair":6056,"aachaar":6057,"▁mand":6058,"▁di":6059,"talee":6060,"taikt":6061,"▁joos":6062,"▁kayaas":6063,"▁niyo":6064,"▁uchit":6065,"▁intr":6066,"▁taiteniyam":6067,"▁210":6068,"▁ekshan":6069,"▁chop":6070,"▁59":6071,"▁47":6072,"▁4,999":6073,"▁oyal":6074,"aavind":6075,"▁8,999":6076,"▁dostee":6077,"▁1200":6078,"▁paega":6079,"▁madhy":6080,"▁bahaad":6081,"bhaal":6082,"▁pheesadee,":6083,"-baik":6084,"▁avash":6085,"▁elateei":6086,"▁utaar-cha":6087,"▁prashnon":6088,"▁ltai,":6089,"▁prakaashit":6090,"▁ranajee":6091,"▁dolbee":6092,"▁najadee":6093,"▁utaar-chadhaav":6094,"41":6095,"arn":6096,"▁m2":6097,"▁jaas":6098,"▁kahen":6099,"▁nek":6100,"urv":6101,"▁heyar":6102,"ikata":6103,"▁gair":6104,"ayan":6105,"▁milana":6106,"▁baitree":6107,"▁banana":6108,"▁(j":6109,"daj":6110,"▁khapat":6111,"▁kandhon":6112,"▁kaardan":6113,"▁baikag":6114,"▁theem":6115,"▁sopht":6116,"▁25000":6117,"▁badale":6118,"▁agalee":6119,"▁patale":6120,"▁ii":6121,"osis":6122,"▁karegee,":6123,"▁dekhabhaal":6124,"▁tareekon":6125,"▁gira":6126,"ochus":6127,"▁sahaj":6128,"▁thanda":6129,"▁kirlos":6130,"▁haddiyon":6131,"▁tachaskreen,":6132,"▁821":6133,"▁bura":6134,"▁pratibha":6135,"▁jeepeees/e-jeepeees,":6136,"▁gpu":6137,"▁koshikaon":6138,"▁apeksha":6139,"▁sportee":6140,"▁peshakash":6141,"▁vaishvik":6142,"▁kirloskar":6143,"13":6144,"82":6145,"man":6146,"riyo":6147,"▁jaagar":6148,"▁kaisa":6149,"▁neshanal":6150,"▁rs":6151,"▁raak":6152,"iliyan":6153,"ilaayans":6154,"▁gaard":6155,"abaink":6156,"eting":6157,"▁chon":6158,"▁5-6":6159,"▁hee,":6160,"▁lavars":6161,"▁om":6162,"▁badhaee":6163,"yooesabee,":6164,"oliyo":6165,"▁josh":6166,"eda":6167,"▁6999":6168,"▁ande":6169,"▁sabako":6170,"▁sanstha":6171,"▁mukaam":6172,"▁bajae":6173,"▁iseelie":6174,"ishanal":6175,"▁manj":6176,"▁sunaha":6177,"▁pahunchaaya":6178,"▁jodate":6179,"▁beshak":6180,"▁sevaen":6181,"▁nikalane":6182,"▁eksapeeriyan":6183,"achait":6184,"▁intelij":6185,"▁savaalon":6186,"▁kaaryakaaree":6187,"▁khaan-p":6188,"▁haidalait":6189,"▁hisson":6190,"▁manach":6191,"▁seeniyar":6192,"▁saikil":6193,"▁naariyal":6194,"▁daimenshan":6195,"▁window":6196,"▁maansapeshiyon":6197,"▁paancha":6198,"▁avashy":6199,"▁baikagraund":6200,"45":6201,"ds":6202,"dhee":6203,"ient":6204,"lin":6205,"lth":6206,"t,":6207,"▁suk":6208,"▁saind":6209,"▁baaree":6210,"▁dup":6211,"▁lith":6212,"▁raink":6213,"▁ruch":6214,"▁tree":6215,"urat":6216,"▁e1":6217,"▁e9":6218,"adaaree":6219,"▁1,000":6220,"abaind":6221,"▁taee":6222,"▁tait":6223,"▁2ghz":6224,"aama":6225,"▁56":6226,"▁deev":6227,"▁emes":6228,"eshiyal":6229,"aabait":6230,"aitooth":6231,"▁seepee":6232,"▁(tee":6233,"▁7,":6234,"▁7,999":6235,"▁kaamay":6236,"▁dedh":6237,"▁jaanana":6238,"▁doodal":6239,"▁sardee":6240,"▁ekspo":6241,"▁varna":6242,"▁plet":6243,"▁plaans":6244,"▁login":6245,"▁saja":6246,"▁mods":6247,"▁spot":6248,"▁peepeeaee":6249,"▁utaare":6250,"▁dikhata":6251,"umeh":6252,"▁snaipachait":6253,"hataig":6254,"-bord":6255,"aadhik":6256,"▁three":6257,"▁aadha":6258,"▁braun":6259,"▁sevaon":6260,"▁prabhaavee":6261,"▁vitt":6262,"▁heliyo":6263,"▁neele":6264,"▁motarasaikals":6265,"▁kamaando":6266,"▁paraphormesh":6267,"▁aakraman":6268,"▁854":6269,"▁chand":6270,"▁ematee6737":6271,"▁oonchaee":6272,"▁eshej":6273,"▁staart,":6274,"▁sambhaalane":6275,"▁sooraj":6276,"▁samajhauta":6277,"▁aayaris":6278,"▁dhoond":6279,"▁ishaare":6280,"▁jaanavaron":6281,"▁bluaitooth":6282,"ppi":6283,"▁bhookh":6284,"▁lepatop":6285,"▁dilachasp":6286,"▁gilaas":6287,"▁paande":6288,"▁durghatana":6289,"▁eksapeeriyans":6290,"▁khaan-paan":6291,"52":6292,"haaree":6293,"▁kaav":6294,"▁kut":6295,"▁s6":6296,"▁stam":6297,"ineshan":6298,"▁piks":6299,"▁paayee":6300,"▁bejal":6301,"ishal":6302,"▁juk":6303,"▁kahoon":6304,"aart":6305,"aarel":6306,"▁laha":6307,"▁nand":6308,"▁nub":6309,"▁naabaad":6310,"▁kee-bord":6311,"▁est":6312,"adar":6313,"adesh":6314,"amor":6315,"asy":6316,"▁gai":6317,"▁tail":6318,"▁hot":6319,"aikho":6320,"ishchit":6321,"▁unheen":6322,"▁pheechars-":6323,"uddh":6324,"apeeem":6325,"▁‘b":6326,"▁phait":6327,"▁eeyaraphon":6328,"▁sim,":6329,"▁leejie":6330,"▁rovar":6331,"▁jinase":6332,"▁breja":6333,"▁fw":6334,"yakram":6335,"▁rejol":6336,"▁148":6337,"▁14,999":6338,"▁apadet,":6339,"▁kontaikt":6340,"▁instent":6341,"▁pratisp":6342,"▁kilar":6343,"▁403":6344,"▁2200":6345,"▁nikaalane":6346,"▁kshetron":6347,"▁sitee,":6348,"▁relave":6349,"fiai":6350,"▁garmiyon":6351,"▁aakraamak":6352,"▁aaudee":6353,"▁ull":6354,"▁videshon":6355,"▁bailens":6356,"▁santulan":6357,"▁dayool":6358,"▁ichchh":6359,"▁haishataig":6360,"▁mukharjee,":6361,"-a":6362,":9":6363,"a3":6364,"▁m5":6365,"▁adar":6366,"▁kep":6367,"▁lega":6368,"▁limit":6369,"alt":6370,"ath":6371,"astar":6372,"ile":6373,"tarn":6374,"▁2-":6375,"▁kamod":6376,"▁chloud":6377,"▁499":6378,"▁435":6379,"▁3es":6380,"ivai":6381,"olt":6382,"▁anup":6383,"▁77":6384,"▁750":6385,"▁raim/":6386,"▁eksamor":6387,"▁varishth":6388,"▁modail":6389,"▁esid":6390,"▁130":6391,"est,":6392,"▁shurooaatee":6393,"▁beet":6394,"▁echadeeemaee":6395,"▁traayam":6396,"▁trank":6397,"▁112":6398,"▁x1":6399,"▁badala":6400,"▁mahendr":6401,"▁asam":6402,"▁sektar":6403,"▁hedar":6404,"▁jelee":6405,"▁kalpana":6406,"▁halkee":6407,"▁lamba":6408,"▁drsh":6409,"▁roming":6410,"▁shrey":6411,"▁menyoo":6412,"▁koriyaee":6413,"▁chunauteepoorn":6414,"aicht":6415,"▁mehamaanon":6416,"▁sabjiyaan":6417,"aache":6418,"▁ventil":6419,"▁nevigeshan,":6420,"▁kreta":6421,"▁marsidee":6422,"▁ebeees,":6423,"▁daanton":6424,"▁darshakon":6425,"▁anuroop":6426,"▁vaataavaran":6427,"▁landan":6428,"▁spredatram":6429,"▁cheyaramain":6430,"▁lithiyam":6431,"▁traayamph":6432,"▁kise":6433,"▁pait":6434,"▁bilt":6435,"▁ag":6436,"aaro":6437,"▁nip":6438,"▁namee":6439,"▁reech":6440,"▁karaata":6441,"ors":6442,"▁chup":6443,"aasking":6444,"▁jeev":6445,"jeees":6446,"aaya,":6447,"▁priy":6448,"▁samooh":6449,"▁chalee":6450,"▁sty":6451,"▁kaamon":6452,"▁rakhe":6453,"▁denasitee":6454,"aiptiv":6455,"▁kandeeshan":6456,"▁apaache":6457,"▁‘j":6458,"▁nirdesh":6459,"▁bataatee":6460,"▁enim":6461,"▁leeg":6462,"▁traanj":6463,"▁upahaar":6464,"▁preeped":6465,"▁eyarasel":6466,"▁aarapeeem":6467,"▁z2":6468,"▁pratirod":6469,"▁badhaegee":6470,"▁haaraman":6471,"▁rikaard":6472,"▁rakhen,":6473,"▁hedalaimp":6474,"▁miui":6475,"▁jodon":6476,"▁navaaja":6477,"▁ailitai":6478,"▁daayal":6479,"▁nekson":6480,"▁kamaandoj":6481,"seeseeaee":6482,"▁ankon":6483,"▁madhumeh":6484,"▁ajast":6485,"▁tatvon":6486,"phrens":6487,"▁praaroop":6488,"▁kaaraple,":6489,"▁primai":6490,"▁inshyorens":6491,"▁windows":6492,"▁nubi":6493,"▁kamoditee":6494,"-10":6495,"200":6496,"31":6497,"95":6498,"hz":6499,"jam":6500,"mar":6501,"main":6502,"ns":6503,"piksal":6504,"rn":6505,"▁mejab":6506,"▁risee":6507,"▁isame":6508,"▁tuk":6509,"▁trik":6510,"uratalab":6511,"▁hosp":6512,"▁chih":6513,"▁khaad":6514,"unee":6515,"▁68":6516,"▁(k":6517,"▁den,":6518,"▁pahale,":6519,"▁chaahat":6520,"▁speshiphikeshan":6521,"▁paavarabaink":6522,"▁veek":6523,"▁chhup":6524,"ikeshans":6525,"▁staibilitee":6526,"bhaar":6527,"▁daalane":6528,"▁10000":6529,"▁patnee":6530,"▁phailaaya":6531,"▁stelth":6532,"▁too-v":6533,"▁silvar,":6534,"▁beeesaee":6535,"▁sahayog":6536,"▁entree,":6537,"▁mishran":6538,"▁‘main":6539,"▁yaatree":6540,"▁saavadhaanee":6541,"▁velakam":6542,"▁paartanaraship":6543,"▁phrends":6544,"▁betee":6545,"▁kamarshiyal":6546,"▁maneesh":6547,"▁soory":6548,"▁sailfiai":6549,"▁naakhoon":6550,"▁raashi":6551,"▁paachan":6552,"▁(emesaee":6553,"/jee/en/":6554,"▁ambaanee":6555,"▁okseejan":6556,"▁bahaadur":6557,"▁rejolyushan":6558,"oph":6559,"osh":6560,"ost":6561,"pa":6562,"▁kur":6563,"▁kreem":6564,"▁sch":6565,"▁moov":6566,"▁a7":6567,"▁nadaar":6568,"▁ri":6569,"▁vain":6570,"▁vast":6571,"▁tw":6572,"▁eteeem":6573,"▁karan":6574,"▁phaay":6575,"phesabuk":6576,"▁pariv":6577,"▁hain-":6578,"ity":6579,"▁chet":6580,"aport":6581,"aapak":6582,"ated":6583,"upta,":6584,"yooshan":6585,"▁samar":6586,"▁ston":6587,"emadee":6588,"▁jarurat":6589,"▁khada":6590,"ooti":6591,"▁divas":6592,"▁entar":6593,"▁indakshan":6594,"▁beeseeseeaee":6595,"▁dhool":6596,"▁rotaree":6597,"▁klaim":6598,"▁sthaapit":6599,"▁plas,":6600,"▁sunishchit":6601,"▁lenevo":6602,"-paas":6603,"▁aavedan":6604,",400":6605,"▁maastar":6606,"▁eksapend":6607,"sapaavar":6608,"▁chom/":6609,"▁kshetreey":6610,"▁girane":6611,"▁neel":6612,"▁gujaraat":6613,"▁adaiptiv":6614,"▁3300":6615,"16)":6616,"-tu":6617,"▁jeeesem":6618,"▁dhamaak":6619,"▁(sabhee":6620,"▁vento,":6621,"▁flash":6622,"▁kroojar":6623,"▁raktadaan":6624,"▁thakaan":6625,"▁traiphik":6626,"▁gatividhiyon":6627,"▁chardaikho":6628,"▁amaz":6629,"▁siyaaz,":6630,"▁aairis":6631,"▁mohaalee":6632,"▁adarak":6633,"▁chihn":6634,"▁nadaarad":6635,"-ap":6636,"44":6637,"ichai":6638,"kin":6639,"uv":6640,"▁oo":6641,"▁id":6642,"aran":6643,"▁dan":6644,"▁dor":6645,"tata":6646,"▁lum":6647,"▁niy":6648,"▁rel":6649,"▁vyast":6650,"atantr":6651,"▁edaj":6652,"▁karma":6653,"abad":6654,"ekh":6655,"▁jaen,":6656,"ataun":6657,"▁chid":6658,"▁5-2":6659,"▁ola":6660,"tej":6661,"▁bhook":6662,"▁vaisa":6663,"yoolar":6664,"▁deevaar":6665,"▁em)":6666,"▁anuk":6667,"▁8mp":6668,"iphaid":6669,"emabee":6670,"▁(32":6671,"kaun":6672,"▁jaise-":6673,"oodar":6674,"▁132":6675,"▁senag":6676,"▁sanchaar":6677,"▁950":6678,"▁2012":6679,"▁2019":6680,"▁amal":6681,"▁amit":6682,"▁sos":6683,"▁chhutak":6684,"▁pradhaan":6685,"▁aarop":6686,"▁honge,":6687,"▁avat":6688,"▁jang":6689,"▁jedeph":6690,"▁2005":6691,"keem)":6692,"▁thode":6693,"▁ikosport":6694,"ionee":6695,"80x854":6696,"▁utare":6697,"▁tamaatar":6698,"▁thand":6699,"▁chhakke":6700,"▁peedhee":6701,"▁3g,":6702,"▁shreelankaee":6703,"▁mareejon":6704,"▁nevigeshan":6705,"▁santulit":6706,"▁gussa":6707,"▁chhedon":6708,"▁ekseleromeetar,":6709,"▁inavait":6710,"urved":6711,"▁haidalaiten":6712,"▁rainking":6713,"▁ruchi":6714,"▁seepeeyoo":6715,"▁(teekeem)":6716,"▁fwvg":6717,"▁ventilated":6718,"▁karmachaar":6719,"-bh":6720,"/4":6721,"480":6722,"l)":6723,"zar":6724,"’,":6725,"hada":6726,"▁sair":6727,"▁boo":6728,"▁jhan":6729,"▁jooree":6730,"▁naaj":6731,"▁naash":6732,"▁naaga":6733,"▁rie":6734,"▁histree":6735,"▁pheshiyal":6736,"adaayak":6737,"eka":6738,"▁inheen":6739,"▁jag":6740,"▁jain":6741,"▁230":6742,"▁537":6743,"aasaakee":6744,"leej":6745,"▁printar":6746,"▁pheel":6747,"▁emaphl":6748,"▁sammaan":6749,"▁chaunk":6750,"▁jisen":6751,"▁710":6752,"▁lagajaree":6753,"uso":6754,"▁shakh":6755,"▁grainal":6756,"▁laisens":6757,"▁saplaee":6758,"vaee":6759,"▁baik-tu":6760,"▁‘n":6761,"▁10-speekars":6762,"aidar":6763,"▁13mp":6764,"▁dhok":6765,"▁aas-paas":6766,"andaaj":6767,"▁15-speekars":6768,"▁khareedate":6769,"▁khelate":6770,"▁powair":6771,"▁bovar":6772,"▁yoonib":6773,"▁laib":6774,"▁tumane":6775,"▁ghut":6776,"▁ghum":6777,"▁dijainar":6778,"-paanch":6779,"▁samajhate":6780,"▁likhane":6781,"▁volvo":6782,"▁staark":6783,"▁kalaakaar":6784,"▁bukings":6785,"▁3100":6786,"achaibook":6787,"▁kholen":6788,"▁steeyar":6789,"▁traansaport":6790,"▁ijaaj":6791,"▁phul-eleedee":6792,"▁ultr":6793,"▁600-6":6794,"▁badhatoree":6795,"▁abhinet":6796,"▁aimfl":6797,"▁vilkin":6798,"▁prastut":6799,"▁tvin-tar":6800,"▁1-12":6801,"▁phlem":6802,"▁horsapaavar":6803,"▁nyooyork":6804,"▁gainasport":6805,"▁pakaen":6806,"▁riplesament":6807,"▁peechha":6808,"▁nandinee":6809,"▁hedarest,":6810,"▁hospital":6811,"▁(emesaeeel)":6812,"▁senagupta,":6813,"▁karmachaariyon":6814,"▁emaphlaks":6815,"▁grainaluso":6816,"▁baik-tu-baik":6817,"▁600-650":6818,"▁aimflux":6819,"▁tvin-tarbo":6820,"3,":6821,"utar":6822,"▁qu":6823,"▁saaha":6824,"▁bej":6825,"▁bind":6826,"▁b/g/":6827,"▁dush":6828,"▁axon":6829,"▁jet":6830,"▁jhal":6831,"▁kahar":6832,"▁lip":6833,"▁leed":6834,"▁isane":6835,"▁tri":6836,"▁esar":6837,"▁he":6838,"▁phen":6839,"▁aaitam":6840,"▁aaaiph":6841,"ill":6842,"▁paricha":6843,"▁kamaan":6844,"deeaara":6845,"▁prth":6846,"▁6000":6847,"▁yoor":6848,"embal":6849,"▁jisasen":6850,"▁do-":6851,"eediya":6852,"▁kvid":6853,"yaadh":6854,"▁‘ph":6855,"▁phaik":6856,"▁11,":6857,"▁phesabuk,":6858,"▁xl":6859,"▁leg":6860,"▁pichhad":6861,"▁noeda":6862,"▁f/1":6863,"▁khelen":6864,"▁bolee":6865,"aseey":6866,"128":6867,"▁cheeph":6868,"▁aayee":6869,"▁step":6870,"▁milaen":6871,"▁kaiptan":6872,"▁motorol":6873,"▁panj":6874,"▁portaph":6875,"akampanee":6876,"chandran":6877,"▁imphr":6878,"▁hedaphons":6879,"▁2jee,":6880,"▁president":6881,"▁viphal":6882,"▁trening":6883,"▁jeepeeaares/ej,":6884,"▁vheekals":6885,"▁kinaare":6886,"▁machhalee":6887,"▁vailiditee":6888,"▁yoozar":6889,"▁vyaapaar":6890,"▁ee-mel":6891,"▁phestival":6892,"▁glonaas,":6893,"▁lubh":6894,"▁infochus":6895,"▁chrorai":6896,"▁heeliyo":6897,"▁aartiphishiyal":6898,"▁voshingatan":6899,"▁introodar":6900,"▁ijaajat":6901,"▁prthvee":6902,"75":6903,"fch":6904,"lap":6905,"lait":6906,"rak":6907,"sas":6908,"vatar":6909,"▁kend":6910,"▁phat":6911,"▁poon":6912,"▁pvaint":6913,"▁hak":6914,"▁baak":6915,"▁daar":6916,"▁kahane":6917,"heed":6918,"enovo":6919,"▁tip":6920,"aten":6921,"▁koting":6922,"iyata":6923,"▁gard":6924,"itis":6925,"▁tai":6926,"▁tapha":6927,"imaan":6928,"▁299":6929,"▁yaam":6930,"aamitv":6931,"▁heen":6932,"▁41":6933,"▁3,999":6934,"▁lap":6935,"▁shep":6936,"▁tos":6937,"teet":6938,"ana,":6939,"▁praat":6940,"yoovee":6941,"iksh":6942,"▁baiting":6943,"▁lekhak":6944,"▁jisako":6945,"▁rupaye,":6946,"▁(p":6947,"▁76":6948,"▁opera":6949,"▁aaeetee":6950,"▁shatar":6951,"▁maarsh":6952,"▁lagenge":6953,"▁esosee":6954,"▁niryaat":6955,"▁sanchaal":6956,"▁rogee":6957,"▁sensars":6958,"▁brait":6959,"▁lanka,":6960,"▁svaamitv":6961,"aseeaar":6962,"▁najaron":6963,"▁najarandaaj":6964,"▁riplaee":6965,"▁bache":6966,"▁chunane":6967,"▁raaja":6968,"▁raajy":6969,"▁niro":6970,"▁9999":6971,"80x800":6972,"aaharee":6973,"▁gunag":6974,"▁652":6975,"▁jeda3":6976,"▁vaayaralais":6977,"▁chaukon":6978,"▁paristhitiyaan":6979,"▁anokhe":6980,"▁baingal":6981,"▁kaaboo":6982,"▁prabandh":6983,"****":6984,"▁aaeeemeksa":6985,"▁ghatakar":6986,"▁kheenchane":6987,"▁paviliyan":6988,"▁mejabaan":6989,"▁anukool":6990,"▁chhutakaara":6991,"▁shakhs":6992,"▁portapholiyo":6993,"a7":6994,"book":6995,"j,":6996,"me":6997,"mon":6998,"vej":6999,"aaai":7000,"aahe":7001,"▁m3":7002,"▁maane":7003,"anch":7004,"▁bek":7005,"▁baaharee":7006,"yadh":7007,"▁dhak":7008,"▁daans":7009,"▁kala":7010,"aarp":7011,"heelar":7012,"▁laab":7013,"▁naata":7014,"▁ren":7015,"▁rait":7016,"▁vidh":7017,"oola":7018,"ales":7019,"atchh":7020,"▁semee":7021,"▁gaana":7022,"▁kamyoon":7023,"▁549":7024,"aavastha":7025,"aapaid":7026,"▁moon":7027,"▁vais":7028,"oloj":7029,"▁6-speed":7030,"▁chauda":7031,"▁seetar":7032,"▁700":7033,"▁badhaate":7034,"▁varsheey":7035,"▁kaards":7036,"▁laanching":7037,"vaj":7038,"▁saur":7039,"▁chaahane":7040,"▁mobails":7041,"▁pees":7042,"▁peeriya":7043,"aeees":7044,"▁trip":7045,"▁eloy":7046,"▁saamanj":7047,"▁11,999":7048,"▁braajee":7049,"▁svabhaav":7050,"▁suranga":7051,"▁sasp":7052,"▁vidai":7053,"▁18:9":7054,"▁bolane":7055,"▁dekhen-":7056,"▁luks":7057,"▁atyaadh":7058,"▁pramoshan":7059,"▁kaipes":7060,"▁prakrti":7061,"▁spesiphikeshans:":7062,"▁breking":7063,"▁vichaaron":7064,"▁steel":7065,"▁vivaad":7066,"▁visheshataen":7067,"▁aakhirakaar":7068,"▁vyavastha":7069,"▁kumaar,":7070,"▁santush":7071,"▁sanskaran":7072,"▁rijalt":7073,"▁maips":7074,"▁laindalain":7075,"▁hairaan":7076,"▁mainyuphaikcharing":7077,"▁nateeja":7078,"▁baithane":7079,"▁ravichandran":7080,"▁intelijens":7081,"▁kaavaasaakee":7082,"▁naajuk":7083,"-e":7084,"aen":7085,"ian":7086,"kop":7087,"nl":7088,"ua":7089,"ulee":7090,"ust":7091,"▁k8":7092,"▁pyoo":7093,"▁bla":7094,"yat":7095,"▁a1":7096,"▁a9":7097,"one":7098,"aarak":7099,"▁roos":7100,"▁rivars":7101,"▁viyar":7102,"▁tantr":7103,"atr":7104,"▁eses":7105,"▁elar":7106,"▁karaate":7107,"▁phaayar":7108,"▁gupha":7109,"▁180":7110,"abhar":7111,"itish":7112,"▁kamins":7113,"▁5d":7114,"araj":7115,"ateedee":7116,"▁sameek":7117,"▁yooaarel":7118,"▁dilaee":7119,"ipak":7120,"▁teejar":7121,"saras":7122,"avyoo":7123,"seem":7124,"▁dongal":7125,"▁adhyaksh":7126,"▁chaar-paanch":7127,"oonee":7128,"▁sanv":7129,"▁adhikaansh":7130,"▁tred":7131,"▁elyoom":7132,"▁259":7133,"▁xz":7134,"▁krej":7135,"▁vidy":7136,"▁rikol":7137,"▁aayurved":7138,"aashay":7139,"▁bukhaar":7140,"▁sthitiyon":7141,"▁tvs":7142,"soft":7143,"▁muh":7144,"▁phails":7145,"▁anumati":7146,"▁raajadhaanee":7147,"▁udyog":7148,"▁risarchar":7149,"▁ladakee":7150,"▁ej,":7151,"▁sochane":7152,"tasan":7153,"▁havaee":7154,"▁taiksee":7155,"▁heeroin":7156,"▁dukaatee":7157,"▁suvidh":7158,"▁bete":7159,"▁embiyant":7160,"▁enjelo":7161,"▁sarajam":7162,"▁prabandhan":7163,"▁raashtr":7164,"▁echemadee":7165,"▁phijikal":7166,"▁samudr":7167,"▁doguna":7168,"▁daisirai":7169,"▁eplikeshan":7170,"askreen":7171,"▁e6000":7172,"baayot":7173,"▁dupahiya":7174,"▁khaady":7175,"▁naagapur":7176,"▁steeyaring":7177,"▁parichay":7178,"▁niroshan":7179,"▁saamanjasy":7180,"▁braajeel":7181,"▁sarajameen":7182,"21":7183,"ahan":7184,"bat":7185,"loded":7186,"mw":7187,"olee":7188,"son":7189,"uchar":7190,"hala":7191,"▁bith":7192,"▁bingo":7193,"▁jeschar":7194,"▁nij":7195,"▁vaar":7196,"gas":7197,"gauratalab":7198,"▁toor":7199,"▁teks":7200,"▁ti":7201,"uroo":7202,"▁er":7203,"▁hy":7204,"ikr":7205,"▁gat":7206,"▁u11":7207,"ition":7208,"atak":7209,"▁yun":7210,"aadu":7211,"aastar":7212,"▁320":7213,"▁shipht":7214,"▁of":7215,"aavit":7216,"▁kaaryav":7217,"▁89":7218,"▁stet":7219,"aaje":7220,"ave":7221,"▁banakar":7222,"▁(d":7223,"▁(sh":7224,"seeaee":7225,"ektiv":7226,"▁doonga":7227,"▁raim-":7228,"▁raning":7229,"▁saral":7230,"▁sarjaree":7231,"▁ekse":7232,"▁vard":7233,"▁10,999":7234,"▁pach":7235,"▁bataata":7236,"▁utpann":7237,"ashot":7238,"ooment":7239,"-sil":7240,"▁roope)":7241,"▁kaaranon":7242,"▁itar":7243,"▁manap":7244,"▁manoran":7245,"▁kriya":7246,"▁shaanti":7247,"▁aart":7248,"aijd":7249,"▁aankadon":7250,"▁karaen":7251,"▁otometik":7252,"telik":7253,"▁ikat":7254,"▁chomp":7255,"▁ematee65":7256,"▁skootars":7257,"▁jitane":7258,"▁drink":7259,"▁rishta":7260,"▁nauven":7261,"▁hataane":7262,"▁abhinay":7263,"▁aaaipshans":7264,"▁kaabij":7265,"▁vailyoo":7266,"▁padaarthon":7267,"▁paalan":7268,"▁dheemee":7269,"▁gusse":7270,"▁injeeniyaring":7271,"▁bigad":7272,"▁ganvae":7273,"enajar":7274,"▁musk":7275,"▁brodabaind":7276,"▁pashch":7277,"▁jajba":7278,"▁mejoo":7279,"▁riseev":7280,"▁dhamaakedaar":7281,"▁yoonibodee":7282,"▁yaamaaha":7283,"▁atyaadhunik":7284,"▁manoranjan":7285,",0":7286,"-ro":7287,"-eleedee":7288,":/":7289,"achh":7290,"fachai":7291,"mal":7292,"s’":7293,"vai":7294,"‍ta":7295,"▁khand":7296,"aajar":7297,"▁hare":7298,"anon":7299,"▁buj":7300,"▁dhar":7301,"▁joo":7302,"▁jionee":7303,"▁laim":7304,"▁ledar":7305,"▁phepha":7306,"amantree":7307,"▁parth":7308,"▁chok":7309,"▁5mm":7310,"▁399":7311,"▁jopo":7312,"▁deetee":7313,"▁samaaj":7314,"isht":7315,"aajik":7316,"▁padee":7317,"▁skr":7318,"raj":7319,"▁maidi":7320,"▁sau":7321,"reeno":7322,"indr":7323,"▁karana,":7324,"▁hota,":7325,"▁sangat":7326,"▁indas":7327,"▁edres":7328,"▁korn":7329,"▁svayan":7330,"▁preeloded":7331,"▁daalate":7332,"▁taimalain":7333,"▁test,":7334,"▁laiphas":7335,"nae":7336,"▁meeting":7337,"▁salamaan":7338,"▁inglaind,":7339,"▁prots":7340,"▁aadhee":7341,"▁judane":7342,"▁sambandhon":7343,"▁ravindr":7344,"▁poochhe":7345,"▁eksa1":7346,"▁256gb":7347,"▁ema2":7348,"▁maikro-yooesabee,":7349,"▁dastak":7350,"▁utarate":7351,"▁jadane":7352,"▁mainejing":7353,"▁paikej":7354,"▁vishayon":7355,"▁phalon":7356,"▁dukaan":7357,"▁niraashaajanak":7358,"▁chayanakartaon":7359,"▁paryaavaran":7360,"▁prerana":7361,"▁baills":7362,"▁nirnaayak":7363,"anjay":7364,"▁dablyooveejeee":7365,"▁vibhaagon":7366,"▁gulaab":7367,"orniya":7368,"riphikeshan":7369,"▁adhikaariyon":7370,"▁ilaakon":7371,"▁reshiyo":7372,"▁vaay-phaay,":7373,"▁pranaalee":7374,"▁kahoonga":7375,"/jee/en/esee,":7376,"▁jhalak":7377,"▁gardan":7378,"▁praatham":7379,"yadhik":7380,"24":7381,"900":7382,"a5":7383,"g,":7384,"gana":7385,"pl":7386,"yee":7387,"▁khan":7388,"arabarg":7389,"▁pik":7390,"▁mup":7391,"ans":7392,"▁daant":7393,"taee":7394,"▁lis":7395,"▁lut":7396,"▁nin":7397,"aank":7398,"▁hep":7399,"▁karoon":7400,"▁phej":7401,"▁phel":7402,"▁aaio":7403,"▁gaaya":7404,"ora":7405,"ekted":7406,"▁tahal":7407,"▁taink":7408,"▁choon":7409,"▁chham":7410,"▁5-":7411,"▁510":7412,"▁450":7413,"▁khaata":7414,"▁toha":7415,"▁prej":7416,"▁praj":7417,"▁6jeebee":7418,"▁chaud":7419,"▁milengee":7420,"eshiya":7421,"▁raheen":7422,"▁seedhee":7423,"emo":7424,"avaee":7425,"shay":7426,"akod":7427,"▁maarooti":7428,"vach":7429,"▁chalen":7430,"▁philips":7431,"▁pee10":7432,"▁bator":7433,"▁13,999":7434,"▁leevar":7435,"▁klok":7436,"▁badalate":7437,"▁nirmit":7438,"▁paariyaan":7439,"▁akhab":7440,"▁botal":7441,"▁ter":7442,"▁pradaata":7443,"▁sunee":7444,"▁sink":7445,"▁khoobee":7446,"▁patrika":7447,"ijanal":7448,"▁paitarn":7449,"▁niyamon":7450,"▁dhananjay":7451,"▁prashikshan":7452,"▁seving":7453,"▁pahanen":7454,"▁lokapriyata":7455,"ript":7456,"▁thande":7457,"▁kirin":7458,"etaitis":7459,"tabol":7460,"▁maalik":7461,"▁mirar":7462,"▁michrosoft":7463,"▁dhamaaka":7464,"▁tairiph":7465,"-samay":7466,"▁drop":7467,"▁phiksd":7468,"▁nibha":7469,"▁mupheed":7470,"36":7471,"aut":7472,"jo":7473,"rat":7474,"tish":7475,"▁sit":7476,"▁solar":7477,"anja":7478,"▁baaga":7479,"▁kaksha":7480,"enta":7481,"▁vaip":7482,"▁vasa":7483,"oosee":7484,"▁esesareej":7485,"▁haavee":7486,"▁sele":7487,"▁aaib":7488,"ikaarak":7489,"ittair":7490,"hanon":7491,"▁hold":7492,"▁naveen":7493,"▁eksaras":7494,"▁chura":7495,"▁ost":7496,"▁samart":7497,"▁anivaar":7498,"oore":7499,"▁padha":7500,"▁skaip":7501,"▁(thar":7502,"▁78":7503,"▁intarana":7504,"▁paush":7505,"▁sanvaad":7506,"▁indon":7507,"▁2013":7508,"▁snap":7509,"▁kol,":7510,"▁aadhe":7511,"▁british":7512,"agoogal":7513,"▁mukesh":7514,"▁1440":7515,"phton":7516,"▁maarkets":7517,"aasht":7518,"aseene":7519,"▁chaahega":7520,"▁suvidhaon":7521,"▁rikavar":7522,"▁samajhen":7523,"▁dikhaata":7524,"▁nyootr":7525,"▁chunen":7526,"▁lagegee":7527,"▁laayak":7528,"▁chhodata":7529,"yavaad":7530,"▁epha1":7531,"▁pyaaj":7532,"▁pank":7533,"▁kaala":7534,"▁traiking":7535,"▁goyal":7536,"▁utaregee":7537,"▁seekhane":7538,"▁belt":7539,"▁buree":7540,"▁vaastavik":7541,"▁utsaahit":7542,"▁marsedee":7543,"aikromaiks":7544,"▁kairektar":7545,"▁shiksha":7546,"chaarjd":7547,"keemat:":7548,"▁vyaktitv":7549,"▁paudhe":7550,"▁mairaathan":7551,"▁singaapur":7552,"▁jaagarook":7553,"▁stamps":7554,"▁too-vheelar":7555,"▁pradhaanamantree":7556,"▁yooreka":7557,"▁tivatar":7558,"▁manapasand":7559,"▁samarthan":7560,"▁paushtik":7561,"-bee":7562,"-tee":7563,"399":7564,"92":7565,"ifi":7566,"nishan":7567,"o)":7568,"otem":7569,"rapaan":7570,"tiyaan":7571,"uaee":7572,"vi":7573,"‌r":7574,"▁paim":7575,"▁paaye":7576,"▁mm":7577,"▁bakh":7578,"▁las":7579,"▁naathan":7580,"che":7581,"▁aaen":7582,"esis":7583,"▁gaanon":7584,"aalon":7585,"▁gam":7586,"▁2emapee":7587,"▁ekad":7588,"▁saksesar":7589,"▁chutak":7590,"▁5eks":7591,"▁5ven":7592,"▁3999":7593,"hart":7594,"ivaseey":7595,"▁strok":7596,"▁(18":7597,"▁7s":7598,"stra":7599,"▁intaravyoo":7600,"▁grej":7601,"▁kans":7602,"▁plen":7603,"▁esateedee":7604,"▁spaark":7605,"▁samay-samay":7606,"▁peeth":7607,"▁phaim":7608,"▁phaind":7609,"▁98":7610,"▁balb":7611,"ashaan":7612,"▁2010":7613,"▁memoree-":7614,"▁therepee":7615,"▁korteks":7616,"▁darsh":7617,"▁f5":7618,"▁fachaibook":7619,"apres":7620,"▁loyan":7621,"▁manaaya":7622,"▁vikalpon":7623,"▁808":7624,"▁bharat":7625,"▁www":7626,"▁plaaning":7627,"▁219":7628,"▁hajaaron":7629,"▁masaaj":7630,"▁silendar":7631,"▁bhejana":7632,"▁pattee":7633,"▁dhadak":7634,"▁paanch-chhah":7635,"▁405":7636,"▁karenge,":7637,"▁smail":7638,"▁saaph-s":7639,"▁haanikaarak":7640,"▁steevan":7641,"▁ganvaana":7642,"▁jeepeeaares,":7643,"▁jaanakaariyon":7644,"▁metro":7645,"▁(26":7646,"▁spinaron":7647,"▁poket":7648,"aveer":7649,"▁sentral":7650,"▁(3)":7651,"▁stoodents":7652,"▁doharaate":7653,"▁chapet":7654,"▁kepataun":7655,"▁phaayaraph":7656,"▁abhinetree":7657,"▁kendreey":7658,"://":7659,"▁laiphastail":7660,"▁eksarasaij":7661,"▁anivaary":7662,"57":7663,"9s":7664,"bair":7665,"jana":7666,"oee":7667,"tin":7668,"uaan":7669,"ute":7670,"x7":7671,"▁ur":7672,"▁ig":7673,"▁maanee":7674,"anait":7675,"▁bmw":7676,"▁haip":7677,"▁dail":7678,"▁alee":7679,"▁ajee":7680,"▁ahasaas":7681,"▁katak":7682,"▁mesej":7683,"ensh":7684,"ai,":7685,"▁rook":7686,"▁vaaka":7687,"oobee":7688,"aanusaar":7689,"▁taar":7690,"▁gaarantee":7691,"aalik":7692,"▁1ghz":7693,"▁ulaj":7694,"itrai":7695,"▁inv":7696,"▁5-speed":7697,"▁425":7698,"▁khid":7699,"▁khokar":7700,"deeseee":7701,"▁kaaryon":7702,"olaid":7703,"▁8veen":7704,"▁chad":7705,"aakshee":7706,"▁rautar":7707,"emon":7708,"▁(b":7709,"▁dengen":7710,"▁beyar":7711,"▁maitelik":7712,"▁kanektar":7713,"galane":7714,"▁127":7715,"▁vark":7716,"▁160":7717,"▁vishl":7718,"▁bataen":7719,"▁bataur":7720,"▁snaiks":7721,"▁saamaajik":7722,"▁dauron":7723,"astik":7724,"▁asembal":7725,"▁dyool-sim":7726,"▁photo,":7727,"ormeshan":7728,"▁surfachai":7729,"▁laits":7730,"▁19,999":7731,"▁spesiphikeshan:":7732,"▁aankhen":7733,"▁atyadhik":7734,"taput":7735,"▁ikai":7736,"▁aix":7737,"▁dhanyavaad":7738,"▁ejensee":7739,"▁kaunsil":7740,"▁aadaton":7741,"▁(41)":7742,"▁phors":7743,"▁rogon":7744,"▁chhah-chhah":7745,"▁jhooth":7746,"▁maaloom":7747,"-thar":7748,"▁chhakkon":7749,"▁tumhaara":7750,"▁madhyakram":7751,"▁phains":7752,"▁yoozars":7753,"▁todakar":7754,"▁jeepeees/e-jeepeees":7755,"▁kreg":7756,"▁editing":7757,"▁dhoomrapaan":7758,"▁dikavela)":7759,"39)":7760,"▁kaartik,":7761,"yuminiyam":7762,"▁eksataranal":7763,"▁asaphalata":7764,"▁bsnl":7765,"▁aikses":7766,"▁instrooment":7767,"▁jukarabarg":7768,"▁lahasun":7769,"▁stonamain":7770,"▁saspenshan":7771,"▁kaaryavaahak":7772,"▁choonki":7773,"▁(tharanga":7774,"▁intaranaishanal":7775,"otemment":7776,"▁ekadivaseey":7777,"-8":7778,"-pan":7779,"960":7780,"gaas":7781,"haal":7782,"khanee":7783,"lat":7784,"lip":7785,"pro":7786,"rah":7787,"rata":7788,"ushal":7789,"wch":7790,"yaalay":7791,"▁ksha":7792,"▁solyooshan":7793,"▁sateek":7794,"▁paseene":7795,"▁mwch":7796,"▁haphton":7797,"▁baha":7798,"▁haipar":7799,"▁daat":7800,"▁ast":7801,"▁ji":7802,"▁jaay":7803,"▁lod":7804,"chur":7805,"▁v5":7806,"atne":7807,"▁haara":7808,"▁karee":7809,"▁kot":7810,"asto":7811,"▁gst":7812,"▁gahare":7813,"▁nel":7814,"etee":7815,"▁ek-":7816,"aamaan":7817,"▁3-3":7818,"▁khur":7819,"▁keemat:":7820,"▁630":7821,"▁dilashaan":7822,"▁prov":7823,"antu":7824,"aaba":7825,"▁stan":7826,"▁seeen":7827,"▁baad,":7828,"▁(es":7829,"▁(100":7830,"▁rahoge":7831,"▁baarsil":7832,"ujhe":7833,"▁varg":7834,"▁enaal":7835,"▁dhaabee":7836,"akaratne":7837,"▁elistar":7838,"aahoo":7839,"aapht":7840,"▁mukt":7841,"▁glook":7842,"▁lanka)":7843,"bhp":7844,"▁orijanal":7845,"▁dvipak":7846,"aashtr":7847,"▁maisejej":7848,"▁sahool":7849,"▁801":7850,"oskop":7851,"aadhyaksh":7852,"▁ummeedavaar":7853,"sovar":7854,"▁pharjee":7855,"▁malaan":7856,"▁stebal":7857,"▁khelega":7858,"▁ladake":7859,"▁jamaane":7860,"▁2900":7861,"▁dhananja":7862,"▁dashak":7863,"▁rishted":7864,"▁vairiyants":7865,"▁pakadane":7866,"▁pareshaaniyon":7867,"▁hansee":7868,"▁tarbochaarjd":7869,"▁shaktish":7870,"▁ardhashatakeey":7871,"▁deelaraship":7872,",700":7873,"▁robin":7874,"▁utsaah":7875,"▁siyaaj":7876,"▁ladakhada":7877,"www":7878,"▁penting":7879,"▁sadeera-thar":7880,"▁jonee":7881,"▁vijayee":7882,"▁tilakaratne":7883,"▁eseee-veeseee":7884,"-chhotee":7885,"▁aautalets":7886,"▁paseena":7887,"▁raakhee":7888,"▁reechaarj":7889,"▁avataar":7890,"▁baingalor":7891,"▁peeriyad":7892,"▁blachk":7893,"arajensee":7894,"▁(shree":7895,"▁chokalet":7896,"▁listed":7897,"▁lutph":7898,"▁aaioes":7899,"▁prajaat":7900,"▁baagador":7901,"▁beyarasto":7902,"▁dvipaksheey":7903,"▁dhananjaya":7904,"▁sadeera-tharanga":7905,"599":7906,"achar":7907,"jon":7908,"no":7909,"otee":7910,"pekt":7911,"r,":7912,"raan":7913,"▁saim":7914,"▁svar":7915,"▁satar":7916,"tag":7917,"aartament":7918,"▁lanch":7919,"akul":7920,"▁nasht":7921,"▁raam":7922,"▁riph":7923,"▁hp":7924,"▁phek":7925,"▁aaiye":7926,"iket":7927,"ass":7928,"ilaaka":7929,"▁ubhar":7930,"cham":7931,"ekar":7932,"atah":7933,"▁2999":7934,"roj":7935,"aathilaaka":7936,"▁530":7937,"▁shaarp":7938,"▁jeero":7939,"▁badhegee":7940,"▁deejie":7941,"▁anaaj":7942,"▁ungal":7943,"elaar":7944,"▁sabak":7945,"peey":7946,"▁long":7947,"▁seeriyal":7948,"omadaar":7949,"▁veriphikeshan":7950,"▁(5":7951,"▁79":7952,"▁kaamak":7953,"▁thahar":7954,"▁alaarm":7955,"▁lais,":7956,"ichk":7957,"▁chalan":7958,"aana,":7959,"▁10,":7960,"▁1011":7961,"▁paengee":7962,"▁endraid":7963,"▁skreenashot":7964,"▁pratibh":7965,"▁dikhatee":7966,"▁haindal":7967,"iphorniya":7968,"▁haraate":7969,"▁vee5":7970,"▁klon":7971,"▁nirmaataon":7972,"▁patakhanee":7973,"eeko":7974,"▁z17":7975,"▁bartan":7976,"▁shatakaveer":7977,"▁rohit,":7978,"▁ovaratan":7979,"▁meel":7980,"▁antaraashtreey":7981,"▁stej":7982,"enjars":7983,"▁raajyon":7984,"▁vishvavid":7985,"▁beemaariyaan":7986,"-seereej":7987,"▁emabeepeees":7988,"▁ephajed":7989,"▁gunaathilaaka":7990,"▁(42":7991,"▁khushiyon":7992,"▁chhotee-chhotee":7993,"55)":7994,"▁haiking":7995,"▁midanait":7996,"▁imphotemment":7997,"▁49)":7998,"-litrai":7999,"▁marjee":8000,"▁dukhee":8001,"▁prophesar":8002,"▁baithak":8003,"▁embient":8004,"▁blootuth,":8005,"▁dhoondh":8006,"▁perara":8007,"▁skorakaard-":8008,"▁nakalee":8009,"▁postap":8010,"▁chailenjars":8011,"▁(naabaad":8012,"▁painorama":8013,"▁eseee-veedeeseee":8014,"apati":8015,"▁ubaal":8016,"▁(14)":8017,"▁shiping":8018,"▁pratispardha":8019,"▁marsideej":8020,"▁stylai":8021,"▁danushka":8022,"▁baaki":8023,"▁daaromadaar":8024,"▁bithaaya":8025,"▁hepetaitis":8026,"▁bakhoobee":8027,"▁baarsilona":8028,"▁sahooliyat":8029,"▁vishvavidyaalay":8030,"-end":8031,"-th":8032,"apane":8033,"dya":8034,"diyaan":8035,"jin":8036,"piyo":8037,"plas":8038,"pharm":8039,"ule":8040,"▁kind":8041,"▁sr":8042,"▁sus":8043,"▁sleep":8044,"▁pay":8045,"▁haidar":8046,"▁mele":8047,"▁li":8048,"▁laaj":8049,"▁nm":8050,"aijar":8051,"▁ru":8052,"▁voran":8053,"gain":8054,"al,":8055,"▁karn":8056,"amar":8057,"amaark":8058,"▁parl":8059,"▁parat":8060,"▁g4":8061,"abal":8062,"▁ugalane":8063,"▁inte":8064,"etiv":8065,"▁chenj":8066,"▁ki,":8067,"▁kichan":8068,"▁540":8069,"aashee":8070,"▁4x":8071,"deejee":8072,"▁samaapt":8073,"▁andhe":8074,"aakoo":8075,"▁abu":8076,"▁seerij":8077,"▁ep,":8078,"▁baitaree:":8079,"▁(55)":8080,"▁kaha-":8081,"rahan":8082,"▁sarkil":8083,"▁lenge":8084,"▁lagaate":8085,"▁spa":8086,"▁peele":8087,"▁sand":8088,"▁960":8089,"▁verients":8090,"▁amolaid":8091,"▁brash":8092,"▁640":8093,"▁f3":8094,"▁akila":8095,"▁1460":8096,"▁import":8097,"▁1286":8098,"iox":8099,"ensil":8100,"▁jeetaane":8101,"▁samajhana":8102,"▁aayu":8103,"▁2100":8104,"▁skorpiyo":8105,"▁pharst":8106,"▁traansalet":8107,"▁hona,":8108,"▁anuvaad":8109,"▁karaega":8110,"▁nicha":8111,"▁krosovar":8112,"▁jamaaya,":8113,"▁raiding":8114,"▁neeti":8115,"▁khelee,":8116,"▁utarenge,":8117,"▁jenaphona2":8118,"▁(49":8119,"▁sachin":8120,"▁saphed,":8121,"▁aaguaee":8122,"▁aakaash":8123,"▁aautaput":8124,"▁eyarabaigs":8125,"▁vigyaan":8126,"▁ematee6750":8127,"▁oonchee":8128,"▁madhyam":8129,"▁(239)":8130,"▁jeetate":8131,"▁riyalitee":8132,"▁davaon":8133,"▁kitaaben":8134,"▁daitasan":8135,"ilap":8136,"▁sansthaan":8137,"▁jataayee":8138,"▁maithyooj,":8139,"▁pakshiyon":8140,"▁oparetar":8141,"▁choolpad":8142,"▁baareek":8143,"▁pratirodhak":8144,"▁parivahan":8145,"▁taphapaid":8146,"▁teraabait":8147,"▁(181)":8148,"▁shaktishaalee":8149,"▁beyarasto14":8150,"69":8151,"6/3":8152,"ging":8153,"nis":8154,"nos":8155,"paal":8156,"taan":8157,"x1080":8158,"▁/":8159,"▁ib":8160,"▁kshan":8161,"haen":8162,"▁sud":8163,"▁saraph":8164,"▁plag":8165,"▁polo":8166,"▁mata":8167,"▁bed":8168,"▁boon":8169,"isal":8170,"▁dib":8171,"▁daayan":8172,"▁daada":8173,"▁ahan":8174,"▁kaisee":8175,"aared":8176,"▁raajan":8177,"▁vait":8178,"▁isapar":8179,"galee":8180,"▁tor":8181,"atoo":8182,"▁kosm":8183,"▁phyoo":8184,"chatail":8185,"▁bheed":8186,"▁yaahoo":8187,"▁chn":8188,"▁chitr":8189,"▁4999":8190,"▁aapas":8191,"▁shr":8192,"aikshan":8193,"▁jeene":8194,"uniya":8195,"▁kaar,":8196,"▁kaart":8197,"▁tak)":8198,"yooaee":8199,"▁macha":8200,"aimar":8201,"▁deees":8202,"▁keemat-":8203,"▁teechar":8204,"▁baig":8205,"aito":8206,"▁tarm":8207,"ujik":8208,"ijm":8209,"ootha":8210,"▁tarah-tar":8211,"opo":8212,"▁esasee":8213,"▁‘ham":8214,"▁phab":8215,"▁phainal":8216,"▁sanghar":8217,"▁97":8218,"▁endee":8219,"▁ee-k":8220,"▁rotee":8221,"hal-pan":8222,"▁upaadhyaksh":8223,"▁klab":8224,"▁poorn":8225,"aansoo":8226,"▁taibalet,":8227,"▁aarth":8228,"▁redieshan":8229,"▁goldan":8230,"osieshan":8231,"▁haarmon":8232,"▁jangal":8233,"/2)":8234,"▁190":8235,"▁konphrens":8236,"▁ooparee":8237,"▁240":8238,"▁steps":8239,"▁kriketar":8240,"▁raajasth":8241,"▁je7":8242,"▁maask":8243,"▁maasik":8244,"▁ladane":8245,"▁paraphekt":8246,"▁dileevar":8247,"▁otophokas,":8248,"▁poochh":8249,"▁kuladeep-cha":8250,"▁chhote-chho":8251,"▁ema3":8252,"▁viraat-ro":8253,"▁(46/3":8254,"▁aaraamadaayak":8255,"▁prashan":8256,"▁ematee6735":8257,"▁mittee":8258,"izain":8259,"▁methee":8260,"▁veeikals":8261,"▁prosesing":8262,"▁regyular":8263,"/3),":8264,"▁aayaran":8265,"▁narendr":8266,"▁bagair":8267,"ateekshit":8268,"▁shikshak":8269,"▁phaibrik":8270,"▁myujik":8271,"▁vhaatsaip":8272,"▁bola,":8273,"▁chauthee":8274,"▁aaisak":8275,"▁mrtyu":8276,"▁mahaaraashtr":8277,"▁b/g/n,":8278,"▁ikattha":8279,"▁bujur":8280,"▁aaibol":8281,"▁ostiyo":8282,"▁marsedeej":8283,"▁phaimilee":8284,"▁(26*)":8285,"▁phaayaraphoks":8286,"▁(100*)":8287,"▁glookoj":8288,"▁(42/3),":8289,"▁vorantee":8290,"▁andhere":8291,"▁(49/2)":8292,"▁saraphes":8293,"▁tarah-tarah":8294,"▁sangharsh":8295,"hal-pandya":8296,"▁kuladeep-chahal-pandya":8297,"▁chhote-chhote":8298,"▁viraat-rohit":8299,"▁(46/3)":8300,"98":8301,"a6":8302,"ium":8303,"ps,":8304,"rid":8305,"san":8306,"vaa":8307,"▁kaayam":8308,"▁satah":8309,"▁pune":8310,"▁pensil":8311,"▁bor":8312,"▁bok":8313,"▁bot":8314,"▁daadee":8315,"▁jikr":8316,"aardar":8317,"akin":8318,"▁nadee":8319,"▁rit":8320,"▁ving":8321,"▁vaak":8322,"aantik":8323,"urr":8324,"at:":8325,"▁phaarm":8326,"▁aalo":8327,"adek":8328,"phor":8329,"▁hain:":8330,"▁haing":8331,"abadee":8332,"▁inaam":8333,"▁inebal":8334,"▁inakam":8335,"▁bheem":8336,"▁jataee":8337,"rodh":8338,"▁navar":8339,"▁lie,":8340,"▁ekam":8341,"▁ekstra":8342,"amens":8343,"▁5es":8344,"aask":8345,"apor":8346,"aprai":8347,"▁mote":8348,"▁6s":8349,"▁anushka":8350,"▁yooke":8351,"▁dila":8352,"▁prok":8353,"▁teedee":8354,"peed":8355,"▁dillee-en":8356,"▁leksas":8357,"▁banata":8358,"▁alchatail":8359,"▁maikrophon":8360,"usb":8361,"▁dekho":8362,"▁sapor":8363,"▁eksapres":8364,"▁daeen":8365,"thak":8366,"▁spen":8367,"▁9,":8368,"▁bahup":8369,"▁maanga":8370,"oomi":8371,"eeniyam":8372,"▁145":8373,"bhaarat":8374,"▁nikaalee":8375,"▁imarajensee":8376,"▁petent":8377,"▁philahaal,":8378,"▁asist":8379,"▁bhare":8380,"▁watchh":8381,"▁likhe":8382,"▁supreem":8383,"▁masal":8384,"▁taiping":8385,"ibhaav":8386,"▁motaapa":8387,"▁aaega,":8388,"▁je5":8389,"▁rojagaar":8390,"▁2,500":8391,"▁abhibhaav":8392,"inalaind":8393,"▁khula":8394,"▁khusha":8395,"▁jaik,":8396,"▁khushiyaan":8397,"▁utaarane":8398,"▁steeriyo":8399,"▁prasaad":8400,"▁maalaveyar":8401,",200":8402,"▁g5s":8403,"40x2560":8404,"▁garbhaashay":8405,"-khud":8406,"▁maign":8407,"▁edamin":8408,"▁evenjar":8409,"▁obj":8410,"▁omega":8411,"aaroh":8412,"▁sanvedan":8413,"▁hyundee":8414,"▁sangathan":8415,"▁inteleej":8416,"▁aaisakreem":8417,"-too":8418,"690":8419,"890":8420,"buk":8421,"dd":8422,"kaal":8423,"miyon":8424,"nat":8425,"ten":8426,"uaar":8427,"▁)":8428,"▁[":8429,"▁”":8430,"▁kish":8431,"▁kaaga":8432,"aring":8433,"▁sukh":8434,"inam":8435,"▁baant":8436,"▁ais":8437,"onom":8438,"▁kaid":8439,"aaratee":8440,"aar-vee":8441,"▁lol":8442,"▁laimps":8443,"▁nit":8444,"▁norm":8445,"▁vas":8446,"▁vet":8447,"▁ty":8448,"▁eriya":8449,"▁philap":8450,"▁phinalaind":8451,"askaar":8452,"▁gaan":8453,"▁ghe":8454,"▁gaid":8455,"▁gahar":8456,"▁inov":8457,"▁2,999":8458,"leetar":8459,"▁khuj":8460,"apur":8461,"aavej":8462,"▁bhaagee":8463,"▁mol":8464,"▁takalee":8465,"gee,":8466,"▁vauchar":8467,"▁jokh":8468,"shik":8469,"▁chaik":8470,"▁chaina":8471,"▁jeebee)":8472,"okrom":8473,"oorti":8474,"▁rakam":8475,"▁denim":8476,"▁gret":8477,"▁badhaata":8478,"▁apar":8479,"▁sauda":8480,"▁modarn":8481,"▁baik,":8482,"▁donk":8483,"▁peena":8484,"▁phaund":8485,"▁13emapee":8486,"▁sandar":8487,"takon":8488,"▁madd":8489,"▁troo":8490,"▁upar":8491,"▁fon":8492,"astaar":8493,"▁khareedadaaree":8494,"▁aaeephons":8495,"▁italee":8496,"▁yoonik":8497,"▁aankh":8498,"▁bharane":8499,"▁bachaata":8500,"▁khaasiyat:":8501,"▁mastee":8502,"taviyar":8503,"▁kontr":8504,"▁dekhie":8505,"▁antariksh":8506,"▁1,500":8507,"▁kalaak":8508,"▁haldee":8509,"▁kastamaij":8510,"▁graameen":8511,"▁maujoodagee":8512,"▁sikh":8513,"▁ai4":8514,"ideejee":8515,"▁chhodakar":8516,"▁malteet":8517,"▁redee":8518,"▁panjee":8519,"▁ema9":8520,"chanaatmak":8521,"▁resing":8522,"▁avastha":8523,"▁sambhaavanaen":8524,"▁haidaset":8525,"▁votsaip":8526,"▁jhurr":8527,"▁chainals":8528,"▁kamajoree":8529,"▁ultee":8530,"▁phutaviyar":8531,",290":8532,"▁abhineta":8533,"▁kendrit":8534,"▁kleeyar":8535,"▁jarman":8536,"▁aaloo":8537,"tharaitis":8538,"▁kitaabon":8539,"▁kaibin":8540,"▁sansthaapak":8541,"▁kaimpas":8542,"▁shokes":8543,"▁tamilan":8544,"▁dipholt":8545,"▁sunahare":8546,"▁kaamayaab":8547,"deeaara3":8548,"▁bahupr":8549,"▁jokhim":8550,"-x":8551,"-ee":8552,"699":8553,"72":8554,"83":8555,"eb":8556,"gair":8557,"lit":8558,"rsh":8559,"tur":8560,"vitee":8561,"yaay":8562,"hase":8563,"habord":8564,"▁maa":8565,"anaatmak":8566,"▁bin":8567,"▁book":8568,"▁a3":8569,"▁jaaya":8570,"▁kai":8571,"▁kav":8572,"▁katee":8573,"ene":8574,"▁keyar":8575,"akat":8576,"▁vijan":8577,"▁vdai":8578,"▁istam":8579,"gadh":8580,"atenament":8581,"▁kob":8582,"▁aasha":8583,"ils":8584,"▁parich":8585,"▁parivar":8586,"▁gaajar":8587,"chair":8588,"atair":8589,"▁saka":8590,"▁chaand":8591,"▁5999":8592,"▁5ghz":8593,"aasan,":8594,"▁laee":8595,"▁khola":8596,"▁ov":8597,"▁mohit":8598,"endroyad":8599,"▁samaaroh":8600,"▁yooesabee,":8601,"▁chab":8602,"ishkaar":8603,"▁milen":8604,"▁rachanaatmak":8605,"▁lekh":8606,"oorvak":8607,"▁deree":8608,"▁baing":8609,"▁rahengee":8610,"yaada":8611,"garaanee":8612,"▁haalaat":8613,"▁eem":8614,"aships":8615,"akarta":8616,"▁trak":8617,"▁piksals":8618,"▁suz":8619,"▁153":8620,"▁bred":8621,"-se":8622,"▁edreeno":8623,"▁korapor":8624,"▁svatantr":8625,"▁preev":8626,"▁mahaan":8627,"▁ziox":8628,"▁mini":8629,"▁barlin":8630,"▁aayog":8631,"▁505":8632,"▁kilo":8633,"abeer":8634,"▁bainking":8635,"▁dekhen,":8636,"▁nigaraanee":8637,"▁karavaana":8638,"-inst":8639,"▁reem":8640,"ions":8641,"▁khoobiyon":8642,"▁chipaset,":8643,"▁kailiphorniya":8644,"▁seekhen":8645,"▁daamon":8646,"▁vaidhata":8647,"▁enteebaayot":8648,"▁haddiyaan":8649,"▁kaanoon":8650,"▁mid-r":8651,"▁jhel":8652,"tiphikeshan":8653,"▁inteegreted":8654,"▁vaataraprooph":8655,"▁dastaavej":8656,"▁(1080":8657,"▁aara7":8658,"▁e/bee/jee/en/esee,":8659,"aikrosopht":8660,"▁shaukeenon":8661,"▁rivyoo":8662,"▁hansate":8663,"▁misaal":8664,"▁koopan":8665,"▁bhaavanaon":8666,"▁domin":8667,"▁virodh":8668,"-taim":8669,"▁chautha":8670,"▁sartiphikeshan":8671,"▁sartiphiket":8672,"▁daayamand":8673,"-peene":8674,"▁dhoondhane":8675,"▁piksel":8676,"▁priyanka":8677,"▁eksapendebal":8678,"▁kaipesitee":8679,"▁esesadee":8680,"-silendar":8681,"▁kansol":8682,"▁kshati":8683,"▁satark":8684,"▁postaped":8685,"▁haidaraabaad":8686,"▁ekamaatr":8687,"▁khujalee":8688,"▁bhaageed":8689,"▁sandarbh":8690,"▁bahuprateekshit":8691,"▁vdaio":8692,"▁istamaal":8693,"-nae":8694,"gaar":8695,"i‍":8696,"jaam":8697,"ly":8698,"litee":8699,"oteejee":8700,"xt":8701,"eejan":8702,"▁kaaj":8703,"▁kood":8704,"▁mur":8705,"▁meen":8706,"▁dej":8707,"▁ded":8708,"▁daakh":8709,"▁aiv":8710,"▁ala":8711,"▁jvel":8712,"▁kaiph":8713,"aarasee":8714,"ench":8715,"▁kek":8716,"aksee":8717,"▁nan":8718,"▁rail":8719,"▁rot":8720,"▁ringat":8721,"▁tyoon":8722,"atane":8723,"▁e3":8724,"iyas":8725,"amaar":8726,"amas":8727,"ashah":8728,"▁gup":8729,"▁guj":8730,"▁gaharee":8731,"▁udaan":8732,"orp":8733,"▁taigar":8734,"▁nahee":8735,"▁sakengee":8736,"▁chur":8737,"▁5g":8738,"▁5-megaapiksal":8739,"▁3d":8740,"▁khicha":8741,"▁joging":8742,"▁anus":8743,"▁anaavaran":8744,"▁anadek":8745,"▁8emapee":8746,"▁pheechar,":8747,"▁probl":8748,"idai":8749,"▁(v":8750,"▁7000":8751,"seen":8752,"▁raksha":8753,"▁maiken":8754,"▁dosh":8755,"eedan":8756,"▁05":8757,"chche":8758,"▁aaee7":8759,"▁aaeeaee":8760,"▁gred":8761,"▁2030":8762,"▁sarvar":8763,"▁eksaboks":8764,"▁lens,":8765,"▁saum":8766,"▁sapane":8767,"▁105":8768,"▁pachh":8769,"▁paund":8770,"▁selkan":8771,"tion":8772,"▁vaigan":8773,"▁aasamaan":8774,"▁khareedee":8775,"▁upavaas":8776,"▁upasthit":8777,"▁memaree":8778,"ooman":8779,"▁klastar":8780,"▁x3":8781,"▁pichhala":8782,"▁korpor":8783,"▁for":8784,"▁staibal":8785,"▁pree-inst":8786,"▁i7":8787,"▁yooneeb":8788,"▁red,":8789,"meediya":8790,"▁19,990":8791,"▁volt":8792,"▁minaton":8793,"▁patthar":8794,"▁ganit":8795,"▁motok":8796,"▁kros":8797,"-in-":8798,"▁dabaane":8799,"▁braands":8800,"▁eksa5":8801,"▁kholakar":8802,"▁sekendaree":8803,"▁sachchaee":8804,"▁khaanapaan":8805,"▁kramashah":8806,"-chorai":8807,"▁anach":8808,"▁sundarata":8809,"▁phutabol":8810,"▁deelars":8811,"▁upayukt":8812,"▁yooropiyan":8813,"▁enjoy":8814,"igaret":8815,"▁phinishing":8816,"▁pratibandh":8817,"▁sabsakrai":8818,"▁gulaabee":8819,"▁jhap":8820,"▁praarambh":8821,"▁daishabord":8822,"bonn":8823,"porosis":8824,"▁daayamenshan":8825,"▁najadeekee":8826,"▁nekst":8827,"▁twittair":8828,"▁klaimet":8829,"▁bhookamp":8830,"▁chaunkaane":8831,"rakchar":8832,"▁dharatee":8833,"▁gaayab":8834,"‌rtj":8835,"apraij":8836,"▁takaleeph":8837,"ideejeei,":8838,"▁parivartan":8839,"▁mid-renj":8840,"▁khichadee":8841,"38":8842,"fair":8843,"gaanv":8844,"laik":8845,"mo":8846,"odh":8847,"pm":8848,"ple":8849,"ras":8850,"vaah":8851,"‍sa":8852,"eer":8853,"▁koop":8854,"inga":8855,"initee":8856,"inst":8857,"▁p1":8858,"anet":8859,"▁besab":8860,"▁dal":8861,"▁draigan":8862,"▁ada":8863,"▁jaayar":8864,"▁jooj":8865,"▁kaushal":8866,"ental":8867,"▁kem":8868,"▁laana":8869,"▁loon":8870,"▁raast":8871,"▁r11":8872,"▁restor":8873,"▁vaakee":8874,"▁karaatee":8875,"▁karbonn":8876,"esapee":8877,"adraiv":8878,"phtar":8879,"▁parantu":8880,"▁1999":8881,"aba":8882,"▁tain":8883,"▁tathy":8884,"▁nazar":8885,"▁choo":8886,"▁chor":8887,"▁chit":8888,"▁chikan":8889,"▁4a":8890,"▁3s":8891,"aavik":8892,"aapiksal":8893,"ains":8894,"▁motee":8895,"▁vayas":8896,"▁6gb":8897,"▁chaimp":8898,"▁lonchar":8899,"janak":8900,"avhaatsep":8901,"▁dengee":8902,"▁maikron":8903,"▁deph":8904,"▁opareshan":8905,"▁maital":8906,"▁storee":8907,"▁kanpharm":8908,"▁rahe,":8909,"▁varun":8910,"▁chalaate":8911,"▁roopaye":8912,"▁peepee":8913,"aah‌rtj":8914,"▁badalakar":8915,"▁svaagat":8916,"▁pahiyon":8917,"inteks":8918,"▁mano":8919,"aphesabuk":8920,"▁asant":8921,"▁aanval":8922,"▁wifi":8923,"▁sunana":8924,"-paapa":8925,"▁laipatop,":8926,"▁meediyaapaid":8927,"▁supara":8928,"▁janata":8929,"▁sinema":8930,"▁bandal":8931,"▁phlipakaart,":8932,"▁kainavaas":8933,"yalet":8934,"▁arj":8935,"▁artha":8936,"▁sochen":8937,"▁2,7":8938,"▁kism":8939,"▁pakshee":8940,"▁kyoob":8941,"▁abhaav":8942,"▁dhaniya":8943,"▁ejuk":8944,"▁shopakl":8945,"▁elateei,":8946,"▁phans":8947,"▁dhone":8948,"▁kromabuk":8949,"▁aidition":8950,"▁phoksave":8951,"▁saiph":8952,"▁poochhen":8953,"▁maalee-tee":8954,"▁khojane":8955,"▁deelaraships":8956,"▁talaas":8957,"▁ajay":8958,"▁byootiphikeshan":8959,"▁baithakar":8960,"▁ladakiyaan":8961,"▁shodhakarta":8962,"▁728":8963,"▁sheds":8964,"▁jatil":8965,"▁kenavas":8966,"▁nyooyaark":8967,"▁kaimpen":8968,"ayooaee":8969,"▁eksatarnal":8970,"▁agranee":8971,"▁agravaal":8972,"▁tatkaal":8973,"▁sukoon":8974,"▁amazon":8975,"▁phenk":8976,"▁sanchaalit":8977,"▁ek-ek":8978,"amarra":8979,"▁raajasthaan":8980,"▁sanvedanasheel":8981,"▁kishor":8982,"▁maddenajar":8983,"▁malteetaasking":8984,"▁tamilanaadu":8985,"▁problam":8986,"▁phoksavegan":8987,"450":8988,"51":8989,"dent":8990,"kit":8991,"kampanee":8992,"ry":8993,"tiphaid":8994,"vat":8995,"yaam":8996,"▁aanch":8997,"▁sum":8998,"▁srot":8999,"▁puj":9000,"▁hast":9001,"▁by":9002,"▁bro":9003,"▁benj":9004,"▁bita":9005,"▁hai)":9006,"yaomee":9007,"▁j7":9008,"▁jur":9009,"▁jaij":9010,"▁kaph":9011,"▁kash":9012,"▁keral":9013,"▁laas":9014,"▁laap":9015,"▁lions":9016,"akan":9017,"churee":9018,"aiya":9019,"▁kolar":9020,"▁phita":9021,"adisk":9022,"amel":9023,"▁graund":9024,"ietar":9025,"aboo":9026,"▁int":9027,"tarik":9028,"▁bhee,":9029,"ima":9030,"imam":9031,"rolar":9032,"▁kama":9033,"▁cho":9034,"aadoo":9035,"▁5inch":9036,"▁khaam":9037,"▁shvaas":9038,"apha":9039,"apad":9040,"▁jee3":9041,"▁och":9042,"aaphar":9043,"▁bhp":9044,"▁tol":9045,"deep":9046,"lais":9047,"▁pheet":9048,"▁sampoorn":9049,"▁strai":9050,"▁stets":9051,"▁seeree":9052,"▁padhana":9053,"▁skaee":9054,"▁(aaee":9055,"▁(128":9056,"iyars":9057,"▁jaanen,":9058,"▁taral":9059,"▁bahan":9060,"▁khadee":9061,"▁kahata":9062,"▁becheen":9063,"▁eksatee":9064,"▁divel":9065,"▁spo":9066,"▁mobilitee":9067,"▁nae-nae":9068,"▁‘sh":9069,"▁pahana":9070,"▁utsar":9071,"▁94":9072,"vand":9073,"▁hariy":9074,"ight":9075,"▁batae":9076,"▁bataega":9077,"▁jinda":9078,"adeh":9079,"▁kolam":9080,"▁chhaan":9081,"▁hotee,":9082,"▁klip":9083,"▁mukti":9084,"▁dual-ton":9085,"▁firai":9086,"▁akshay":9087,"▁svaabh":9088,"▁nikhaar":9089,"▁aajaadee":9090,"▁yooneek":9091,"▁maisej,":9092,"▁aantarik":9093,"abhaar":9094,"▁teevee,":9095,"ramit":9096,"▁prodekt":9097,"▁mujhase":9098,"▁sharaab":9099,"▁bachana":9100,"▁musee":9101,"▁3000mah":9102,"▁khaane-peene":9103,"▁khulane":9104,"urust":9105,"▁heldee":9106,"▁kanekted":9107,"▁pahanana":9108,"▁insta":9109,"▁haddee":9110,"▁imphotenament":9111,"▁aauta":9112,"▁shaimpoo":9113,"▁buddh":9114,"▁rodhee":9115,"amparik":9116,"▁flip":9117,"▁prastaav":9118,"▁tyohaaree":9119,"▁nibhaane":9120,"▁satr":9121,"▁shanivaar":9122,"▁edamaayar":9123,"▁dhaarana":9124,"▁treetament":9125,"▁lumi":9126,"▁do-teen":9127,"▁viyarebal":9128,"▁sameeksha":9129,"▁nijaat":9130,"▁protsaahit":9131,"▁naveenatam":9132,"▁paimaane":9133,"▁kareebee":9134,"▁kosmetik":9135,"▁aalochana":9136,"▁gaharaee":9137,"▁phaundeshan":9138,"▁pachhaad":9139,"▁shopaklooj":9140,"-5":9141,"400":9142,"boo":9143,"e’":9144,"eaee":9145,"ginee":9146,"megaapiksal":9147,"umaar":9148,"vain":9149,"vaach":9150,"zz":9151,"▁pun":9152,"▁mint":9153,"yap":9154,"▁draee":9155,"▁aup":9156,"taj":9157,"▁megaap":9158,"enshiyal":9159,"▁livai":9160,"chom":9161,"aanti":9162,"alaind":9163,"▁phork":9164,"▁aadar":9165,"amai":9166,"asaat":9167,"chane":9168,"ekchar":9169,"▁ho?":9170,"▁jao":9171,"▁4e":9172,"▁laen":9173,"▁shish":9174,"▁shaahar":9175,"▁sher":9176,"haroom":9177,"apej":9178,"▁jeete":9179,"aaviya":9180,"ingair":9181,"aino":9182,"▁emp":9183,"▁66":9184,"▁milaan":9185,"aakaat":9186,"▁tee8":9187,"▁baadha":9188,"▁(1920":9189,"▁alph":9190,"stor":9191,"▁grepha":9192,"oothee":9193,"▁badhaana":9194,"iba":9195,"▁jabard":9196,"▁sartiphaid":9197,"-kya":9198,"▁esosieshan":9199,"▁spr":9200,"▁dinachar":9201,"▁‘g":9202,"▁peetar":9203,"▁bataana":9204,"▁saport-":9205,"▁indi":9206,"takee":9207,"▁2011":9208,"▁injanon":9209,"▁amooman":9210,"▁leeph":9211,"▁rochak":9212,"ars,":9213,"-phaee":9214,"▁15000":9215,"▁detaavind":9216,"▁jalan":9217,"▁xa1":9218,"▁saimasang,":9219,"▁geegaah‌rtj":9220,"-sel":9221,"▁f1":9222,"▁sarvaadhik":9223,"▁point":9224,"▁paaramparik":9225,"▁akshar":9226,"▁gailaksee":9227,"▁manush":9228,"▁oriyo":9229,"▁krooj":9230,"▁kriet":9231,"▁zar":9232,"▁z11":9233,"▁zopo":9234,"▁karega,":9235,"bandee":9236,"▁puraskaar":9237,"▁juta":9238,"▁khaasiyat,":9239,"▁kharaabee":9240,"▁bilakul":9241,"▁gandagee":9242,"▁phailon":9243,"▁stetament":9244,"▁tokyo":9245,"▁yaadad":9246,"▁nigam":9247,"▁rojamarra":9248,"▁udaas":9249,"▁iko":9250,"▁rees":9251,"▁paigas":9252,"▁kyoo5":9253,"▁chomio":9254,"▁malteemeediya":9255,"▁chamair":9256,"▁kaale,":9257,"dhaarth":9258,"▁theen,":9259,"▁elateepeees":9260,"▁jeda2":9261,"▁yooropeey":9262,"▁qhd":9263,"▁monokrom":9264,"▁doktaron":9265,"▁bhoolen":9266,"▁inteegr":9267,"aicho":9268,"▁(2016)":9269,"▁jeepeeaares/ideejeei,":9270,"▁gambheerata":9271,"▁egree":9272,"▁kadaahee":9273,"▁paidal":9274,"▁aaliya":9275,"▁ipad":9276,"▁duo":9277,"▁taajagee":9278,"▁traival":9279,"▁vhaats":9280,"▁propheshanals":9281,"▁sentrik":9282,"▁altraapiksal":9283,"▁mulaayam":9284,"▁kamyunikeshan":9285,"▁keemata":9286,"▁mammee-paapa":9287,"▁raina":9288,"▁sarphes":9289,"▁chikitsa":9290,"▁jaasoos":9291,"▁jaasoosee":9292,"▁idhar":9293,"▁edajast":9294,"▁lubhaane":9295,"▁gunagune":9296,"olojist":9297,"▁raashtrapati":9298,"▁teksat":9299,"▁akhabaar":9300,"▁indoneshiya":9301,"▁jaagarookata":9302,"▁ajeeb":9303,"▁khidakee":9304,"▁astitv":9305,"▁karnaatak":9306,"▁ostiyoporosis":9307,"▁dillee-enaseeaar":9308,"▁philapakaart":9309,"▁donktar":9310,"▁jvelaree":9311,"▁anusandh":9312,"▁motokorp":9313,"▁raaston":9314,"▁svaabhaavik":9315,"▁flipkar":9316,"▁paigasus":9317,"-30":9318,"48":9319,"bor":9320,"baadee":9321,"din":9322,"goo":9323,"iai":9324,"laid":9325,"s/":9326,"sit":9327,"tor":9328,"top":9329,"ula":9330,"x480":9331,"zed":9332,"aage":9333,"▁sav":9334,"▁sigaret":9335,"▁panee":9336,"▁bih":9337,"yash":9338,"▁dat":9339,"▁dav":9340,"▁dizain":9341,"▁a4":9342,"onch":9343,"▁kalaee":9344,"▁laiks":9345,"▁nas":9346,"▁nfch":9347,"▁r7":9348,"▁rep":9349,"aaniks":9350,"▁tir":9351,"▁e8":9352,"▁karmach":9353,"▁phaas":9354,"phl":9355,"▁yaheen":9356,"▁ge":9357,"▁ghabar":9358,"▁gajab":9359,"▁ui":9360,"iyog":9361,"atach":9362,"▁naheen":9363,"▁nayee":9364,"▁yaatr":9365,"▁eka":9366,"▁eksesareej":9367,"▁sakht":9368,"▁chch":9369,"▁chol":9370,"▁kid":9371,"▁5x":9372,"▁laun":9373,"▁short":9374,"▁shyaomee":9375,"▁smaartavaach":9376,"teebee":9377,"teesh":9378,"deej":9379,"deel":9380,"▁praan":9381,"▁apanaakar":9382,"▁emadee":9383,"▁anush":9384,"▁pros":9385,"okt":9386,"ipaid":9387,"ailitee":9388,"ulan":9389,"▁banate":9390,"▁bangaal":9391,"▁skrai":9392,"▁jariya":9393,"▁dohara":9394,"▁tarn":9395,"eediyo":9396,"karsh":9397,"▁ranabeer":9398,"▁lenee":9399,"▁log-in":9400,"▁sapan":9401,"▁spekt":9402,"▁‘r":9403,"▁‘ek":9404,"▁pee1":9405,"▁peek":9406,"▁banaegee":9407,"▁pratiyog":9408,"▁96":9409,"▁ena1":9410,"▁dikhen":9411,"▁dikhate":9412,"uma":9413,"▁aaspekt":9414,"▁aman":9415,"▁sote":9416,"▁soda":9417,"andar":9418,"▁geet":9419,"▁maanak":9420,"▁kya-kya":9421,"agnishan":9422,"▁leyar":9423,"iball":9424,"▁polee":9425,"▁paarts":9426,"apradesh":9427,"▁143":9428,"▁144":9429,"▁1400":9430,"▁manam":9431,"▁ora":9432,"▁i5":9433,"▁bhaga":9434,"▁bhala":9435,"▁jaegee,":9436,"▁watair":9437,"▁kantrolar":9438,"grah":9439,"▁samajhad":9440,"▁jedi":9441,"▁siler":9442,"▁maje":9443,"▁’’":9444,"▁kshamataon":9445,"▁17,999":9446,"▁2400":9447,"▁40,000":9448,"▁mausamee":9449,"▁aadesh":9450,"lass":9451,"▁sambhaavit":9452,"▁banegee":9453,"▁jeepeeyoo,":9454,"▁vyaav":9455,"▁paraphor":9456,"▁raidar":9457,"▁angon":9458,"▁retina":9459,"▁eksazed":9460,"braaniks":9461,"▁olaid":9462,"▁vijual":9463,"▁daayariya":9464,"▁sets":9465,"▁2700":9466,"▁visheshataur":9467,"▁soochanaen":9468,"▁maraathee":9469,"▁siddh":9470,"▁mithaee":9471,"▁baayom":9472,"▁anokhee":9473,"▁rasoee":9474,"▁polish":9475,",799":9476,"▁yogyata":9477,"haidret":9478,"▁naakaam":9479,"▁pixails)":9480,"▁premiyon":9481,"▁hairaanee":9482,"▁(ematee":9483,"▁devidasan":9484,"▁rajistard":9485,"▁lakadee":9486,"▁gps,":9487,"▁krisamas":9488,"▁ekseenos":9489,"▁mulaakaat":9490,"▁gps/":9491,"▁reedar":9492,"▁mandir":9493,"▁(jen":9494,"piksal)":9495,"▁vastu":9496,"▁jhanj":9497,"▁chaudaee":9498,"▁vidaio":9499,"▁santusht":9500,"▁skrab":9501,"▁praathamikata":9502,"▁chhamaahee":9503,"▁ignis":9504,"▁ikaiyon":9505,"aamaany":9506,"▁khuraak":9507,"▁deeeselaar":9508,"▁yooneebodee":9509,"▁besabree":9510,"▁jaayaroskop":9511,"▁restorent":9512,"▁divelap":9513,"▁museebat":9514,"▁shaaharukh":9515,"▁grephait":9516,"▁dinacharya":9517,"▁karmachaaree":9518,"▁yaatriyon":9519,"-h":9520,"ding":9521,"fps":9522,"jing":9523,"kom":9524,"maik":9525,"rooph":9526,"sai":9527,"saimasang":9528,"tim":9529,"vaastav":9530,"ych":9531,"▁iy":9532,"▁iball":9533,"▁s1":9534,"▁sne":9535,"▁steev":9536,"▁pus":9537,"▁p10":9538,"▁bhat":9539,"▁bug":9540,"▁dabl":9541,"▁a5":9542,"▁jut":9543,"enchar":9544,"akaast":9545,"▁naaran":9546,"▁ron":9547,"▁vok":9548,"▁isak":9549,"▁tyoo":9550,"alit":9551,"▁hoo":9552,"▁haathee":9553,"▁sevar":9554,"▁komb":9555,"▁phi":9556,"▁phut":9557,"▁aaikon":9558,"amit":9559,"phe":9560,"ilm":9561,"▁gin":9562,"▁gaay":9563,"▁inako":9564,"▁insp":9565,"▁taingo":9566,"▁260":9567,"rob":9568,"▁ekting":9569,"▁chm":9570,"▁chint":9571,"aade":9572,"aashak":9573,"▁3t":9574,"▁shiv":9575,"▁shaast":9576,"▁jeelaind":9577,"aavanee":9578,"aavashyak":9579,"▁bhaaga":9580,"▁badhe":9581,"▁prin":9582,"▁apanaane":9583,"geen":9584,"iksar":9585,"▁emee":9586,"▁699":9587,"▁6,499":9588,"▁chaudee":9589,"▁gaee,":9590,"▁staaya":9591,"▁(64":9592,"daf":9593,"▁delee":9594,"▁khat":9595,"vard":9596,"▁phran":9597,"raiss":9598,"▁beta":9599,"▁lekin,":9600,"▁maigr":9601,"▁grast":9602,"▁123":9603,"▁12999":9604,"▁chalenge":9605,"▁spre":9606,"▁‘‘":9607,"▁peeem":9608,"▁1600":9609,"▁senk":9610,"▁sanj":9611,"▁sansh":9612,"▁sande":9613,"▁92":9614,"▁dikhe":9615,"▁simpal":9616,"ashn":9617,"akaree":9618,"▁hua,":9619,"▁onaito":9620,"▁elab":9621,"▁lebal":9622,"▁mukh":9623,"▁maheena":9624,"▁paasaport":9625,"▁eleeeeko":9626,"▁sarvekshan":9627,"▁rejistent":9628,"▁bobar":9629,"▁imyoon":9630,"▁aartharaitis":9631,"▁notis":9632,"-bade":9633,"▁30,000":9634,"▁apadets":9635,"▁ghus":9636,"▁dijain,":9637,"▁glaasa3":9638,"-pat":9639,"▁lait,":9640,"▁laipatops":9641,"▁likhen":9642,"▁mask":9643,"▁silk":9644,"▁topik":9645,"▁salaad":9646,"▁amezan":9647,"▁saabun":9648,"▁mix":9649,"▁karaegee":9650,"telait":9651,"▁khulakar":9652,"▁majaboor":9653,"▁ritelars":9654,"▁kisaan":9655,"▁reedh":9656,"▁nikalate":9657,"ithi":9658,"▁milata-jul":9659,"yoomar":9660,"▁pankh":9661,"▁ophisar":9662,"▁rakhega":9663,"▁ahamad":9664,"▁adav":9665,"▁phorch":9666,"▁benelee":9667,"▁thandee":9668,"▁thandar":9669,"▁rogiyon":9670,"▁dard,":9671,"▁q6":9672,"▁ooncha":9673,"▁naio":9674,"▁regular":9675,"▁ditekshan,":9676,"▁janmad":9677,"▁narvas":9678,"▁chamakadaar":9679,"varseshan":9680,"▁ishaara":9681,"▁deepika":9682,"▁mooveej":9683,"▁phoolon":9684,"-samaj":9685,"▁devalapars":9686,"▁devalapament":9687,"▁garbhaavastha":9688,"▁machchharon":9689,"▁sookhe":9690,"▁ilaake":9691,"▁membaraship":9692,"▁aphavaa":9693,"▁kiranon":9694,"▁aashchar":9695,"▁najadeek":9696,"▁anupaat":9697,"▁ghutane":9698,"▁imphraared":9699,"▁bekaar":9700,"▁elarjee":9701,"▁pashchim":9702,"▁kaartoon":9703,"▁aarthik":9704,"▁abhibhaavak":9705,"▁objekt":9706,"▁bhaageedaaree":9707,"▁aaeeaeetee":9708,"▁flipkart":9709,"▁cholor":9710,"▁sapanon":9711,"▁pratiyogita":9712,"▁sileriyo":9713,"▁paraphoramens":9714,"▁jhanjhat":9715,"▁iyaraphon":9716,"▁bugaatee":9717,"▁onaitouchh":9718,"▁milata-julata":9719,",300":9720,"-eks":9721,"2,":9722,"27":9723,"4,":9724,"71":9725,"jio":9726,"loo":9727,"met":9728,"mail":9729,"naicht":9730,"vhaatsep":9731,"▁=":9732,"▁kaa":9733,"▁king":9734,"▁s3":9735,"▁sok":9736,"▁soon":9737,"inai":9738,"▁maath":9739,"▁hala":9740,"▁bard":9741,"ishee":9742,"▁daag":9743,"▁au":9744,"▁jun":9745,"▁metail":9746,"▁ke3":9747,"▁nah":9748,"aix":9749,"▁rid":9750,"▁riyo":9751,"oodee":9752,"▁tya":9753,"▁ten":9754,"atv":9755,"▁eaar":9756,"▁her":9757,"▁seb":9758,"▁phevar":9759,"iko":9760,"ama,":9761,"asoon":9762,"ilar":9763,"ilekt":9764,"▁gahara":9765,"▁uda":9766,"tar,":9767,"▁5,499":9768,"▁4500":9769,"▁480x854":9770,"▁330":9771,"▁khaamee":9772,"ingvej":9773,"▁prachaar":9774,"▁kaarr":9775,"yood":9776,"▁deedeeaara3":9777,"▁samaachaar":9778,"▁6pee":9779,"▁620":9780,"▁yooai":9781,"▁chadh":9782,"▁dilaane":9783,"els":9784,"▁sabs":9785,"peel":9786,"peeke":9787,"▁dillee|":9788,"▁stop":9789,"▁stron":9790,"ulin":9791,"oma":9792,"▁skript":9793,"▁(z":9794,"▁(jeees":9795,"▁denee":9796,"▁rahaane":9797,"▁aaeeped":9798,"▁kanaada":9799,"phaee,":9800,"▁ekson":9801,"▁daphtar":9802,"▁spai":9803,"▁‘ch":9804,"▁mobail,":9805,"▁selib":9806,"▁pee7":9807,"▁uthane":9808,"▁ee4":9809,"▁eeem":9810,"▁eemaan":9811,"▁bike":9812,"▁dhaansoo":9813,"iyaan,":9814,"▁trel":9815,"▁kold":9816,"▁elyuminiyam":9817,"▁kliyar":9818,"▁klaint":9819,"▁649":9820,"▁nov":9821,"▁khila":9822,"▁patalee":9823,"▁imx":9824,"▁if":9825,"▁laiaicho":9826,"▁309":9827,"▁surkh":9828,"▁nambaron":9829,"▁daata,":9830,"aastrakchar":9831,"▁dikhaana":9832,"▁dikhaate":9833,"▁garv":9834,"▁sile":9835,"▁hedalait":9836,"▁sharm":9837,"▁24,999":9838,"▁phailen":9839,"▁inglish":9840,"▁akaunts":9841,"▁pramaan":9842,"▁nikaalen":9843,"vensee":9844,"▁khulee":9845,"▁esee,":9846,"▁bainds":9847,"▁adm":9848,"▁utaaregee":9849,"▁pals":9850,"▁ghataane":9851,"▁hindee,":9852,"▁votsep":9853,"777":9854,"▁hataaya":9855,"▁kamarshal":9856,"▁vilen":9857,"▁vyaapak":9858,"▁wi-fi,":9859,"▁pokemon":9860,"▁robotiks":9861,"▁notabandee":9862,"▁samudree":9863,"▁dipaartament":9864,"keemat-":9865,"▁daayarekt,":9866,"riphaayar":9867,"▁kaatane":9868,"▁aautalet":9869,"▁beejing":9870,"▁daravaaje":9871,"▁tyohaaron":9872,"▁oparetars":9873,"▁naashte":9874,"▁riekshan":9875,"▁dhokha":9876,"▁poonam":9877,"▁braitanes":9878,"ianchai":9879,"▁pyooriphaayar":9880,"▁phephadon":9881,"▁tohapha":9882,"▁greju":9883,"▁daataavind":9884,"deejeeee,":9885,"▁nichale":9886,"▁kalaakaaron":9887,"▁pujaara":9888,"▁yaadadaasht":9889,"▁anusandhaan":9890,"▁skraich":9891,"▁metailik":9892,",800":9893,"320":9894,"850":9895,"a4":9896,"b/g/":9897,"den":9898,"elajee":9899,"khala":9900,"lr":9901,"mhz":9902,"ount":9903,"tveet":9904,"vaal":9905,"▁kana":9906,"▁kaata":9907,"aachh":9908,"arsh":9909,"arilaayans":9910,"▁sd":9911,"▁pes":9912,"▁paath":9913,"▁pot":9914,"▁pig":9915,"▁pdaf":9916,"▁mail":9917,"▁bun":9918,"▁baand":9919,"is,":9920,"▁dain":9921,"▁a-g":9922,"▁jheel":9923,"▁jiksar":9924,"▁jashn":9925,"▁kach":9926,"▁kaiy":9927,"ensar":9928,"ens,":9929,"▁lakee":9930,"▁rooph":9931,"▁vaaya":9932,"gati":9933,"▁taask":9934,"als":9935,"▁edee":9936,"▁se,":9937,"▁sem":9938,"▁aat":9939,"phit":9940,"asam":9941,"ashan":9942,"asaay":9943,"▁paramishan":9944,"▁get":9945,"ie,":9946,"iek":9947,"▁ink":9948,"▁ino":9949,"▁2x":9950,"▁chl":9951,"▁chvo":9952,"aadesh":9953,"anem":9954,"▁58":9955,"▁550":9956,"aasiya":9957,"▁lauta":9958,"▁shyaam":9959,"▁oaeees":9960,"deeem":9961,"la,":9962,"▁ungalee":9963,"▁unnat":9964,"▁abs":9965,"aataon":9966,"▁raund":9967,"▁dillee:":9968,"▁sten":9969,"▁sthal":9970,"avaan":9971,"▁baitaree-":9972,"▁(7":9973,"▁(h":9974,"▁(ta":9975,"▁(see":9976,"▁799":9977,"▁7,499":9978,"▁thai":9979,"▁aaeev":9980,"▁aaeeseesee":9981,"▁grip":9982,"▁kanvarseshan":9983,"▁badhega":9984,"▁sarapraij":9985,"▁eksasee":9986,"▁apach":9987,"▁lagaam":9988,"▁esus":9989,"apeedee":9990,"▁haalat":9991,"▁paegee":9992,"▁16,999":9993,"▁16mp":9994,"▁dikhana":9995,"▁amoled":9996,"▁traayal":9997,"▁onabord":9998,"▁ona7":9999,"▁sulaj":10000,"▁veer":10001,"▁chhid":10002,"▁155":10003,"▁bren":10004,"▁dual-eleedee":10005,"▁vaeephaee,":10006,"▁badalana":10007,"eyaratel":10008,"▁shreevaastav":10009,"▁ophar,":10010,"▁kvaadechadee":10011,"▁chaarjig":10012,"ronik":10013,"▁gharon":10014,"▁142":10015,"▁khud-ba":10016,"▁orenj":10017,"▁oks":10018,"▁aajama":10019,"▁umda":10020,"eekat":10021,"▁zoom":10022,"▁3080":10023,"▁sunaee":10024,"▁kantree":10025,"▁rikv":10026,"▁rikagnishan":10027,"grast":10028,"▁vajanee":10029,"ooveejeee":10030,"▁likhakar":10031,"▁badalaavon":10032,"▁masaala":10033,"▁teknolojeej":10034,"▁garam":10035,"▁dega,":10036,"▁170":10037,"▁aakarshan":10038,"▁2008":10039,"▁amerikan":10040,"▁vyaktigat":10041,"▁suparakaar":10042,"▁bolate":10043,"▁1,0":10044,"▁telalaimps":10045,"▁jodakar":10046,"▁kromak":10047,"▁nikaalakar":10048,"▁chhodane":10049,"▁retro":10050,"▁pooja":10051,"▁eksa9":10052,"mbps":10053,"▁porsh":10054,"80x720":10055,"▁gova":10056,"▁komedee":10057,"▁turbo":10058,"▁nishkarsh":10059,"▁paraphormensh":10060,"▁sahakar":10061,"555":10062,"▁pareshaaniyaan":10063,"▁haidalaimp":10064,"▁muno":10065,"▁indastreej":10066,",299":10067,"▁vistrt":10068,"▁khole":10069,"▁machhal":10070,"▁kontekts":10071,"▁shikaayaten":10072,"▁paalatoo":10073,"▁devalapar":10074,"▁daudane":10075,"▁aarajeebee":10076,"▁chhavi":10077,"▁vyaapaaree":10078,"▁jhatak":10079,"▁iraada":10080,"laveyar":10081,"▁s‍maartaphon":10082,"▁khulega":10083,"▁solid":10084,"▁injekshan":10085,"ifai":10086,"▁manjil":10087,"▁manachaahee":10088,"▁paanchaven":10089,"▁taeevaan":10090,"▁drshti":10091,"▁kandeeshanar":10092,"▁veekend":10093,"2160":10094,"entain":10095,"▁dhadakan":10096,"haalaanki":10097,"▁ungaliyon":10098,"▁raajanee":10099,"▁kobaal":10100,"▁jurm":10101,"▁jabardast":10102,"sitent":10103,"▁kombineshan":10104,"▁elabam":10105,"▁phorchyoon":10106,"▁admirai":10107,",3":10108,"-da":10109,"-usb":10110,"22":10111,"sub":10112,"u,":10113,"uee":10114,"vatee":10115,"vaane":10116,"▁s2":10117,"▁saan":10118,"▁pep":10119,"▁maaph":10120,"▁bak":10121,"▁boom":10122,"▁baag":10123,"isitee":10124,"▁haiv":10125,"▁ds":10126,"▁aseem":10127,"tach":10128,"taich":10129,"▁jhaan":10130,"▁kada":10131,"akripshan":10132,"▁naiv":10133,"▁vyas":10134,"▁vimaan":10135,"▁ti":10136,"▁hen":10137,"▁haad":10138,"▁karant":10139,"▁aaaikt":10140,"aden":10141,"adars":10142,"▁parya":10143,"▁pariyo":10144,"▁paribh":10145,"▁g6":10146,"▁gt":10147,"▁gpr":10148,"▁geschar":10149,"aalan":10150,"abooj":10151,"ortar":10152,"ito":10153,"itaab":10154,"▁hosh":10155,"▁hokee":10156,"▁nepaal":10157,"▁2)":10158,"▁chlass":10159,"▁kids":10160,"phonais":10161,"▁lae":10162,"▁shaak":10163,"▁jee/":10164,"▁jeena":10165,"aavalee":10166,"arachar":10167,"▁tosh":10168,"teey":10169,"▁kaarbo":10170,"▁moj":10171,"▁vazan":10172,"iks,":10173,"▁maun":10174,"thon":10175,"▁617":10176,"▁anaavashyak":10177,"▁8-megaapiksal":10178,"▁yooth":10179,"▁chash":10180,"▁teesee":10181,"▁sabaka":10182,"▁strot":10183,"▁padate":10184,"▁epp":10185,"▁(g":10186,"▁(bee":10187,"▁7,000":10188,"see,":10189,"▁jaanata":10190,"▁khaen,":10191,"▁aaeen":10192,"▁maarg":10193,"▁maarane":10194,"ijja":10195,"▁deka":10196,"▁129":10197,"▁sareek":10198,"▁daish":10199,"▁hue,":10200,"aidal":10201,"▁ee-v":10202,"▁apanaen":10203,"▁bee/":10204,"▁been":10205,"▁sochana":10206,"▁emapee2":10207,"▁2560":10208,"▁154":10209,"aagiyon":10210,"▁phlor":10211,"▁paart":10212,"▁los":10213,"▁pree-l":10214,"▁photograaphar":10215,"alpik":10216,"▁sahej":10217,"aandhee":10218,"▁3020":10219,"jaish":10220,"▁likhana":10221,"achaarik":10222,"▁rakhenge":10223,"▁kone":10224,"▁dhair":10225,"▁aippal":10226,"mpl":10227,"▁saabut":10228,"ookolar":10229,"▁ports":10230,"▁saamaanon":10231,"▁antaraal":10232,"▁jaenge,":10233,"▁chune":10234,"▁esa5":10235,"▁upayogita":10236,"yogee":10237,"▁aae,":10238,"▁charchit":10239,"▁risk":10240,"▁smok":10241,"▁paison":10242,"▁reeyal":10243,"▁reetveet":10244,"▁ephad":10245,"▁ejens":10246,"▁eksa2":10247,"▁eksa7":10248,"▁256jeebee":10249,"▁sthaanon":10250,"▁pahachaanane":10251,"▁gunjaish":10252,"▁ahamiyat":10253,"▁(480":10254,"therepee":10255,"▁sahayogee":10256,"ubai":10257,"▁phormoola":10258,"▁bijanas":10259,"▁q3":10260,"▁haidalaimps":10261,"▁kontest":10262,"roshar":10263,"▁jaanakaaron":10264,"▁htt":10265,"▁maalish":10266,"▁vyavasthit":10267,"▁ausatan":10268,"▁ematee6753":10269,"▁mileg":10270,"▁sudhaarane":10271,"▁baayo":10272,"▁phrendalee":10273,"▁upayok":10274,"▁sabjekt":10275,"▁vigyaapanon":10276,"haidreshan":10277,"▁aimi":10278,"▁aimui":10279,"▁tools":10280,"▁naitro":10281,"▁fraiai":10282,"▁ghatanaon":10283,"▁ataich":10284,"▁perents":10285,"▁peedeeeeph,":10286,"▁gadabadee":10287,"▁sansthaanon":10288,"▁pink,":10289,"▁baitariyon":10290,"▁bulet":10291,"▁kamyunikeshans":10292,"--------------------------------":10293,"▁saadhe":10294,"▁paudhon":10295,"▁tootane":10296,"▁chennee":10297,"▁bula":10298,"▁chhuttee":10299,"▁dokyooments":10300,"▁taitan":10301,"▁gaiar":10302,"▁traanjekshan":10303,"▁chetaavanee":10304,"▁entaratenament":10305,"▁neelaamee":10306,"▁tripal":10307,"▁kamyoonikeshan":10308,"▁elyoomeeniyam":10309,"▁aayurvedik":10310,"▁muhaans":10311,"▁haippee":10312,"▁ahankaar":10313,"▁chng":10314,"▁dominar":10315,"▁pree-instold":10316,"▁phitabit":10317,"▁sanjay":10318,"▁inova":10319,"▁kromakaast":10320,"▁pariyojana":10321,"899":10322,"a8":10323,"epal":10324,"gn":10325,"i":10326,"iqu":10327,"paayar":10328,"rs":10329,"rant":10330,"sd":10331,"tyoon":10332,"▁kup":10333,"▁mith":10334,"▁broshar":10335,"ischar":10336,"▁daad":10337,"▁dra":10338,"▁diye":10339,"▁daave":10340,"▁dub":10341,"▁atak":10342,"▁astha":10343,"▁achair":10344,"▁jaam":10345,"▁kahenge":10346,"hee,":10347,"▁liv":10348,"akha":10349,"▁nyoon":10350,"▁r9s":10351,"▁vis":10352,"▁vaan":10353,"▁ves":10354,"ati":10355,"ataal":10356,"atti":10357,"▁e2":10358,"▁phol":10359,"▁aaengee":10360,"▁aaeediya":10361,"adaan":10362,"addh":10363,"ahej":10364,"▁parahej":10365,"▁gaang":10366,"▁gaandhee":10367,"aald":10368,"▁uk":10369,"chadee":10370,"ekhan":10371,"▁taibal":10372,"▁hod":10373,"▁neget":10374,"ree,":10375,"ataik":10376,"▁ektar":10377,"▁sakriya":10378,"▁chorai":10379,"▁chesis":10380,"▁phont":10381,"aamak":10382,"▁khinch":10383,"▁shesh":10384,"apepar":10385,"▁jeeel":10386,"teeta":10387,"▁prasan":10388,"▁praikt":10389,"▁moischar":10390,"▁takar":10391,"iran":10392,"shaak":10393,"ega,":10394,"▁8000":10395,"▁8,499":10396,"oksee":10397,"ipop":10398,"▁teev":10399,"▁teeyoovee":10400,"utubai":10401,"▁padhate":10402,"▁banaayee":10403,"▁raha,":10404,"▁rahakar":10405,"▁(1":10406,"▁(16":10407,"▁rahit":10408,"▁phresh":10409,"▁phrench":10410,"▁blar":10411,"▁aaee20":10412,"▁aaeetyoon":10413,"▁rangeen":10414,"▁gae,":10415,"▁maite":10416,"▁maidam":10417,"kig":10418,"▁badhaatee":10419,"▁dekhata":10420,"▁sarkal":10421,"▁baikalit":10422,"▁‘v":10423,"▁‘ha":10424,"▁‘yah":10425,"2015":10426,"▁pahane":10427,"▁adhig":10428,"▁pee8":10429,"▁phaitee":10430,"▁phaundar":10431,"▁uttaree":10432,"▁banaega":10433,"▁135":10434,"▁sena":10435,"▁santar":10436,"▁sansk":10437,"▁indik":10438,"▁eevee":10439,"802":10440,"▁maans":10441,"▁maangee":10442,"▁maanakon":10443,"▁maanyata":10444,"▁elim":10445,"▁elapeedee":10446,"▁saamp":10447,"▁11999":10448,"▁11esee,":10449,"▁25,000":10450,"ajed":10451,"▁gailaree":10452,"▁impr":10453,"▁aarambh":10454,"▁barasaat":10455,"jaise":10456,"▁sunate":10457,"▁ghir":10458,"▁kampyootar,":10459,"▁majaak":10460,"▁padhe-":10461,"▁2450":10462,"yanaka":10463,"▁1,2":10464,"▁raajak":10465,"▁aphord":10466,"▁atom":10467,"▁udhar":10468,"▁rokath":10469,"▁kooling":10470,"▁milegee,":10471,"▁nukasaanadeh":10472,"▁chaits":10473,"▁eksapaind":10474,"▁lakshyon":10475,"▁ladaee":10476,"▁opaning":10477,"aigyaan":10478,"▁uthaate":10479,"▁ema4":10480,"▁goyanaka":10481,"▁popyular":10482,"▁utarane":10483,"▁phand":10484,"▁komars":10485,"▁paayalat":10486,"▁neksan":10487,"▁(480x854":10488,"▁nishaana":10489,"▁steekar":10490,"▁menten":10491,"▁palsar":10492,"▁chandee":10493,"▁imphormeshan":10494,"▁kontent":10495,"▁ankur":10496,"-2017":10497,"▁siddhaarth":10498,"▁mitsub":10499,"▁aaidal":10500,"▁michro-usb":10501,"▁kahaaniyon":10502,"▁kahaaniyaan":10503,"▁kvolitee":10504,"-200":10505,"▁yogy":10506,"▁peedeeeph":10507,"▁dheema":10508,"▁bhaavanaatmak":10509,"▁taivaanee":10510,"▁oteejee,":10511,"▁gadakaree":10512,"▁paudar-":10513,"▁pratidvand":10514,"▁dogunee":10515,"▁baanta":10516,"▁kabhee-kabhaar":10517,"▁pahaloo":10518,"▁eksaparts":10519,"▁mt6737":10520,"▁sarphing":10521,"▁veelars":10522,"▁vaikseen":10523,"▁vaikalpik":10524,"▁manjooree":10525,"▁kutte":10526,"▁bilt-in":10527,"▁rikaarding":10528,"rnkhala":10529,"▁amitaabh":10530,"▁jaguaar":10531,"********":10532,"▁ekse1":10533,"▁maidiataik":10534,"▁chaude":10535,"▁stebalaijeshan":10536,"▁susaid":10537,"▁phyoochar":10538,"▁kaagaj":10539,"▁lolipop":10540,"▁ovara":10541,"▁preevyoo":10542,"▁ringaton":10543,"▁aupachaarik":10544,"▁aadarsh":10545,"▁kidanee":10546,"▁ahamadaabaad":10547,"▁janmadin":10548,"▁eeemayooaee":10549,"▁khud-ba-khud":10550,"▁aaaiktaakor":10551,"▁gprs/":10552,"▁asthama":10553,"▁gaangulee":10554,"ekhaneey":10555,"▁negetiv":10556,"▁rokathaam":10557,"(jeenen)":10558,",5":10559,"499":10560,"bara":10561,"bain":10562,"e)":10563,"gs":10564,"gak":10565,"hp":10566,"jaane":10567,"ko":10568,"sis":10569,"sam":10570,"uvan":10571,"vaale":10572,"yaap":10573,"▁•":10574,"eet":10575,"▁km":10576,"▁kun":10577,"hair":10578,"▁sy":10579,"▁pit":10580,"▁pyor":10581,"▁haeeb":10582,"▁blee":10583,"▁daak":10584,"▁durust":10585,"▁atr":10586,"▁apeel":10587,"taip":10588,"▁j2":10589,"▁laast":10590,"▁livar":10591,"▁nor":10592,"chi":10593,"airee":10594,"▁ray":10595,"▁rist":10596,"▁vaash":10597,"▁veting":10598,"aantar":10599,"ataap":10600,"▁et":10601,"▁eaee":10602,"▁aakal":10603,"photo":10604,"aaton":10605,"asaathee":10606,"ilahaal":10607,"▁guda":10608,"▁1,999":10609,"ietiv":10610,"▁uch":10611,"▁uchh":10612,"itan":10613,"itiv":10614,"▁taijan":10615,"iming":10616,"▁kamaane":10617,"▁yor":10618,"lechadee":10619,"aamik":10620,"maare":10621,"▁5pee":10622,"▁599":10623,"▁4s":10624,"▁khet":10625,"▁khitaab":10626,"▁shrad":10627,"aped":10628,"aphaee":10629,"▁jeen":10630,"▁jeeaee":10631,"▁jeens":10632,"▁bhoon":10633,"aimara":10634,"▁87":10635,"▁830":10636,"▁chais":10637,"▁pheechar-":10638,"aakhe":10639,"▁teechars":10640,"▁sabjee":10641,"▁rajan":10642,"▁dillee(jeenen)":10643,"▁diskaun":10644,"janon":10645,"aabes":10646,"aabol":10647,"sarphar":10648,"▁bhaarat,":10649,"em)":10650,"avain":10651,"avich":10652,"▁verip":10653,"▁vegaas":10654,"▁(r":10655,"▁(t":10656,"▁jarnal":10657,"▁karen:":10658,"▁dev":10659,"▁tarang":10660,"▁baarakod":10661,"kaut":10662,"▁kuv":10663,"stet":10664,"▁graasiya":10665,"▁maare":10666,"yaadi":10667,"▁badhaayee":10668,"phalee":10669,"▁displ":10670,"▁varkaut":10671,"▁ples":10672,"▁plait":10673,"▁khaas?":10674,"▁saundar":10675,"▁‘da":10676,"▁phaila":10677,"▁sangh":10678,"▁enajee":10679,"▁traind":10680,"▁trookolar":10681,"▁jinako":10682,"▁chhaachh":10683,"▁maano":10684,"▁64bit":10685,"▁fz":10686,"majee":10687,"▁khareede":10688,"voint":10689,"▁paarivaar":10690,"▁ilektraan":10691,"▁ityaadi":10692,"▁rejal":10693,"▁bob":10694,"bhaag":10695,"▁mang":10696,"▁kampyoo":10697,"▁aaeephon,":10698,"ahaalaanki":10699,"▁nots":10700,"-br":10701,"-buk":10702,"-blaik":10703,"▁zed":10704,"▁assitent":10705,"▁minaral":10706,"▁sona":10707,"▁sonam":10708,"▁baraten":10709,"▁maarshamelo":10710,"▁daunaloding":10711,"▁sunen":10712,"▁ghaav":10713,"▁tabdeel":10714,"▁vidya":10715,"▁karodon":10716,"▁likhee":10717,"▁kaindee":10718,"-draiv":10719,"▁jeevanasaathee":10720,"▁249":10721,"▁phailaane":10722,"▁bainkon":10723,"▁je3":10724,"▁andaroonee":10725,"-15":10726,"▁bechana":10727,"▁bechainee":10728,"▁nikaale":10729,"▁abhiv":10730,"rtti":10731,"▁vheelar":10732,"▁malteepal":10733,"▁uthaen":10734,"▁epha5":10735,"▁ephasee":10736,"▁uthaana":10737,"▁eksa3":10738,"▁sankramit":10739,"▁3340":10740,"-vheel":10741,"551":10742,"▁mumbee,":10743,"▁vebapej":10744,"▁kompekt":10745,"▁512emabee":10746,"▁jhuk":10747,"▁youtubai":10748,"▁1080p":10749,"▁5000mah":10750,"▁diskavaree":10751,"▁kheenchee":10752,"ametal":10753,"▁dikkaton":10754,"anghan":10755,"▁phulechadee":10756,"▁bole,":10757,"7731":10758,"▁raahul":10759,"▁jeepeeaares/ee":10760,"▁dikhae":10761,"▁non-":10762,"▁utsuk":10763,"▁utsav":10764,"▁baithate":10765,"▁naiw":10766,"▁sailent":10767,"▁sailaree":10768,"▁ipl":10769,"▁1920x1080":10770,"isko":10771,"▁kairiyar":10772,"▁poketa":10773,"▁125chch":10774,"▁khushakhabaree!":10775,"▁koolar":10776,"▁postar":10777,"▁anumaanit":10778,"▁muskar":10779,"▁domen":10780,"▁venyoo":10781,"▁smartphonai":10782,"▁aidgai,":10783,"▁daayare":10784,"▁himmat":10785,"▁jimmedaariyon":10786,"▁chhuttiyon":10787,"▁privyoo":10788,"▁chopada":10789,"▁deevaanon":10790,"▁kaamayaabee":10791,"▁ullekhaneey":10792,"▁ullanghan":10793,"▁naakhoonon":10794,"▁imphraastrakchar":10795,"▁hakeekat":10796,"▁khangaal":10797,"▁ninja":10798,"▁epha1es":10799,"▁vishleshan":10800,"▁riphresh":10801,"▁pratibhaagiyon":10802,"▁bujurg":10803,"▁uparokt":10804,"▁parichaalan":10805,"▁suzuk":10806,"▁koraporet":10807,"▁kaiphe":10808,"▁forchai":10809,"▁staibalaijeshan":10810,"▁koope":10811,"esapeee":10812,"▁utsarjan":10813,"▁ekaunt":10814,"teeshiyan":10815,"▁bhatt":10816,"▁chmos":10817,"▁staayalas":10818,"▁sandeh":10819,"▁halachal":10820,"▁naivig":10821,"▁chlassich":10822,"▁toshiba":10823,"▁dhairy":10824,"iquai":10825,"▁mitsubishee":10826,"▁haeebrid":10827,"▁aakalan":10828,"▁gudagaanv":10829,"▁saundary":10830,"▁paarivaarik":10831,"):":10832,"-dee":10833,"42":10834,"650":10835,"?’":10836,"bs":10837,"by":10838,"fon":10839,"fai":10840,"gment":10841,"hot":10842,"lan":10843,"nar":10844,"nai":10845,"pit":10846,"raast":10847,"sakon":10848,"tb":10849,"ubah":10850,"vaag":10851,"vaakar":10852,"wind":10853,"▁@":10854,"▁स":10855,"aai":10856,"aaaip":10857,"▁sleek":10858,"▁pijja":10859,"anas":10860,"andee":10861,"▁biyar":10862,"▁bistar":10863,"▁baaz":10864,"▁haikar":10865,"▁data":10866,"tat":10867,"▁j1":10868,"▁jid":10869,"▁jaadoo":10870,"▁kais":10871,"▁kahe":10872,"▁kavach":10873,"heet":10874,"ented":10875,"▁ke5":10876,"▁laar":10877,"▁laakar":10878,"▁raajee":10879,"▁ritar":10880,"▁rukh":10881,"▁vs":10882,"▁vest":10883,"gaut":10884,"▁tish":10885,"▁tyoob":10886,"urai":10887,"▁ero":10888,"▁ela":10889,"▁seshan":10890,"▁kareena":10891,"▁karoonga":10892,"▁aaair":10893,"asaimasang":10894,"ahaarik":10895,"▁paramp":10896,"▁gs":10897,"▁gu":10898,"▁gaar":10899,"▁ghon":10900,"▁goon":10901,"aaleen":10902,"▁1/2":10903,"eko":10904,"▁taga":10905,"atavar":10906,"▁2geegaahartj":10907,"lem":10908,"▁kireen":10909,"▁520":10910,"▁3600":10911,"▁laingvej":10912,"▁aapasee":10913,"▁shuddh":10914,"dhr":10915,"▁bhoore":10916,"▁badhana":10917,"▁prateek":10918,"laph":10919,"▁61":10920,"▁660":10921,"▁propar":10922,"▁karane,":10923,"▁huee,":10924,"▁hueen":10925,"▁ragad":10926,"▁dillee,":10927,"▁dist":10928,"▁disordar":10929,"▁stichk":10930,"aajon":10931,"emee":10932,"avan":10933,"avaab":10934,"▁banen":10935,"▁banaavat":10936,"▁(l":10937,"▁71":10938,"▁dengoo":10939,"▁doshee":10940,"▁alaav":10941,"▁02":10942,"▁kahakar":10943,"ra,":10944,"▁pheecharsis":10945,"▁storm":10946,"▁storai":10947,"▁kanaad":10948,"▁kansal":10949,"▁eksal":10950,"-kam":10951,"▁dinabhar":10952,"▁dono":10953,"▁philip":10954,"▁seling":10955,"▁selyular":10956,"▁peete":10957,"▁sentee":10958,"▁91":10959,"▁enasee":10960,"▁eetee":10961,"▁bikeen":10962,"▁bhaarateeyon":10963,"▁echadeeaar,":10964,"▁deta,":10965,"▁maan-b":10966,"▁veediyo,":10967,"▁15,999":10968,"▁x4":10969,"agr":10970,"▁badalatee":10971,"▁chukaane":10972,"▁kaimare,":10973,"▁phreek":10974,"▁1499":10975,"bhut":10976,"▁manch":10977,"▁orij":10978,"▁kampon":10979,"▁imar":10980,"▁daalata":10981,"▁yoonait":10982,"▁aarm":10983,"▁asth":10984,"▁dyool-ton":10985,"▁3jeeechajed":10986,"▁3050":10987,"▁badhae":10988,"▁barphee":10989,"▁bhartee":10990,"▁kantraast":10991,"▁aadhaarit)":10992,"▁laitin":10993,"▁mujh":10994,"glaadesh":10995,"ikalee":10996,"tres":10997,"▁silas":10998,"▁silikon":10999,"▁bhejata":11000,"▁pataakhe":11001,"▁traansal":11002,"▁saiton":11003,"▁ganametal":11004,"▁esayooveej":11005,"▁pradarshit":11006,"▁steb":11007,"▁4050":11008,"▁je2":11009,"▁roket":11010,"▁besiks":11011,"▁kaipheen":11012,"▁dabaakar":11013,"▁ladakon":11014,"▁vitteey":11015,"venyoo":11016,"▁kyooveejeee":11017,"▁jamakar":11018,"▁sekands":11019,"▁skaining":11020,"▁angoor":11021,"▁ostreliyaee":11022,"▁neem":11023,"▁galatiyon":11024,"▁pahanakar":11025,"▁gunon":11026,"▁thoda-sa":11027,"▁insteeta":11028,"▁resistent":11029,"▁sochata":11030,"▁sahavaag":11031,"▁penaasonik":11032,"▁3,7":11033,"▁ektiva":11034,"-les":11035,"▁skoolon":11036,"▁klach":11037,"▁paristhiti":11038,"▁bhaagon":11039,"▁paisenjars":11040,"▁munaapha":11041,"▁pree-raj":11042,"eemiya":11043,"▁buraee":11044,"▁rasaayan":11045,"▁kaddoo":11046,"amparaagat":11047,"▁dhoen":11048,"▁flamai":11049,"adablyoosee":11050,"▁ghatanaen":11051,"▁mudde":11052,"▁ek-do":11053,"▁parinaamon":11054,"▁deepaavalee":11055,"▁pholoars":11056,"▁iris":11057,"ema89":11058,"▁dipreshan":11059,"▁nimn":11060,"▁heksa-kor":11061,"▁daravaaja":11062,"▁chandrama":11063,"▁taileey":11064,"▁ichchhuk":11065,"▁enimeshan":11066,"▁niyaamak":11067,"▁naashta":11068,"▁quad":11069,"▁saahas":11070,"▁phaiktree":11071,"▁panjaabee":11072,"▁taichh":11073,"▁saurabh":11074,"seemitee":11075,"▁risarchars":11076,"▁suvidhaajanak":11077,"▁joote":11078,"▁laimbor":11079,"▁sitaaron":11080,"prosesar":11081,"chural":11082,"▁prokseemitee":11083,"▁jhurriyaan":11084,"-in-van":11085,"▁joojh":11086,"▁arjun":11087,"▁aautador":11088,"▁daval":11089,"▁bhagavaan":11090,"▁pustak":11091,"▁thandarab":11092,"▁ausha":11093,"▁kaarravaee":11094,"▁(jeeesem":11095,"▁phorchyoonar":11096,"▁kuposhan":11097,"▁nyoonatam":11098,"▁sakriyata":11099,"ataapoorvak":11100,"▁uchhaal":11101,"▁rejalyooshan":11102,"▁suzuki":11103,"▁parampara":11104,"▁maan-baap":11105,"(20":11106,"-f":11107,"-jee":11108,"4jee":11109,"550":11110,":keemat:":11111,"aise":11112,"a10":11113,"daar":11114,"ejee":11115,"gor":11116,"iq":11117,"krt":11118,"lim":11119,"nair":11120,"oga":11121,"raashtreey":11122,"wu":11123,"yual":11124,"▁!":11125,"▁$":11126,"aaap":11127,"aachal":11128,"hale":11129,"▁sva":11130,"▁paat":11131,"▁m6":11132,"▁maaphee":11133,"▁hath":11134,"▁brai":11135,"▁hail":11136,"▁aich":11137,"onee":11138,"▁jah":11139,"▁jadee":11140,"▁jhad":11141,"aarit":11142,"▁keyoovee":11143,"▁lin":11144,"akol":11145,"▁naap":11146,"aitaree":11147,"▁v8":11148,"▁vitar":11149,"▁taad":11150,"▁tvee":11151,"▁tre":11152,"▁evar":11153,"▁hicha":11154,"▁hrtik":11155,"▁kopar":11156,"▁phe":11157,"▁pho":11158,"▁phish":11159,"▁phem":11160,"▁aao":11161,"ikyoo":11162,"ikyor":11163,"adaba":11164,"am,":11165,"astee":11166,"ilik":11167,"illee":11168,"▁gif":11169,"▁1es":11170,"abha":11171,"abase":11172,"abaajee":11173,"ek‍":11174,"hante":11175,"▁taist":11176,"imoovebal":11177,"▁2,4":11178,"▁ekj":11179,"▁ekaag":11180,"▁chil":11181,"maart":11182,"▁saath)":11183,"▁5t":11184,"▁5emem":11185,"▁heem":11186,"▁365":11187,"leet":11188,"▁aapatti":11189,"▁oled":11190,"▁bhaap":11191,"tee,":11192,"isebal":11193,"▁motiv":11194,"▁apanaaya":11195,"shi":11196,"▁deehaidreshan":11197,"▁emadablyoosee":11198,"▁6-":11199,"▁6ch":11200,"▁ansh":11201,"▁anda":11202,"▁dilaata":11203,"▁proto":11204,"ogl":11205,"▁milk":11206,"peetee":11207,"ult":11208,"ait,":11209,"otiv":11210,"emp":11211,"emel":11212,"ida":11213,"▁verij":11214,"▁baadh":11215,"▁skel":11216,"▁skrol":11217,"▁(oteejee":11218,"▁73":11219,"▁rakhanee":11220,"▁thaee":11221,"▁dep":11222,"▁rahen,":11223,"▁baatharoom":11224,"▁aaee5":11225,"staart":11226,"▁maikromaik":11227,"▁shamee":11228,"▁grh":11229,"▁tarah,":11230,"▁12,":11231,"▁sarason":11232,"▁saalag":11233,"▁chall":11234,"▁chalakar":11235,"▁spar":11236,"▁spaim":11237,"▁dinar":11238,"▁‘be":11239,"▁divaison":11240,"▁chaarakol":11241,"▁utane":11242,"▁utaaree":11243,"▁1300":11244,"▁13-megaapiksal":11245,"estik":11246,"▁ee3":11247,"▁een":11248,"takh":11249,"rep":11250,"reta":11251,"ashaalee":11252,"jeebee)":11253,"▁amej":11254,"▁rohan":11255,"oothe":11256,"igree":11257,"andal":11258,"andhak":11259,"▁snaan":11260,"▁chhil":11261,"▁maanasoon":11262,"areeb":11263,"▁badalen":11264,"▁chukandar":11265,"▁geegaahartaj":11266,"aston":11267,"▁phlop":11268,"alains":11269,"▁sveedan":11270,"▁14999":11271,"▁14,990":11272,"▁snaipadrai":11273,"▁imoshan":11274,"▁photograaph":11275,"▁rangolee":11276,"aphord":11277,"▁asaamaany":11278,"▁ministree":11279,"▁306":11280,"▁badhaen":11281,"▁sonaakshee":11282,"▁barn":11283,"▁vhaatsep,":11284,"▁vidiyokon":11285,"▁bachaaya":11286,"▁likhate":11287,"▁masaal":11288,"acht":11289,"achaap":11290,"▁sinha":11291,"tivai":11292,"▁meethe":11293,"▁slip":11294,"▁bill":11295,"▁jiyophon":11296,"▁bhejakar":11297,"▁pataakhon":11298,"▁pattiyon":11299,"▁1700":11300,"▁2009":11301,"abeeaee":11302,"▁arban":11303,"ps://":11304,"▁esa1":11305,"▁dekhenge":11306,"▁upayogakarta":11307,"▁sookh":11308,"▁jodana":11309,"-17":11310,"▁roka":11311,"▁ivoomi":11312,"uteen":11313,"▁prabhaavashaalee":11314,"yamantree":11315,"▁dabadaba":11316,"▁eksapl":11317,"▁pakaane":11318,"▁nikalana":11319,"omeetar,":11320,"▁paraphaarm":11321,"yavastha":11322,"▁uthae":11323,"▁uthata":11324,"▁speekar,":11325,"▁chalaen":11326,"▁seeten":11327,"▁rangon-":11328,"aravaahee":11329,"jeepeees,":11330,"▁phokas,":11331,"▁bitaate":11332,"▁komiyo":11333,"▁neksat":11334,"▁pahunchate":11335,"▁adbhut":11336,"▁653":11337,"▁insaanon":11338,"▁insulin":11339,"▁jeda1":11340,"idhaan":11341,"▁mumakin":11342,"▁pravaah":11343,"▁respons":11344,"innee":11345,"loy":11346,"▁vivaran":11347,"▁enteena":11348,"▁sambhaavanaon":11349,"▁q7":11350,"▁prayaason":11351,"▁metaabol":11352,"▁vheels":11353,"vev":11354,"a2)":11355,",790":11356,"▁draivars":11357,"▁bengaluroo":11358,"▁bainar":11359,"▁kinaaron":11360,"▁eeko":11361,"▁davaen":11362,"▁inaphinitee":11363,"▁shumaar":11364,"▁pey":11365,"▁bladai":11366,"▁ip68":11367,"▁mainyual":11368,"▁bonev":11369,"▁riveejan":11370,"▁deepak":11371,"▁poochha,":11372,"phrend":11373,"▁pradesh,":11374,"▁baanglaadesh":11375,"▁bulaaya":11376,"▁koshikaen":11377,"▁brodakaast":11378,"▁pavan":11379,"▁vrat":11380,"▁painorama,":11381,"▁bhaee-ba":11382,"▁jaiz":11383,"▁sheet":11384,"▁chhipa":11385,"▁membars":11386,"▁grahon":11387,"▁taalamel":11388,"▁kiranen":11389,"▁dijee":11390,"▁sunahara":11391,"▁anupam":11392,"▁moovament":11393,"▁panjaab":11394,"▁phataap":11395,"▁yuniquai":11396,"▁deeteeech":11397,"▁nyootral":11398,"-beech":11399,"▁rookhee":11400,"▁provaidar":11401,"▁(esasee":11402,"▁prajaati":11403,"▁kaamakaajee":11404,"▁kindal":11405,"▁shrrnkhala":11406,"▁tarminal":11407,"▁vaaky":11408,"▁khushaboo":11409,"▁inteleejens":11410,"onomas":11411,"▁lekhika":11412,"▁svatantrata":11413,"▁enteebaayotiks":11414,"▁railianchai":11415,"instol":11416,"▁peepeeai":11417,"▁spraid":11418,"▁manushy":11419,"▁bihaar":11420,"▁spektram":11421,"▁naarangee":11422,"▁aashchary":11423,"▁strong":11424,"▁rikvest":11425,"▁kaarbohaidret":11426,"▁teeseeel":11427,"▁pree-loded":11428,"▁aaeetyoons":11429,"▁poketasarphar":11430,"▁orijinal":11431,"▁insteetayoot":11432,"▁laimborginee":11433,"▁prototaip":11434,"▁saalagir":11435,"-kaun":11436,"/v":11437,"61":11438,"gaan":11439,"ial":11440,"ift":11441,"laar":11442,"nait":11443,"ovar":11444,"p://":11445,"sta":11446,"von":11447,"wn":11448,"▁–":11449,"ees":11450,"eepee":11451,"eeaee":11452,"▁k5":11453,"▁ky":11454,"▁kik":11455,"aacheen":11456,"▁siv":11457,"▁sod":11458,"▁saakaar":11459,"▁hab":11460,"▁bhand":11461,"▁hai!":11462,"▁hait":11463,"yapr":11464,"▁diy":11465,"▁daane":11466,"▁demo":11467,"▁a8":11468,"▁ait":11469,"▁aut":11470,"▁jel":11471,"aaradee":11472,"▁lat":11473,"▁loop":11474,"akanee":11475,"aita":11476,"aited":11477,"▁r1":11478,"▁raanee":11479,"▁raakh":11480,"▁ruteen":11481,"▁vg":11482,"▁viya":11483,"▁tend":11484,"▁taavar":11485,"▁tithi":11486,"▁hind":11487,"▁haayar":11488,"▁karuna":11489,"▁aabaadee":11490,"▁aaipaid":11491,"amaana":11492,"ahol":11493,"▁paramparaagat":11494,"▁ghee":11495,"▁gum":11496,"▁uj":11497,"orld":11498,"▁inas":11499,"▁holeevud":11500,"taraan":11501,"▁2mp":11502,"▁kaments":11503,"▁yur":11504,"▁sakee":11505,"maaree":11506,"▁4199":11507,"▁3x":11508,"leement":11509,"▁laegee":11510,"▁khaatee":11511,"▁shaah":11512,"haron":11513,"aiksee":11514,"▁oeleedee":11515,"aapake":11516,"beeem":11517,"▁bhoot":11518,"▁bhigo":11519,"▁toyalet":11520,"teevee":11521,"teeriyal":11522,"▁moonga":11523,"yoos":11524,"olet":11525,"▁sama":11526,"edis":11527,"edikal":11528,"▁yoopeeaee":11529,"ishd":11530,"▁prostet":11531,"▁jeebee,":11532,"okiya":11533,"iphaee":11534,"▁mile,":11535,"▁sabakee":11536,"▁rag":11537,"▁staaph":11538,"aayars":11539,"▁baadaam":11540,"▁skils":11541,"▁(6":11542,"▁(ee":11543,"▁rakhegee":11544,"▁tarj":11545,"▁baeen":11546,"▁bachee":11547,"baroo":11548,"kaee":11549,"▁alam":11550,"▁01":11551,"▁blaast":11552,"▁aaeeeph":11553,"▁lagava":11554,"veer":11555,"▁maikrovev":11556,"oophar":11557,"▁shaharee":11558,"ude":11559,"▁20mp":11560,"▁1280x720":11561,"▁eksent":11562,"▁eksem":11563,"▁khaasee":11564,"▁kaardabord":11565,"▁lenaden":11566,"▁lagen":11567,"▁chalana":11568,"ojen":11569,"▁selekt":11570,"▁senchuree":11571,"▁9000":11572,"▁dhaara":11573,"▁harakat":11574,"▁dijit":11575,"▁ups":11576,"▁vee3":11577,"▁maanata":11578,"▁maanatee":11579,"▁editar":11580,"▁koriyan":11581,"▁khareedaar":11582,"▁phloo":11583,"▁phleks":11584,"▁varjans":11585,"▁kyon?":11586,"▁1450":11587,"▁sthaayee":11588,"▁pahie":11589,"▁manu":11590,"▁mangal":11591,"▁nikalee":11592,"▁kampoj":11593,"▁kamphart":11594,"▁okwu":11595,"▁ple,":11596,"▁vhaata":11597,"▁aandhr":11598,"▁taim,":11599,"▁bharos":11600,"▁barph":11601,"▁bharana":11602,"▁wai":11603,"▁haarlee":11604,"▁bachchan":11605,"-par":11606,"-pad":11607,"grej":11608,"▁dikhaatee":11609,"▁supair":11610,"▁jank":11611,"▁maukon":11612,"▁slet":11613,"▁volapepar":11614,"▁billee":11615,"▁hedalaimps":11616,"▁4000emeech":11617,"▁patte":11618,"▁patang":11619,"▁dhab":11620,"▁1750":11621,"▁sharton":11622,"▁amerika,":11623,"▁bolakar":11624,"▁401":11625,"▁yaadagaar":11626,"▁chipaka":11627,"▁apheyar":11628,"▁\"ham":11629,"▁eyaratel,":11630,"▁vishvasan":11631,"-100":11632,"▁udaasee":11633,"▁kroma":11634,"▁toote":11635,"▁aamir":11636,"▁banega":11637,"obin":11638,"▁chhoden":11639,"▁chhodate":11640,"▁294":11641,"▁uthakar":11642,"▁epha2":11643,"▁kaun-kaun":11644,"▁revenyoo":11645,"▁angootha":11646,"▁braanded":11647,"▁eksa20":11648,"mboo":11649,"▁kholana":11650,"▁phanatach":11651,"▁hongee,":11652,"▁kharchon":11653,"eshakon":11654,"▁(480x800":11655,"▁kailendar":11656,"▁insteet":11657,"▁notiphikeshans":11658,"▁resipee":11659,"▁sahamati":11660,"▁khaansee":11661,"▁sephaayar":11662,"▁emaeeyooaee":11663,"▁enteeoksee":11664,"▁rimoov":11665,"▁tebalets":11666,"▁1080×":11667,"▁maruti":11668,"▁thodee-see":11669,"▁laidar":11670,"▁3400":11671,"▁blaikabairee":11672,"▁mithak":11673,"▁maalee-4":11674,"▁vheel,":11675,"▁veliditee":11676,"▁velentain":11677,"▁2500mah":11678,"▁upalabdhata:":11679,"▁dhaman":11680,"▁prophit":11681,"▁roosee":11682,"▁roobaroo":11683,"▁dikhaega":11684,"▁sambhal":11685,"▁kaabil":11686,"▁naix":11687,"▁lakshanon":11688,"▁paalak":11689,"▁sootr":11690,"▁dablyooaar-vee":11691,"▁goloo":11692,"▁pragati":11693,"▁regyoolar":11694,"▁edavaansd":11695,"▁dubee":11696,"▁phijiyo":11697,"▁aaeeemeks":11698,"▁nibhaata":11699,"▁alko":11700,"uxus":11701,"▁sajaavat":11702,"▁kristal":11703,"▁nirdeshan":11704,"▁egjost":11705,"▁trending":11706,"▁jaie":11707,"▁kamyunitee":11708,"▁aarkit":11709,"▁saindavich":11710,"▁pletinam":11711,"▁nipatane":11712,"▁chupachaap":11713,"▁hedalaimps,":11714,"▁jeeesem)":11715,"▁deevaaron":11716,"▁binduon":11717,"▁vidhi":11718,"▁pramoshanal":11719,"▁santushti":11720,"atrel":11721,"▁xzs":11722,"achhid":11723,"▁chutakee":11724,"▁saaph-saphaee":11725,"▁rishtedaaron":11726,"▁sabakuchh":11727,"▁laajavaab":11728,"▁sandisk":11729,"▁matailik":11730,"▁normal":11731,"▁typai":11732,"▁gaanth":11733,"▁panjeekaran":11734,"▁bainganee":11735,"▁upasthiti":11736,"▁sabsakraibar":11737,"▁chaimpiyan":11738,"▁asantulan":11739,"▁ejukeshan":11740,"▁laaparavaahee":11741,"▁eksateeriyar":11742,"▁dikhengee":11743,"▁samajhadaaree":11744,"▁inspaayar":11745,"▁shaastree":11746,"▁maigren":11747,"▁tyau":11748,"▁haidalaimps,":11749,"▁jhatake":11750,"▁jurmaana":11751,"▁vyastata":11752,"▁adhigrahan":11753,"▁naivigeshan":11754,"▁phreekvensee":11755,"▁traansaleshan":11756,"▁pree-rajistreshan":11757,"ikyootiv":11758,"oglobin":11759,"▁verijon":11760,"▁snaipadraigana":11761,"▁phataaphat":11762,"▁moongaphalee":11763,"▁bharosemand":11764,",600":11765,"-ha":11766,"-chaar":11767,"/b/g/":11768,"29":11769,"8,":11770,"87":11771,"96":11772,"?main":11773,"dis":11774,"etars":11775,"frai":11776,"jet":11777,"km":11778,"kor":11779,"lon":11780,"laas":11781,"md":11782,"moo":11783,"mujhe":11784,"nad":11785,"o’":11786,"ota":11787,"opee":11788,"ptar":11789,"vij":11790,"yaar":11791,"yot":11792,"zaar":11793,"zaree":11794,"▁क":11795,"▁khee":11796,"▁kuking":11797,"ar’":11798,"▁saak":11799,"▁saata":11800,"▁sanee":11801,"▁sind":11802,"▁saada":11803,"in,":11804,"inat":11805,"▁pudee":11806,"▁mant":11807,"▁matai":11808,"▁bya":11809,"▁baas":11810,"▁bid":11811,"▁baah":11812,"▁boos":11813,"▁haivee":11814,"yahaan":11815,"▁dhaee":11816,"▁disebal":11817,"▁a12":11818,"oniya":11819,"▁mer":11820,"▁ke6":11821,"▁laan":11822,"akhabar":11823,"▁nal":11824,"▁naayak":11825,"chl":11826,"airo":11827,"▁rr":11828,"▁rap":11829,"▁rib":11830,"▁voo":11831,"▁vor":11832,"oobar":11833,"▁tu":11834,"▁tant":11835,"▁teksa":11836,"▁tendar":11837,"▁taaje":11838,"atig":11839,"▁edeeshan":11840,"▁segment":11841,"▁karaayee":11842,"▁ko-pha":11843,"▁koted":11844,"▁phigar":11845,"▁phiet":11846,"▁phisal":11847,"▁aatha":11848,"▁aabh":11849,"▁aabhaar":11850,"phree":11851,"▁paravar":11852,"▁haingaut":11853,"▁yalo":11854,"▁god":11855,"▁gub":11856,"▁1,4":11857,"▁taich":11858,"▁bheeg":11859,"▁280":11860,"▁2teebee":11861,"▁yut":11862,"▁chheen":11863,"▁choos":11864,"▁5ch":11865,"▁heels":11866,"▁laega":11867,"▁aapoorti":11868,"▁khin":11869,"▁khaaya":11870,"app":11871,"▁oth":11872,"ayaal":11873,"ainaasonik":11874,"dee,":11875,"chard":11876,"ivud":11877,"▁kaarl":11878,"▁kaarok":11879,"▁mom":11880,"lach":11881,"▁vaisee":11882,"▁joy":11883,"▁deeel":11884,"▁deels":11885,"▁emishan":11886,"▁samit":11887,"▁6,000":11888,"▁aniyam":11889,"▁899":11890,"▁pheecharon":11891,"▁pro,":11892,"eshiya,":11893,"▁huaavee":11894,"▁tee720":11895,"ailing":11896,"aileksee":11897,"uttar":11898,"ulakar":11899,"oting":11900,"▁seebee":11901,"emai":11902,"omik":11903,"▁bansal":11904,"▁7-speed":11905,"▁hoga?":11906,"▁tark":11907,"▁tarak":11908,"▁tarot":11909,"vart":11910,"▁kushal":11911,"▁rahee,":11912,"veep":11913,"raph":11914,"▁beva":11915,"▁intarase":11916,"▁hamala":11917,"▁mailaveyar":11918,"ijy":11919,"riens":11920,"oppo":11921,"▁sarkit":11922,"▁eksis":11923,"▁eksajed":11924,"▁kaard,":11925,"▁kaardiyo":11926,"▁apair":11927,"▁saug":11928,"▁sacham":11929,"▁modam":11930,"▁mainyoo":11931,"▁‘t":11932,"▁108":11933,"2010":11934,"▁169":11935,"▁achchount":11936,"▁138":11937,"▁pratish":11938,"▁930":11939,"▁naamee":11940,"▁eemajee":11941,"▁vairn":11942,"▁bikee":11943,"▁echadeeephasee":11944,"▁dhvan":11945,"▁bahu":11946,"▁paavard":11947,"▁amar":11948,"▁ameer":11949,"▁leeeko":11950,"▁trek":11951,"istens":11952,"balee":11953,"▁sust":11954,"▁elaan":11955,"▁klin":11956,"▁xch":11957,"▁x20":11958,"▁lepht":11959,"▁dual-kor":11960,"▁chukaanee":11961,"▁khareedaaron":11962,"▁phlaim":11963,"voy":11964,"ograaphee":11965,"▁dispale,":11966,"▁preeaardar":11967,"▁eyaraport":11968,"▁krip":11969,"-baind":11970,"ardhee":11971,"▁kabja":11972,"▁taiyaariyaan":11973,"▁seks":11974,"▁bharamaar":11975,"▁wvg":11976,"▁haarle":11977,"▁najaren":11978,"▁netavarkig":11979,"▁nambar,":11980,"▁bachchee":11981,"-ped":11982,"▁laiting":11983,"▁rikog":11984,"▁rikavaree":11985,"▁aaye":11986,"▁garbhav":11987,"▁bade-bade":11988,"-digree":11989,"▁taakatavar":11990,"▁50,000":11991,"▁esayoovee,":11992,"▁jaengen":11993,"▁antarraashtreey":11994,"▁phailane":11995,"▁chunate":11996,"▁edishanal":11997,"▁think":11998,"▁gaurav":11999,"▁lainar":12000,"▁protektiv":12001,"▁nidhi":12002,"▁kitakait,":12003,"▁lage,":12004,"▁rokata":12005,"▁pramot":12006,"▁too-in-van":12007,"ghaat":12008,"▁charbee":12009,"▁sms":12010,"▁kisane":12011,"treeb":12012,"▁daba":12013,"reemoovebal":12014,"▁staindabai":12015,"▁plus,":12016,"kular":12017,"▁emateeke":12018,"▁chamma":12019,"▁chalae":12020,"▁porn":12021,"▁neemboo":12022,"ochon":12023,"▁kavars":12024,"-phir":12025,"▁bitaana":12026,"▁kodiek":12027,"▁dresing":12028,"▁romachhid":12029,"emapee2":12030,"engee,":12031,"▁kaaryakshamata":12032,"▁maiksimam":12033,"▁adhyayanon":12034,"▁vijit":12035,"▁pairaag":12036,"552":12037,"▁seekhate":12038,"▁slot,":12039,"▁intair":12040,"daial":12041,"-ltai":12042,"ross":12043,"▁prasaaran":12044,"-jiyaomee":12045,"▁ashok":12046,"▁sambhavat:":12047,"▁metaalik":12048,"▁taip-see,":12049,"▁seemos":12050,"▁saavan":12051,"▁velyoo":12052,"▁yoonivarsal":12053,"▁esemes,":12054,"aarthiyon":12055,"▁bure":12056,"prabhaav":12057,"kareeban":12058,"▁vaibreshan":12059,"▁draivarales":12060,"▁eekomars":12061,"▁samajhaute":12062,"▁shot,":12063,"▁eksatreem":12064,"▁bonas":12065,"▁daiteeshiyan":12066,"▁gadabad":12067,"▁kaarobaaree":12068,"▁saty":12069,"▁samudaay":12070,"▁kleenik":12071,"▁e7000":12072,"▁egjikyootiv":12073,"▁daimej":12074,"40x960":12075,"▁nateeje":12076,"▁vipan":12077,"▁(1440x2560":12078,"▁infin":12079,"▁daayara":12080,"▁dyooal":12081,"▁mahaaraaj":12082,"▁manachaahe":12083,"▁threedee":12084,"▁kutton":12085,"▁pratispardhee":12086,"-apane":12087,"▁edajas":12088,"▁sosaayatee":12089,"▁ghutanon":12090,"▁dushprabhaav":12091,"▁aaaiphishal":12092,"▁erar":12093,"▁maidiapad":12094,"▁pikap":12095,"▁prejent":12096,"▁lasair":12097,"▁taarget":12098,"▁ulajhan":12099,"▁provaid":12100,"▁ibe":12101,"▁kshanon":12102,"▁inakaming":12103,"buks":12104,"▁nitin":12105,"▁kavita":12106,"▁kshatigrast":12107,"▁anadekha":12108,"▁jhapak":12109,"▁vayask":12110,"▁maalee-tee720":12111,"▁byaaj":12112,"▁instaint":12113,"vaintar":12114,"▁phorks":12115,"▁savaaree":12116,"▁gehoon":12117,"▁jedi551":12118,"▁chintit":12119,"▁eaarem":12120,"▁phevaret":12121,"▁eemaanadaaree":12122,"▁silebas":12123,"▁(takareeban":12124,"▁apachhai":12125,"▁sulajh":12126,"▁kobaalt":12127,"▁jee/en,":12128,"▁deka-kor":12129,"▁prasann":12130,"▁praiktis":12131,"▁raajakumaar":12132,"▁display":12133,"▁jeepeeaares/eedeejeeee,":12134,"▁non-reemoovebal":12135,"▁baazaar":12136,"▁depth":12137,"▁maikromaiks,":12138,"▁bhaee-bahan":12139,"▁spraidatram":12140,"▁saalagirah":12141,"▁alamaaree":12142,"▁insteetyoot":12143,"▁alkohal":12144,"▁ko-phaundar":12145,"▁paravarish":12146,"▁taichno":12147,"▁yutop":12148,"▁bevajah":12149,"▁sachamuch":12150,"▁garbhavatee":12151,"-le":12152,"-el":12153,"-de":12154,"23":12155,"520":12156,"ax":12157,"bishd":12158,"etal":12159,"i)":12160,"mch":12161,"mai":12162,"oh":12163,"p)":12164,"s-":12165,"spee":12166,"vaaya":12167,"yant":12168,"za":12169,"‍ya":12170,"▁kaash":12171,"▁s5":12172,"▁sph":12173,"▁sors":12174,"inf":12175,"▁pate":12176,"▁panka":12177,"▁pamp":12178,"▁pvoint":12179,"▁matee":12180,"▁moor":12181,"▁myoot":12182,"anr":12183,"anna":12184,"▁baaya":12185,"isar":12186,"isai":12187,"▁dak":12188,"▁dang":12189,"ong":12190,"ta2":12191,"▁kaishal":12192,"▁ke4":12193,"▁laata":12194,"▁liyon":12195,"▁laate":12196,"akr":12197,"▁naasa":12198,"▁naatak":12199,"chd":12200,"▁rx":12201,"▁rad":12202,"▁roor":12203,"▁raig":12204,"▁vemo":12205,"▁keen":12206,"▁keetaan":12207,"aandee":12208,"▁tika":12209,"▁tenshan":12210,"▁tft":12211,"▁tuaan":12212,"▁titan":12213,"atenshan":12214,"▁hmd":12215,"▁phis":12216,"▁phed":12217,"esaee":12218,"estament":12219,"adard":12220,"aatri":12221,"ilej":12222,"▁parv":12223,"▁gej":12224,"▁gmail":12225,"▁1x":12226,"chail":12227,"itor":12228,"iteshan":12229,"hans":12230,"▁inak":12231,"▁tamb":12232,"▁tavaj":12233,"▁hobee":12234,"▁hoge":12235,"▁nevee":12236,"iyaar":12237,"reek":12238,"etrik":12239,"▁yang":12240,"▁ektres":12241,"▁chook":12242,"▁phonabuk":12243,"aamp":12244,"maark":12245,"ahat":12246,"▁5mimee":12247,"▁lachee":12248,"▁aapada":12249,"▁jee6":12250,"▁jeelaar":12251,"jeeechajed":12252,"▁smaartaphon-":12253,"aayachee":12254,"aavaah":12255,"inglar":12256,"been":12257,"▁bhram":12258,"▁bhooshan":12259,"▁bhejee":12260,"▁badon":12261,"▁badhen":12262,"▁apanon":12263,"iron":12264,"▁maeek":12265,"▁emigo":12266,"▁keemat,":12267,"▁616":12268,"▁anas":12269,"▁andi":12270,"▁aninstol":12271,"▁8-":12272,"▁816":12273,"▁milaaya":12274,"▁hond":12275,"▁sabab":12276,"▁rainglar":12277,"▁strip":12278,"▁seeio":12279,"▁seeton":12280,"▁padataal":12281,"▁sakate,":12282,"▁ep’":12283,"▁(en":12284,"▁7-":12285,"▁rakho":12286,"▁de-taim":12287,"▁jaanatee":12288,"▁jaana,":12289,"▁baee":12290,"▁alj":12291,"▁08":12292,"▁opo":12293,"veeaar":12294,"▁bebee":12295,"▁intarnal":12296,"▁pheecharsisamen":12297,"▁hamamen":12298,"▁hamase":12299,"▁maiga":12300,"▁maigan":12301,"▁maartin":12302,"tamee":12303,"aisa":12304,"▁dood":12305,"nechar":12306,"▁divijan":12307,"▁len-d":12308,"▁apamaan":12309,"▁modai":12310,"▁chalaana":12311,"aanagar":12312,"▁‘a":12313,"▁‘h":12314,"▁‘googal":12315,"indiya":12316,"hakaaree":12317,"oongee":12318,"▁peejee":12319,"▁162":12320,"▁136":12321,"▁13999":12322,"▁sann":12323,"▁9,990":12324,"▁9,499":12325,"▁enaseeaar":12326,"▁eneemiya":12327,"▁naam,":12328,"▁echadeeemai":12329,"▁dhaak":12330,"▁aashee":12331,"▁vanadraiv":12332,"▁ampaayar":12333,"shama":12334,"▁rupe,":12335,"▁emapee3":12336,"ande":12337,"▁upag":12338,"▁chhaatee":12339,"▁elig":12340,"aahaaree":12341,"▁veediyo-":12342,"▁15,000":12343,"▁detaabes":12344,"▁xb":12345,"▁xp":12346,"▁letar":12347,"▁sire":12348,"▁mukadam":12349,"▁darshan":12350,"▁fee":12351,"maj":12352,"▁cheen,":12353,"roniks":12354,"▁sviming":12355,"▁147":12356,"▁1440x2560":12357,"▁lojee":12358,"▁pahaad":12359,"▁manaane":12360,"▁imp":12361,"▁imaarat":12362,"▁krietiv":12363,"▁pahunchee":12364,"-boot":12365,"▁zaib":12366,"▁taimar":12367,"▁sonee,":12368,"▁bargar":12369,"▁chhoda":12370,"▁takaneekon":12371,"▁netaphl":12372,"▁dijaining":12373,"▁samajhakar":12374,"▁aayaat":12375,"▁khara":12376,"▁yuvak":12377,"▁kampyootars":12378,"▁18,000":12379,"labes":12380,"▁sinem":12381,"▁mee1":12382,"▁tvist":12383,"▁4000mah":12384,"▁amejan,":12385,"▁malhot":12386,"▁saitting":12387,"▁sho-2017":12388,"dragon":12389,"▁edishan,":12390,"▁esa2":12391,"▁pradarshanee":12392,"▁chipak":12393,"▁222":12394,"▁toota":12395,"▁ikan":12396,"▁ikala":12397,"▁nikaalana":12398,"▁bason":12399,"▁kyoo6":12400,"▁2016-17":12401,"▁jamaana":12402,"▁epha3":12403,"▁pyaaree":12404,"▁kaunsal":12405,"▁jaiket":12406,"▁help":12407,"-phul":12408,"▁aadaten":12409,"▁koman":12410,"▁saphaaree":12411,"▁hdr":12412,"▁gunaa":12413,"▁romaans":12414,"▁romaantik":12415,"▁pahunchatee":12416,"ojitek":12417,"▁jeda35":12418,"▁sachiv":12419,"▁oktaaviya":12420,"▁palooshan":12421,"▁chhota-sa":12422,"▁seekhana":12423,"▁leeko":12424,"▁150chch":12425,"▁512mb":12426,"▁49,999":12427,"▁kontin":12428,"▁bechegee":12429,"hadaayak":12430,"▁phal,":12431,"▁kaitigar":12432,"▁shaimpen,":12433,"▁aai3":12434,"▁349":12435,"▁oonche":12436,"▁mitha":12437,"▁baayars":12438,"▁non-r":12439,"▁siyaam":12440,"▁joom,":12441,"▁machaane":12442,"/bee/jee/en,":12443,"▁pedon":12444,"▁chakr":12445,"▁todane":12446,"▁bhaavon":12447,"▁amareekee":12448,"▁steshanon":12449,"▁signechar":12450,"▁votaraprooph":12451,"gresiv":12452,"▁sendha":12453,"▁nibhaate":12454,"▁hotaspot,":12455,"▁chunautiyaan":12456,"▁kleenar":12457,"▁gatividhi":12458,"▁chaild":12459,"▁mainyuphaikcharars":12460,"htt":12461,"▁lubha":12462,"▁aintee":12463,"▁paagal":12464,"▁dilachaspee":12465,"▁3,000mah":12466,"▁aarkiy":12467,"▁dyook":12468,"▁jobs":12469,"▁chaaval,":12470,"▁gaardan":12471,"▁taitoo":12472,"▁marsideez":12473,"▁traanjaikshan":12474,"▁tukade":12475,"▁tukadon":12476,"▁kursee":12477,"▁vastuon":12478,"▁oobar":12479,"▁chidach":12480,"▁jaise-jaise":12481,"▁dhokh":12482,"▁bindu":12483,"▁dushman":12484,"▁leedar":12485,"▁tippanee":12486,"▁laabhadaayak":12487,"▁elyoominiyam":12488,"▁vidyaarthiyon":12489,"▁offair":12490,"seeaeeseeaee":12491,"▁prejident":12492,"▁chaudharee":12493,"vachchh":12494,"▁snapdaial":12495,"▁snapdragon":12496,"▁saaph-sut":12497,"bairry":12498,"▁rishtedaar":12499,"▁prashansa":12500,"▁teedeeaee":12501,"▁maignet":12502,"▁korporeshan":12503,"▁kemikal":12504,"▁dephineshan":12505,"▁sumit":12506,"▁inteegret":12507,"▁paneer":12508,"yashaalee":12509,"▁(ematee67":12510,"▁ronit":12511,"▁mukhyamantree":12512,"▁a-gps,":12513,"▁raajaneeti":12514,"▁paribhaasha":12515,"▁ankurit":12516,"gakaang":12517,"▁jeeaeeeph":12518,"▁distens":12519,"▁senteemeetar":12520,"▁jahaaj":12521,"▁heemoglobin":12522,"▁thaeelaind":12523,"yapradesh":12524,"▁intaraseptar":12525,"▁vipanan":12526,"▁pankaj":12527,"▁rooral":12528,"▁maeekro":12529,"▁upagrah":12530,"▁mukadama":12531,"-50":12532,"-ja":12533,"-htt":12534,"/-":12535,"/e":12536,"/s":12537,"150":12538,"350":12539,"85":12540,"810":12541,"bhee":12542,"ben":12543,"baad":12544,"epee":12545,"ebraaniks":12546,"ies":12547,"jit":12548,"joor":12549,"joy":12550,"kl)":12551,"ling":12552,"lenovo":12553,"mad":12554,"mor":12555,"maikromaiks":12556,"nol":12557,"nish":12558,"oin":12559,"pi":12560,"paans":12561,"ring":12562,"rup":12563,"rem":12564,"raitis":12565,"rilaayans":12566,"tist":12567,"uai":12568,"vaayar":12569,"vast":12570,"was":12571,"zain":12572,"‍dh":12573,"▁kveen":12574,"aacha":12575,"hain":12576,"arth":12577,"arenj":12578,"arshiyal":12579,"▁sf":12580,"▁svachchh":12581,"inidh":12582,"▁pil":12583,"▁paad":12584,"▁paayad":12585,"▁pool":12586,"▁pvaintar":12587,"aning":12588,"ista":12589,"isaka":12590,"yatha":12591,"▁dreem":12592,"▁dragan":12593,"▁desee":12594,"▁dyual":12595,"▁ath":12596,"▁aish":12597,"▁avar":12598,"▁atai":12599,"▁auxus":12600,"ond":12601,"▁jaal":12602,"▁joot":12603,"▁jile":12604,"▁kapan":12605,"▁kaum":12606,"▁kade":12607,"▁kawas":12608,"aarthee":12609,"▁megaahartj":12610,"▁lem":12611,"▁lojitek":12612,"akap":12613,"akyoo":12614,"▁nxt":12615,"ch,":12616,"aie":12617,"▁rash":12618,"▁voks":12619,"▁vinee":12620,"▁keepaid":12621,"ga,":12622,"gav":12623,"gala":12624,"▁t3":12625,"▁taaj":12626,"▁tra":12627,"alen":12628,"▁hid":12629,"▁pher":12630,"▁aalas":12631,"▁aastreliya":12632,"adaataon":12633,"iyalee":12634,"amejan":12635,"amoto":12636,"amaastar":12637,"philm":12638,"aati":12639,"asmaartaphon":12640,"▁parade":12641,"▁paros":12642,"chaiss":12643,"▁inakaar":12644,"▁tath":12645,"▁nehara":12646,"▁2g":12647,"▁2tb":12648,"rop":12649,"▁navaj":12650,"leyar":12651,"▁ch1":12652,"▁choorn":12653,"▁4-silendar":12654,"▁3tee":12655,"▁390":12656,"▁3,499":12657,"▁3geegaahartj":12658,"▁khaal":12659,"▁khone":12660,"▁shek":12661,"▁shub":12662,"apool":12663,"aikal":12664,"▁jee,":12665,"jeevan":12666,"▁bhr":12667,"▁tom":12668,"uns":12669,"teesa":12670,"▁badham":12671,"▁praap":12672,"▁praay":12673,"▁pracha":12674,"▁praacheen":12675,"▁kaarning":12676,"▁vagair":12677,"▁maunt":12678,"▁6,990":12679,"▁anjaam":12680,"▁antat":12681,"▁anyatha":12682,"▁86":12683,"▁yooem":12684,"▁chana":12685,"▁dilait":12686,"shanuma":12687,"▁apane-apane":12688,"okol":12689,"aakhand":12690,"▁abatak":12691,"tareey":12692,"▁sabamit":12693,"aill":12694,"▁distreeb":12695,"ots":12696,"otek":12697,"▁seetee":12698,"emm":12699,"▁padhakar":12700,"▁banaanee":12701,"idais":12702,"▁upalab‍dh":12703,"▁(1280":12704,"▁7999":12705,"▁jaanale":12706,"▁tarabooj":12707,"▁alt":12708,"varoop":12709,"▁aaeetel":12710,"▁aaeeseeaeeseeaee":12711,"yarth":12712,"▁shat":12713,"▁kangaar":12714,"▁kvortar":12715,"▁sapleement":12716,"▁doob":12717,"optar":12718,"▁khaas:":12719,"▁modyoolar":12720,"▁esoes":12721,"▁din,":12722,"▁vikram":12723,"▁‘ed":12724,"▁phileepee":12725,"▁peela":12726,"▁battakh":12727,"▁16emapee":12728,"▁139":12729,"▁13,000":12730,"▁santa":12731,"▁sanjee":12732,"▁pratinidh":12733,"▁enakripshan":12734,"▁dikhegee":12735,"ashaah":12736,"▁injan,":12737,"▁dhaava":12738,"▁aasan":12739,"akarabarg":12740,"▁kanektivitee,":12741,"▁piksals)":12742,"▁maange":12743,"▁maanakar":12744,"▁152":12745,"▁deting":12746,"▁x2":12747,"▁xuv":12748,"aayaras":12749,"-sk":12750,"-sensar":12751,"▁vebasaiton":12752,"bhavee":12753,"▁glaimar":12754,"▁fai":12755,"▁pov":12756,"▁akela":12757,"▁sthir":12758,"▁sthaapan":12759,"▁achchhaee":12760,"▁jaldabaajee":12761,"▁kraanti":12762,"▁mahaas":12763,"▁mahesh":12764,"▁i3":12765,"▁zyaada":12766,"▁zebraaniks":12767,"▁3jee/4":12768,"ios":12769,"▁photosh":12770,"▁taims":12771,"▁bhay":12772,"saingair":12773,"▁taiyaariyon":12774,"▁304":12775,"leepaaaip":12776,"▁jener":12777,"▁wr":12778,"▁waib":12779,"▁4g,":12780,"▁oes,":12781,"▁painik":12782,"▁nambars":12783,"▁achtivai":12784,"▁2160":12785,"▁dekhatee":12786,"trim":12787,"tavi":12788,"▁ummeedon":12789,"▁salai":12790,"▁otg":12791,"▁kainetik":12792,"▁pratispar":12793,"▁gandh":12794,"▁506":12795,"▁aavishkaar":12796,",444":12797,"▁arti":12798,"▁toks":12799,"▁chunen,":12800,"▁thin":12801,"▁4070":12802,"▁yaadon":12803,"▁upayogakartaon":12804,"▁judaav":12805,"taprooph":12806,"▁gretar":12807,"▁grevitee":12808,"▁bechain":12809,"▁smooth":12810,"▁baalakanee":12811,"▁paishan":12812,"▁ikv":12813,"▁saphalataapoorvak":12814,"▁nikalata":12815,"▁kyooaar":12816,"▁haeetek":12817,"▁haee-end":12818,"▁uthate":12819,"▁pyaas":12820,"▁khushanuma":12821,"▁kaunasa":12822,"▁neelee":12823,"▁praimium":12824,"▁baraabaree":12825,"▁dasha":12826,"▁dasav":12827,"▁haangakaang":12828,"-phokas":12829,"▁bitaane":12830,"▁kodak":12831,"▁romaan":12832,"▁neksa":12833,"▁pahunchata":12834,"▁pichaee":12835,"▁myoojik,":12836,"▁pravrtti":12837,"▁phoravard":12838,"▁glosee":12839,"▁linkdin":12840,"▁milatee-jul":12841,"ivarsitee":12842,"▁vivek":12843,"▁chalega,":12844,"▁palakon":12845,"▁raich":12846,"▁kompitee":12847,"▁rimaind":12848,"▁laal,":12849,"▁jhoothee":12850,"▁maalikon":12851,"▁poochhane":12852,"neechar":12853,"▁koching":12854,"▁bhaagyashaalee":12855,"▁aaidiy":12856,"▁phulav":12857,"▁doodh,":12858,"▁vipin":12859,"▁pree-aardar":12860,"▁medis":12861,"▁rejyolooshan,":12862,"▁roopee":12863,"▁namak,":12864,"▁sveek":12865,"▁nonastik":12866,"▁phankshanailitee":12867,"▁aatmahat":12868,"-go":12869,"▁pholdebal":12870,"▁shots":12871,"▁aara5":12872,"romai":12873,"▁prastuti":12874,"▁chhathe":12875,"▁ghabara":12876,"▁injeeniyaron":12877,"▁muddon":12878,"ovaigyaan":12879,"▁upaayon":12880,"▁robotik":12881,"▁baithen":12882,"▁aaeeemeeaee":12883,"▁1998":12884,"▁svaadisht":12885,"▁shedyool":12886,"▁lakhan":12887,"cheenee":12888,"▁kenan":12889,"▁chhatteesa":12890,"▁domestik":12891,"▁khulegee":12892,"▁phraansisko":12893,"▁maigna":12894,"▁maansapeshiyaan":12895,"▁sheesh":12896,"▁maijik":12897,"▁keematee":12898,"▁stoodiyo":12899,"▁saadhan":12900,"▁daravaajon":12901,"▁himaachal":12902,"▁aartiphishal":12903,"▁dhaaraavaah":12904,"▁jukaam":12905,"▁boost":12906,"▁saahab":12907,"▁bejel":12908,"▁phatane":12909,"aaaileepaaaip":12910,"▁muhim":12911,"▁muskaan":12912,"▁praathamik":12913,"aankshee":12914,"▁tahalane":12915,"▁seleriyo":12916,"▁korteks-e":12917,"▁svaroop":12918,"▁kaamakaaj":12919,"▁paytm":12920,"▁boonden":12921,"▁bokeh":12922,"▁masalan":12923,"▁vetan":12924,"-xb":12925,"-se-kam":12926,"▁reemoovebal":12927,"▁dastaavejon":12928,"aaraseeteesee":12929,"▁gupta":12930,"▁maikenikal":12931,"▁arthav":12932,"▁talaashane":12933,"▁aksharon":12934,"▁jaasoos’":12935,"▁kaatakar":12936,"▁buniy":12937,"▁jhaank":12938,"▁indiketar":12939,"▁improov":12940,"▁aphordebal":12941,"▁north":12942,"▁kampyooting":12943,"▁abhivyak":12944,"▁eksalaiph":12945,"▁taichhnol":12946,"(2016)":12947,"▁tendulakar":12948,"▁aaeeephe":12949,"▁1080×1920":12950,"▁boostar":12951,"▁tantrika":12952,"▁tarakkee":12953,"▁tarotaaja":12954,"▁saugaat":12955,"▁prejenteshan":12956,"▁kaishales":12957,"▁tavajjo":12958,"▁len-den":12959,"▁feechar":12960,"▁kaitigaree":12961,"▁dhokhaadha":12962,"▁paayadaan":12963,"▁kawasaki":12964,"▁vagairah":12965,"▁antat:":12966,"▁jaanaleva":12967,"▁kangaaroo":12968,"▁sthaapana":12969,"▁aatmahatya":12970,"▁chhatteesagadh":12971,"▁taichhnolog":12972,"-es":12973,"-iyar":12974,"-akt":12975,"/64":12976,"1000":12977,"3)":12978,"590":12979,"dishan":12980,"gra":12981,"gaama":12982,"kam":12983,"kmpl":12984,"lain":12985,"leks":12986,"ms":12987,"mik":12988,"sel":12989,"sos":12990,"vot":12991,"▁kaaya":12992,"▁kukee":12993,"▁kheere":12994,"▁kshama":12995,"hasp":12996,"arning":12997,"▁sor":12998,"▁paatr":12999,"▁may":13000,"▁mut":13001,"▁bre":13002,"▁bahar":13003,"isakee":13004,"▁hai:":13005,"▁haive":13006,"▁daanv":13007,"▁dmch":13008,"▁ava":13009,"▁ati":13010,"▁akh":13011,"▁aitam":13012,"▁achai":13013,"tayoob":13014,"▁jvaint":13015,"▁kabee":13016,"▁kasar":13017,"aarish":13018,"▁meg":13019,"entar":13020,"▁loo":13021,"▁laaaileepaaaip":13022,"akad":13023,"▁nat":13024,"▁naav":13025,"▁need":13026,"▁nakal":13027,"▁rest":13028,"▁val":13029,"▁vim":13030,"▁toorn":13031,"uran":13032,"atek":13033,"▁ele":13034,"▁e35":13035,"▁e77":13036,"▁karj":13037,"▁phrod":13038,"▁aaaid":13039,"▁aaitel":13040,"es,":13041,"phaan":13042,"aatkaar":13043,"ashak":13044,"▁paraam":13045,"▁parde":13046,"▁gop":13047,"▁gatha":13048,"ory":13049,"▁intal":13050,"▁intan":13051,"▁intail":13052,"▁indeej":13053,"▁nechural":13054,"▁jau":13055,"rojan":13056,"▁kam-se-kam":13057,"▁nagar":13058,"▁y66":13059,"▁ekyoo":13060,"▁eked":13061,"▁eksesar":13062,"▁chhar":13063,"▁chaandee":13064,"▁phonapaid":13065,"aamars":13066,"▁saathiyon":13067,"▁5-litrai":13068,"aasit":13069,"leel":13070,"leen":13071,"▁khvaah":13072,"▁shv":13073,"▁shiy":13074,"aika":13075,"▁jeeele":13076,"dhaaran":13077,"aapr":13078,"ukon":13079,"▁total":13080,"deeaee":13081,"▁praav":13082,"▁praij":13083,"▁prach":13084,"ateei":13085,"yoosee":13086,"▁deedee":13087,"▁sammel":13088,"▁tee10":13089,"▁raph":13090,"▁usasen":13091,"aajit":13092,"▁seeem":13093,"▁seevee":13094,"▁rahas":13095,"▁eparachar":13096,"▁(12":13097,"▁(13":13098,"shaomee":13099,"▁thail":13100,"▁jaancha":13101,"▁tarbain":13102,"▁khair":13103,"▁03":13104,"varaaj":13105,"▁phroot":13106,"▁phraee":13107,"▁kahal":13108,"▁aaeees":13109,"▁aaee10":13110,"▁pheecharsayah":13111,"▁shailee":13112,"▁kandhe":13113,"ijal":13114,"ijing":13115,"ooto":13116,"▁124":13117,"rich":13118,"ichs":13119,"▁eksayoovee":13120,"▁apahol":13121,"▁chaahoon":13122,"-kat":13123,"▁lagaata":13124,"▁spain":13125,"▁padhenh":13126,"▁‘ok":13127,"▁101":13128,"▁chaart":13129,"▁peetee":13130,"▁saport)":13131,"▁banava":13132,"▁pratim":13133,"▁pratham":13134,"▁9,000":13135,"raiain":13136,"▁indeks":13137,"▁eesh":13138,"▁peshaab":13139,"rechar":13140,"▁bee/jee/en":13141,"ashop":13142,"▁lee2":13143,"iphit":13144,"▁roz":13145,"▁rote":13146,"iyaano":13147,"▁triks":13148,"▁voda":13149,"▁modaling":13150,"▁on5":13151,"iston":13152,"istik":13153,"istrat":13154,"iged":13155,"ordan":13156,"ept":13157,"▁upd":13158,"▁upaj":13159,"▁memo":13160,"▁kolaaj":13161,"oomee":13162,"▁klaid":13163,"▁151":13164,"▁156":13165,"▁157":13166,"▁15-20":13167,"▁xt":13168,"▁kya?":13169,"▁ilaayachee":13170,"▁bron":13171,"▁breks":13172,"-sp":13173,"areen":13174,"▁eds":13175,"▁edavar":13176,"▁glaiksee":13177,"▁bajaane":13178,"▁daura":13179,"▁-is":13180,"▁---------------------------------":13181,"▁fhd":13182,"▁phlo":13183,"vida":13184,"▁meediyam":13185,"50mah":13186,"▁loyal":13187,"akshit":13188,"▁manovaigyaan":13189,"▁imel":13190,"▁krash":13191,"tanaam":13192,"▁chaahiye":13193,"aijeshan,":13194,"aphaast":13195,"▁asur":13196,"▁kabj":13197,"▁win":13198,"▁4ghz":13199,"▁ghode":13200,"▁najariya":13201,"▁kantet":13202,"▁teknikal":13203,"▁bachen,":13204,"▁avishkaar":13205,"▁pahunchega":13206,"▁pahunchaata":13207,"▁pahunchaatee":13208,"▁pahunchaana":13209,"▁yuvaraaj":13210,"▁haath-p":13211,"▁18,990":13212,"▁masaalon":13213,"ach,":13214,"▁1900":13215,"▁ummeeden":13216,"▁pharneechar":13217,"▁malayaal":13218,"italee":13219,"▁ganatantr":13220,"▁2006":13221,"▁20000":13222,"▁bachaen":13223,"▁aaved":13224,"▁phailee":13225,"▁anubhavee":13226,"▁chunakar":13227,"▁3000emeech":13228,"▁baink,":13229,"▁esa10":13230,"▁esa60":13231,"▁thietar":13232,"▁je1":13233,"▁protokol":13234,"▁soch-samaj":13235,"▁22,999":13236,"-19":13237,"▁udane":13238,"▁krodh":13239,"▁ivok":13240,"ebalet":13241,"▁lakshmee":13242,"▁laddoo":13243,"▁bas,":13244,"▁sake,":13245,"▁eksapeeriens":13246,"▁3120":13247,"▁angoothe":13248,"▁neecha":13249,"▁neela":13250,"▁ema6":13251,"ochk":13252,"▁mahatvaak":13253,"▁golee":13254,"▁sainadisk":13255,"▁komarshiyal":13256,"▁tamanna":13257,"▁655":13258,"bahoo":13259,"▁olara":13260,"▁oliv":13261,"▁jeda4":13262,"▁jeda9":13263,"▁jeda11":13264,"▁aavaajon":13265,"▁restaraan":13266,"▁vivaah":13267,"▁palak":13268,"▁beniphit":13269,"▁disaple,":13270,"▁3,0":13271,"▁chandr":13272,"-lik":13273,"▁maissaingair":13274,"▁saitelait":13275,"-juk":13276,"▁hangaama":13277,"▁miraral":13278,"-tyoob":13279,"▁taikst":13280,"▁visheshakar":13281,"▁vinam":13282,"▁vinir":13283,"▁aaident":13284,"▁kaaryaalay":13285,"▁milate-jul":13286,"▁phainenshiyal":13287,"▁trenar":13288,"▁uttarapradesh":13289,"▁charchaen":13290,"▁maarkits":13291,"ampyootar":13292,"▁gujaraatee,":13293,"▁embes":13294,"▁thakkar":13295,"▁pratibaddh":13296,"▁baleno,":13297,"▁chhapee":13298,"▁airtail":13299,"▁mudra":13300,"▁ichchhaon":13301,"▁sainsai":13302,"▁peris":13303,"▁bonat":13304,"▁gril,":13305,"▁bigaad":13306,"▁bijee":13307,"▁hairat":13308,"▁naukar":13309,"▁skorakaard:":13310,"▁bhaavanaen":13311,"▁holdar":13312,"▁baandh":13313,"▁saavadhaaniyaan":13314,"▁chailenj":13315,"▁phlevar":13316,"daleek":13317,"▁teleephon":13318,"▁teleephoto":13319,"▁iphekts":13320,"bonet":13321,"▁paateen":13322,"▁venchar":13323,"▁chhipe":13324,"aanshu":13325,"▁injin":13326,"▁aphasos":13327,"▁manachaaha":13328,"▁raim/32":13329,"▁lithiyam-p":13330,"▁chupake":13331,"▁nirdeshit":13332,"▁pratirodhee":13333,"bhaaratee":13334,"▁schraiain":13335,"▁laibre":13336,"▁bejaan":13337,"▁shataraprooph":13338,"▁sanchaalan":13339,"aaaidee":13340,"▁laabhakaaree":13341,"▁reniged":13342,"▁kamyoonikeshans":13343,"▁vidaiochon":13344,"▁pyooree":13345,"▁nijata":13346,"▁pachhat":13347,"vai-phai":13348,"▁dukaanadaar":13349,"▁chhamp":13350,"▁jhoothe":13351,"▁haiparatenshan":13352,"▁blachkbairry":13353,"uletar":13354,"▁masalan,":13355,"8909":13356,"▁inovetiv":13357,"▁maaaidal":13358,"▁chitron":13359,"akanekt":13360,"▁ochtavi":13361,"▁seereez":13362,"▁spoilar":13363,"▁hariyaana":13364,"▁anushaasan":13365,"▁manamutaabik":13366,"▁vyaavahaarik":13367,"▁hoobahoo":13368,"aashakti":13369,"▁kaaailing":13370,"▁maathur":13371,"vaalitee":13372,"▁dainik":13373,"asaayik":13374,"deeeme":13375,"adarshee":13376,"▁mojila":13377,"▁ephadabl":13378,"▁(480gunaa":13379,"▁vaanijy":13380,"▁teevr":13381,"▁teeyoovee300":13382,"▁santare":13383,"▁mentenens":13384,"▁kuv100":13385,"▁datawind":13386,"▁ritarn":13387,"▁kanaada,":13388,"▁panjaabee,":13389,"▁davalap":13390,"▁jadee-boot":13391,"▁ekaagrata":13392,"▁aapattijanak":13393,"▁spark":13394,"▁yuraik":13395,"▁byaura":13396,"▁teksachar":13397,"▁yutopi":13398,"▁baayabaik":13399,"▁tambaakoo":13400,"▁aljaimar":13401,"▁malhotra":13402,"▁kontinental":13403,"▁non-rimoovebal":13404,"▁kapannee":13405,"▁kaumee":13406,"▁navajaat":13407,"▁povaraphul":13408,"▁milatee-julatee":13409,"▁arthavyavastha":13410,"▁dhokhaadhadee":13411,"-aktoobar":13412,"▁baharahaal":13413,"▁paraamarsh":13414,"istration":13415,"▁milate-julate":13416,"-aap":13417,"-ep":13418,"/h":13419,"ahee":13420,"d,":13421,"dhat":13422,"ere":13423,"gy":13424,"gait":13425,"i-t":13426,"jen":13427,"kn":13428,"maikro":13429,"raas":13430,"ritee":13431,"riyon":13432,"raino":13433,"sat":13434,"tro":13435,"v,":13436,"vaala":13437,"wd":13438,"y,":13439,"yara":13440,"yaanee":13441,"×720":13442,"ीओ":13443,"▁eed":13444,"▁are":13445,"▁siph":13446,"▁saahan":13447,"▁sveet":13448,"▁p2":13449,"▁ps":13450,"▁p‍":13451,"▁maaya":13452,"▁maak":13453,"▁haj":13454,"▁baab":13455,"isak":13456,"▁hailait":13457,"ya,":13458,"▁dul":13459,"▁daksha":13460,"▁droid":13461,"▁aud":13462,"▁a41":13463,"▁a/b/g/":13464,"taind":13465,"▁j5":13466,"▁jip":13467,"▁jul":13468,"▁jakarabarg":13469,"aarph":13470,"▁mes":13471,"▁mela":13472,"▁ke7":13473,"▁ker":13474,"▁ling":13475,"▁lchd":13476,"akaim":13477,"▁nus":13478,"▁nyaay":13479,"▁mein:":13480,"▁raav":13481,"▁vaim":13482,"▁vaatsep":13483,"▁keede":13484,"oole":13485,"oost":13486,"gadar":13487,"▁taare":13488,"▁taasking":13489,"▁taayars":13490,"alenovo":13491,"▁e4":13492,"▁etee":13493,"▁epeeke":13494,"▁kar,":13495,"▁karent":13496,"▁koi":13497,"▁phok":13498,"▁pheyar":13499,"▁phebalet":13500,"▁aurora":13501,"▁aadee":13502,"▁aadaan":13503,"ikar":13504,"adi":13505,"ado":13506,"asv":13507,"ild":13508,"ilit":13509,"▁yaug":13510,"▁gaaj":13511,"▁ghatee":13512,"▁grahan":13513,"▁gadhe":13514,"orar":13515,"ekha":13516,"ekin":13517,"▁tad":13518,"▁taital":13519,"▁nechar":13520,"iyaa":13521,"iyaam":13522,"iyaak":13523,"iyaabaad":13524,"▁jaharee":13525,"et’":13526,"▁2-inch":13527,"roed":13528,"▁kamiyaan":13529,"▁yetee":13530,"▁sakane":13531,"▁chp":13532,"▁phonon":13533,"▁kira":13534,"ahaveen":13535,"▁5s":13536,"▁5see":13537,"▁5jeebee":13538,"▁5gb":13539,"aasus":13540,"▁4es":13541,"▁4,500":13542,"▁340":13543,"▁3-4":13544,"▁aapamen":13545,"▁shoj":13546,"▁shooj":13547,"apa":13548,"aphart":13549,"▁jeera":13550,"▁jee-sensar":13551,"▁otee":13552,"aapa,":13553,"▁bhent":13554,"▁bhuj":13555,"▁badam":13556,"▁badaboo":13557,"▁nahin?":13558,"oll":13559,"shuda":13560,"▁deek":13561,"▁deen":13562,"▁deetek":13563,"▁6,490":13564,"▁andh":13565,"▁8999":13566,"▁yooeks":13567,"▁yootayoob":13568,"▁yoo-tyoob":13569,"▁chalaee":13570,"jarv":13571,"elal":13572,"elitee":13573,"oging":13574,"▁milit":13575,"▁teek":13576,"▁teeke":13577,"▁saboot":13578,"▁sakata,":13579,"▁baij":13580,"▁loncha":13581,"▁stree":13582,"▁stend":13583,"ull":13584,"ulas":13585,"sart":13586,"otor":13587,"oora":13588,"▁see2":13589,"▁padenge":13590,"▁bandar":13591,"▁skil":13592,"▁skaut":13593,"▁skaarph":13594,"▁(pee":13595,"▁jaruree":13596,"▁7x":13597,"▁7,500":13598,"▁upalabdh,":13599,"▁upalabdhiyon":13600,"▁kaam,":13601,"▁kaamphrens":13602,"▁raksh":13603,"▁maikra":13604,"▁maiksa":13605,"▁baul":13606,"▁bagal":13607,"▁inch,":13608,"▁06":13609,"▁09":13610,"▁phraink":13611,"▁blink":13612,"▁optim":13613,"▁aaeekan":13614,"▁lagaen,":13615,"veel":13616,"karee":13617,"▁bebo":13618,"▁intarn":13619,"▁maikros":13620,"▁pheechars--":13621,"▁pheecharsakampanee":13622,"▁maarjin":13623,"▁maargadar":13624,"▁kannad":13625,"ijain":13626,"aiss":13627,"ootooth":13628,"▁dekor":13629,"▁12,990":13630,"▁saraha":13631,"▁saraaha":13632,"▁plaana":13633,"▁plooto":13634,"▁daen":13635,"▁apade":13636,"▁apps":13637,"▁chaaha":13638,"-kvaalitee":13639,"▁lagzaree":13640,"▁esabeeaee":13641,"thade":13642,"▁spash":13643,"▁spaidar":13644,"▁vikdaleek":13645,"▁‘ep":13646,"▁102":13647,"▁104":13648,"▁10veen":13649,"▁1024":13650,"▁10-15":13651,"indair":13652,"▁selakon":13653,"▁adhyaay":13654,"▁phauran":13655,"▁phaijal":13656,"▁16,000":13657,"▁sanaskreen":13658,"▁enk":13659,"▁enav":13660,"▁enivar":13661,"▁hainds":13662,"▁ee-p":13663,"▁beevee":13664,"ashch":13665,"▁bahaane":13666,"▁paavarap":13667,"▁leep":13668,"▁roy":13669,"▁trim":13670,"▁vishisht":13671,"▁onalee":13672,"▁ona5":13673,"igan":13674,"▁endroyad,":13675,"▁chhaap":13676,"▁chhua":13677,"▁maanie":13678,"▁x9s":13679,"▁ilaiph":13680,"▁bris":13681,"▁siradard":13682,"talait":13683,"hataim":13684,"▁edob":13685,"▁filahaal":13686,"ajaan":13687,"▁philmee":13688,"een,":13689,"▁paaradarshee":13690,"aayaniyar":13691,"▁lo,":13692,"▁intaranet,":13693,"airs":13694,"▁kamphar":13695,"▁kampharm":13696,"▁oke":13697,"▁aajam":13698,"▁eyaralains":13699,"▁kraim":13700,"▁aaeephona6":13701,"▁mahaajan":13702,"▁iq":13703,"▁aaratee":13704,"-badee":13705,"-biran":13706,"hamee":13707,"hammad":13708,"aphrant":13709,"eekrt":13710,"▁dyool-eleedee":13711,"▁aant":13712,"▁bhag":13713,"▁302":13714,"▁barst":13715,"echateesee":13716,"▁tablait":13717,"▁oes-":13718,"▁ripeyar":13719,"▁tekneek":13720,"-paid":13721,"meer":13722,"▁likhit":13723,"▁masaale":13724,"▁196":13725,"▁meetha":13726,"▁teknolojee,":13727,"▁garbha":13728,"▁bhejega":13729,"▁patted":13730,"inkoo":13731,"▁178":13732,"▁instold":13733,"-din":13734,"▁2499":13735,"▁2003":13736,"▁portret":13737,"ukhta":13738,"▁mi5":13739,"▁bolivud":13740,"▁thik":13741,"▁thaalee":13742,"▁4010":13743,"taphesing":13744,"▁akaunt,":13745,"▁chipake":13746,"▁\"ee":13747,"▁rikording,":13748,"▁telug":13749,"▁sootee":13750,"ikaon":13751,"▁draiv,":13752,"▁krop":13753,"▁charitr":13754,"▁graaphik":13755,"▁chhodana":13756,"▁nikalakar":13757,"▁kyoo7":13758,"▁anubhavon":13759,"▁ememes":13760,"haaron":13761,"▁jooniyar":13762,"▁girakar":13763,"▁ailyuminiyam":13764,"▁helo":13765,"▁yojanaon":13766,"▁emajee":13767,"▁traikshan":13768,"▁tang":13769,"chitr":13770,"skop":13771,"apheed":13772,"▁kvod-kor":13773,"▁6020":13774,"▁sankalp":13775,"▁samajhaane":13776,"▁advan":13777,"▁vanaplasa2":13778,"▁insaanee":13779,"▁jeda50":13780,"▁sachet":13781,"▁ephem,":13782,"▁resar":13783,"▁sochakar":13784,"▁pentee":13785,"▁maahir":13786,"▁palon":13787,"▁tanaav,":13788,"▁entree-le":13789,",950":13790,"149":13791,"▁1080pee":13792,"-chross":13793,"patti":13794,"▁anaveel":13795,"▁sidanee":13796,"▁shaadeeshuda":13797,"▁mitr":13798,
[...]
