#version: 0.2 - Trained by `huggingface/tokenizers`
e e
Ġ k
a a
h a
a r
Ġ s
i n
Ġ p
Ġ ha
Ġ m
a n
Ġ b
i s
y a
Ġha i
Ġ d
o n
t a
Ġ a
Ġ j
aa r
a i
h ee
e n
Ġm e
Ġk e
a k
Ġ l
Ġme in
c h
Ġk a
Ġ n
Ġ r
Ġk ee
o o
g a
Ġ v
aa n
u r
a l
a t
Ġ t
Ġ e
Ġs e
Ġ h
Ġk ar
Ġk o
Ġa ur
a m
i k
p h
e s
Ġp h
a d
Ġ aa
i ya
aa t
a s
i l
Ġ is
a h
Ġp ar
Ġha in
a b
aa l
p an
i e
ha r
Ġ ga
Ġ g
ha n
o r
e k
Ġ u
i t
Ġ 1
ya h
t ar
Ġh o
Ġn e
Ġ ta
i y
Ġb hee
Ġj a
Ġ in
e t
a ta
r o
r ee
ai m
ph on
Ġl ie
y oo
Ġs ak
aat h
ha l
Ġ 2
aa d
Ġk i
Ġe k
m aar
an e
aa m
am en
pan ee
Ġ ch
ak e
0 0
aa s
Ġka m
Ġph on
a is
Ġ hee
Ġs aath
a p
j ee
Ġga ya
ai k
a ee
aa p
u n
d h
maar ta
Ġk h
maarta phon
Ġj ee
aa ya
Ġk iya
aa v
a in
Ġ o
Ġ yah
ar a
Ġs h
t e
Ġaa p
Ġ 4
Ġr a
Ġs maartaphon
b ee
a y
l ee
Ġ 3
in g
c ha
u k
t ee
at e
Ġv aal
Ġ 5
ah in
Ġt o
Ġd iya
an a
e j
d ee
o l
c har
Ġn ahin
Ġb ad
a g
Ġb h
i v
Ġn a
Ġp r
s h
u p
Ġta k
Ġk aar
Ġk aim
i m
at ee
aan e
Ġa pan
Ġp a
e l
Ġp hee
Ġm o
i r
ik s
e ga
p al
en d
m at
ee d
e d
g ee
is e
t h
ak ee
Ġj o
Ġd ee
Ġkaim ara
l e
Ġe m
as e
Ġ y
Ġkee mat
Ġm a
Ġkam panee
Ġr up
Ġs am
j ar
Ġphee char
Ġkar ane
is ake
Ġjee bee
an t
s han
h en
Ġp ro
en t
Ġd il
Ġga ee
Ġ yoo
is amen
ai l
aar ee
o k
â Ģ
iks al
o g
aa k
Ġ 6
Ġ 8
Ġapan e
es h
Ġm il
Ġ an
u l
tar ee
aa ta
Ġpa hal
hee n
Ġh on
9 9
i p
Ġh u
Ġsak ata
aa j
Ġbh aar
ai t
o t
Ġis amen
a v
Ġs ab
u t
Ġd is
Ġt ee
on ch
aa b
s ar
Ġdil lee
j an
ch h
e m
ay e
Ġl onch
Ġs t
oo r
Ġb ai
Ġ c
Ġb an
aa y
o m
g e
ak a
Ġu s
Ġa l
Ġsak ate
Ġra ha
i d
Ġu pal
Ġupal ab
Ġrup aye
e r
is h
Ġb aad
Ġs ee
Ġe p
u s
Ġbai taree
Ġ (
Ġupalab dh
Ġu n
aav a
Ġv a
it ee
is ee
Ġj ar
Ġk aam
s ee
Ġa b
Ġs k
p ee
p ad
iy ar
Ġr ak
ek t
g aap
Ġ ya
gaap iksal
Ġd en
ha k
Ġvaal e
Ġho ga
Ġl ek
ee ch
a ga
Ġ end
Ġkar en
or t
Ġbhaar at
Ġt ha
Ġme gaapiksal
o d
Ġt ar
ad ee
Ġr ah
v a
Ġin ch
k a
Ġd o
Ġj aan
k am
b ar
iy o
v ar
ak o
Ġr aim
Ġb aar
iy on
Ġpahal e
u j
n aee
Ġkar ata
es han
Ġb l
Ġd e
ch ch
s es
ha t
v ee
Ġm aik
Ġph r
s t
Ġka ha
Ġra hee
Ġb aat
Ġb a
Ġ 7
u d
p ar
Ġl aga
Ġyoo jar
Ġr an
kam panee
Ġl ag
00 0
tar an
h e
aan ch
y ar
ha m
Ġaa ee
aan ee
Ġs p
Ġga e
Ġpheechar s
ses ar
Ġk u
Ġst or
Ġc hal
ga l
ta m
Ġb e
k i
Ġl ais
i j
y aad
han e
Ġm ai
Ġmaik ro
Ġin taran
o p
oo t
Ġk v
Ġbad h
Ġpro sesar
b al
b h
in d
Ġp ad
Ġa panee
p ha
Ġm aar
Ġtar ah
Ġrah e
Ġphr ant
Ġj yaad
Ġhon e
Ġg r
aaya d
s a
Ġsab ase
Ġy e
Ġr iyar
k ar
Ġs ap
p le
Ġal aava
aar a
Ġ1 2
Ġku chh
Ġp l
Ġsh ur
Ġ2 0
oo p
Ġ cha
Ġd ek
Ġha m
es ab
Ġj is
Ġjyaad a
Ġdis ple
Ġkaar d
oo d
e gee
i ch
aap hee
as an
Ġv ar
Ġl aanch
Ġo p
Ġl og
Ġd a
Ġs aal
Ġd iv
Ġs ar
Ġem eech
Ġph l
Ġhu e
Ġaap ako
ree n
r a
Ġs a
Ġis e
Ġkh aas
Ġd oo
Ġl en
Ġch aa
h on
Ġmo d
Ġna ya
i ent
n e
Ġja ega
ai d
âĢ Ļ
Ġk isee
Ġb aik
ap ee
âĢ ĺ
2 0
ai p
o j
Ġn aee
b ail
o on
ai r
Ġvaal a
Ġd ie
Ġr oop
ha ta
aat ee
Ġu t
Ġv ik
as et
Ġvaal ee
Ġka ee
an ee
Ġja ise
Ġt hee
aan a
ya d
Ġdiv ais
Ġd in
Ġv e
Ġsam ay
Ġkar ate
Ġbe ha
t o
Ġk har
Ġ1 0
Ġlek in
Ġkar ana
Ġv er
Ġho ta
Ġj ab
Ġek s
Ġch h
Ġna e
on on
or ee
Ġstor ej
Ġn ir
cha dee
ree j
Ġk an
Ġsak atee
l ar
r aayad
r ai
Ġko ee
en ge
Ġ âĢĺ
Ġch aar
Ġmo bail
Ġv ah
Ġse l
Ġsap ort
Ġsk reen
Ġho gee
aat e
Ġa dh
aav ar
es t
Ġa chch
te m
Ġsee reej
Ġs en
Ġp ee
Ġd h
Ġ1 6
jee bee
Ġintaran al
t i
aa har
Ġb at
u m
Ġ1 3
Ġshur oo
aak h
han a
Ġd ik
Ġm ain
oo gal
t ha
Ġend raayad
Ġn aam
as h
tem aal
Ġpr at
Ġis ake
Ġjar ie
Ġyoojar s
Ġmai ch
Ġk ie
uj ood
l a
Ġis temaal
Ġs an
Ġp esh
Ġapan a
Ġ en
ar s
Ġph il
Ġj ise
Ġma ujood
v an
iv itee
u al
Ġs im
Ġb al
Ġb ana
i g
Ġb ik
Ġ3 2
Ġ ee
ais e
ak aar
Ġin d
Ġj aata
atee y
pee es
Ġp ha
ro yad
Ġver ient
i ph
Ġt r
Ġkh el
Ġe chadee
ak ar
ekt ivitee
Ġ20 1
Ġm ad
Ġlek ar
Ġhain d
ais h
k h
Ġk aaphee
s ham
Ġis akee
Ġden e
iy aan
Ġtee m
Ġb ee
y e
b as
d ar
Ġb ah
99 9
s e
Ġp aavar
oo th
Ġhu a
Ġrup e
Ġk ha
Ġadh ik
r ik
ain d
is tam
ha te
Ġl ee
Ġmod al
is t
oo ree
ek s
h aal
Ġaa s
Ġs istam
Ġbaar e
Ġde ta
Ġd onon
Ġhaind aset
Ġv an
r e
o s
Ġem apee
ad aar
Ġbl oot
y on
hon ne
is akee
Ġbadh aaya
Ġdoo sar
Ġp iksal
Ġin jan
es adee
8 0
k an
Ġv o
d a
Ġaap ake
hal e
k or
ta i
esab uk
Ġd ij
Ġha r
Ġkhar eed
y aan
Ġ on
Ġg han
Ġs n
eed iyo
Ġme m
ak aaree
Ġu p
oo m
Ġko l
Ġg ee
Ġsen sar
asan g
aa h
aan ki
oo l
Ġmaikro esadee
Ġaa dh
g ar
is a
aim asang
aa ph
5 0
s aath
Ġbah ut
Ġho tee
Ġbloot ooth
Ġsab hee
s adee
Ġbik ree
m a
Ġmad ad
ad e
Ġend royad
Ġphl aish
e yar
Ġs aam
Ġv ee
Ġk l
Ġm aan
Ġka lar
Ġe l
Ġl aakh
Ġ 9
bh aar
Ġv eediyo
Ġs u
pad hen
Ġs ha
iya m
Ġg h
Ġr o
b ha
aay ar
Ġd et
Ġa m
Ġl e
Ġlog on
t j
Ġta i
Ġmem oree
bal et
or d
1 0
ara ph
ut aab
ta l
aaj aar
utaab ik
l ek
Ġbhaar ateey
Ġgee g
va heen
haal aanki
Ġjaan akaaree
ar e
Ġb ata
bas ait
Ġj al
Ġm utaabik
Ġjar oor
Ġta tha
Ġg oogal
Ġroop e
Ġv aee
ai pad
Ġ il
Ġs ir
a j
am bar
an ka
Ġbad al
Ġb r
Ġb aajaar
v o
Ġm uk
ar ee
Ġt he
g an
pha ee
Ġch uk
Ġma heen
Ġsn aipad
Ġve basait
v al
ag ar
p hee
Ġ6 4
Ġp oor
Ġ x
Ġg l
Ġe d
Ġda ur
Ġis aka
yoo l
Ġop har
Ġph ot
ga t
aahar tj
Ġ2 5
Ġmaar k
aa g
Ġv ish
is ase
ya k
Ġnir m
u sh
Ġko r
as t
Ġ aane
Ġba j
Ġind iya
in t
Ġkv aad
ich hale
Ġd ual
Ġn o
g b
Ġs har
v id
ik eshan
Ġchaar j
k ee
j ab
lek in
ol d
Ġkaar an
esab ee
chh e
aa hak
Ġp aas
Ġaadh aar
Ġl anka
Ġbad ee
lee dee
Ġmo tar
Ġa isa
ak i
Ġgeeg aahartj
Ġta iy
ap r
ro l
aak ar
Ġvar jan
Ġ f
Ġs o
aay an
Ġ1 5
Ġsir ph
Ġsh aam
Ġa p
Ġj in
om ee
an d
m ee
Ġban aane
Ġp aar
Ġj aatee
al ain
Ġphil m
Ġph esabuk
Ġtee n
aar e
Ġghan te
Ġkh il
aan s
Ġr ej
Ġsar v
Ġa ise
Ġbeha tar
Ġan y
Ġph ul
Ġk ya
Ġm ais
Ġun hen
Ġ or
ak sh
Ġab hee
Ġph ree
Ġp ah
al e
og r
Ġs th
Ġm eed
is han
se p
pal e
Ġbl aik
Ġta hat
Ġil ekt
m aik
Ġb har
ee b
k e
un iya
Ġmil ega
ph t
Ġmaheen e
Ġus e
Ġshaam il
o lee
Ġs ta
Ġph ir
un t
ek see
Ġtai balet
ik al
ok s
le b
Ġk r
Ġj aane
as ee
Ġkaim are
ail eksee
ak t
un honne
g r
Ġe leedee
Ġvik et
Ġsp eed
Ġvan ade
ol o
ol yoo
Ġnirm aata
et ing
ar d
1 1
Ġt ek
Ġgr aahak
Ġdis pale
ha ee
Ġp ata
Ġj isamen
aas h
Ġs v
Ġd v
Ġka p
Ġaa d
Ġp ree
Ġintaran et
Ġdaur aan
Ġachch hee
Ġal ag
Ġs aimasang
Ġsmaartaphon s
Ġg har
Ġ1 4
Ġphee sadee
Ġpl as
Ġpr ad
Ġprat i
r on
Ġbat aaya
un a
Ġachch ha
Ġm an
Ġkv aal
Ġd esh
Ġo k
Ġpah un
ah aal
Ġo to
j ah
Ġo ph
Ġe sa
Ġkh ud
Ġd aal
Ġa k
Ġh is
t an
is aka
Ġpahal ee
Ġdh yaan
Ġk yon
bhaar at
h aat
Ġv air
Ġjaroor at
Ġpad hen
Ġt araph
Ġsp es
s ha
1 2
iph ikeshan
Ġt h
Ġ im
Ġa gar
olyoo shan
al p
Ġkam p
ph ot
Ġ i
Ġjal d
Ġt e
Ġchaa h
ai j
Ġhu ee
Ġdv aara
ee r
Ġsh aan
Ġran g
ogr aaphee
Ġm ah
a ph
Ġp le
Ġv ai
Ġg aileksee
Ġ12 8
Ġba chch
Ġn ot
Ġy oon
aad ee
Ġdoosar e
ta k
ka unt
Ġp aaree
Ġaa ya
Ġbal leb
Ġl ai
Ġmais ej
Ġ aar
r iya
Ġe s
Ġe yar
hak ar
s ara
Ġb eech
Ġd aava
Ġaaee phon
b an
ee n
kan ektivitee
Ġvik alp
Ġkan ektivitee
vid ha
Ġd uniya
Ġs ah
Ġr ed
Ġp ichhale
at op
Ġg end
Ġa ga
Ġmaark et
Ġm in
Ġho te
j a
Ġkar aaya
Ġun ake
aan d
Ġj aaree
Ġ Ġ
Ġp o
Ġrak hee
Ġja ga
Ġu m
Ġsu vidha
Ġjee peees
Ġ8 0
Ġkar ega
Ġta im
Ġsarv is
en j
i o
Ġta ur
iy an
en s
Ġho on
hal ee
Ġsh ree
Ġtaiy aar
Ġda un
aal ee
b hee
Ġut aara
ab h
Ġkam pan
us aar
Ġshur u
or m
Ġva jah
Ġa pad
iy ant
Ġke val
hata k
Ġd yool
al ie
it ana
Ġkar atee
Ġjab aki
Ġja egee
Ġg old
haat sep
Ġphot o
Ġh aal
Ġyah aan
j aar
m ent
Ġm aat
Ġc heen
Ġon alain
Ġha maar
Ġsel phee
Ġchaah ie
Ġo par
h it
t r
Ġapad et
al od
iya t
6 0
Ġshaan adaar
- -
p op
s maartaphon
Ġ aan
ak om
rai gan
Ġkl ik
Ġmaar sham
aayan s
Ġis ase
ay og
v ah
Ġyoo esabee
Ġb ar
Ġan usaar
ik a
Ġp et
Ġt est
Ġl ok
Ġaap akee
Ġrej olyooshan
Ġmuk aab
ail o
on ee
k aar
Ġe ph
Ġ3 0
o dee
Ġjar ooree
atee ee
Ġjaga h
Ġne ta
olee pop
Ġaa j
Ġdaun alod
r am
Ġmaarsham ailo
Ġgraahak on
es ha
Ġtak anee
in a
Ġ z
Ġa s
Ġaa ge
Ġs as
il aayans
Ġpahal a
Ġhon ge
Ġl oleepop
Ġl et
oo s
Ġaa ta
yoo vee
Ġilekt rik
Ġp aanee
al a
Ġb ol
Ġus ake
Ġjaan en
Ġsnaipad raigan
Ġgl aas
Ġj en
pan e
Ġtee vee
Ġban aaya
Ġpro d
ing ar
Ġlaga ta
Ġo es
Ġna jar
Ġjis ase
Ġaadhaar it
ya s
Ġs ur
Ġp asan
Ġl iya
Ġk ant
var k
Ġk ul
ek shan
Ġc hee
Ġpl aan
Ġkyon ki
en o
Ġkar ake
Ġchaa hate
Ġbad a
Ġp ooree
Ġn ambar
b e
Ġdij ain
Ġja e
Ġd aata
ok as
ha tee
Ġa v
Ġlen e
Ġshar eer
Ġneta vark
Ġp ur
Ġ1 1
phot ograaphee
Ġkha bar
Ġ w
aa jee
it i
o shan
Ġs un
Ġd ar
m eed
Ġjee t
Ġpahun ch
Ġ1 00
Ġtakanee k
p s
yoo tar
Ġl aip
Ġis ee
Ġl ait
Ġkhaas iyat
Ġkar od
Ġtek n
Ġba ch
p o
Ġr ik
il a
Ġchh o
Ġj aate
Ġh aar
uj he
Ġlee tar
apr int
Ġsam aj
ha s
Ġjis aka
Ġph ingar
Ġaas aanee
Ġva jan
Ġran on
Ġballeb aaj
3 0
n a
aap ako
c hee
k om
v ish
Ġt um
d aan
as ya
im it
Ġbeha d
Ġchal ata
Ġlaip atop
Ġv id
aad h
aas ha
Ġo var
kar s
olo jee
Ġdet e
ain k
Ġsaam ane
Ġbaj at
Ġv ind
ch aar
Ġpee chhe
ol ar
il t
Ġl ik
Ġkar eeb
Ġsam asya
akaar t
Ġvair ient
sar e
Ġp ain
Ġa par
Ġsa hee
s p
ok iya
Ġkvaal akom
Ġbana e
Ġopar eting
bha g
Ġ2 1
Ġkar egee
aas t
Ġb uk
un d
Ġdik h
Ġha jaar
Ġaa y
Ġchee j
Ġm aam
Ġka hana
Ġvar sh
Ġop shan
Ġn ik
aad iyon
Ġkap t
Ġmeed iy
d e
m e
t oo
Ġphingar aprint
s o
Ġrak hane
ais a
Ġun akee
Ġbadal aav
ha i
it ar
Ġok ta
Ġkhil aaph
Ġa ch
Ġs hatak
Ġpasan d
Ġh aath
Ġ80 2
Ġj isake
Ġr ip
al ee
l ab
Ġno gat
Ġapar char
Ġph aayad
iy e
Ġv haatsep
ip akaart
Ġsk or
Ġtar ee
imit ed
in k
g l
Ġs up
or k
ta v
Ġ1 8
yoo j
ut i
u th
Ġmo to
Ġ oo
m ain
Ġj ud
aat ek
Ġj an
k o
l d
Ġkaar on
Ġus akee
Ġdoo sara
t iv
Ġdin on
ha j
Ġv yak
Ġrak hen
bha v
ed a
Ġjis akee
maik s
e cha
Ġbal ki
Ġg em
Ġkamp yootar
Ġs l
ej an
Ġma uk
pha i
ab l
Ġban d
Ġsta ind
Ġmeediy aatek
p a
od a
Ġ201 7
Ġbat an
Ġjee pee
Ġmin at
Ġb ina
Ġphil ahaal
Ġja isee
Ġ4 000
Ġb il
Ġbh ej
ga ment
ata lab
am ee
sham ata
Ġdet ee
Ġa isee
Ġdek h
g oogal
p r
Ġs il
Ġv ol
Ġse gament
Ġy u
ab ilt
Ġta ip
Ġd ega
Ġtekn olojee
Ġn i
Ġja en
oshan a
Ġd rai
ad h
d esh
Ġko sh
it el
Ġgh oshana
d onon
h y
Ġs uj
Ġj io
har e
Ġsh ik
Ġkh oo
Ġ1 9
Ġm as
Ġsak enge
iv aar
Ġd oor
Ġta b
Ġto p
maar t
Ġk shamata
Ġaap aka
uk ee
Ġlag ee
Ġoo par
Ġp har
b a
ed aaree
Ġyoo j
Ġspes iphikeshan
iya l
Ġs al
j al
Ġkampan iyon
Ġk on
ya l
Ġprod akt
b aik
Ġm ee
Ġd olar
Ġs in
Ġj iyo
ab hee
ha h
Ġpoor e
i ta
u jar
Ġphl ipakaart
uk h
Ġin abilt
Ġo t
Ġpoor a
Ġs aab
ag ee
Ġm ujhe
Ġa ip
Ġh aas
sh ree
âĢ į
m p
Ġsh eyar
Ġprat is
Ġaaee peees
a jee
y an
aa han
Ġvind oj
m el
var ee
Ġp ort
Ġse t
Ġum meed
te l
Ġv i
jee n
Ġbad e
Ġk il
Ġs ait
taree n
2 5
Ġro hit
Ġk ai
Ġp at
Ġesa yoovee
ph ree
Ġm al
s k
yah aan
ate l
Ġt aak
Ġhaas il
c heen
Ġ2 4
Ġ2 00
Ġchuk ee
b r
y ee
Ġhon a
Ġtr aans
Ġprad ar
s vee
Ġo d
ahin d
Ġaad i
Ġek sa
Ġyoon it
Ġvyak ti
Ġbeha tareen
Ġt v
Ġaa aip
Ġg ar
Ġja enge
d am
Ġrak ha
Ġdo st
Ġaga le
Ġka in
Ġst aar
an ga
Ġd am
Ġr ilaayans
Ġt ork
Ġin st
Ġan u
Ġam ejan
va cha
Ġpha il
ha d
Ġb aahar
Ġv aap
aat aar
ahind ra
Ġ1 7
amen t
d i
Ġph es
Ġdek hane
Ġsup ar
k aim
Ġl am
Ġl a
Ġaan k
Ġed ishan
e pha
Ġshuru aat
Ġaa v
Ġsh o
Ġkar a
Ġsaam aan
Ġpradar shan
al ag
ph il
Ġg an
Ġkh ul
Ġga yee
r ed
99 0
Ġse k
s aimasang
ak or
ah aan
Ġan tar
Ġlaga bhag
yad i
too bar
9 0
i tal
Ġka bhee
Ġ5 0
Ġham en
5 00
Ġl ist
Ġta svee
Ġch un
ab ee
Ġto k
Ġep s
Ġak toobar
Ġk rik
Ġjee van
Ġ3 000
Ġka h
oo k
Ġt ul
Ġbad ha
Ġ ar
ta ph
Ġtee sare
Ġm i
abh aav
Ġkant rol
v e
Ġ -
Ġb aink
Ġv aahan
Ġga l
Ġbaik s
Ġmah ila
t on
Ġsaab it
Ġaa ega
Ġ4 0
Ġgend ab
Ġm u
Ġbachch on
Ġk it
en jar
Ġlag aaya
Ġ ant
Ġm aim
os hal
Ġp aanch
Ġis alie
e lee
m ah
Ġun honne
maik ro
ich aar
Ġbachch e
y o
ban dh
Ġpet rol
Ġot om
Ġr enj
Ġ2 8
Ġtul ana
Ġch ip
Ġdoosar ee
so pht
Ġkosh ish
i tam
Ġmaich on
Ġpratis hat
4 0
Ġa kaunt
Ġmukaab ale
Ġta ch
Ġma us
Ġmeed iya
Ġod iyo
ee j
b o
k ul
Ġpro t
Ġkaren ge
s ap
Ġe sadee
Ġy aad
c hane
o vo
Ġmil a
Ġmil ee
bhaar ateey
Ġmaat r
Ġs maart
Ġv aayar
te d
Ġj ahaan
Ġn okiya
Ġt vacha
Ġaas aan
d oo
Ġsam et
Ġdis kaunt
Ġmaim oree
e p
h aar
i jan
j o
Ġup ayog
Ġl uk
3 5
s tam
à ¤
Ġchaarj ing
s am
Ġt ej
Ġlag aataar
tak ait
y or
Ġt el
har anga
Ġsuj ukee
g h
j ed
ha bar
Ġan dar
Ġkol ing
Ġsth iti
Ġkrik et
in amen
Ġa t
aat ar
m o
Ġjo d
Ġbadh aane
Ġrik ord
m iyam
is ha
Ġv akt
Ġbh aasha
Ġkar av
Ġpar esh
Ġhon da
Ġ5 00
Ġkhel e
m ak
Ġki takait
Ġdik haee
ha van
Ġg b
end r
er a
Ġra hane
Ġso ch
Ġsah aare
Ġgr aam
ak sha
Ġch una
y oon
Ġha l
Ġse va
Ġach chhe
Ġdrai v
Ġko halee
Ġchuk a
l as
Ġj im
Ġe pal
Ġaa e
Ġmaam ale
Ġb ra
Ġr ok
Ġel ateeee
kom ars
tee see
Ġpr am
Ġpo st
p ort
u tee
as aik
Ġrip ort
b har
Ġl ain
or oom
Ġdek ha
ee k
ar et
Ġvo yas
u chh
av aar
Ġte jee
6 7
Ġa phree
aar an
Ġkhareed ane
Ġr oj
yoo esabee
Ġmotar s
v aas
Ġb odee
Ġe cha
as aan
Ġphon s
Ġma jab
Ġ 0
Ġkh aane
Ġgr e
Ġs onee
ta p
Ġn ikal
iph t
u dee
Ġb es
Ġka ise
ph esabuk
ana varee
Ġpree miyam
Ġs oo
Ġlag aane
i b
Ġn uk
Ġaphree ka
k il
r an
Ġb ane
Ġr itel
aap t
Ġma haj
Ġmai daan
Ġn yoo
Ġan al
Ġhamaar e
1 7
1 9
r el
Ġka stam
Ġpar s
Ġkhel ane
Ġnuk asaan
Ġmil egee
Ġus aka
ya m
Ġj anavaree
Ġya di
Ġam er
Ġsam bh
c hana
k ya
Ġna v
Ġsam bandh
ai g
Ġ2 2
Ġpr abhaav
Ġoto ph
Ġ it
Ġk aip
is alie
aal a
Ġsta il
Ġmo t
hee re
Ġlag e
Ġmauk a
Ġs m
ak shan
at ar
Ġki mee
Ġkapt aan
r en
Ġk ro
Ġg or
Ġ iv
ha it
Ġj e
Ġra v
itam bar
t eks
v en
Ġdij ital
Ġjeepee yoo
1 00
Ġs aare
ap oor
ait ik
v aar
Ġd ab
Ġg iyar
ik t
il la
Ġin gl
ree y
Ġchal ate
Ġhis sa
Ġp ak
Ġr aaj
Ġun aka
Ġchal ane
ee l
ind agee
Ġkhareed a
Ġeyar atel
i dee
Ġl aaya
Ġcha it
-- --
Ġham esha
Ġchh od
Ġs oshal
Ġsak sham
Ġ2 3
Ġbl oo
jeen en
ta on
Ġdee jal
Ġmaar uti
Ġsas ta
Ġs pee
Ġr is
ik on
sh et
Ġbee maar
Ġs tar
Ġsak e
Ġkh ol
Ġeks ap
omee tar
Ġl aksh
a pane
m ot
Ġs ik
aaph iks
ek tar
Ġlai ph
Ġbuk ing
Ġl imited
Ġv hait
Ġg aadee
Ġkan ekt
x y
han d
ree m
Ġanu bhav
p ichhale
Ġho m
eech e
Ġstaind ab
Ġjim m
ai ga
Ġl ad
Ġ2 6
Ġpr ak
Ġem em
Ġpl us
Ġsar ch
Ġlen s
kars hak
Ġaa karshak
phil ahaal
Ġgor illa
1 5
e chadee
Ġ char
Ġka l
r t
in al
Ġa i
Ġka heen
Ġv hee
Ġba cha
Ġaaaip har
o jan
Ġk ool
Ġb aal
Ġthee k
Ġk shet
Ġu d
Ġsap hal
Ġk hat
Ġmil ane
Ġmotar asaik
Ġr ee
Ġv y
Ġt aata
Ġjaan a
as al
on ai
Ġj am
aas a
Ġab h
Ġmaikro maiks
ush kil
Ġkvaal itee
Ġingl aind
Ġg ir
r ip
aa ee
Ġse kan
Ġch e
Ġg aadiyon
Ġkam ee
aap at
Ġsk ain
st rel
Ġvish esh
tan am
Ġmukaab ala
ar t
Ġh ed
it h
Ġha ee
Ġjee tee
Ġmaujood a
Ġ201 6
Ġtaak i
Ġmaus am
Ġs itambar
aakh aapat
Ġvol tai
strel iya
aakhaapat tanam
Ġm ushkil
phon ai
Ġpr ayog
Ġshar ma
b ah
Ġn eeche
Ġaa ut
Ġpar aph
Ġkaar en
Ġem abee
Ġkha tar
Ġsha omee
Ġsar akaar
Ġaga st
Ġdam adaar
Ġ ik
ur u
1 4
Ġk is
Ġe la
ab oks
ap le
Ġkh us
Ġjo on
Ġsekan d
b ord
Ġk yoo
Ġj aakar
Ġt oo
Ġraha ta
Ġs itee
Ġt aaree
adee p
Ġmal tee
Ġprot ekshan
Ġstaindab aay
b it
or ol
Ġs ad
Ġaa tee
Ġg una
Ġbaik ap
1 6
Ġb ha
Ġb ait
oo shan
Ġvaal on
Ġpha is
Ġchuk e
s im
t v
in ch
Ġm ahindra
Ġd han
Ġd ig
Ġd r
av aal
Ġver iyant
Ġyu va
sk reen
k uchh
ha ch
Ġd havan
Ġkh aana
Ġcha hal
ul ar
Ġeks apee
jab aki
Ġpain al
k aee
Ġj aik
oo tar
Ġv it
Ġe j
Ġph it
aav ana
sh ip
Ġva heen
Ġela jee
y aar
Ġs aij
Ġj indagee
Ġn iyam
Ġem atee
Ġkhat m
Ġs aaph
aam ee
aak ee
Ġmil ata
Ġdek hate
oj ana
Ġotoph okas
k al
Ġl i
Ġaa m
aal e
Ġu th
Ġdil ee
Ġim ej
Ġs te
ag red
Ġbr aand
Ġtaiy aaree
Ġspesiphikeshan s
ch om
Ġr aid
ph r
jee e
tav eyar
Ġa il
ai v
Ġlet est
Ġsur aksha
r eshan
Ġp oo
Ġ7 20
aash t
Ġlai v
v d
Ġs aaj
12 80
q u
Ġm aana
Ġra j
lee k
Ġdesh on
Ġphaayad a
Ġa sar
jee peees
Ġpa hach
Ġchal a
Ġga la
Ġbil kul
Ġpram ukh
Ġka un
Ġsak ega
Ġsee t
Ġrak h
Ġcha m
Ġtaree ke
e bal
Ġap agred
Ġma hat
Ġ201 8
Ġ25 6
4 99
a phon
b aar
ch it
Ġin teks
Ġ2 000
Ġsh op
sh it
Ġrang on
Ġkil omeetar
Ġiv ent
Ġlaksh y
Ġka dam
Ġep pal
pad he
Ġtr aik
ak am
Ġka b
ph taveyar
Ġta y
Ġy ojana
araph ul
b ata
Ġb as
Ġe see
Ġkh elee
uk t
Ġsth aan
Ġvi bh
Ġvaap asee
aiga ship
ak l
ir aat
âĢ Ķ
Ġred iyo
v as
ara v
Ġkampan iyaan
on ik
Ġek va
Ġtak kar
Ġphl aigaship
kh ya
Ġbar aab
Ġh el
Ġaa kh
dh aar
Ġraha te
Ġlen a
Ġgala xy
Ġmahat v
ik aar
Ġin tar
Ġ10 80
Ġhis aab
Ġple taph
vish aakhaapattanam
p at
r ail
ar ad
Ġn aye
Ġte lee
a ch
k at
oo ph
Ġchh oot
Ġoph is
b l
o es
Ġp air
im ee
aaj a
Ġop po
Ġsha har
aksh it
Ġum r
Ġnav ambar
n ing
Ġaa te
or ai
yoo m
Ġo pan
Ġpr aim
Ġsek end
a panee
Ġp or
Ġt heen
Ġem a
ul aee
av aree
Ġlen ovo
Ġee mel
Ġm atalab
Ġka var
aab h
Ġnik aal
Ġl o
ap hee
Ġdek hen
Ġ25 1
an g
Ġd er
Ġl aane
Ġph okas
Ġus amen
Ġkaha te
Ġsan khya
Ġpaar iyon
Ġjimm edaaree
Ġp aid
Ġd as
Ġj ed
Ġu tar
Ġpr ash
Ġlaga tee
Ġkhul aasa
b il
Ġb aind
Ġvah aan
arad ast
tee v
Ġmaat ra
Ġpahach aan
k on
av as
Ġdis ambar
em apee
Ġde gee
Ġgr up
a cha
p en
s un
ga ur
Ġse v
ap las
r d
Ġin tel
Ġhon gee
Ġsk ootar
Ġden a
Ġno tai
Ġso phtaveyar
Ġkhoo b
Ġsin gal
gh z
Ġbaraab ar
Ġd im
Ġkar vd
Ġaa pane
Ġrak hate
Ġmuk hy
Ġsil var
es ee
es hak
Ġph aast
aksh in
Ġset ing
Ġb it
Ġpa han
th it
Ġan d
Ġsa und
Ġkhar aab
Ġmain ne
Ġaad at
Ġlet e
Ġgal at
s ak
v aan
ik ee
ap ar
ip s
Ġkhar ch
Ġme re
Ġja isa
aav araphul
Ġrah en
Ġchip aset
l ai
Ġb oks
dh e
Ġraha tee
Ġkl aas
Ġdost on
Ġmajab oot
Ġh d
aava j
eshan al
Ġbe cha
Ġro yal
Ġvid iyo
Ġgendab aaj
orol a
Ġp an
Ġo l
em es
Ġsamaj h
aat r
tee n
Ġbad hane
Ġmaikro sopht
bal e
b d
ta il
Ġt haranga
hal ain
Ġrak hana
Ġsur akshit
kaim ara
i a
Ġs avaal
Ġp aaya
ph te
aat mak
Ġecha teesee
Ġg un
Ġ201 5
Ġbr ek
Ġpur aane
Ġotom aitik
Ġm aas
ya yan
Ġa ham
Ġkv od
Ġut ha
Ġamer ika
7 20
e ph
j aan
Ġp op
Ġt ur
Ġta m
Ġpa enge
Ġham ane
oj it
Ġghan ta
aavaj ood
l o
Ġg o
ma ch
Ġap rail
Ġd aayar
Ġg ujar
et s
Ġlok apr
t aak
ha tar
hal a
aas onik
el oo
aasht reey
5 5
Ġm aadh
Ġj udee
Ġj ulaee
aar m
Ġr om
yoo jar
Ġma has
Ġmahas oos
d il
ta b
Ġme tal
Ġin hen
Ġkaar yak
Ġilekt ron
7 0
aav e
Ġya hee
Ġsp ort
Ġtv itar
c han
f i
y u
Ġha phte
Ġb aavajood
Ġd ok
Ġbh u
ir ikt
Ġred amee
Ġs aaree
Ġp i
an es
Ġus ase
Ġmaar ch
epha see
ar eshan
Ġj eda
Ġko d
jar ee
Ġvair iyant
yooj ik
Ġbhaasha on
p aad
aad a
Ġjaan ate
Ġsa ph
Ġkapt aanee
Ġgiyar aboks
aphee ld
Ġmaadh yam
Ġs ain
Ġr ish
Ġ6 0
Ġmain ual
abl yoo
Ġspee kar
Ġ "
Ġp han
Ġd aaya
Ġka pad
Ġv ichaar
Ġt an
aay ee
om i
Ġeks akl
dar asal
Ġkhil aadiyon
s hee
Ġn oo
ek sa
Ġpad ata
Ġsha bd
oos iv
Ġjud e
Ġ :
Ġp aane
Ġr e
ant r
ia omi
k habar
m i
in n
Ġv ya
Ġkh ush
av ar
Ġhamaar ee
Ġjen aphon
echa jed
Ġaav aaj
3 00
a ur
r aam
r eno
Ġr il
aan t
Ġmil enge
Ġeph em
be hatar
Ġchho te
aa hee
Ġj ad
av ard
Ġut aar
Ġth oda
Ġvaahan on
Ġmu pht
Ġat irikt
Ġpak ad
Ġsik yor
Ġs on
Ġkam aand
Ġjal dee
Ġbra ujar
Ġpars ent
Ġv ij
Ġh aan
Ġp aik
ya hee
Ġr es
Ġjab aradast
Ġbr aind
Ġjen aret
Ġa d
am ishan
char s
Ġlaga e
bas oor
Ġlok eshan
aan on
Ġpr av
Ġmil atee
Ġan g
Ġop halain
Ġballeb aajee
leek eshan
Ġeksakl oosiv
Ġm aee
Ġa ind
Ġaa g
yoo b
Ġlag ane
Ġprad aan
) ,
l aga
am aan
iya omee
aam a
iv ars
Ġpro j
Ġen apheeld
Ġkul adeep
Ġyoonit s
Ġanal imited
Ġp e
ta s
Ġv iraat
Ġmil akar
Ġtee sara
Ġstor s
anee ti
Ġen em
3 7
d ai
aa pan
Ġn ee
Ġn ish
Ġ2 9
Ġdivais ej
Ġsan k
19 20
taak or
u g
Ġph or
aik t
Ġma han
Ġbai th
Ġmaik s
Ġchal ega
Ġpad he
Ġmotarasaik al
Ġche hare
Ġtaaree ph
sun g
d ek
Ġ itana
en shan
es hata
Ġpr akaar
Ġsa uth
um bee
Ġmain ej
ist reshan
Ġnot iphikeshan
Ġphar avaree
Ġvaayar al
Ġkshet r
Ġshop ing
in dee
Ġl ink
Ġkar iyar
em ent
Ġdoosar on
Ġcheen ee
Ġinst ol
Ġkhatar a
gaur atalab
o ch
p ur
aa phon
Ġm aah
Ġj h
Ġin s
Ġut paad
eno vo
teev itee
e ta
Ġp ej
Ġm yoojik
Ġa id
el ateeee
Ġdis aple
Ġtai b
mee tar
gr aam
Ġrav ivaar
Ġeksapee riya
1 8
y og
ata im
Ġgl o
Ġchho ta
Ġparaph orm
4 9
s el
Ġp aavaraphul
en gee
Ġta cha
aay aam
r ag
Ġ ent
ek teevitee
Ġ6 5
Ġhaar d
Ġcheej on
Ġsl ot
Ġk ail
Ġp ais
Ġd aam
Ġg hat
hen ge
Ġkhoo basoor
Ġparesh aan
m an
r ilaayans
en gal
ch e
Ġn eks
har a
Ġga ur
ej a
Ġdij aayar
Ġ oor
Ġ ij
Ġr aat
ĠĠ ĠĠ
sp eed
Ġkastam ars
Ġp al
Ġb aata
Ġki r
aam in
Ġyoo t
Ġsee k
Ġep leekeshan
od aaphon
Ġskain ar
ikaar ik
aar es
Ġv aid
Ġ1 50
ree t
aaya k
Ġchaa hatee
k ing
Ġp en
Ġj or
Ġ3 1
kh aas
Ġmahila on
u b
v aab
ak on
Ġr og
Ġv isha
ph ir
ata ur
Ġpr aapt
Ġban aate
Ġadh yayan
Ġen ephasee
Ġbee es
Ġtraans ap
Ġkvod akor
Ġtur ant
Ġs aat
Ġe van
aav at
vee n
Ġel idee
mot o
Ġsaph ed
Ġh eda
Ġaa k
un hen
Ġbh aag
kee mat
mo bail
Ġsaphal ata
dil lee
Ġs tee
Ġs hak
Ġp ement
Ġm ail
Ġd ard
Ġkee bord
as ar
ab aig
Ġjaan ch
Ġkr am
Ġsambandh it
Ġkro m
Ġcham mach
Ġp aise
Ġek tiv
Ġ12 80
Ġvee o
abh ok
Ġshik har
d o
k ap
aa hat
Ġph orm
Ġja vaab
Ġo streliya
Ġy aanee
pht aar
Ġgend on
Ġlokapr iy
3 2
ai ch
Ġl aabh
Ġse van
har m
Ġkh aan
Ġmaheen on
Ġgar m
apoor n
h o
in ee
pan d
dh i
Ġus ee
Ġtaree ka
Ġb ijan
Ġin ta
ro d
ro hit
ay aan
Ġ3 00
Ġmaan ana
Ġphot ograaphee
na e
Ġaay ojit
Ġmee tar
Ġdig ree
Ġheda phon
n ee
s ab
Ġp yaar
Ġa us
Ġa tha
Ġpar eek
Ġ5 12
end royad
av a
Ġbaat en
Ġaadh ikaarik
Ġgan v
Ġtok ataim
Ġatha va
l enovo
u ta
pan a
et ed
Ġsh oroom
Ġban ee
vee t
Ġsa ch
Ġpee es
Ġsnaipad eel
chee t
Ġveeo elateeee
e ree
g har
Ġb o
Ġa y
Ġme ree
Ġl aag
as th
Ġban aakar
Ġchho tee
Ġsaamaan y
Ġant im
Ġent ree
ha ind
Ġhai d
Ġr im
Ġko mp
iyon ee
Ġcha inal
Ġni jee
Ġprash n
Ġoor ja
pand ya
b iya
m aan
Ġpa e
er aatee
Ġsp in
gr aaphiks
Ġi phonai
Ġlik ha
Ġdikh aaya
Ġtacha skreen
Ġay yar
ha in
Ġm id
Ġb el
Ġko m
Ġcha uk
Ġve b
re jee
tai x
Ġok taakor
Ġshuru aatee
aaran tee
p aid
p air
un ake
Ġ4 00
Ġku m
re yas
Ġjin amen
maikro maiks
Ġsambh aavana
aa ha
Ġha d
Ġra phtaar
Ġrah ega
Ġpaas avard
Ġeyar abaig
Ġmahatv apoorn
t ik
Ġ q
aa ga
Ġse ph
Ġ2 7
ent s
Ġyoo ro
Ġaar aam
yo ta
Ġbaata cheet
t ing
t ra
Ġs maarta
cha i
Ġbh ojan
er e
Ġun ase
Ġen tee
Ġup abhok
Ġpahunch e
Ġlam be
Ġril eej
Ġv ot
Ġban aee
Ġvish vaas
Ġspes hal
Ġjeepee aares
Ġtasvee ren
8 00
d heere
Ġm ish
Ġl iye
ik an
aap a
Ġem aee
Ġden ge
Ġjin hen
Ġkum bale
b in
in jan
aar on
Ġch hah
em aee
ich ro
Ġmaan en
Ġkor iya
Ġphais ala
Ġho kar
Ġ5 000
Ġmil e
Ġvish eshata
Ġkor ning
Ġghar eloo
Ġraj istreshan
Ġlaag oo
Ġb ayaan
Ġpar is
ap aid
Ġsth it
Ġcheej en
sap p
5 4
Ġp hal
Ġn iyant
see see
Ġparesh aanee
Ġglo bal
k yon
m it
v aise
Ġk aan
Ġl aid
Ġse hat
Ġh indee
Ġpar ivaar
Ġbhee tar
Ġra hana
Ġjo dee
Ġphr em
ham ane
Ġhaath on
Ġgendab aajee
Ġkhus hee
b ai
l aind
m m
Ġk aale
ak al
sh oroom
ip ee
chh o
Ġus ane
hat sapp
Ġso cha
br id
ichaar j
Ġtan aav
9 00
e tar
n okiya
t ch
Ġk heen
ha maar
ar ch
Ġbaat on
Ġkv ik
Ġdoo ree
Ġsnaipad rag
Ġkon t
Ġtraans amishan
Ġaa ait
il ee
ol ooshan
Ġgaee n
Ġaaee oes
Ġsha im
Ġmin ee
echa pee
pa hale
Ġkain avas
Ġchuna utee
Ġsikyor itee
Ġs eed
Ġv iv
ad a
ay aas
av eyar
est or
ash ip
vish y
Ġpoo ch
aa gar
aar k
Ġaa kaar
Ġpr as
end raayad
Ġdij aayan
Ġvaap as
h aas
v in
Ġsen tar
Ġvish v
Ġkvaad akor
hah oor
Ġaus at
k isee
aa bee
Ġm ir
Ġm imee
Ġl aal
Ġr ichaarj
Ġkar anee
Ġbad hatee
Ġku maar
Ġprabhaav it
s il
s har
Ġs hee
Ġkaar ban
Ġlaga en
Ġaas us
Ġsas te
Ġstaind ard
Ġsnaipadrag an
j aise
k shan
Ġk la
Ġm aal
Ġph yool
Ġch hak
Ġsh oot
Ġdis k
ti ph
Ġdik kat
Ġmodal s
Ġvan aplas
Ġhamaar a
2 00
4 5
r iyar
Ġm ool
Ġn am
Ġko ch
ab uk
Ġta iks
Ġy o
Ġphot oj
Ġphilm on
haind aset
Ġp aate
Ġha n
Ġm en
Ġr et
Ġko st
Ġin amen
Ġjee echajed
av ai
aab aad
us ane
Ġbijan es
i ree
o sa
el ajee
Ġsk ool
Ġjaan akaar
Ġlag ega
Ġsha uk
Ġdaal en
ko halee
Ġprak riya
Ġvy aayaam
Ġniyam it
6 00
Ġhai brid
Ġa qu
ch enj
Ġv ig
Ġaa th
Ġran aneeti
Ġjyaad aatar
Ġmauk e
Ġvaayar as
p et
in ta
Ġb aakee
Ġkar aane
am e
Ġph oks
Ġbh aaree
el e
Ġmas hahoor
Ġphes ing
a chaar
d hata
Ġs ant
Ġl tai
Ġga m
Ġ4 9
ol ed
Ġpr es
ash yak
10 80
int eks
esha g
kaim are
Ġsoo chana
Ġmot orola
7 7
t ek
v i
v aad
Ġr ij
Ġv odaaphon
ab eree
Ġkam aj
Ġal tra
Ġtar bo
Ġlaga te
kar eeb
Ġlee k
Ġgh z
een d
Ġbha vishy
Ġaakh ir
v haatsep
Ġ ana
Ġ ard
is tar
as it
Ġpar era
us ake
Ġbadh o
Ġdek hakar
Ġsel s
Ġbaj e
Ġsun dar
me gaapiksal
Ġit anee
Ġpletaph orm
6 2
p oor
Ġka ta
Ġaa i
end ar
Ġy aat
Ġva hee
tan ar
Ġbadho taree
o jee
s an
t aan
Ġm on
Ġaa kar
Ġg aij
Ġpr aiv
Ġkaar y
Ġmil iyan
Ġep ha
Ġrak hata
Ġpahun cha
Ġth odee
Ġkain sar
Ġbaal on
b uk
e ch
t aata
Ġs id
Ġka isha
Ġv el
am a
Ġdek hana
Ġkap il
Ġsal aah
dek hen
c hal
d iv
j en
oo j
Ġek ses
th y
Ġsk oda
Ġkaaran aama
Ġkhil aadee
asee dee
ee em
ph es
ro id
aap ha
Ġ3 3
Ġsam bhav
Ġmil ate
sar ee
Ġrak hakar
Ġkhel ana
Ġmail ej
2 9
d uniya
Ġp ich
Ġm ar
on s
Ġj hata
or dar
Ġpro graam
aata k
Ġdiv aalee
Ġmaan g
Ġhis se
Ġvibh inn
Ġklaas ik
Ġard has
6 5
Ġm aap
Ġm aalee
Ġhai k
aar d
aim ps
un dee
ain t
pha il
Ġdik hane
Ġjin akee
Ġvhee l
Ġphit anes
Ġkaisha baik
b aad
j e
m ahindra
Ġp ush
Ġsee ee
Ġvee ikal
Ġro shan
Ġed reno
ram an
Ġprodakt s
Ġaank hon
Ġsaaj h
Ġinta jaar
f onai
j yoom
y olooshan
Ġha va
Ġka dee
aal ay
Ġin akee
Ġkh aate
ain o
Ġbad hakar
Ġvik asit
Ġsan s
Ġsu bah
Ġpoor v
Ġbhar osa
Ġtasvee r
---- ----
Ġpais enjar
d is
Ġv in
es ajee
Ġban ane
rai ad
Ġvarsh on
Ġshik aar
Ġkaip char
Ġkaaryak ram
kyon ki
j ie
p ro
Ġn yooj
Ġna u
Ġvar ld
Ġpha in
vo ch
Ġvit aamin
d ual
h aan
Ġp eed
Ġm oo
Ġm umbee
Ġpr ayaas
el a
Ġel aseedee
Ġsu dhaar
Ġeksa chenj
Ġkit anee
Ġrikord ing
y aanee
ee m
Ġb ain
Ġd hon
Ġme ra
aav adh
Ġ8 00
Ġkhel a
Ġnirm aan
Ġmaisej ing
Ġdim aag
i z
t haranga
Ġm orai
Ġr aas
Ġt veet
th aas
Ġjis apar
Ġind ast
Ġte balet
yoovee jeee
Ġbol e
Ġgal atee
Ġyaad av
Ġbeemaar ee
Ġraid mi
Ġshaim pen
o y
Ġd es
en ament
Ġu l
ap aas
Ġbh ool
aak a
Ġban aana
Ġnir aash
Ġpur aanee
Ġtum h
Ġtum hen
maikro sopht
Ġdilee t
laga bhag
Ġparis thit
Ġsaajh edaaree
2 1
r sh
an al
Ġd heere
Ġl aava
Ġv aarantee
Ġaa id
Ġkh oj
kam p
Ġ7 0
ivars itee
Ġganv aane
k ro
ik char
Ġan ok
Ġupalab dhata
uj av
Ġpaar tanar
Ġak sar
esha bhar
Ġvisha y
s ad
Ġs ai
Ġv ip
ais ee
Ġ4 4
ok i
Ġtr en
Ġsin h
Ġkarav a
b aara
k abhee
Ġm un
Ġek ad
bee es
Ġ3 60
cha baik
Ġsam aan
Ġrahe gee
Ġdh er
Ġvee l
Ġes emes
Ġkant ent
Ġris arch
Ġtraansap har
t ikal
Ġb ur
Ġme t
ata m
ag aar
Ġy ujav
Ġrej yolooshan
doo sare
Ġkhoobasoor at
Ġyujav endr
s on
et ik
Ġsh aadee
ed it
Ġpl estor
Ġvik aas
Ġen esajee
Ġz ain
Ġpop ular
aan v
am er
ro port
Ġkv ol
Ġmad h
Ġaas apaas
Ġtek st
Ġjud a
Ġsho dh
Ġjeetee es
Ġpaid a
n al
Ġha t
Ġhee ro
aaya t
op po
Ġup ay
Ġkah aan
Ġbhu gat
y aapan
Ġk itana
ha id
Ġd ham
Ġd akshin
ta ee
Ġl on
Ġn eend
Ġaa ipee
Ġsak en
maar uti
Ġkaim ar
ish iyal
Ġpha i
Ġup akar
Ġophar s
Ġ25 00
Ġdar j
Ġli h
Ġgendabaaj on
m ujhe
Ġm it
Ġr as
Ġg uru
aap aan
un iy
Ġbad hat
ed aar
Ġdee lar
em and
Ġsee see
Ġsee dhe
Ġphr end
Ġbana en
pair i
m aana
in taran
Ġb aay
Ġd it
Ġpro phail
Ġdoo dh
kee n
Ġsad as
Ġkla ud
Ġseeee o
Ġhai chabaik
hee l
Ġn id
Ġg aane
Ġta l
ing ing
aga le
20 17
Ġut tar
aree j
Ġx iaomi
Ġpata la
Ġaav ashyak
avai gan
Ġp ol
Ġd on
aar th
har ee
aim p
em a
Ġgr aaphiks
akar aar
Ġmaark it
Ġbar akaraar
Ġbach aane
Ġlih aaj
v ig
Ġha ra
Ġd ot
Ġaa egee
Ġ1 000
Ġrak hatee
par k
bhee r
Ġprod akshan
iti haas
Ġkai ch
s abhee
is aan
Ġa sh
Ġv ist
Ġt han
Ġaa t
yoo t
Ġ3 5
ant ree
em eech
Ġlonch ing
Ġjar iye
Ġnir bhar
Ġgh oom
Ġmais enjar
Ġkr edit
Ġsv aas
Ġsas tee
main ne
Ġnoo biya
Ġkamaj or
k ol
Ġr aah
han ee
Ġo on
ej al
Ġem oled
Ġab hy
Ġdo baara
Ġkaha tee
hon da
Ġsan desh
Ġchar cha
Ġdok tar
v ik
Ġp os
Ġj iyaomee
Ġl av
Ġe sh
as ap
Ġ4 5
Ġan il
Ġya keen
gal a
d ha
h u
s pee
s onee
t aah
î ģ
Ġd eshabhar
ak s
it en
Ġch inta
Ġjee ta
Ġ6 7
Ġsee kh
Ġrak t
Ġkan jyoom
kh ud
ist aan
Ġhaindaset s
re gan
oom iya
Ġjhata ka
Ġbhugat aan
Ġupakar an
Ġabhy aas
îģ į
1 3
Ġs vee
Ġn iv
as ik
ab aik
Ġban aatee
Ġpad ega
Ġchaa hata
Ġ9 5
Ġphilm en
Ġshahar on
Ġjad eja
Ġij aapha
Ġseed ha
9 5
e leedee
l aee
r it
ar al
Ġj iyonee
Ġr od
Ġv aas
es hee
Ġjee es
Ġbh oom
ind a
Ġkha en
aag raam
Ġanal ok
Ġchauk e
j in
l onch
Ġph in
chch ha
Ġcha yan
Ġle val
Ġvhee kal
Ġgam bheer
d iyon
e pal
ha iya
Ġm ak
Ġb yoo
Ġa im
Ġr oo
Ġr ek
Ġaa ai
ap ut
up ha
Ġsab j
Ġst reem
od hakar
Ġdik ha
Ġap p
Ġbhar apoor
Ġsv asth
Ġshree l
Ġaaaip shan
sab ase
Ġnam ak
4 00
Ġd uk
un ik
aavar an
um ar
Ġsan gee
Ġle ta
Ġbaj aay
Ġjin ake
t um
Ġ 99
Ġp aisa
an tar
Ġa pal
Ġse tap
Ġph u
it v
end aset
Ġma ja
av aans
om avaar
Ġut s
Ġ9 0
Ġteen on
Ġim ojee
Ġhaal aanki
Ġw hatsapp
ba chch
Ġstaar t
Ġroshan ee
d in
w w
Ġ itihaas
Ġb ud
tee m
Ġsam sung
Ġsa ha
Ġgem s
Ġlam bee
Ġar ab
Ġmu haiya
Ġbes d
Ġsambh aal
Ġaaipee es
b at
Ġu chch
Ġin tee
Ġsam b
Ġhon ar
Ġun amen
tam ent
Ġlet ee
gl ai
Ġdrai var
Ġtaak at
Ġbaith e
Ġdes k
Ġbhoom ika
b aat
b ot
j is
î Ģ
Ġs ara
Ġch ek
tee jee
Ġsap taah
ash t
Ġpaar tee
Ġabh in
Ġkapad e
îĢ ¼
4 80
n o
s itee
y ek
à ¥
Ġs aavadh
Ġm p
Ġj oom
Ġv yoo
Ġin aput
aaya m
Ġsee mit
Ġind iyan
Ġballebaaj on
epha tee
Ġit ane
Ġyoot yoob
umar aah
Ġapal od
g yaan
Ġk in
ar aashtreey
Ġe g
ing laind
Ġpr ais
Ġpee dee
Ġvaee phaee
phee chars
Ġyoon ivarsitee
Ġpo var
Ġvig yaapan
en el
Ġv aatar
am par
Ġmo bil
Ġ8 5
Ġ8 20
Ġmil aakar
aab har
Ġbal le
Ġadhik aaree
ist ent
Ġsaam ana
Ġdaal a
Ġaan and
Ġw i
Ġphaayad emand
Ġsal aamee
Ġgujar aatee
Ġilektron ik
Ġphan kshan
Ġyo ga
Ġkata utee
Ġsvaas thy
p ed
Ġk aab
Ġs una
Ġha ta
Ġb i
Ġb et
Ġem b
os port
sha omee
riya l
Ġ21 5
Ġkont ekt
Ġardhas hatak
Ġindast ree
uniy aabhar
aa gat
Ġb umaraah
Ġj ade
Ġv ail
Ġt ik
aas us
aik s
aaya tee
Ġsh reyas
te bal
Ġpr er
Ġsam park
Ġpro k
aaree rik
Ġpad aarth
Ġchaa he
Ġbee echapee
Ġvo ch
Ġel atee
Ġlad ak
kap taan
Ġpareek sha
4 4
l aava
u ch
Ã Ĺ
Ġb ord
Ġb olee
Ġn on
Ġn aino
Ġr iyal
Ġt hak
am ain
ph l
Ġ4 2
Ġ3 7
cha ee
Ġpa ud
Ġma x
Ġtee ephatee
Ġbe ch
Ġvish eshag
kee y
Ġf l
Ġkhabar en
Ġsm ith
Ġparaphorm ens
Ġseph tee
asap reet
Ġvaas tav
l us
z al
Ġs ig
Ġp ul
Ġme d
Ġpar y
dee da
Ġy og
Ġda ud
Ġadhik atar
Ġsnaipad regan
Ġx pairi
Ġphaayad e
Ġsaaj ha
i onai
l og
r aaj
Ġk lee
Ġp aak
Ġb ail
al ait
as on
ab aar
Ġjee mel
Ġjo da
og e
Ġan k
Ġend ar
Ġnir n
phot enament
pa hala
Ġshik aayat
Ġpe par
div ais
g en
s al
Ġs aid
Ġp ed
Ġa j
Ġj it
Ġt ool
Ġta tv
sh ik
Ġjo de
Ġma ch
Ġdek ar
Ġchaa hen
Ġkalar s
Ġjeet ane
Ġovar on
abl yooveejeee
rip shan
Ġilektron iks
Ġang rejee
Ġkomp aikt
Ġdhon ee
l es
Ġ âĢ
Ġm ana
Ġb old
Ġd ur
Ġj itana
Ġl oomiya
oo glai
Ġv il
al on
Ġphee sad
oon ga
Ġdh o
ma x
Ġlik vid
rip ort
ionai ai
d akshin
ak ta
Ġr am
Ġr eting
al ipht
Ġt aar
Ġt im
Ġe lee
ab ar
Ġst ok
hata keey
Ġkr oo
Ġpasan deeda
Ġvid esh
Ġintar aph
Ġvaayaral es
Ġyooro p
Ġphin ish
Ġd ava
Ġl akshan
Ġh endaset
il itee
dh yaan
Ġ4 80
Ġsaal on
Ġbloot uth
Ġghan ton
Ġth is
Ġje b
Ġdab aav
Ġsport s
Ġendar asan
b aal
l s
r et
v ud
Ġk endr
Ġs iy
in s
Ġm anee
Ġsee jan
Ġba chane
Ġlaga ee
Ġcha k
Ġop tikal
Ġbadal ane
Ġblaik aberee
cheen ee
Ġhal ka
Ġbeemaar iyon
aaee phon
yoojar s
Ġshee rsh
7 5
g o
m aas
t s
ee ph
oo ve
Ġv rd
Ġh yoon
Ġaa shan
Ġus en
Ġjaan ie
ij alee
Ġim ph
Ġjen areshan
Ġsamaj ha
Ġguru vaar
3 1
h ot
ha dee
Ġm areej
ya ta
Ġd ast
ad ablyoo
Ġaa u
Ġg ol
ro m
ir ai
Ġ8 35
Ġsee n
Ġden sitee
Ġpad hane
Ġkan ekshan
akaar d
Ġvai gyaan
rd ay
Ġmish el
Ġvist aar
Ġdesk atop
oove bal
x ail
Ġl g
Ġr eno
aan ak
Ġpro ses
Ġde val
Ġpad a
kar an
Ġchaar jar
kan ekteevitee
Ġpur ush
Ġaashan ka
b ad
o bail
p ain
r esh
v aee
Ġs omavaar
Ġb est
ak aata
Ġka d
aas an
Ġsh ot
Ġy ukt
Ġ6 00
aij eshan
chaar j
Ġpain aasonik
sam ay
Ġproj ekt
Ġsangee t
Ġthis aara
g ai
ar sh
in ake
Ġp aee
Ġm aay
Ġn ai
Ġh tch
Ġph ood
Ġaa ikan
Ġto d
Ġpr ab
ul at
see e
pee el
Ġbaj aaj
Ġyu aan
Ġsupar abaik
Ġaakh iree
Ġjaanakaar iyaan
Ġyaat ra
Ġekad am
4 1
d en
f t
s n
Ġs ail
Ġd itel
Ġaa haar
Ġg ro
Ġne vig
te j
Ġpr a
Ġyoo z
Ġc han
sa uth
Ġnir aasha
Ġvo is
me in
Ġjan areshan
jeen iyar
Ġchun aav
Ġmahila en
Ġkarav aaya
Ġhyoon dai
h aav
j isake
l ain
Ġp aal
ai i
aan g
Ġkh o
Ġjee p
Ġsh aareerik
esh var
Ġsab sak
Ġsa pana
Ġdaur e
sep t
jah aan
Ġvairient s
echa teesee
Ġkit aab
Ġtelee kom
bai taree
Ġdit ekshan
2 8
g aileksee
in st
Ġt on
as a
Ġbh oo
av e
ars hak
eyar atel
Ġmaan asik
Ġjin honne
Ġman gal
Ġvai b
Ġtest ing
Ġplaan t
Ġkhabar on
Ġ19 20
Ġmas heen
Ġaank ade
Ġdilee varee
Ġtam aam
Ġspin ar
ichro max
Ġparisthit iyon
Ġkvol akom
3 9
Ġd hee
Ġme l
Ġka hee
al aimps
at i
Ġkar e
as en
Ġin taix
Ġch aal
Ġsh u
Ġ3 10
Ġst eshan
itee j
est iv
Ġen gal
Ġgl on
Ġlok al
Ġbada ulat
Ġjan aret
Ġantar araashtreey
Ġkit ane
Ġgir aavat
Ġkyoo echadee
Ġvibh aag
Ġpletaph aarm
Ġre g
engal uru
Ġpaud ar
d han
d ij
Ġk uk
Ġp ent
Ġm agar
Ġb ijalee
Ġv aise
Ġta ig
aap amaan
Ġbh aav
Ġkeemat on
Ġdis ha
tam aan
aip lus
Ġkan ekteevitee
ist ree
Ġvee aar
Ġtv in
Ġinst aagraam
Ġnyoo tan
Ġvy aap
Ġapagred ed
akam al
Ġshabd on
Ġghat ana
Ġkram ash
spee kars
u on
Ġk iye
Ġs ted
in aam
Ġm ud
an j
Ġb ag
Ġme han
Ġn ait
ga j
Ġaa enge
iy ok
aaya ta
Ġban aata
Ġsk een
Ġrak ta
Ġbl ad
ind ar
to yota
Ġeks at
Ġbee ta
Ġsah it
Ġbach en
Ġbhej ane
Ġjaen gee
chho te
Ġzain fonai
Ġpaak istaan
6 8
i tai
Ġs aans
Ġm us
is ako
tar s
Ġsh uk
Ġ4 8
Ġ3 4
Ġ8 4
hak habar
taran aak
Ġup achaar
Ġil aaj
Ġed avaans
gr aahak
Ġsv aip
has aas
sp ot
ko ee
Ġdraiv ing
buk ing
Ġnevig eshan
Ġsted iyam
s u
v ijan
Ġs aik
Ġs oor
Ġl aind
aan k
Ġg ipht
Ġta bhee
Ġin jeeniyar
dh on
Ġem ai
em s
Ġal art
Ġep had
Ġmai th
um aan
Ġkha taranaak
Ġvee vo
Ġgh aatak
Ġvid eshee
aadh aaran
Ġjor adaar
Ġniyant rit
Ġsant ul
Ġniv esh
5 3
i dh
k aise
m b
s ej
y aal
in gat
Ġr uk
or n
Ġkam aal
Ġ6 50
us e
ud a
Ġchal aane
Ġpad h
Ġdh oon
Ġkol s
gar ee
gr eted
Ġpet eeem
Ġmotarasaik il
Ġuth aaya
Ġproj ektar
Ġmool y
Ġnid eshak
Ġash vin
Ġsvee kaar
Ġsamb and
d on
in akee
Ġm ait
Ġa ta
aar t
Ġl akamal
Ġg us
Ġch ha
un e
Ġsh ren
Ġdee zal
Ġhu aave
bh aav
Ġpl ay
rai aid
Ġkha de
ja ya
vah aar
Ġaaid iya
odhakar taon
Ġintaraph es
Ġmehan at
* *
8 8
g aahartj
o streliya
r ti
Ġ aara
ha vaar
Ġb ul
Ġd uniyaabhar
ta ir
Ġa ik
ch ual
Ġn isaan
oo tee
Ġpro ph
Ġsee ma
Ġsk eem
Ġaaee dee
Ġmain y
Ġee n
Ġkap oor
Ġi chchha
Ġsah aayata
ram a
Ġav adh
Ġaay ojan
Ġpars anal
Ġamer ikee
Ġeksap o
bl aik
Ġmaas eraatee
Ġdaayar ektar
hamaar e
Ġpraiv et
hakhabar ee
raiaid om
aa z
in hen
Ġj aapaan
Ġn ar
Ġr aash
st or
Ġkv och
Ġdek hee
Ġvar ana
20 16
Ġchh aatr
Ġaank ada
Ġpi xail
Ġsank raman
Ġeyarabaig s
Ġshauk een
Ġveel j
maas eraatee
Ġvrd dhi
Ġsamband hee
Ġkvoch roport
b aee
p ons
in iyam
Ġp and
Ġa ir
Ġn oki
Ġr el
Ġe beees
aat hee
Ġis h
Ġg ps
ek har
Ġu taree
Ġbad hate
Ġpr em
el o
ish k
Ġaaee paid
Ġchal aaya
Ġgr il
Ġcha mak
Ġprat yek
Ġ201 4
Ġteem on
Ġmodal on
Ġup aay
vah aan
Ġav as
Ġphes alipht
Ġtasvee ron
Ġyuva on
Ġseting s
Ġneks as
Ġupabhok taon
Ġphoks avaigan
Ġpeedee eeph
m anee
Ġhai kars
Ġaa yar
aat ron
Ġsh aayad
atee k
Ġus b
Ġbl ok
Ġav asar
Ġsun ane
Ġsuj haav
Ġnoo ga
sel phee
poor n
iyok on
4 90
k l
Ġ ip
Ġp er
an y
Ġh rday
ik om
Ġph ord
Ġph olo
Ġaa l
ah aar
Ġ2 50
Ġek t
Ġo teejee
Ġpr ast
pee aee
ham aan
Ġbe chane
Ġsap har
Ġprat ik
Ġed it
ogr aam
Ġskor akaard
Ġbacha t
Ġkool apaid
Ġsmaarta voch
Ġvisheshata on
6 4
r es
r avaar
x iaomi
Ġp ita
Ġr iv
Ġt aapamaan
il ekt
Ġg aad
Ġkh yaal
Ġpr int
Ġkaar o
Ġlag jaree
Ġchaa henge
Ġnir antar
ep pal
Ġai pal
Ġrish te
Ġvya vahaar
Ġupabhok ta
Ġpooch ha
Ġaai phon
Ġrek ord
Ġavadh i
1 99
b ol
o v
p i
s maart
u i
y f
in eej
Ġb oj
Ġhai r
Ġme ga
ch hah
Ġka ish
Ġr inging
ur oo
ro ed
aap ake
aak aar
Ġpad ane
Ġpad atee
Ġbal eno
Ġvo tar
gr es
aadh aan
Ġni bh
Ġhed aset
Ġphais ale
Ġmoo vee
Ġshren ee
k it
l ag
o gee
s m
y aat
y ukt
Ġk air
Ġr ol
as ha
Ġpar da
Ġg ul
Ġg hata
Ġin ake
Ġkh u
Ġo dee
ej ar
Ġy aan
aay e
Ġsk in
ash aala
Ġee yar
Ġgh o
yak sh
Ġstaar tap
sim itee
harm ashaala
kro s
Ġaat m
Ġpul is
Ġgro th
2 6
r aid
u ga
v ed
Ġ iyar
Ġ 999
Ġp y
Ġp abl
Ġl egee
Ġka t
aan adaar
ur a
Ġkar aar
aat han
ro meetar
ara phon
Ġsh or
Ġ5 7
Ġbai tar
Ġdo hare
Ġbat aate
Ġshuroo aat
aah ir
Ġgeeg aahar
Ġdaal ana
Ġsamasya on
Ġkon sept
Ġla ut
Ġgan va
Ġdab al
Ġprak aash
Ġkool d
Ġsaat hee
Ġstreem ing
Ġboj h
b iteej
p har
p or
u x
v ind
w aii
Ġ ir
Ġd u
Ġka th
at an
Ġh undee
Ġkar o
ph aayatee
Ġna uk
Ġban aam
Ġbl og
Ġpad haee
Ġen j
Ġgee ga
Ġhal ke
Ġdig gaj
Ġail aan
Ġkir adaar
Ġhan s
Ġbyoo tee
pain aasonik
r iy
s aip
Ġ ,
aa ie
Ġs end
Ġs adee
Ġs tai
Ġm antr
Ġr aip
ga d
Ġph ool
ad on
Ġga ti
Ġpa ga
aaj an
Ġde vid
Ġmaikro yooesabee
rai v
Ġdh oom
Ġpha ishan
Ġkor s
Ġsv aad
Ġjan m
Ġkil ograam
67 37
rt ik
Ġpor tal
Ġhaard aveyar
Ġsid ain
Ġsans th
Ġmangal avaar
6 6
e h
j yaad
p l
s v
y ular
Ġ iph
Ġp aata
Ġp ink
Ġb ig
al et
at ta
ro k
iv ar
iv aree
Ġchal atee
Ġhota spot
van eshvar
Ġbik ane
Ġmadad agaar
baad ha
Ġbud havaar
b on
b aay
m ai
s oshal
Ġp oj
Ġd og
Ġis ako
Ġga d
Ġg ud
ap aan
Ġmo taee
av ela
Ġmai p
Ġ12 5
Ġcha il
Ġ9 3
Ġsu v
Ġbaajaar on
aree ban
ast ishk
Ġsuvidha en
Ġgar mee
Ġkara e
phil m
Ġmilee meetar
sam sung
Ġik aee
Ġkhus hakhabaree
Ġkapad on
shee y
Ġaaait o
Ġmir ch
amer ika
Ġprok simitee
Ġpaga baadha
l ie
t hee
Ġp ok
an k
Ġb oot
Ġv aay
Ġt rai
am an
Ġph ol
Ġph ij
har d
Ġ1 99
Ġin aka
Ġin photenament
te lee
Ġaap ase
em adablyoo
Ġjaan avar
Ġkhaas ataur
Ġsen s
Ġdik avela
Ġhar tj
Ġpahun chane
Ġbach cha
Ġecha pee
Ġ23 00
Ġree yar
Ġabh iyaan
Ġdr es
Ġbhu vaneshvar
Ġprav akta
Ġbel s
iz u
Ġshuk ravaar
Ġpratik riya
i cha
n m
s tee
Ġm t
Ġa gala
Ġj at
Ġj asapreet
Ġj ems
Ġv aat
Ġta ir
aap aanee
Ġkaar aple
Ġsam aadhaan
Ġhon ee
Ġtee bee
em em
ud yog
Ġjis ane
Ġvar chual
Ġdh oop
ash ekhar
Ġhis s
ĠĠ Ġ
Ġbol ing
Ġach aanak
Ġkai te
Ġjod ane
Ġail ug
Ġtelee vijan
Ġchhak ka
Ġupay ogee
Ġelatee i
Ġmaay ane
j iyaomee
an dh
Ġd ol
Ġki phaayatee
un dar
Ġ3 9
sh iyam
ul k
ot o
Ġbaar ish
Ġ7 4
Ġpee ne
akaar aatmak
Ġvebasait s
Ġ14 9
Ġnetavark ing
meed iya
Ġaay an
Ġkosh ika
Ġmajab ootee
Ġuth aane
bil itee
Ġglon aas
h t
p u
p ita
v g
Ġ aana
Ġka lek
ur ee
Ġga tiv
maar k
Ġto yota
Ġbh aavana
iv aan
aak hon
va jan
ind iya
Ġpl ai
Ġpee see
Ġro bot
Ġbata ee
Ġjed ateeee
Ġpi en
Ġrij olyooshan
Ġgaij ets
Ġshreel anka
Ġmaith yooj
Ġaik tiv
Ġpand ya
Ġyaan i
Ġgho shit
f l
j io
p aavar
y un
Ġ ips
Ġm am
Ġm iks
Ġb on
Ġr aay
ph ord
Ġph og
Ġph estiv
jee es
un aka
dh onee
Ġsh ed
Ġkaar tik
Ġyoo aee
Ġst ik
Ġpad e
Ġsa j
aahar an
Ġdik henge
Ġechadee aar
aree ka
Ġmaark eting
Ġprad esh
Ġaaj akal
Ġotom obail
phr ant
Ġvya vas
Ġins aan
Ġrim ot
Ġaaait om
Ġshoot ing
Ġpush ti
Ġmobil ai
resh th
d havan
h d
m era
r al
t iyon
Ġs at
Ġd ha
ing o
Ġbad hata
ag et
Ġpr aar
Ġsam ud
aaj akal
Ġbl u
Ġsp asht
Ġgr aind
Ġdek he
Ġprat id
van aplas
Ġvee jeee
aag o
Ġsv ipht
Ġhaar t
desh y
mot orola
Ġli tai
Ġraj istar
Ġmahan ga
Ġmainej ar
Ġsadas yon
Ġjeees atee
Ġhiss edaaree
a e
k aat
n yoo
Ġk ait
Ġs oot
Ġm y
Ġd aim
Ġr oom
oo lee
Ġh ejal
es la
or an
Ġin aph
Ġ4 30
Ġan umaan
id itee
Ġupalabdh i
Ġun ako
vee e
Ġ7 5
Ġchal ie
ig o
Ġpha ib
Ġadhik aar
re ta
aah it
Ġsarvis ej
Ġchuna ut
Ġstail ish
Ġopan ar
Ġaakar shit
Ġsaavadh aan
Ġklee n
Ġkalek shan
2 4
8 54
g un
k aam
v il
aa ch
aa ge
Ġs aadhaaran
Ġm at
aan cha
Ġt yo
Ġh or
Ġg ionaiai
Ġkam aee
jee van
aap e
aaya l
Ġra ch
ag ree
Ġkaar s
Ġdee p
Ġyoo es
Ġhon or
Ġ12 1
Ġsan yukt
akar taon
Ġkhareed aaree
Ġor dar
Ġdaal akar
Ġbol t
Ġvind o
me ree
Ġchun inda
Ġkah aanee
bah ut
Ġtaaree kh
arav aah
Ġdim aand
Ġvij ay
Ġshak ti
intaran et
Ġjeeta kar
upha ikchar
Ġyoga daan
Ġtim aahee
Ġdeval ap
Ġiph ekt
8 9
v el
w s
Ġs hatakeey
Ġb aan
Ġb rod
Ġd ai
Ġd arshak
ai b
ak h
Ġl aimp
ch aa
Ġse daan
am p
Ġch om
un akee
Ġtak areeban
th iyam
av ish
id ent
see reej
Ġaaee em
Ġcha uth
Ġut ana
Ġchh aatron
Ġnir d
Ġ9 00
Ġphree dam
Ġbhar ee
Ġoph ishiyal
Ġred dee
Ġopar et
po thaas
Ġpain or
me hamaan
Ġgem ing
adh ik
Ġpat r
doo saree
Ġlain s
tab uk
Ġana jaan
Ġpeed it
3 3
7 00
p aas
r is
v ak
v it
v aint
Ġb haee
Ġd aan
Ġd ip
Ġd ukh
Ġl ejar
Ġn ak
Ġh it
ph aay
as el
hal ata
Ġ2 20
dee shan
iks han
gee gaahartj
Ġan ur
av id
Ġal oy
Ġjaan ane
Ġlag aakar
Ġ20 20
asan chaar
Ġbaik aph
ash reshth
ig ar
Ġlee thiyam
phot o
Ġtekn ol
Ġsl im
jal d
Ġsek shan
jed aar
Ġris pons
Ġtraik ar
Ġyoot ilitee
Ġniyant ran
ele romeetar
kamp yootar
Ġanok ha
Ġesh iya
Ġchan vas
Ġnirantar ata
Ġbaikaph ut
i eshan
k op
p iksal
y um
Ġs han
Ġha is
Ġm aata
Ġm astishk
is ak
ik rama
Ġaa ain
Ġho l
Ġin ti
Ġch aay
cha hal
tee vee
Ġjo ki
Ġpro teen
ok ar
Ġ8 8
av ud
haal ee
Ġdet h
aree t
ush ka
Ġpaar king
Ġple yar
Ġsamaj hane
Ġsl o
Ġsheyar ing
Ġar th
Ġbra uj
Ġud deshy
Ġesee e
Ġand aaj
Ġsain s
Ġgaij et
Ġnirn ay
ĠâĢ ľ
Ġsabsak ripshan
Ġeen dhan
Ġekt ivitee
Ġkaite garee
kaat el
Ġhejal avud
b engaluru
t u
Ġk oo
Ġs aad
Ġs aara
Ġp aatee
Ġj i
Ġn aar
Ġv r
Ġt ro
Ġt hard
Ġph le
Ġkam ent
aap akee
Ġkh aalee
Ġ3 50
Ġna j
sh o
eed iyokon
Ġ6 25
Ġrah enge
chch har
he gee
sesar eej
Ġbe p
Ġsap haee
Ġeks eleromeetar
Ġphil tar
Ġtr end
rik a
Ġkhareed ana
Ġkol ej
Ġmaan sap
Ġpaar k
Ġsarv ashreshth
Ġtaibalet s
Ġpo thaas
Ġapadet ed
aast ik
Ġsl aid
Ġphar k
Ġtel ikom
Ġlain ovo
Ġphai balet
Ġaaai par
raaj ashekhar
Ġjit anee
abar g
Ġephad ablyooveejeee
Ġproph eshanal
Ġkaaro baar
Ġkath in
3 6
d or
r j
u tak
z an
Ġ ich
Ġp in
Ġd ood
en e
ch aal
at ram
Ġt ig
Ġe tam
Ġph iks
Ġpar inaam
Ġin av
aav al
Ġmo dee
ed ar
Ġem old
id dh
Ġbe che
est rol
Ġbat aane
Ġee k
Ġadhik atam
Ġhar aane
Ġle p
Ġsah aara
Ġas us
Ġantar gat
Ġriport s
Ġste tas
dhaar it
Ġpor tebal
ang rejee
Ġbecha tee
Ġdaayar ekt
khabar on
Ġson e
Ġvip areet
Ġkaimar on
bachch e
Ġtaar aget
hot sep
Ġmainy uphaikchar
6 50
m as
s aam
v aave
Ġp aksh
Ġp asee
Ġm ars
Ġb hale
Ġd ro
Ġd ais
on alain
ta im
Ġl u
as ad
Ġch o
Ġ6 62
od e
vee lar
Ġmaik abuk
Ġup ul
Ġed am
apr ooph
olyoo m
Ġkamp aas
na ya
Ġdikh ega
kul adeep
Ġdaaya biteej
Ġsank et
Ġbolee vud
Ġvisheshag y
ason ich
shik har
Ġpra udyog
Ġchauth e
Ġbep aravaah
* )
j on
v eediyo
Ġs aar
Ġp leb
Ġr ana
Ġg hadee
iy aago
Ġsh ok
Ġ5 5
sh reyas
Ġma ut
Ġsam arav
av aas
Ġal tr
us akee
od ed
Ġbadh iya
Ġpad egee
Ġsan ar
Ġno ta
eeb oo
Ġav ord
Ġbhej a
Ġsoo chee
Ġdhan g
Ġnish chit
Ġkail oree
ĠĠĠĠ ĠĠĠĠ
Ġvin se
Ġmun h
Ġtal aash
Ġaau tal
Ġata ik
Ġnauk aree
Ġmaansap esh
Ġpleb aik
3 8
p aanch
Ġk aat
ar jee
in taix
Ġp aa
Ġl ak
Ġl es
Ġn aagar
Ġr oot
Ġr aahat
Ġv ent
Ġe ch
ik it
Ġg aanv
Ġdil ivaree
Ġsab ake
us t
ka un
Ġlag aana
Ġchal egee
Ġmai g
Ġvar tamaan
Ġsar akaaree
Ġnir dhaarit
Ġaadh unik
ma haj
Ġel uga
Ġsv ich
Ġas istent
Ġopshan s
Ġbhej e
Ġpat i
Ġlam baee
taph orm
Ġroj aana
Ġjam een
Ġand roid
Ġol to
Ġaind royad
Ġmainej ament
Ġbeees enel
Ġghoom ane
Ġkanjyoom ars
vind oj
Ġsadee ra
Ġsamarav ikrama
k ain
Ġs ent
Ġp aapa
Ġm antree
aar aatmak
Ġke bal
Ġt il
am et
Ġga in
Ġg ooglai
ek ted
Ġho lee
ro t
yoo aee
Ġsak aaraatmak
ain g
Ġdee l
Ġ6 15
Ġal pha
Ġend roed
aanee y
Ġchal e
Ġbe chee
Ġkhaas a
Ġsn aip
Ġkamp as
Ġi tail
Ġrip les
Ġsal ekt
Ġkhatar e
Ġeksapee r
Ġprav esh
Ġmahan gee
Ġmahan ge
Ġpareek shan
Ġmak asad
Ġchak kar
Ġditel s
avish vaas
Ġpraudyog ikee
g hat
h aaree
i bal
j isamen
t har
v ent
Ġm ul
Ġb ampar
on a
Ġa in
en see
Ġn akaaraatmak
Ġv haat
Ġja gat
Ġsak riy
Ġkam yun
sh aanadaar
Ġkaar agar
Ġmo shan
av aab
Ġc hand
Ġep l
Ġlog o
Ġsar tiph
um meed
Ġveediyo j
Ġil aak
Ġav ash
Ġw ind
Ġvyak t
aig yaan
Ġspee kars
tv itar
Ġvij eta
aahat rj
Ġmon itar
Ġraas ta
Ġraip id
i h
k yoo
p ata
y aas
Ġk en
Ġs ol
Ġp aka
en sh
Ġkar aana
Ġaa tan
as aath
ah iya
Ġg yaan
Ġch it
Ġch ot
Ġch hat
Ġhee l
aav ee
Ġo s
Ġsh iks
Ġ4 10
aak rtik
Ġjaan ee
ham en
Ġsp or
Ġphl ait
Ġee emaee
Ġbee te
and han
Ġkr is
Ġprad ooshan
Ġjam a
Ġveriyant s
Ġhel th
Ġpair on
Ġson y
-------- --------
Ġtumh aare
Ġpary aapt
arsh iyal
ingat an
asha ilee
aajan ak
Ġinti greted
2 2
b ik
c hand
t z
t est
ha tam
Ġp ai
Ġr esh
Ġv olyoom
Ġt ips
es char
Ġg il
Ġ1 10
Ġch r
up ta
th e
Ġma chchhar
av ee
Ġkaren gee
Ġde bit
Ġphr aans
asan d
Ġchh ed
lar s
tai balet
Ġon ai
Ġ14 0
Ġjaroorat on
aph l
Ġbol a
Ġpur aana
Ġmaam alon
Ġnikal atee
pat aal
Ġutpaad an
Ġaid gai
Ġektiv et
bat aaya
Ġintee riyar
Ġpabl ik
b aj
e dee
m ar
m il
o ph
s aal
in tar
Ġb en
Ġd om
Ġj on
Ġl aik
Ġl aagat
Ġl yf
ch k
Ġr eed
ga m
Ġt iyaago
as itee
et iv
Ġpa en
ait is
Ġdis h
Ġ12 0
Ġsaal aana
Ġbaik tee
Ġ32 00
Ġkhareed en
Ġmem bar
Ġsaam agree
Ġ15 00
Ġjin aka
and an
Ġdikh aane
Ġpratis par
Ġsait s
Ġaaaiphar s
Ġsad ak
Ġgun av
Ġaag aamee
Ġviv o
Ġgaad iyaan
Ġplai taphorm
Ġsanar ooph
k in
l g
l os
m al
m imee
r ah
Ġp est
Ġb os
on ga
Ġj ara
Ġj olo
ch aap
aan sh
ph or
har jee
ata i
Ġ3 6
Ġ3 8
Ġpr ooph
Ġban atee
see n
Ġbl ed
Ġbadh aakar
Ġchh ip
Ġchaar on
Ġon aiplus
Ġkol estrol
Ġmaan ate
tak at
Ġaar es
Ġav el
Ġsun akar
Ġmaam ala
Ġphar m
Ġsm art
Ġkhol ane
Ġchar an
Ġvit aara
Ġkail shiyam
Ġkhoobasoor atee
pet rol
Ġpraiv esee
kol akaata
lain ovo
Ġgativ idh
Ġbrauj ing
j ul
t im
Ġp aand
Ġa st
Ġh il
Ġkar aee
Ġko pee
Ġga ye
Ġg ail
Ġne tr
Ġkh oon
Ġ4 100
ing s
mat i
Ġ6 3
Ġ8 2
Ġus ako
Ġmai j
bh aasha
Ġpl aastik
Ġeks el
Ġnaam ak
Ġdaal e
iyan s
Ġ18 00
Ġdoor asanchaar
Ġkaan gres
chho tee
Ġupakaran on
Ġpurush on
Ġaatm avishvaas
Ġgeegaahar tz
hatam and
6 000
d r
l am
l it
l oded
m uk
m umbee
z ar
Ġp ash
Ġha us
Ġke s
Ġv en
Ġv aada
Ġt oot
pan n
Ġne m
yoo ment
Ġch oree
âĢ Ŀ
ish th
op o
Ġgr ah
Ġphl ip
Ġno tabuk
Ġshaan t
Ġhaal iya
Ġas ap
Ġas alee
Ġmaam oolee
Ġbil iyan
yor ens
Ġrok ane
Ġjimm edaar
Ġseet s
Ġeksakloosiv alee
Ġ33 10
Ġprer it
Ġeksat enshan
stor ej
Ġbaitar iyaan
Ġgunav atta
d ik
m ere
p aan
r ak
s l
an as
Ġe hasaas
ph e
es a
as y
as port
Ġja j
Ġsak egee
un k
dh aav
Ġsh ulk
tee em
Ġpr im
Ġma jedaar
esh iphikeshan
sar akaar
Ġst reet
Ġaaee peeel
Ġintaran eshanal
Ġcha ut
Ġut anee
eks ha
Ġsha had
Ġsth aaneey
Ġjaga hon
Ġsamasya en
Ġsil indar
Ġjeevan ashailee
mo tar
Ġ26 00
Ġpahan ane
emes aee
Ġrom aanch
raam ak
Ġutpaad on
Ġphorm et
Ġsocha te
Ġsara und
Ġsiy aaz
Ġavas aad
maark et
Ġchunaut iyon
Ġteknol ajee
Ġtro phee
Ġavel ebal
a han
o see
t op
w ip
y araphon
Ġp eech
Ġp aana
Ġp eshak
Ġm is
ya v
Ġd iph
Ġd ablyoo
Ġj ai
Ġme kap
Ġkee jie
aan j
ik ata
ad ar
Ġek asaath
aas ee
ain al
cha k
Ġpr aakrtik
Ġphee ld
Ġkeemat en
Ġan ek
ka ha
Ġdo har
Ġjaan akar
ra und
Ġtr aee
Ġgeeg aahatrj
Ġshar t
kee m
Ġi os
Ġas pataal
Ġpahunch aane
Ġkhaasiyat en
Ġbach aav
Ġlik h
Ġnik aala
Ġaip s
25 60
Ġkai b
Ġ28 00
Ġritel ar
Ġstail as
Ġche hara
Ġdas tar
Ġkhoob iyaan
Ġnish aan
ere pee
shar eer
Ġphai bar
Ġpol isee
Ġelee t
Ġvaigyaan ikon
Ġchaal oo
Ġrakta chaap
jaya pur
Ġpoj ishan
Ġphol dar
gun aa
Ġeek osport
wip ai
2 7
b adee
b ina
f acha
m on
m ej
s tail
w air
x on
aa chaar
Ġs ook
Ġp ikchar
Ġm aaha
Ġm ichro
Ġj ha
ak an
ak sar
Ġt aal
Ġt aayar
am bh
Ġga is
Ġne t
Ġki ran
Ġkam are
aap it
Ġsh ip
char d
Ġ8 10
st ha
Ġsp red
Ġcha ud
Ġda hee
Ġchaa bee
Ġkr aish
Ġaad amee
Ġ14 40
Ġdaal ee
Ġaar tiph
Ġsah aayak
Ġtakanee kee
pr at
Ġbes ik
Ġotoph oks
Ġmot aape
Ġhel amet
Ġtam il
yu shan
Ġseek ha
phes ing
Ġraas te
Ġdher on
iten iyam
Ġeg j
Ġdur ghat
Ġmam mee
Ġaaaipar eting
Ġnaagar ikon
Ġitail iyan
Ġaatan k
Ġbaiktee riya
e var
Ġd yoo
Ġa iks
Ġt i
Ġt aaja
Ġh eksa
am ejan
ph ik
ab ord
ie t
Ġga le
tar n
Ġch eyar
ap ort
aee n
aap ur
ay an
Ġ5 1
Ġpr an
sh yorens
Ġpa u
Ġjo b
esh iya
Ġst ood
ish chit
Ġaaee bol
bh aal
Ġchh oo
Ġsel ph
Ġdh aar
Ġam areeka
Ġsta dee
Ġi i
Ġopar etar
Ġkarav aane
Ġrav i
Ġchait ing
lo ud
Ġrim oovebal
Ġpres har
pro sesar
Ġsadas y
Ġaavashyak ata
lonch ing
Ġtik at
Ġshu gar
vajan ik
Ġnetr tv
Ġmaaha ul
a en
a yah
l in
l ait
s ur
Ġk reta
Ġm or
Ġm ood
Ġb hatak
Ġd arav
Ġd aark
ta ikt
Ġa gr
Ġme kar
Ġn eeboo
Ġr i
oo h
Ġh im
ad esh
as k
Ġg reen
ais s
aav ind
Ġo yal
Ġ3 500
cha dhaav
Ġpa ega
Ġphee d
Ġ8 21
Ġmod s
Ġmod yool
Ġchh ut
Ġbee emadablyoo
Ġbah aad
Ġvish aal
Ġbhar a
Ġmah aar
Ġ11 9
Ġvol et
Ġkastam ar
Ġeksap ort
Ġeksap art
Ġgir a
Ġpraim aree
yu va
Ġdaaya m
Ġmotarasaikal s
vi dh
Ġsig nal
Ġshor takat
Ġprakaash it
Ġdol bee
Ġkoshika on
Ġpaand e
motar asaik
6 9
d yool
g hane
j iyonee
l i
m ichromax
r iyo
s uj
Ġs air
Ġd ait
Ġd ron
aar j
Ġl aakhon
Ġka hen
Ġn aak
Ġt aaj
Ġt oor
ab aajee
ro j
Ġek shan
Ġo b
Ġbad hee
ag raund
iv o
Ġpr iv
Ġ8 3
Ġmil ana
ip haid
Ġban ana
Ġbadh aava
Ġkaard an
Ġdin esh
Ġmad hy
aish vik
Ġkha pat
Ġbr eja
Ġap eksha
Ġsarv e
Ġprati bha
Ġtaree kon
pa halee
Ġaav ed
Ġseva on
Ġseva en
Ġdekha bhaal
Ġ22 00
Ġand aaja
Ġrish ton
och us
Ġkir los
Ġpos hak
Ġkanjyoom ar
Ġbail ens
Ġmantr aalay
Ġaaaitom aitik
Ġnird eshak
Ġnaj adee
Ġvent o
Ġpeshak ash
Ġkirlos kar
4 2
b ook
d s
i x
n ot
r oom
v ol
v iraat
ee dee
Ġk aalee
Ġd i
Ġj aas
Ġj oos
ai ph
Ġn im
Ġv aik
Ġv hotsep
as s
as us
ab aink
Ġg aard
Ġg pu
Ġ1 12
Ġin tr
yoo r
Ġ2 10
jee echajed
lee p
Ġ3 300
ol iyo
Ġsab ako
see jan
Ġend roid
Ġdo stee
Ġsar i
Ġsa haj
Ġthee m
aakh oon
Ġen arjee
Ġvo sh
Ġmuk aam
Ġ25 000
Ġkor t
Ġbaj ae
Ġak asar
Ġhis son
Ġpahunch aaya
Ġjan aral
Ġjod ate
Ġnikal ane
Ġsoo jan
acha it
Ġgalat iyaan
Ġrom ing
Ġkamaand o
Ġhaid alait
Ġbur a
Ġlav ars
phl ipakaart
Ġjaanavar on
Ġdaim enshan
chaa he
Ġpainor ama
Ġavash y
7 1
b ade
n s
o ws
p pi
v ai
Ġm rt
Ġn iyo
Ġr s
ur at
al s
al t
at h
at aar
Ġko phee
ad aaree
ab aind
Ġch ikit
ais han
Ġ4 3
Ġ6 999
esh iyal
ait ooth
aab ait
em abee
Ġsee pee
Ġkaam ay
ud dh
Ġmai r
Ġpl et
Ġpl aans
Ġcha ineej
Ġvar na
hata ig
Ġut aare
Ġeks po
Ġeks atar
Ġpee peeaee
um eh
da j
Ġam b
yak ram
Ġso pht
asee aar
Ġak ele
12 8
Ġlai pha
Ġpo shan
Ġlist ing
67 35
ith iyam
Ġsad akon
Ġhel iyo
Ġintel ij
Ġsavaal on
Ġkaaryak aaree
Ġdok yooment
Ġaak raman
Ġpras iddh
Ġoon chaee
Ġsabj iyon
bachch on
Ġsambhaal ane
Ġladak iyon
Ġmed ikal
Ġsamajha uta
Ġsaik il
Ġdhoon d
Ġish aare
Ġblu aitooth
Ġeksapeer iyans
Ġgil aas
motarasaik al
f ochus
j am
j iyo
m ais
m agar
n ahin
p ree
r av
Ġs aind
Ġp aayee
an kaee
Ġb aaree
ta lee
Ġj aagar
aar el
en a
Ġn atee
Ġn aabaad
Ġr aink
Ġr uch
oo bar
Ġse hatamand
am or
Ġaa ie
Ġaa sh
Ġaa ir
Ġg air
Ġu chit
it an
aik ho
Ġ4 6
Ġbad haee
Ġde dh
ud aaharan
Ġsp ot
Ġ12 00
Ġbaik agraund
apee em
Ġhota l
Ġkan dhon
Ġdik hata
Ġen a
Ġpiksal s
Ġro var
Ġbadal e
Ġf w
Ġf raiaidom
Ġpata le
Ġvi bai
Ġkil ar
Ġ40 3
Ġkhol en
Ġbait ree
Ġnikaal ane
fi ai
ghar eloo
Ġprashn on
dis pale
Ġsai bar
jyaad a
Ġrana jee
Ġmaansapesh iyon
2 99
b aajaar
h s
h tch
m w
o h
p aapa
s ta
t ur
w hatsapp
aa che
Ġs tel
Ġp aancha
Ġha ree
Ġb ejal
Ġd up
Ġa ma
Ġj aahir
Ġl ega
Ġn ek
Ġr aak
Ġr aashtreey
Ġt ree
Ġph i
Ġis en
Ġta iteniyam
Ġin shyorens
Ġek abaar
aam ataur
Ġch en
Ġch loud
aas king
Ġsh re
Ġ4 35
iv ai
Ġjo sh
Ġdil acha
av yoo
sar on
em adee
Ġal kaatel
Ġjaan ana
ham aanon
Ġmai izu
bal aijeshan
Ġlog in
ra j
Ġmod ail
Ġeks amor
Ġpha it
Ġtr ank
Ġlee g
Ġlee jie
Ġjin ase
Ġaad ha
sp es
pa har
Ġni bha
Ġsek tar
Ġchun en
Ġhed ar
ub i
Ġaak raamak
aayam ph
Ġtatv on
Ġvyaap aar
Ġanur oop
Ġlep atop
Ġspor tee
Ġspred atram
Ġdurghat ana
Ġcheyar amain
Ġshre y
f ai
r aim
s as
s ir
z ain
ar n
Ġm uj
is hal
Ġd el
Ġl imit
al es
at en
Ġt hand
Ġt esla
Ġse s
Ġkar aata
Ġko hare
as tar
tar bo
Ġho t
Ġta t
Ġkam od
Ġphon ai
aap ak
Ġ4 99
Ġan up
Ġan kon
Ġst y
Ġkaam on
Ġrak he
Ġden asitee
Ġdo pahar
Ġchal ee
oot i
aip tiv
oon gee
Ġbat aatee
Ġ13 0
Ġsan stha
Ġee yaraphon
Ġechadee emaee
Ġbadal a
ikeshan s
Ġ14 8
Ġth ree
Ġaar apeeem
Ġes id
Ġrik aard
Ġhaar aman
Ġlam ba
Ġbadha egee
ve basait
Ġjod on
Ġnav aaja
Ġprabhaav ee
Ġbacha pan
Ġkshet ron
Ġkamaand oj
Ġnee le
Ġneks on
seesee aee
Ġchunautee poorn
Ġmen yoo
log on
Ġaj ast
lag aataar
Ġvaat aavaran
Ġpraar oop
Ġtyo haar
Ġtig or
Ġbahaad ur
suj ukee
7 99
m em
v aigyaan
Ġs uk
Ġp ik
Ġp iks
Ġp ait
Ġb ilt
Ġa pha
Ġl ithiyam
Ġn ip
Ġkee m
aan y
Ġt uk
Ġg ur
ek a
Ġch on
Ġch up
Ġkh aad
aav aas
Ġ5 9
ol yushan
Ġ8 54
Ġan de
Ġhu veee
Ġst r
Ġun heen
Ġjar manee
Ġsp eshiphikeshan
Ġvar ishth
Ġsa ja
Ġchaa hat
Ġkan deeshan
Ġshuroo aatee
Ġtr aanj
Ġbee j
Ġup ahaar
Ġsensar s
Ġprati rod
Ġdaal ane
has un
Ġkon taikt
Ġphail aaya
eek sha
Ġdr sh
Ġaam ataur
phr ens
Ġparaphorm esh
Ġbeees aee
Ġhedaphon s
Ġkheen ch
Ġesh ej
Ġsabj iyaan
Ġsaha yog
Ġseen iyar
su bah
Ġsantul an
Ġraash i
Ġaayar is
Ġstai bilitee
Ġdarshak on
Ġdood al
ih n
Ġprim ai
Ġstel th
Ġkamod itee
4 6
7 2
8 2
8 5
k as
v aal
Ġk ise
Ġk reem
ha da
Ġm and
Ġd had
Ġn aata
Ġn adaar
Ġn amee
Ġr isee
Ġv aishvik
Ġe st
ph ul
ab ad
Ġin j
yoo shan
Ġch ihn
aap aka
Ġsh r
Ġsh odhakartaon
ate d
Ġ5 3
ag oogal
Ġmo ta
eed iya
Ġtee saree
Ġst on
ekt iv
hak on
Ġphr ij
Ġba en
Ġ7 50
yar ing
Ġda yool
aid ar
oon ee
Ġchh up
Ġnir desh
Ġind akshan
Ġbee t
Ġon ar
Ġro taree
Ġsth aapit
Ġpree ped
Ġman j
Ġok seejan
Ġsun ishchit
Ġ100 00
sap aavar
Ġhal kee
Ġbra un
Ġeksap end
Ġpahan en
Ġad aiptiv
Ġmish ran
Ġpich halee
Ġpaartanar aship
Ġtren ing
Ġthan da
Ġvheekal s
jis ame
Ġkroo jar
Ġvaigyaan ik
Ġsail fiai
Ġtrai phik
Ġhais hataig
Ġaaain alain
Ġgatividh iyon
Ġhedar est
Ġnadaar ad
b oo
k ool
l ap
n oo
o sh
p aanee
s ain
u te
Ġd an
Ġa g
Ġme hamaanon
Ġn eel
ur ved
at antr
Ġe daj
Ġse mee
Ġh eyar
Ġkar ma
as tha
il ated
Ġu bar
et ee
ro shan
ro yal
yoo lar
Ġch et
aas tr
un ee
tee keem
ol t
ag upta
Ġlag enge
ind r
ood ar
Ġdiv as
Ġsen agupta
Ġdh ool
ash n
Ġpaavar abaink
re g
Ġ9 50
Ġam al
and aaj
Ġmah endr
me tal
Ġjan g
Ġmila en
Ġbes hak
ib ook
Ġkshet reey
Ġgir ane
Ġvit t
Ġjed eph
Ġutar e
Ġvya st
aich t
Ġchhak ke
Ġyaat ree
Ġvel akam
Ġpeed hee
Ġmoo v
Ġtumh aaree
Ġfl ash
Ġkroo z
Ġvidesh on
Ġpratid in
Ġpaka en
Ġchhed on
Ġhaidalait en
Ġseepee yoo
Ġruch i
Ġfw vg
Ġkarma chaar
4 50
a chch
b air
g aal
j ise
k voch
m iyon
n iyam
n and
t vacha
u tar
v hee
v aayar
y ork
Ġk ur
aa ai
ar an
Ġb ej
is k
Ġd hak
Ġj ooree
Ġj elee
Ġr ie
Ġr eech
Ġv ast
Ġe v
ad aayak
Ġ2 30
Ġch ool
Ġch aaval
uk ool
tee t
Ġ5 37
Ġem aphl
Ġsam maan
Ġsam ooh
ait o
us o
Ġ7 10
bh aag
Ġgr ainal
Ġsap laee
âĢĻ ,
Ġchh utak
Ġen tar
Ġkhel en
Ġkhel ate
Ġmaan av
Ġrej olyushan
akt oobar
Ġlai b
Ġaar op
Ġpo wair
Ġz tai
Ġav ataar
Ġsamaj hate
aadh ik
Ġaay ee
Ġmi ui
doo saron
Ġbuking s
Ġkal aakaar
Ġik osport
laga jaree
Ġbo var
Ġhad diyon
Ġul tr
Ġbadhat oree
Ġphrend s
Ġaim fl
Ġshreel ankaee
Ġbet ee
Ġvil kin
Ġmanee sh
Ġmareej on
baay ot
Ġhor sapaavar
Ġich chh
Ġinav ait
Ġsaar vajanik
Ġgain asport
Ġriples ament
vent ilated
muk harjee
emesaee el
Ġraink ing
Ġkarmachaar iyon
kvoch roport
nand inee
Ġemaphl aks
Ġgrainal uso
Ġaimfl ux
5 7
d ok
o pan
v atar
ya t
Ġd or
ta ta
Ġa dar
Ġj han
Ġj hal
hee d
Ġke bin
Ġl eed
Ġka har
Ġn aaj
Ġr oos
Ġt er
Ġh istree
ph it
es el
Ġph en
Ġph old
iya ta
Ġg ai
Ġho sp
Ġin ph
et ree
Ġkam aan
Ġkam arshiyal
aee es
Ġ4 7
Ġ3 100
dee aara
im p
Ġphee l
th vee
Ġsam ar
aak i
aaj at
em bal
us hal
Ġsp ais
Ġlais ens
yaad h
oop e
Ġen im
Ġkhareed ate
Ġkl aim
Ġgh um
Ġle g
Ġkr ej
asee y
Ġaga lee
Ġteevee es
Ġchee ph
Ġlait s
Ġnik on
Ġ200 5
Ġstaar k
67 50
akam panee
Ġpor taph
Ġhaard ik
Ġij aajat
Ġpres ident
Ġpich had
hu a
Ġaaai ph
ww w
Ġvail iditee
Ġbhoo kh
graahak on
Ġgus sa
** **
Ġdaan ton
Ġwind ows
Ġheel iyo
chand ran
Ġchr orai
Ġpeech ha
Ġamb aanee
jam een
Ġaair is
d harmashaala
f ch
j aapaanee
k r
m os
n ir
r ij
s en
u a
u v
v ej
Ġk ut
Ġb ind
ta ivaan
Ġa xon
Ġn eshanal
Ġr ain
oo see
Ġv ain
Ġko ting
il e
Ġpar icha
ab al
Ġja in
Ġ2 99
aam itv
Ġch id
dh ik
sh i
Ġpa vil
Ġdee vaar
âĢ Į
Ġ6 8
Ġan dh
Ġjar urat
vee dee
par era
Ġmai ps
Ġkaard s
Ġ13 2
ash vin
Ġsan chaar
Ġsan chaal
Ġkha da
ma ujood
Ġvee k
Ġap aache
Ġsv aamitv
Ġth ode
Ġyoon ib
Ġes osee
Ġas al
ingar aprint
Ġnajar on
vish eshag
Ġrip laee
Ġchun ane
doo sara
Ġbait ing
Ġjenaphon a
Ġ65 2
Ġshak hs
Ġchauk on
Ġparisthit iyaan
Ġjeees em
Ġkin aare
Ġthak aan
Ġprab andh
Ġsantul it
blaik aberee
Ġrel ave
Ġghata kar
Ġaaeeem eksa
Ġpaa chan
Ġintelij ens
aavaas aakee
Ġportaph oliyo
Ġpavil iyan
a ut
k ab
l aanch
Ġ qu
in aph
Ġp adee
Ġm aane
Ġb oo
Ġd aar
Ġd ush
aar p
Ġl aimps
Ġka isa
Ġn iy
oo la
Ġv aisa
al aimp
at chh
at ne
Ġt ip
Ġe teeem
Ġkar an
Ġaa itam
ab aan
Ġg aana
it is
jee p
aap aid
un ase
Ġsh ipht
uk ar
Ġ5 49
Ġpr iy
sh odhakartaon
Ġan ukool
ip ak
Ġbhaar atee
Ġsee tar
Ġ7 00
Ġchal en
Ġkv id
Ġbadh aate
Ġcha unk
Ġjis asen
Ġ201 2
Ġ201 9
Ġel oy
Ġbr ait
Ġbr iten
Ġx l
abh aar
kaar ban
Ġbol ane
Ġsur anga
Ġdijain ar
aajee l
Ġlik hane
adh aanee
Ġpat nee
Ġinst ent
Ġkara en
67 53
14 40
Ġtraik ing
Ġmaas tar
jaan akaaree
Ġgujar aat
tas an
Ġkheen chane
Ġsant ush
Ġrij alt
amer ikee
Ġdham aak
Ġaaaipshan s
Ġkaab oo
Ġbet e
anj asy
Ġsoor aj
Ġinjeeniyar ing
Ġkhu le
Ġvyavas tha
Ġnaar iyal
Ġphle m
sho dh
Ġintr oodar
aishan al
Ġchhutak aara
Ġhosp ital
5 2
9 8
i an
i phonai
o b
s ai
u lee
Ġk aal
Ġs ink
Ġp vaint
Ġd harmashaala
ak od
Ġt antr
Ġkar aate
am ar
ik sh
Ġph eshiyal
Ġaa en
ab har
it ish
Ġin ase
Ġkam yoon
Ġpr aat
Ġpr intar
atee dee
Ġmo haalee
Ġdil aee
sar as
ish t
see aee
Ġran ing
Ġmaar sh
Ġjis ako
Ġvar sheey
Ġlaanch ing
Ġmobail s
Ġdh ok
Ġhua waii
eks apee
os is
Ġgh ut
Ġro gee
Ġbata en
Ġ25 9
Ġeyar asel
so ft
Ġni roshan
ba en
Ġanu mati
Ġpram oshan
vaas tav
Ġkaip es
Ġkaip tan
Ġail itai
Ġvairiyant s
Ġvichaar on
aaga pur
hamaar ee
Ġviv aad
Ġtaiks ee
Ġanok he
gala xy
Ġsara jameen
Ġsaavadh aanee
Ġemb iyant
Ġsoor y
orn iya
Ġprast ut
Ġdog una
Ġmainyuphaikchar ing
Ġepl ikeshan
Ġaartiph ishiyal
ask reen
mem oree
Ġkhaad y
Ġadar ak
Ġnaaj uk
Ġparicha y
/ /
0 5
f raiaidom
j olo
j avaab
k s
l ok
r aat
s in
t iyaan
u aan
u char
w it
y aalay
Ġ itar
Ġ à¤
Ġs ch
in aka
Ġp hat
an ch
Ġb ith
Ġl ap
Ġl edar
Ġka la
Ġn ubi
Ġr ivars
Ġv ais
Ġe ses
ik r
Ġpar iv
Ġg ard
aad u
aam aaha
Ġjee v
Ġo f
Ġsh ep
Ġ3 20
Ġto s
im aan
Ġyoo aarel
Ġhu vaave
Ġst et
Ġban akar
va j
Ġdo onga
Ġaaee pee
sa ch
Ġjis en
Ġsar jaree
Ġchaa hane
Ġut pann
Ġadh yaksh
Ġpee s
Ġpee riya
Ġbat aata
ash ot
Ġkol akaata
Ġsaam anjasy
Ġsu vidh
Ġam it
Ġno eda
Ġkaaran on
Ġman ga
aij d
smaartaphon s
Ġnajar andaaj
iti on
abl oo
Ġphail s
Ġkal pana
Ġik at
Ġdr ink
Ġbrek ing
Ġrish ta
Ġstee l
Ġkoriya ee
Ġkheen cha
Ġmir ar
jen see
Ġsans karan
Ġnau ven
Ġbain gal
Ġmadh umeh
Ġhat aane
Ġheero in
intaran al
Ġdon gal
Ġ99 99
Ġkaab ij
Ġbi gad
Ġpadaarth on
Ġmach halee
sn l
Ġyooz ar
Ġpaal an
Ġvibhaag on
Ġlaind alain
ilekt rik
Ġganva e
Ġenj elo
oran jan
Ġbrod abaind
Ġjaj ba
chard aikho
Ġravi chandran
Ġdup ahiya
yaadh unik
Ġgard an
2 90
b aind
d ablyoo
g end
j oo
j aapaan
k iya
k har
n oki
p ai
aa jar
Ġs os
Ġha vaee
ya dhik
Ġd ablyooveejeee
Ġj et
aar asee
ai o
Ġl ip
Ġka hane
Ġn aakhoon
Ġv eediyokon
Ġe lar
am antree
es ar
Ġaa udee
han on
or a
or s
it y
tar ah
aas tar
Ġkam ar
Ġkam ins
Ġhee n
ap ad
Ġsam art
Ġ6 000
aaj ik
em o
vee jeee
Ġvar d
Ġsar al
Ġsar dee
reen o
Ġsa u
Ġeks e
Ġx z
Ġed res
Ġso chane
eeb ol
Ġkr iya
Ġsv ayan
ron iks
Ġman oranjan
Ġim phr
Ġshaan ti
Ġjud ane
Ġmee ting
tel ik
Ġkah oonga
Ġprot s
ijan al
Ġluk s
Ġrav indr
Ġraaj y
rip t
Ġbait hane
Ġutar ate
Ġskootar s
Ġgun ag
Ġjad ane
Ġpaik ej
Ġmainej ing
Ġvaayaral ais
Ġvisheshata en
Ġniraash aajanak
Ġdham aaka
Ġchayan akartaon
Ġabhin ay
Ġprer ana
Ġpary aavaran
Ġprab andhan
Ġraash tr
Ġedit ing
Ġhair aan
Ġphij ikal
Ġilaak on
Ġpai tarn
Ġresh iyo
facha i
Ġpran aalee
Ġaaved an
Ġvosh ingatan
Ġjhal ak
Ġyoonib odee
3 99
4 8
6 90
: //
g ooglai
j isaka
k aal
l av
p as
r ab
v y
ha baar
Ġm up
Ġd har
en ta
Ġl is
Ġl ut
Ġl aab
Ġn ij
Ġn aash
Ġr ing
Ġv iyar
Ġe r
ph ingaraprint
Ġph ej
Ġph el
Ġph aayar
Ġg aaya
Ġ1 80
Ġkh aata
Ġra heen
Ġ3 99
ing aapur
Ġ5 10
Ġ5 40
Ġto ha
Ġpr aj
Ġpr thvee
Ġmo on
pee chhe
va ch
Ġ7 2
Ġ7 7
bal leb
Ġnir yaat
rai ai
Ġbat or
Ġtr ik
Ġon a
Ġkl ok
Ġnirm it
Ġf acha
Ġpaar iyaan
aash tr
Ġsv abhaav
Ġpree loded
Ġprad haan
Ġdaal ate
Ġmaarket s
Ġsuvidha on
Ġtaim alain
Ġplaan ing
Ġbach e
Ġkhoo bee
Ġkrik etar
Ġotom etik
Ġud yog
Ġniyam on
Ġpoo chhe
Ġdas tak
Ġsev ing
sak ate
Ġlokapr iyata
tab ol
eta itis
Ġkir in
Ġvisha yon
Ġstee yaring
Ġbo tal
Ġhaid alaimps
Ġsthit iyon
Ġmaal ik
Ġapp lai
Ġnirn aayak
dij ain
anj ay
Ġphestiv al
Ġaautal ets
Ġpash ch
anas heel
vaigyaan ikon
Ġrisee v
ukar abarg
Ġdhamaak edaar
Ġmup heed
d ig
n ar
n olojee
p ekt
p harm
t in
t ish
u aee
u le
v ivo
Ġk aala
Ġm ichromax
Ġb ek
Ġb aaga
ya vaad
Ġd aay
Ġj eschar
Ġv asa
ur g
Ġe sesareej
Ġh aavee
Ġph aay
as aat
il s
har t
Ġg upha
Ġu bhar
Ġta ink
Ġja g
ap asand
Ġo m
Ġ4 50
dee p
ol oj
ag n
Ġpa ch
end reey
Ġem es
Ġma j
Ġmil engee
Ġtee jar
chh aad
oor e
par th
Ġlag egee
Ġmai di
ind iyan
hon ar
hon or
la j
Ġtr ed
kh aane
Ġphot ogr
ush tik
pht on
oks avaigan
Ġprad aata
Ġchaah ega
Ġrik ol
Ġdikh aata
Ġbaahar ee
jo y
jed ateeee
Ġat yaadhunik
Ġsoch en
Ġlaaya k
Ġchhod ata
Ġlad akee
aaee peeel
Ġdhan anjay
ikaar ak
Ġutar egee
Ġprash ikshan
Ġtraansap ort
Ġmid an
Ġbel t
Ġvip hal
Ġbur ee
Ġuts aahit
Ġvail yoo
Ġbail ls
Ġjit ane
chaarj d
Ġkair ektar
Ġtair iph
Ġsamud r
Ġphiks d
Ġsnaip achait
lam be
Ġjaagar ook
Ġama z
achch hee
hua waii
maujood a
Ġpraat ham
wit tair
Ġsamart han
8 3
e par
j isase
n aye
o tem
p oo
r apaan
x t
Ġk han
Ġk hand
aa pane
aa eebol
ha en
Ġp aaye
Ġm m
Ġb akh
ta ch
Ġa hasaas
ai jar
Ġme sej
Ġke pata
ak ul
Ġl um
Ġl andan
Ġr ai
Ġr ait
aan usaar
es is
pan asonich
Ġho ld
Ġta ee
Ġsak sesar
Ġo st
Ġ4 1
ay yar
ol aid
ag r
Ġpr ej
Ġsam aaj
Ġ6 9
Ġan ivaar
em on
Ġst rok
st ra
Ġ7 6
Ġaaee tee
Ġgr ej
Ġpl en
Ġcha pet
Ġvar g
Ġsar diyon
Ġsa ur
oon ki
Ġeks apr
aakh ir
Ġsan vaad
Ġbal b
Ġtr ip
eks at
aah oo
Ġsha tar
Ġvish aakhaapattanam
Ġkor teks
Ġaad hee
Ġaar t
Ġvikalp on
Ġ80 1
Ġ80 8
orm eshan
Ġdar sh
Ġrik avar
Ġsamaj hen
Ġ21 9
Ġbuk haar
Ġsil endar
Ġmas aaj
Ġpat tee
phree dam
Ġaank adon
red amee
Ġ40 5
stam ps
Ġsm ail
Ġraaj adhaanee
Ġprak rti
Ġlo yan
Ġpan k
Ġhaan ikaarak
Ġ29 00
Ġstee van
Ġganv aana
à¥ į
Ġvisheshag yon
Ġvaastav ik
Ġspinar on
Ġmus k
Ġgus se
Ġaal oo
vit aamin
Ġmars idee
Ġdohar aate
saras aij
eksapee riya
Ġkepata un
i um
j ana
l ik
p las
p aavaraphul
Ġ /
Ġk ood
Ġk aksha
ha ir
Ġs us
Ġp aim
Ġha re
Ġm aanee
Ġd aans
Ġd aant
on aiplus
ta ip
Ġka s
Ġka tak
Ġn aathan
Ġr en
oo bee
Ġv aaka
at r
Ġis ane
Ġg aanon
Ġg aarantee
Ġu laj
Ġch ikan
Ġch ura
ap ati
Ġkh okar
aav it
Ġ4 25
iv aseey
Ġkaar yon
Ġpa ushtik
eed an
Ġy un
Ġyoo r
ok alet
aak shee
av eer
em ai
oor at
Ġep haj
see m
Ġden gen
Ġlek hak
var s
vee seee
Ġsp aark
gal ane
Ġ12 7
Ġcha d
20 15
Ġpha ind
Ġverient s
iph orniya
os kop
sadee ra
Ġbadal ate
Ġdaur on
ast ik
Ġman aaya
Ġth erepee
Ġaar k
io es
Ġas am
Ġas embal
Ġhajaar on
Ġbhej ana
adh yayan
sk oda
tap ut
Ġsambandh on
Ġik ai
pen shan
Ġaadat on
Ġpan j
Ġdaaya l
Ġseek hane
Ġrog on
Ġgarm iyon
Ġseed hee
Ġchhak kon
Ġjaanakaar iyon
pet eeem
div aalee
Ġphain s
Ġekad ivaseey
din esh
Ġtod akar
Ġyooz ars
Ġpent ing
Ġrakta daan
yum iniyam
Ġdro p
Ġlu bh
kain avas
Ġvyakt itv
baj aaj
yav aahak
room ent
mais ej
zain fonai
noo biya
balleb aajee
otem ment
Ġanivaar y
3 4
a char
b or
b ain
i dhi
k um
k hanee
m ail
n ai
s oo
s up
Ġ *
Ġ ur
Ġ ig
Ġs olyooshan
Ġs ateek
Ġha phton
an on
an jaya
Ġb uj
ta bhee
Ġa is
Ġj onee
Ġj aapaanee
en aseeaar
Ġl as
Ġl od
ch t
Ġn in
Ġh aara
Ġkar ee
Ġph epha
as to
Ġg and
Ġne l
Ġta hal
ro s
aas hee
Ġkh id
Ġo la
ara jensee
Ġra utar
bee ch
Ġ3 999
Ġ5 2
Ġna veen
sh uru
Ġdee tee
ant u
Ġdil ash
Ġ6 30
Ġan aaj
Ġrah oge
tam ars
Ġbe yar
bh p
Ġpad ha
Ġpee th
Ġdh aabee
Ġsan gat
Ġind as
Ġkhel ega
akar atne
Ġ201 0
se ph
Ġsn ap
aaph t
Ġvee lar
Ġdv ipak
Ġman apasand
Ġak habaar
Ġes ateedee
Ġsah ool
aadh yaksh
so var
Ġmal aan
Ġat yadhik
Ġmot aapa
Ġjam aane
Ġdhan anjaya
Ġkaun sil
Ġutar enge
Ġgo yal
Ġpakad ane
Ġshak tish
Ġphal on
sil ona
Ġtarbo chaarjd
phes ar
Ġardhas hatakeey
Ġlon g
Ġdeelar aship
Ġladak hada
den a
Ġdhee mee
Ġpy aaj
sv aip
Ġsoot ron
Ġvijay ee
Ġtil akaratne
Ġshiks ha
bik ree
mej abaan
Ġaiks es
Ġlaipha stail
Ġston amain
Ġpeeriya d
Ġbaingal or
gend abaajee
Ġlis ted
Ġlut ph
Ġpraj aat
Ġbaaga dor
Ġdilash aan
Ġdvipak sheey
2 39
5 99
g ana
h z
h el
i f
j ekt
k reg
n aabaad
p aal
r aan
r ata
s ol
s aid
Ġp une
Ġm ata
Ġd ay
Ġa jee
aar tament
Ġn m
Ġh e
ik et
ik yor
il aaka
aal on
ek va
ata h
aath ilaaka
Ġek sarasaij
Ġch ur
Ġch ham
jee i
aik ro
Ġjee ro
ay ee
Ġpa engee
el istar
Ġdee jie
Ġpro v
av en
Ġsab ak
om adaar
pee y
Ġtha har
sa hee
Ġop era
Ġkhaas akar
20 18
Ġ10 11
Ġkan ektar
Ġdik hatee
van ade
Ġind on
Ġhar aate
araph oks
Ġjal an
Ġpata khanee
Ġmaisej ej
io x
Ġbar tan
kaar yavaahak
Ġovar atan
Ġshatak aveer
Ġmee l
Ġantar aashtreey
Ġbaink ing
enjar s
Ġjam aaya
Ġste ps
pat i
Ġgun aathilaaka
jaan en
Ġtam aatar
Ġrish ted
Ġphor s
Ġjh ooth
18 1
Ġpareshaan iyon
Ġmar jee
Ġveeikal s
Ġmadh yakram
Ġuts aah
Ġabhin etree
Ġdhoon dh
Ġper ara
Ġchail enjars
avid yaalay
Ġpasee ne
Ġdais irai
lit rai
Ġship ing
Ġpau dhe
Ġdarav aaj
Ġdilacha sp
Ġsty lai
kool apaid
Ġdan ushka
opan ar
veedee seee
Ġdaar omadaar
Ġbith aaya
Ġmidan ait
Ġbakh oobee
kum bale
Ġbeyar asto
Ġsahool iyat
Ġshaktish aalee
b i
d iyaan
e v
g aas
g ionaiai
j indagee
j asapreet
m et
p iyo
s oot
s itambar
z tai
Ġs it
Ġs var
an dar
Ġj aay
Ġl aim
Ġn asht
Ġr ook
Ġko t
ad aan
ad ek
Ġpar at
Ġu baal
Ġu galane
aim ar
aik shan
cha m
im ilee
Ġsam aapt
aak oo
Ġ8 9
id ai
Ġsee rij
us b
Ġab u
Ġsk aip
ud har
Ġlag aate
Ġchal an
Ġmai telik
oot ha
pha paid
Ġvar k
Ġlen ge
Ġver iphikeshan
rai j
Ġsaam aajik
Ġkl on
Ġam olaid
Ġmuk t
phee char
Ġ64 0
Ġx olo
Ġvish l
jab aradast
Ġor ijanal
Ġnirmaata on
Ġ14 60
Ġak ila
Ġ128 6
ens il
Ġsas penshan
Ġjeet aane
Ġsamaj hana
Ġaay u
Ġni c
Ġsal amaan
Ġpat rika
Ġanu vaad
Ġkara ega
mah ila
haar dik
à¤ °
tap ed
ib ol
ran aneeti
Ġraaj a
Ġraaj yon
Ġlad ake
Ġai x
Ġemabee peees
Ġej ensee
Ġintar avyoo
aant ik
Ġaag uaee
hamaar a
Ġhan see
beees enel
Ġmet ro
Ġthan de
yoot yoob
Ġjeeta te
Ġriyal itee
Ġmana ch
Ġdava on
Ġmoovee j
Ġgul aab
Ġjat aayee
Ġinaph okas
Ġpaksh iyon
Ġpasee na
Ġreed ar
Ġbaaree k
Ġreech aarj
9 2
? âĢĻ
d raiv
g ps
k ai
k la
m is
n isaan
s d
s hat
v aa
v aalee
ee ko
Ġk shan
Ġs ul
Ġs atar
Ġm ol
Ġb ok
Ġb oon
Ġb ingo
Ġhai par
Ġhai king
Ġd ail
aar ed
Ġl aaj
Ġka yaas
Ġr ep
oo v
ur aak
at oo
am aark
Ġph ek
Ġhain g
aal ik
Ġga t
Ġga hare
ata k
Ġ2 999
jee ee
Ġsh aarp
cha tail
sh uroo
up achaar
Ġsam aar
em atee
Ġun gal
Ġkaam ak
uj ik
ij m
Ġpl ag
Ġsar kil
Ġsan ghar
Ġsan ved
Ġen aal
Ġen dee
Ġtr aayamph
Ġadhik aansh
os ieshan
Ġup aadhyaksh
Ġaadh e
Ġ9 60
araph es
Ġbr aajeel
aans oo
Ġbhar at
Ġes asee
vish v
Ġ21 00
Ġnik aalee
Ġvol vo
Ġphar jee
Ġkon phrens
Ġaank hen
ook oj
sam aj
Ġkro sovar
Ġbeemaar iyaan
Ġlad ane
Ġste j
Ġste p
Ġpoo chh
Ġkhush iyon
Ġnee ti
Ġpras han
Ġvishv avidyaalay
Ġmaal oom
iz ain
Ġtumh aara
Ġemb ient
Ġimph otemment
Ġbag air
Ġnar endr
Ġaayar an
ateek shit
Ġmy ujik
oran tee
Ġphaib rik
Ġadhikaar iyon
Ġsent ral
edee j
Ġpratispar dha
Ġasap halata
Ġmair aathan
Ġraak hee
spes iphikeshan
Ġpratirod hak
Ġter aabait
visheshag yon
Ġikat tha
Ġephaj ed
Ġsanghar sh
5 1
b odee
g or
h undee
i chai
i bhaav
j i
k vaal
n is
o par
p aar
r enj
t ree
u aar
v ain
v itee
v ij
v aale
Ġk aayam
ha ik
Ġs atah
Ġs araphes
in o
in ga
in abilt
Ġp ensil
Ġd aeen
Ġj oo
Ġj ikr
aar dar
Ġme k
ak in
Ġr aam
ga ya
ur r
Ġt or
ik o
ph in
il l
Ġpar l
ab adee
ek ar
Ġja taee
Ġin aam
Ġin ebal
Ġin akam
Ġin telee
ro dh
amen s
Ġch enj
ap or
Ġjee ne
aav ej
Ġaap as
Ġ4 999
sh aadee
up r
Ġkaar ya
Ġma cha
Ġdil a
ip haee
Ġtee dee
sar diyon
Ġst an
Ġbai g
Ġban ata
Ġal aarm
Ġsee en
vee vo
Ġsp en
Ġmaikro phon
Ġgr a
Ġsap or
Ġcha t
ich k
Ġskreen ashot
Ġpee le
Ġ16 0
ti on
Ġpha inal
Ġ201 3
kh oo
Ġsn aiks
oom i
Ġkl ab
Ġgl ookoj
Ġbhar e
Ġ14 5
sha y
Ġaaeephon s
Ġpet ent
Ġas ist
Ġtum ane
Ġlik he
Ġdekh o
pr aapt
Ġ19 0
Ġoopar ee
Ġphar st
Ġ24 0
Ġinst rooment
inal aind
Ġparaph ekt
Ġik o
Ġdhan yavaad
Ġraid ing
Ġutaar ane
Ġaaraam adaayak
Ġaakhir akaar
Ġsiy aaj
Ġaau taput
Ġproses ing
Ġkitaab en
Ġdhoom rapaan
bon n
Ġpok et
jeees atee
isak reem
bhaasha y
Ġstood ents
sir ph
esel aar
inaph okas
Ġpradhaan amantree
Ġyoor eka
Ġindon eshiya
Ġintelee j
6 3
8 90
g old
i on
j aam
n aagapur
Ġk aid
Ġk shat
aa i
ha se
Ġs wipai
in am
Ġp olo
Ġb or
Ġb ed
Ġhai p
Ġd aayan
ta ich
hee ro
Ġme le
Ġme joo
Ġl ol
ch cha
Ġr iph
ga in
ga lee
Ġv aar
Ġv ing
Ġv aak
Ġv ait
Ġv orantee
Ġh y
Ġko sm
Ġaa ioes
as kaar
iy aana
Ġbhee d
Ġin ov
et an
Ġki chan
Ġek am
Ġek see
Ġch n
ap ur
ap raij
lee tar
cha it
Ġ5 30
ol a
Ġbad hegee
sh aayad
Ġtak alee
Ġkaar t
Ġphee s
eed aaree
Ġdee vaan
ant ul
ok rom
Ġmil en
aab a
em e
oor ti
Ġsee riyal
pee ne
Ġrak am
hak ti
Ġtar m
Ġintaran aishanal
Ġbadh aata
Ġcha ik
Ġsa uda
Ġpee na
Ġsan dar
Ġmaujood agee
ig ht
Ġbah upr
Ġlee var
Ġkhareed adaaree
oom an
Ġmaan ga
Ġbr ash
Ġpoor n
Ġx a
ast aar
Ġf on
Ġbhar ane
Ġim port
Ġmah aan
tak anee
Ġmin i
tr aee
kaar d
Ġw atchh
Ġbach aata
vish eshata
Ġlaipatop s
tav iyar
Ġtaip ing
Ġkon tr
Ġummeed avaar
Ġtraans alet
Ġla hasun
à¤ ¸
Ġkarav aana
idee jeei
Ġchhod akar
Ġris ar
Ġsik h
Ġhed alaimp
Ġbait hak
Ġdilee var
Ġpan jee
Ġmaas k
chan aatmak
Ġre dee
Ġchainal s
Ġvig yaan
Ġmit tee
Ġoon chee
Ġduk hee
Ġsuna hare
Ġklee yar
Ġphinish ing
Ġkendr it
Ġavas tha
Ġsansth aan
Ġedam in
Ġshok es
Ġmaig n
Ġchaut hee
Ġkaamay aab
Ġpiks el
kas tamars
Ġandh ere
Ġost iyo
Ġeksapr es
Ġsandar bh
0 9
3 20
6 99
b en
d v
g aar
g ing
h aath
j it
j ay
j aane
n aam
o teejee
r s
r id
s it
s th
v odaaphon
Ġk ind
ha bord
Ġs olar
Ġs ukh
Ġs ingaapur
in ase
an aatmak
Ġb ro
Ġb aaki
ya vas
Ġj ukarabarg
Ġke yar
ak at
ch orai
Ġka isee
Ġn it
Ġn igar
ur al
at enament
Ġt y
Ġe sar
Ġh p
es asee
Ġph e
Ġph is
Ġaa lo
Ġaa isakreem
iya s
Ġis tam
Ġpar ich
Ġpar ivar
ab ai
Ġga har
Ġg aan
Ġg st
ata ir
Ġsak a
ain s
Ġra chanaatmak
cha is
Ġ5 4
Ġmo te
eed ent
Ġy aamaaha
jar ooree
Ġtee char
Ġva uchar
isee lie
uj alee
Ġbl ach
Ġde ree
Ġsar ph
Ġkan sol
ash ips
Ġpha imilee
Ġtr ak
Ġtr oo
akar ta
Ġhaind al
gar mee
Ġro bin
Ġmuk esh
Ġed reeno
Ġ15 3
Ġred ieshan
Ġaan kh
Ġglaas a
Ġdekh ie
Ġvol t
Ġport s
Ġkil o
Ġkhul a
Ġ50 5
Ġnyoo tr
Ġkastam aij
Ġkhol a
Ġkal aak
Ġhed alaimps
Ġkhus ha
Ġdhan iya
phr end
Ġdas hak
Ġrahen gee
Ġres ing
Ġdaam on
Ġseek hen
Ġvaid hata
Ġstee riyo
Ġhaid aset
sil endar
tiph ikeshan
Ġul l
Ġmadh yam
tum hen
inst ol
Ġshaukeen on
jyaad aatar
Ġnak alee
Ġkoo pan
Ġsartiph ikeshan
Ġsartiph iket
Ġdiph olt
Ġmahaar aashtr
Ġmrt yu
Ġdhoond hane
Ġdhad akan
Ġeksapend ebal
Ġeses adee
Ġbahupr ateekshit
Ġnigar aanee
Ġistam aal
Ġblach k
2 3
3 60
a chh
d hee
d uk
g oo
g ol
i chadee
j isakee
j aisa
k ail
m ek
m adh
n ait
o ee
p m
p ak
p es
r i
r n
r tj
s te
s eting
v est
v aah
x olo
y aay
Ġ id
ee jan
Ġk aavaasaakee
aa gee
Ġha th
Ġb aant
Ġd ej
Ġd ed
Ġd ib
Ġd aada
ta t
Ġa lee
Ġj aaya
ak see
Ġl aee
ch o
ch uree
Ġka tee
Ġn orm
Ġr ot
Ġv dai
Ġt yoon
Ġkar n
am aar
ph tar
ph okas
as hah
har oom
Ġg aid
or p
Ġta ivaan
Ġin heen
Ġsak engee
Ġek stra
Ġch okalet
aas k
aee tee
aap har
cha t
Ġ5 999
ag an
Ġna hee
Ġjo kh
Ġdee deeaara
Ġpro bl
Ġan aavaran
Ġan adek
ip op
ish or
us andh
iyar s
Ġrak sha
Ġden im
Ġden gee
var tamaan
uj aara
Ġkaha ta
Ġ7 8
Ġgr ed
Ġ20 30
Ġsar var
Ġsa pane
âĢĻ âĢĻ
Ġee ko
da un
Ġkl astar
Ġkor apor
Ġprati bandh
Ġim arajensee
Ġyoon ik
Ġyoon eeb
Ġgold an
Ġhaal aat
Ġsun ana
und eshan
Ġaay og
Ġmas tee
Ġgraam een
Ġroj agaar
Ġmot ok
Ġkro s
Ġdab aane
Ġkhol akar
Ġchar d
Ġkis m
Ġbraand s
bl oot
Ġkhoob iyon
Ġpan asonich
Ġmaas ik
Ġkhush iyaan
pur aane
Ġjh el
Ġjh urr
Ġkram ashah
Ġsundar ata
buk s
Ġdeelar s
Ġintee greted
Ġabhin eta
Ġdast aavej
Ġkitaab on
Ġreg yular
por osis
Ġhans ate
Ġsansth aapak
mai izu
Ġbhaavana on
Ġtat kaal
dok tar
Ġkaipes itee
Ġfacha ibook
soot ron
Ġekam aatr
Ġtakalee ph
Ġparivar tan
Ġvdai o
7 9
9 60
b es
b aink
d aata
d oor
f air
i pal
l y
l itee
l ene
p hal
r y
r as
t aav
t aasking
u maar
v yoo
y aam
Ġk aaga
Ġp ay
Ġm een
an aadu
Ġb u
Ġb esab
Ġb ook
ya omee
Ġd aakh
Ġd raigan
on e
Ġa da
Ġj aayar
Ġj uta
Ġj ooj
aar atee
Ġl aana
Ġl anch
ch oonki
Ġka ushal
Ġr u
Ġr it
Ġr aast
Ġr ingat
at ane
Ġe t
Ġe riya
Ġkar aatee
am as
es apee
Ġph yoo
Ġph aarm
ad raiv
il ar
ab oo
Ġu par
Ġja o
ro lar
aap iksal
aav ik
Ġo v
dee jal
Ġna zar
sh eyar
Ġkaim pen
Ġkaim pas
Ġpa und
el ap
Ġmo hit
av haatsep
jan ak
om as
us tak
Ġdo sh
st aar
Ġ7 000
Ġsp o
Ġchal aate
Ġmai tal
Ġgr et
Ġroop aye
Ġkhar eedee
Ġ10 5
Ġeks aboks
Ġkan pharm
iph aayar
Ġmad dena
Ġbadal akar
Ġpah iyon
Ġsv aagat
Ġte bal
Ġaar th
Ġsur fachai
Ġw ww
Ġsun ee
Ġhaar mon
Ġaay urved
Ġskor piyo
Ġsup ara
Ġjan gal
yal et
Ġvi jan
las s
Ġbait hakar
yaar k
akl ooj
ach chhe
Ġaid ition
Ġaak aash
Ġkrom abuk
asth aan
Ġsambhaavana en
Ġhad diyaan
Ġpooch hen
Ġpras aad
tek nolojee
Ġkamaj oree
dis ple
Ġul tee
Ġbhool en
Ġupay ukt
Ġdeelar aships
Ġpos taped
Ġbyoo tiphikeshan
odhakar ta
bat aate
Ġvaatar aprooph
Ġsabsak rai
ave gan
Ġriv yoo
telee kom
Ġshed s
Ġken avas
Ġchit r
Ġdom in
Ġnajadee kee
lap akaart
Ġev enjar
Ġphen k
Ġklaim et
Ġsanchaal it
amar ra
Ġgaaya b
soo chana
Ġsatar k
Ġjokh im
Ġmaddena jar
g aane
g inee
j ing
j im
k ad
l aid
l aip
m ars
s ikyor
t m
v is
v eediyokon
Ġs aa
Ġs av
Ġs rot
Ġs leep
in itee
in fochus
Ġha st
Ġb y
Ġb enj
Ġb ita
Ġb engal
Ġb engaluru
Ġhai dar
Ġd al
ta g
Ġj ur
Ġj vel
en tee
en tal
Ġka v
Ġn adee
Ġr estor
Ġv as
Ġv ir
Ġv aakee
aan ti
am it
am el
ad isk
ie tar
ek h
Ġu daan
Ġ1 999
tar ik
Ġta in
Ġbhee m
aad oo
Ġch oo
Ġkam a
ap ej
Ġkh aam
uk aam
dee l
Ġbh p
Ġphee t
th iyon
jar oorat
Ġpro phesar
Ġan ushka
av aan
om a
pee ai
Ġlek h
Ġend raid
Ġbaar silona
Ġba chana
Ġ7 28
Ġsp a
Ġstor ee
Ġbe cheen
Ġpad hana
Ġmaar ooti
kar t
Ġsa um
Ġmod arn
Ġut sar
um akin
Ġphil ips
Ġbik e
Ġind i
Ġpha b
Ġkha dee
Ġaas ha
ade h
Ġro tee
Ġgeeg aah
Ġbata ur
Ġmuk ti
Ġkor por
Ġf or
gr et
Ġsv atantr
tan aav
Ġim photenament
aph esabuk
Ġvai gan
ram it
Ġprod ekt
Ġnik haar
Ġjan ata
Ġminat on
pr ooph
Ġsin ema
Ġvi rodh
Ġkhul ane
Ġbane gee
Ġabh aav
Ġej uk
Ġli ons
Ġste balaijeshan
Ġpahan ana
Ġphan s
Ġvot saip
Ġkaan oon
Ġmaal aveyar
77 31
Ġdhon e
Ġkhoj ane
Ġmet hee
son y
Ġtal aas
hanee y
Ġrod hee
Ġphu tabol
Ġphu taviyar
ampar ik
Ġmobil itee
Ġbhoo kamp
bhaav astha
Ġpixail s
Ġprast aav
Ġnibh aane
Ġpratid van
Ġedam aayar
Ġech emadee
Ġvhaat saip
ensh iyal
Ġagr anee
Ġdaayam and
Ġdaayam enshan
Ġeksatar nal
Ġnatee ja
Ġtree tament
vhee lar
Ġchaunk aane
Ġpariv ahan
Ġelar jee
Ġprots aahit
Ġdhar atee
Ġnij aat
Ġpaim aane
Ġbuj urg
Ġkaree bee
Ġsangat han
Ġsamaar oh
Ġgahar aee
Ġprobl am
0 1
7 6
7 90
g vej
h im
k tar
k od
k abhaar
n ikon
p ich
p ooree
r aas
s us
t iphaid
v aala
v aach
w ch
z z
z ed
Ġk aaj
Ġp aiga
Ġm wch
Ġb in
Ġb ot
Ġd av
Ġd aadee
Ġj aij
ai x
Ġme gaap
Ġke k
Ġn an
al aind
Ġkar v
Ġph ork
ad aasht
as am
il d
ab eer
Ġga haree
Ġg habar
ek char
Ġta il
Ġta phapaid
yoo ro
Ġch aand
ap p
Ġkh ujalee
Ġkh ichadee
Ġjee te
aav ashyak
Ġsh er
Ġ5 6
Ġpa hana
Ġpa chhaad
Ġy aatr
Ġsam eeksha
Ġyoo ke
aak aat
Ġ6 2
ul a
ip kart
oor n
er iyo
Ġbaad ha
Ġsee ree
us hee
Ġva yas
Ġtar al
va jah
Ġmaik en
Ġmaik ron
st aart
Ġba han
par inaam
oot hee
Ġbadh aana
Ġdin achar
Ġkhar aabee
Ġkan aada
Ġ16 00
Ġbat aana
Ġlee ph
Ġaas amaan
Ġinjan on
Ġmem aree
Ġkl ip
Ġsu z
Ġbata e
Ġbr ed
Ġbr itish
yak ti
Ġ15 000
Ġor iyo
eeb at
Ġkr iet
Ġsv aabh
Ġak shar
ban dee
een a
ja ega
aand hee
Ġpo int
tr aans
Ġz ar
Ġlene vo
aadh aar
Ġsup reem
Ġband al
Ġbil akul
Ġni gam
Ġpat thar
Ġ24 00
br aan
Ġphail on
Ġla en
Ġantar iksh
Ġnyoo york
Ġpak shee
ith i
Ġcham air
Ġophis ar
Ġsekend aree
lai ph
khaas akar
aich o
Ġsach in
Ġq hd
Ġ27 00
bin eshan
Ġlon char
hu vaave
Ġgambheer ata
Ġbud dh
Ġeg ree
Ġelatee peees
baal on
inst old
ati on
pl ay
Ġjat il
Ġsat r
Ġpraar ambh
adhik atar
Ġast itv
Ġasap hal
Ġtamil anaadu
Ġtaaj agee
Ġjaas oos
Ġchikit sa
Ġedaj ast
vy aayaam
Ġphaay araphoks
Ġjaagarook ata
Ġlubh aane
Ġgand agee
Ġnaveen atam
Ġajee b
Ġsanved anasheel
Ġkosm etik
Ġmotok orp
Ġraast on
Ġhaidar aabaad
Ġpaiga sus
3 50
4 3
8 7
8 50
a chchha
b s
b ara
b hale
b aadee
d d
d iya
k vik
l ad
l et
l eks
m aatr
r ad
r inging
t or
t veet
t esla
v aane
Ġ aanch
Ġk aa
Ġk endreey
Ġs oda
Ġp oon
Ġp olee
Ġm ur
Ġm int
is hee
Ġd izain
Ġke m
Ġl aap
Ġl os
Ġl eyar
Ġka sh
Ġn as
Ġn fch
Ġn ayee
Ġv h
al aava
Ġh in
Ġh er
Ġkar mach
am ai
ph oksavaigan
aat aavind
pan on
Ġu i
it o
Ġta itan
iy og
ata ch
yoo es
Ġsak ht
aad ha
Ġch ol
Ġsh aahar
bee te
tee bee
tee sh
Ġna heen
Ġapan aakar
Ġmo tee
th odee
Ġjo ging
jar manee
Ġpro s
ail itee
ip aid
Ġban ate
us amen
Ġjar iya
Ġsk aee
va hee
Ġdo hara
Ġsp ekt
Ġchal enge
yaad a
Ġgr epha
kar sh
asan ee
Ġdiv elap
Ġsar tiphaid
Ġlen ee
Ġchh aan
Ġkan ekted
rai ch
um a
Ġdik hen
Ġdik hate
Ġbana egee
Ġpha undeshan
akar ee
Ġbee seeseeaee
Ġaas pekt
Ġmaan ak
Ġro chak
Ġbata ega
apr adesh
Ġpaar ts
Ġsarv aadhik
Ġaad esh
ron ik
Ġyoon eek
Ġes osieshan
Ġapadet s
Ġkant rolar
Ġpur askaar
Ġdikh aana
Ġkshamata on
Ġset s
Ġkai bin
Ġgar bhaashay
Ġkain avaas
Ġgan it
Ġar tha
Ġakaunt s
sap haee
à¤ ķ
Ġhal dee
Ġroj amarra
Ġsambh aavit
Ġkal aee
Ġabh ibhaav
Ġshop aklooj
Ġang on
Ġsach chaee
Ġhad dee
Ġret ina
poor v
Ġmon okrom
Ġmar aathee
Ġanok hee
haid ret
Ġpol ish
Ġduk aan
Ġladak iyaan
sn aipad
dij ital
Ġprem iyon
ilekt roniks
Ġhair aanee
Ġdu o
Ġdevid asan
jeees em
Ġrajistar d
teevee es
Ġji onee
Ġaltr aapiksal
Ġsent rik
thar aitis
Ġmul aayam
Ġmul aakaat
Ġkamyun ikeshan
Ġkiran on
Ġnaak aam
Ġjaas oosee
Ġnek st
Ġrikaard ing
Ġsuk oon
Ġkeem ata
Ġdrsh ti
Ġjhan j
Ġsantush t
oloj ist
agn ishan
Ġpraatham ikata
Ġikai yon
Ġkhid akee
Ġgra und
visheshata on
usandh aan
Ġyooneeb odee
Ġbesab ree
Ġjaayar oskop
Ġyaatr iyon
Ġdinachar ya
Ġsvaabh aavik
braan iks
Ġkarmach aaree
) :
5 40
7 50
b aahar
e aee
f ps
g han
g et
h p
l at
l uk
m ad
n i
n on
p tar
r ain
s ek
s et
s ub
s wipai
v at
v heel
y ch
Ġ iy
Ġp yoor
Ġb hat
Ġb mw
Ġd at
ta ig
Ġj ut
ak aast
Ġv is
Ġt eksat
Ġe aar
Ġse var
Ġh ep
Ġkar oon
Ġko lar
ph aayar
Ġis ame
Ġga jab
Ġg uj
or amens
Ġin v
Ġin sp
Ġ2 60
aad e
Ġek sesareej
ane m
Ġch in
Ġch int
Ġjee laind
aav an
Ġsh vaas
dee j
Ġbad he
Ġapan aane
ir an
iks ar
Ġem adee
Ġsam poorn
Ġ6 99
Ġst aaya
Ġst rai
Ġst ets
Ġep ee
Ġun n
Ġjar man
Ġsk rab
Ġdo p
var sh
Ġphr an
Ġbe ta
Ġgr ast
Ġcha imp
oon dai
Ġpee tar
Ġdik he
Ġprat iyog
Ġsim pal
Ġpha ik
Ġpha ikt
da f
yaan i
Ġkol am
ma us
Ġam e
Ġmaheen a
Ġf irai
Ġpaar amparik
Ġrej istent
Ġkr ooj
Ġ14 3
Ġ14 4
Ġman o
Ġi talee
Ġvai br
Ġsun en
Ġvid aio
Ġlik hen
Ġmeediy aapaid
hy oondai
Ġmas aala
Ġtop ik
br iten
Ġphail en
Ġkara egee
Ġmi x
maikro esadee
yoon ar
Ġmajab oor
Ġnikal ate
Ġmot orol
Ġraaj asthaan
Ġud aaharan
Ġvy aav
Ġmaltee taasking
Ġdr aee
Ġste tament
Ġrakh ega
Ġhel dee
pat nee
Ġnikaal en
Ġjed i
Ġpan kh
Ġol aid
Ġdaayar iya
ug aatee
Ġpal s
Ġrog iyon
Ġbhaag eedaaree
Ġkhaan apaan
Ġsmaarta vaach
Ġentee baayot
Ġshaim poo
Ġphoks avegan
Ġsoochana en
Ġsid dh
Ġpich hala
21 60
kro m
Ġthan dar
Ġoon cha
Ġwi fi
Ġyog yata
Ġaj ay
Ġvil en
Ġyoorop iyan
inst aagraam
Ġtaig ar
aank hon
Ġnar vas
Ġish aara
Ġchamak adaar
Ġgul aabee
Ġtyo haaree
Ġdevalap ament
Ġshan ivaar
Ġdais habord
Ġilaak e
jul ata
Ġgail aksee
Ġdhaar ana
Ġoparetar s
Ġob jekt
Ġnajadee k
Ġanup aat
Ġkandeeshan ar
Ġvast u
aito uchh
sen sar
Ġpriy anka
Ġraashtr apati
Ġviyar ebal
vars eshan
bor ginee
Ġig nis
Ġchham aahee
aven char
Ġostiyo porosis
Ġaalo chana
daun alod
Ġjvel aree
Ġrestor ent
Ġchol or
Ġshaahar ukh
Ġgrepha it
Ġjhanj hat
Ġiy araphon
5 6
7 000
9 7
: -
a pana
b aaree
h indee
k rt
n av
n aicht
p it
r aashtreey
r oope
s ait
v on
w n
w ind
Ġk ishor
Ġs ok
Ġs ud
in ai
Ġp anee
Ġm aa
Ġb ard
Ġb snl
is ame
Ġd harm
Ġa han
Ġj un
Ġj inda
ai ya
ak char
Ġl aas
ch en
Ġn aaran
Ġv ok
al it
at v
Ġse le
Ġh oo
ik etar
Ġph ut
ad aata
Ġaa is
Ġaa aik
Ġaa dar
Ġaa uta
as oon
ab am
har on
Ġga hara
Ġg in
it r
ata ik
Ġki d
Ġek a
Ġek seen
Ġch or
ap epar
Ġkh aamee
Ġsh ish
Ġsh yaam
Ġ4 500
bee seeseeaee
Ġbh aaga
iv aanee
Ġpr achaar
Ġkaar rav
im ing
Ġma je
Ġdil aane
Ġyoo ai
ok t
og n
Ġ6 6
Ġ6 20
ul in
Ġsab s
pee l
pad a
var d
st et
ham a
Ġsp re
ij on
kar ane
Ġ12 999
Ġcha b
Ġcha dh
Ġcha udee
Ġvar un
Ġsar phes
Ġsar apraij
Ġchh il
ĠâĢĺ âĢĺ
Ġdh aansoo
Ġen joy
ars hal
Ġ201 1
kan ekt
Ġgee t
Ġam ej
vo yas
Ġmuk h
Ġ64 9
Ġpaas aport
Ġkhil a
Ġor a
Ġ14 00
Ġman am
Ġim x
Ġim pr
riya ta
Ġaan tarik
Ġas antul
Ġkant ree
Ġnambar on
Ġw atair
Ġsamaj had
Ġdikh aate
Ġteknolojee j
tel ait
Ġvi dh
Ġgar v
Ġyaad adaasht
Ġtel alaimps
Ġpram aan
Ġritel ars
ven see
Ġbha ga
tv s
Ġpaid al
Ġbaind s
tail ik
Ġutha en
55 5
Ġutaar egee
Ġson a
Ġvij ual
Ġkail iphorniya
Ġghat aane
Ġbo bar
Ġvisheshata ur
77 7
Ġvheel s
Ġbain g
Ġhat aaya
Ġmit haee
Ġdikha e
Ġduk aatee
à¥ ĩ
Ġdho en
Ġreg ular
Ġphool on
Ġtrai val
Ġdevalap ars
Ġdip aartament
Ġpropheshanal s
Ġmars edeej
Ġmembar aship
prat yek
sur aksha
Ġgaard an
Ġeksatar anal
pree miyam
Ġaash char
sta ind
Ġmuj hase
Ġmand ir
aastr akchar
Ġrie kshan
Ġchool pad
Ġbrait anes
ian chai
Ġgunag une
Ġtoha pha
Ġpashch im
Ġom ega
Ġgrej u
Ġnic hale
Ġsarph ing
Ġpratiyog ita
Ġekseen os
9 3
d ing
d uniyaabhar
i br
k is
k aip
k hala
l on
l yf
m od
m irai
m hz
r oo
r im
r ast
s is
t t
t yoon
v s
v ot
v aay
v er
Ġ =
Ġk ana
aa chh
aa aip
aa iye
ar ilaayans
Ġp daf
Ġm ent
Ġb hala
is temaal
ya sh
Ġd ain
ta j
Ġj ashn
hee r
Ġme tailik
Ġl aiks
Ġn ah
Ġr ap
Ġt aask
Ġh aathee
Ġko me
Ġph evar
Ġaa ikon
Ġpar i
ab a
aal an
ie k
Ġg et
han s
iy aar
yoo d
yoo mee
aad esh
aam aany
aas iya
Ġkh uraak
aav anee
aav alee
Ġo aeees
Ġ3 30
Ġ5 50
Ġto l
Ġna var
Ġpr aan
Ġpa egee
ed ikal
Ġjo po
Ġdee eselaar
Ġem p
Ġem ee
ul akar
av an
Ġsab jee
ut tar
Ġst hal
Ġban en
us aka
Ġab s
Ġsk ript
Ġden ee
ka heen
Ġran gee
Ġlag aam
ham esha
Ġaaee n
Ġmaar g
Ġgr ip
Ġgr aaph
Ġcha ina
Ġsa panon
apee dee
Ġut hane
Ġjab ard
Ġeks on
Ġeks atee
Ġchh id
Ġsen k
Ġdik hana
Ġsan de
Ġapana en
Ġee ema
Ġtr el
Ġon abord
Ġkl iyar
Ġkl aint
Ġmaan s
Ġel yuminiyam
Ġle bal
Ġbadal ana
Ġkor n
Ġkvaad echadee
Ġ15 5
Ġum da
Ġhaal at
Ġ30 9
Ġ30 80
Ġz oom
Ġbol ate
Ġsur kh
be had
Ġsun aee
Ġisee lie
Ġrik agnishan
Ġvajan ee
pr s
Ġsil eriyo
Ġsaab un
Ġkai y
sk ool
Ġgar am
Ġla uta
Ġkhul ega
yo gee
Ġjod akar
Ġchhod ane
Ġud aas
Ġmaltee meediya
Ġnikaal akar
Ġbecha inee
Ġphor ch
Ġneks an
Ġkom bineshan
jen aphon
eem iya
Ġindast reej
haid reshan
Ġras oee
Ġphrend alee
Ġthan dee
Ġaim i
à¥ Ģ
Ġsig aret
Ġdaud ane
Ġnai o
Ġvyaap ak
Ġvyaap aaree
Ġghatana on
Ġmus eebat
mb ps
Ġchha vi
Ġaara jeebee
Ġip ad
Ġir aada
Ġstai balaijeshan
Ġdai tasan
Ġkaat ane
Ġlak adee
Ġkamyun ikeshans
Ġmachchhar on
oph is
Ġchaud aee
Ġagr avaal
Ġpaancha ven
Ġchen nee
abloo veejeee
enta in
Ġamaz on
Ġlum i
Ġmarsidee j
Ġphepha don
Ġkaart oon
sit ent
Ġkalaak aaron
Ġkarn aatak
Ġaarth ik
Ġpyoor iphaayar
Ġpanee r
Ġnaaran gee
Ġkome dee
yoomee niyam
2 40
b aakee
i ai
j aish
k aaphee
k ayaas
l aal
m aee
m aata
n atee
r ait
s ail
t hak
Ġ âĢĻ
Ġ ikon
Ġk aata
Ġs d
Ġs oon
in tee
Ġp aath
Ġp hand
Ġp ustak
Ġha k
Ġb ak
Ġb aand
is ko
Ġd aish
Ġd aag
Ġa ph
Ġj heel
Ġke ral
ak ripshan
Ġl akee
Ġl oon
Ġka ph
Ġn aiv
Ġr ooph
ur ai
at aap
Ġt es
Ġe dee
Ġko baal
ph ed
Ġph aas
Ġpar amishan
ab ooj
Ġg aay
Ġg prs
or tar
Ġu b
Ġho sh
Ġta it
Ġin fochus
phon ais
Ġch ch
Ġch mos
Ġphon t
ap har
aee eph
Ġjee na
ara char
Ġsh aak
Ġsh ort
Ġsh yaomee
Ġra und
bee emadablyoo
tee y
Ġbh oore
Ġpr ay
Ġtak ar
el s
el asee
th on
Ġ6 17
Ġmil aan
Ġan ush
Ġpahal oo
ot om
em ee
Ġun galee
Ġva zan
Ġsk raich
Ġya heen
Ġtar n
Ġjaan ata
iyo jana
Ġde v
Ġde lee
par eeksha
ham ee
ij ja
Ġbadh ega
Ġpad ate
Ġcha sh
Ġdek a
Ġda phtar
Ġsar eek
Ġsa hakar
Ġsen a
Ġpee k
ig ra
Ġee m
Ġee maan
kh el
ist r
Ġel abam
Ġel yoomeeniyam
Ġ9 6
Ġ9 7
Ġam oled
Ġmuk ad
Ġ25 60
Ġshar aab
Ġf raiai
Ġso te
Ġso chana
Ġ15 4
Ġpaar t
olee vud
gr en
gr ah
Ġman ush
Ġak shay
Ġim yoon
alp ik
Ġnot is
Ġaar tharaitis
Ġsah ej
Ġopar eshan
Ġaaj aadee
Ġaaj ama
Ġdar asal
Ġlik hana
Ġlik hakar
Ġrakhen ge
pr abhaav
pr ashn
Ġkon e
ita bit
Ġesayoovee j
Ġeksa zed
Ġvyakti gat
Ġsupar akaar
Ġla e
Ġsaamaan on
Ġantar aal
Ġchun e
ook olar
Ġbadha en
Ġmaus amee
Ġupayog ita
à¤ ¾
mak aast
Ġingl ish
mot orol
Ġchar chit
Ġree tveet
Ġhed alait
Ġparaph oramens
Ġkis aan
Ġej ens
Ġraid ar
qu ai
Ġsthaan on
Ġopan ing
Ġpahachaan ane
Ġgun jaish
Ġaham iyat
Ġtur bo
Ġgo va
Ġparaphorm ensh
Ġpais on
Ġpareshaan iyaan
ub ai
Ġbijan as
Ġmaal ish
Ġret ro
Ġaakar shan
Ġsudhaar ane
Ġupay ok
Ġvist rt
Ġaat ma
Ġaim ui
Ġsaha yogee
Ġvigyaapan on
Ġfl ipkart
Ġshikaayat en
Ġdeval apar
bad al
Ġpaal atoo
Ġata ich
Ġkhu lee
Ġbaitar iyon
Ġgad abadee
Ġsaad he
Ġnaar aaj
Ġsol id
---------------- ----------------
Ġtoot ane
Ġmichro soft
Ġdokyooment s
Ġtraanj ekshan
Ġinj ekshan
Ġneel aamee
Ġchet aavanee
bhaag iyon
Ġentar atenament
Ġgai ar
shi ba
Ġkamyoon ikeshan
Ġdhok ha
Ġghut ane
Ġbek aar
sup ar
seph tee
Ġdaravaaj e
Ġsul aj
Ġungal iyon
Ġhy undee
lene vo
3 000
8 99
a ya
g ul
g aalee
g etiv
h ed
h om
i al
j oon
j aahir
k aan
k ais
n ol
n ish
n eks
n eshanal
o ga
p ais
p araph
s aat
u van
v r
v atee
w i
Ġk m
Ġk up
Ġk oope
Ġs aim
Ġs ne
Ġs aaha
Ġp un
Ġp ot
Ġm aath
Ġm aaph
Ġb oom
Ġb aag
is char
Ġd iye
Ġa tr
Ġa phord
Ġa upachaar
en ch
ak ha
Ġka da
Ġka henge
Ġr aee
Ġr id
al ar
at aal
at ti
Ġt yoo
Ġt aavar
Ġh aad
Ġkar ant
ad in
ad ars
ad aabaad
Ġaa engee
Ġaa ibol
ah ej
Ġpar ahej
Ġg aajar
Ġho d
iy aam
ro jan
ro bot
Ġsak riyata
Ġek ting
Ġch orai
Ġkam arshal
dh r
Ġkh it
Ġkh inch
cha il
tee ta
ag aanv
Ġpr aikt
sh aak
Ġpa hane
th erepee
Ġma un
aak arshak
Ġsab aka
ut ubai
sar ve
Ġst en
Ġst op
Ġst ron
Ġst rot
oor vak
Ġban aayee
Ġraha kar
Ġep p
pee tee
Ġtha i
Ġrah it
ka ut
Ġbl ar
Ġ7 99
ud e
par s
Ġran abeer
Ġaaee tyoon
Ġstor ai
ki g
Ġmai te
Ġbadh aatee
bh inn
Ġpad hate
Ġmaar ane
Ġ12 3
Ġdek hata
Ġphl or
Ġbaik alit
Ġeks asee
Ġkan varseshan
Ġsel ibr
Ġbana ega
Ġee vee
Ġind iketar
Ġpha undar
Ġtr aayal
kan jyoom
Ġon aitouchh
ma jee
Ġvee lars
Ġmaan gee
Ġmaan akon
Ġel im
Ġel apeedee
Ġgh ir
lek haneey
Ġchaarj ig
Ġsarv ekshan
Ġor enj
ikal ee
Ġpata lee
Ġpree vyoo
Ġghar on
Ġprati bad
Ġaan val
Ġbar lin
Ġ11 999
vish esh
aast ree
Ġbadalaav on
Ġsil e
Ġsil k
yan aka
Ġkai phe
Ġ24 50
Ġ200 8
à¤ ¿
Ġnukasaan adeh
ven yoo
Ġchait s
Ġeksap aind
Ġlad aee
Ġkool ing
Ġskain ing
Ġkyoo b
Ġbait ha
Ġuth aate
dhaar th
yoom ar
55 1
inn ee
Ġad mirai
Ġnish aana
Ġnish karsh
pur aanee
Ġins ta
che hare
Ġpal sar
Ġphorm oola
Ġkom ars
Ġkont ent
Ġausat an
Ġkvol itee
Ġkahaan iyaan
hu aave
Ġsabj ekt
Ġpeedee eph
Ġkontekt s
44 4
Ġtool s
Ġmach hal
Ġkad aahee
aang ulee
kl ik
kl aas
Ġaal iya
Ġsansth aanon
Ġdog unee
Ġpok emon
Ġvyavas thit
Ġsamud ree
Ġdeep ika
Ġbaan ta
saam aany
Ġvhaat s
Ġchaut ha
Ġpau dhon
Ġchhut tee
Ġapha vaa
Ġmanj ooree
niyam it
phit anes
**** ****
Ġrain a
Ġniy aam
Ġmaidi ataik
Ġphotogr aaphar
Ġsus aid
shuru aat
Ġmanach aahee
ji onee
haik ars
Ġhaip pee
Ġlol ipop
Ġchn g
Ġringat on
laip atop
sikyor itee
Ġejuk eshan
Ġhep etaitis
Ġame zan
Ġaaaik taakor
Ġment en
Ġjabard ast
Ġeeema yooaee
Ġphorch yoonar
0 2
1 000
1 20
1 50
2 000
2 50
5 50
9 50
b y
b aap
b ra
e ro
g ra
i quai
j et
j un
m in
m en
m un
p han
p yaar
s oor
v air
v aag
Ġk un
Ġk ing
aa ain
Ġs y
Ġs aan
Ġp ig
Ġp yor
Ġha la
Ġd aak
Ġd aave
ta svee
Ġa peel
aar adee
Ġl ivai
Ġka is
Ġn yoon
Ġr iyo
Ġv aan
Ġv aaya
Ġv eting
Ġv yas
Ġv imaan
Ġe aee
Ġse b
Ġh tt
am areeka
am aikro
ad en
Ġaa air
Ġaa kal
as aathee
Ġpar iyojana
ie tiv
Ġg eschar
Ġg aandhee
Ġu chh
Ġu da
it iv
Ġho kee
Ġja ya
Ġin k
aam ik
Ġch utak
Ġch esis
Ġkam aane
ap ed
te jee
Ġra y
lee n
Ġ3 400
cha ineej
uk a
Ġ5 99
Ġbh oon
sh e
Ġmo j
Ġmo ischar
ir y
th oda
le chadee
Ġy aahoo
aak he
Ġan usandhaan
av ain
av ich
aab es
aab ol
sar phar
jan on
Ġban gaalee
om ik
Ġal ph
Ġsee dee
aga dh
aga st
Ġtar ang
Ġrah aane
kam ee
kam pan
Ġde phin
vee r
Ġlag en
Ġaaee ped
Ġaaee aeetee
Ġbe chana
yaad i
Ġmai dam
Ġbadh aayee
sa phed
kar ata
Ġ12 9
Ġpl es
aid al
Ġve gaas
Ġpee em
Ġsan sk
ig eshan
Ġpha itee
Ġtr aind
kh aana
eks ap
Ġhar iyaana
Ġkhareed e
Ġsaam p
Ġam an
vo int
Ġno v
Ġap ek
Ġrej al
eeb rid
gr eshan
ahaal aanki
Ġi f
Ġnot s
tak on
Ġaar ambh
Ġmin aral
Ġmaarsham elo
Ġas sitent
Ġrik vest
Ġvid yaar
Ġlik hee
Ġnik aale
ko hal
ivaar ik
Ġtab deel
Ġsal aad
mp l
br aand
Ġtraans al
Ġphail aane
Ġ17 0
Ġla un
ve v
à¤ ĵ
Ġat om
Ġrok ath
Ġsm s
Ġkro makaast
rt ti
Ġree m
Ġree dh
Ġree yal
Ġbait hate
kal ar
Ġuth aana
Ġpoo ja
Ġseet en
vas th
ang han
Ġutar ane
aatr i
teen on
Ġdaayar e
Ġbo b
asth iti
Ġvot sep
Ġparis th
Ġkheen chee
Ġdisk avaree
Ġdikkat on
ame tal
Ġsid dhaarth
jen a
Ġ33 40
kamp aas
Ġmun o
Ġkahaan iyon
Ġbaay o
Ġbaay om
Ġdon ktar
Ġphu lechadee
Ġuts uk
Ġbi haar
Ġyog y
Ġdur ust
Ġdhee ma
lag jaree
undar y
Ġanumaan it
ris ar
Ġcho pada
ĠĠĠĠĠĠĠĠ ĠĠĠĠĠĠĠĠ
Ġaautal et
Ġchand rama
Ġsmart phonai
Ġjai e
Ġpriv yoo
eedee jeeee
Ġvaik seen
Ġvaik alpik
Ġkaamay aabee
raj istreshan
Ġbeej ing
Ġkut te
Ġamit aabh
Ġimphr aared
Ġimphr aastrakchar
Ġnaash te
Ġkhan gaal
Ġvishl eshan
mis aal
Ġdeevaan on
Ġkind al
Ġparich aalan
Ġull anghan
esapee e
Ġov ara
lass ich
Ġdomin ar
Ġbengal uroo
Ġutsar jan
app lai
teesh iyan
sub ishee
Ġbhat t
Ġstaaya las
Ġaadar sh
intee riyar
ataap oorvak
Ġkhit aab
Ġhala chal
Ġaakal an
Ġrokath aam
5 9
5 20
7 68
a qu
d u
f in
f on
g ak
g aan
g aadee
g ment
j or
j ag
l aar
l ip
l tai
m s
m yoojik
m ichro
n aar
o va
p e
p aayar
p halee
r akshan
s aar
s os
s aaph
t b
u ee
u chch
v aakar
v aahan
Ġ )
Ġ [
Ġk yooveejeee
aa e
Ġs hat
Ġs um
Ġp es
Ġp ijja
Ġha kee
Ġb iyar
on g
on iya
Ġj id
Ġj aadoo
Ġl aakar
Ġl aast
Ġl ivar
ch ural
Ġka he
Ġka hakar
Ġka vach
Ġn ok
Ġr itar
Ġr ukh
ga ut
Ġv s
Ġv es
al ab
al aiph
Ġt ya
Ġt en
Ġt yoob
Ġt ithi
Ġse shan
Ġkar oonga
ph estiv
ad am
as aimasang
as heel
il ik
Ġpar v
Ġpar ya
or th
ek o
it anee
Ġta thy
Ġta ingo
Ġki reen
ap ha
Ġjee ns
Ġsh esh
Ġsh uddh
uk i
Ġbad hana
ag ir
Ġpr asan
sh aam
Ġkaar bo
atee i
aak or
Ġ6 60
Ġ8 30
Ġdis ordar
Ġdis kaun
em el
Ġst ichk
Ġal aav
Ġjar nal
hak aaree
Ġlek sas
ort s
Ġbaar akod
vee aar
Ġphr esh
Ġ7 9
Ġaaee seesee
Ġsp ai
gal at
bal ee
bh ut
bh aavana
Ġmaar e
Ġpl ait
Ġcha p
Ġsar ason
Ġkan sal
Ġsel ing
Ġsen tee
Ġpee te
um r
Ġ13 5
Ġsan gh
ig ed
Ġbik een
akaar on
Ġpha ila
Ġtr ipal
Ġbee n
ooth e
ist ens
80 2
Ġup avaas
aah aar
gar miyon
Ġmaan yata
Ġdet aavind
Ġtai jan
Ġbadal en
Ġbadal atee
Ġbr en
Ġf z
Ġap ach
Ġjin ako
alain s
Ġphree k
ke val
Ġman ch
Ġok s
Ġdaal ata
Ġkamp yoo
Ġhuee n
Ġyoon ivars
Ġshree vaastav
Ġbar aten
Ġ30 20
Ġ30 50
Ġdaunalod ing
Ġz ed
Ġw r
Ġsun ate
Ġtaree k
gl aadesh
Ġbhej ata
pr adesh
Ġsil as
Ġsil ikon
Ġvindoj a
Ġsait on
Ġ24 9
Ġpradar shit
Ġkain dee
Ġtok yo
Ġjeevan asaathee
Ġbadha e
Ġ40 50
haar on
jo st
Ġandar oonee
Ġrok a
Ġlain gvej
Ġnikal ana
Ġbes iks
ib ilitee
Ġit yaadi
Ġdab aakar
Ġlaksh yon
Ġjam akar
Ġabh iv
Ġsekand s
Ġmaltee pal
Ġpahan akar
Ġgalat iyon
sak on
emes ema
Ġgun on
Ġres ipee
Ġres istent
Ġsank ramit
Ġins teeta
eta sarphar
sel kan
Ġbhaag on
Ġyooro peey
Ġmile g
Ġsocha ta
Ġkla ch
Ġskool on
Ġepha see
Ġpaisenjar s
Ġaaid al
Ġbur aee
Ġras aayan
Ġuts av
ampar aagat
Ġprok seem
Ġfl amai
Ġdava en
Ġimph ormeshan
Ġsail aree
Ġghatana en
Ġmus kar
Ġpholo ars
Ġgud agaanv
thee k
nyoo york
amp ara
Ġshiks hak
Ġdom en
Ġgail aree
Ġjimmedaar iyon
Ġhim mat
Ġmuj h
Ġmanj il
Ġenim eshan
Ġqu ad
Ġsuvidh aajanak
dig ree
Ġmaj aak
Ġnin ja
mahila on
Ġinteleej ens
Ġkhusha boo
duk aatee
Ġkorapor et
Ġjhurr iyaan
Ġjooj h
Ġphyoo char
Ġfor chai
Ġdav al
Ġpoon am
Ġdikhen gee
Ġabhibhaav ak
Ġphaikt ree
Ġthandar ab
Ġkid anee
Ġeka unt
Ġkaarrav aee
Ġrangee n
Ġkup oshan
Ġaaeetyoon s
Ġniyaam ak
Ġuchh aal
Ġrejal yooshan
Ġparisth iti
Ġhakee kat
Ġprokseem itee
) -
7 3
9 1
a ha
b oot
d et
e g
e jee
e vil
g re
k ara
k vaad
l oo
l ing
l ist
l andan
m ch
m air
m atalab
m asal
n ad
n air
o var
p aikt
t wittair
v ast
w u
y ual
z a
Ġ $
aa ap
aa id
aa chal
ar ing
Ġs teev
Ġs aavan
in tel
Ġp it
Ġha eebrid
an dee
Ġb istar
Ġb aaz
Ġhai t
Ġhai kar
Ġd aad
on omas
ta phon
Ġj ah
Ġj aam
Ġj had
Ġme g
ak ol
ak umaar
Ġl in
ch i
ch ek
ch aaval
Ġn aap
oo dee
al kaatel
at on
Ġt ish
Ġh en
Ġkar eena
ik yoo
ph o
Ġph ish
as han
Ġpar ampara
aal een
Ġg s
Ġg t
Ġg u
Ġg hee
ek abaar
Ġne getiv
Ġta ga
Ġin ova
yoo s
Ġaap atti
Ġra jan
bee n
bee em
Ġ3 600
Ġ3 65
cha ir
tee s
tee riyal
Ġ5 8
dee zal
dee mal
Ġpr ateek
sh op
up ayog
Ġapan aaya
el idee
ise bal
Ġy or
Ġpro par
Ġdil aata
Ġyoo th
âĢ ľ
Ġ6 1
Ġ8 000
ul t
ot iv
ut o
Ġtee yoovee
Ġtee chars
Ġst rip
Ġban aavat
aay ars
aay urved
Ġbaad h
see el
Ġsk el
Ġsk rol
Ġbaat haroom
Ġ7 3
Ġsp aim
Ġsp raid
Ġchal ana
Ġchal akar
ij inal
Ġsaal agir
Ġsar kal
Ġphl op
ne ta
20 10
Ġut ane
Ġut aaree
Ġut taree
Ġut hata
Ġdivais on
to taip
Ġchaar akol
Ġsel yular
est ik
Ġsen churee
Ġpee peeai
Ġ13 00
ash aalee
Ġen ajee
Ġsn aan
gar m
ma j
Ġvee r
Ġel yoom
Ġ9 8
Ġgh us
Ġam ooman
Ġtai chh
Ġbhaarateey on
aree b
Ġsnaipad rai
ast on
and al
and hak
Ġilekt raan
Ġbhar tee
ikal a
Ġ14 99
Ġim oshan
Ġkamp hart
Ġvai phai
Ġaaeephon a
tr es
Ġ30 6
Ġz iox
Ġas th
Ġas aamaany
Ġlait in
Ġkarod on
Ġbach aaya
Ġvid ya
sp ais
gl o
tiv ai
Ġbhej akar
Ġvol apepar
ba han
Ġsaab ut
Ġvi dhi
Ġpat tiyon
Ġ200 9
Ġtv s
Ġgan ametal
Ġkhul akar
Ġbaink on
sam bhav
sam bandh
Ġjod ana
utee n
yam antree
Ġprabhaav ashaalee
Ġsm ok
Ġpak aane
Ġchhod en
Ġris k
Ġkhol e
Ġkhol ana
Ġud aasee
Ġvit teey
Ġchala en
arav aahee
ach aap
ach aanak
Ġkavar s
Ġdekhen ge
Ġbit aate
Ġol ed
Ġpaaya lat
Ġutha e
Ġpop yular
Ġson am
Ġres pons
Ġprav aah
Ġpe y
Ġ65 3
Ġkhaan see
uta kee
Ġsambhaavana on
Ġentee oks
Ġviv aran
poor e
Ġpahuncha te
Ġjhata ke
65 80
dis kaunt
Ġprayaas on
Ġbain ar
Ġmun aapha
Ġlon cha
Ġdoktar on
antar araashtreey
Ġdraivar s
Ġkin aaron
Ġsail ent
Ġshu maar
Ġbhaav anaatmak
Ġmud de
Ġblad ai
Ġbul et
Ġbul aaya
Ġmainy ual
Ġgeegaahar taj
Ġir is
Ġjanm adin
Ġkoshika en
Ġrobot iks
Ġinaph initee
Ġbrod akaast
Ġchom p
Ġmembar s
Ġchhip a
Ġven yoo
Ġdablyoo aar
Ġtaal amel
Ġkiran en
Ġchaud e
Ġdarav aaja
Ġchhut tiyon
Ġdi jee
Ġnim n
Ġanup am
Ġshr rn
Ġmoov ament
bair ry
Ġichchh uk
Ġveek end
Ġnaakhoon on
Ġnaash ta
Ġyun iquai
Ġpanj aab
ros s
Ġprajaat i
Ġprov aidar
Ġrishted aar
Ġsit aaron
kla ud
kvaal itee
Ġjoo te
khoo b
yavas tha
bloot ooth
Ġkaaga j
Ġspo ilar
Ġsaa has
Ġspekt ram
Ġsande h
Ġnaiv igeshan
Ġstron g
Ġnyoon atam
Ġtraansal eshan
michro soft
Ġinsteeta yoot
masal an
Ġshrrn khala
0 8
5 30
8 60
b ait
d im
d el
d rai
d ila
d rag
g on
g em
g air
g haat
g aij
g uru
j opo
j ukaam
l ais
l oleepop
l aiv
m d
m or
n am
o tee
p th
p ul
p raiv
r in
r up
r ant
s omavaar
t en
t ok
v aaya
v ip
v aanee
y aap
y ot
Ġ @
ee pee
Ġs od
Ġs leek
Ġs aakaar
Ġp aat
Ġp yoo
Ġb s
Ġb aee
Ġb lee
Ġb hand
Ġb rok
Ġb aeen
is hen
Ġhai l
Ġd aane
Ġd ub
ta kareeb
Ġa iv
Ġj iksar
ai e
ai tee
ai ted
Ġke yoovee
ak anee
ak habar
Ġl aar
Ġl oop
Ġka ishal
Ġr on
Ġr ist
oo par
Ġv g
Ġv oo
Ġv itar
ur atalab
al chatail
at or
at rel
Ġt aad
Ġt ir
Ġt ang
Ġh aayar
Ġh icha
Ġko par
am aana
ad aba
Ġaa ye
Ġaa baadee
Ġis apar
ah ol
Ġpar antu
aal am
har s
Ġg aar
Ġg um
Ġg if
or ld
Ġu j
tar aan
Ġta ist
Ġta ilee
ata var
yoo see
Ġsak ee
Ġki ds
Ġch lassich
Ġch utakee
Ġkam ents
ap a
aap hat
Ġkh et
Ġkh aaya
Ġkh aatee
ain dar
Ġsh iv
Ġsh aah
Ġsh odhakarta
Ġ4 199
lee ment
cha sp
Ġ5 20
ag air
Ġbh igo
up t
ed is
Ġsam aachaar
ok e
og ing
og lo
Ġmil aaya
Ġan da
Ġan aavashyak
ul lekhaneey
Ġsab akee
onch h
Ġst aaph
id a
er iya
Ġsk ils
Ġrak hanee
Ġrak hegee
Ġden goo
aga ti
Ġtar j
bar oo
var kig
chch e
Ġmaik sim
Ġlaga va
he p
Ġpheechars is
Ġchal aana
ind i
pha undar
Ġgr aasiya
Ġcha uda
Ġkaard abord
Ġkhaas ee
Ġlen aden
20 14
oj en
Ġdin abhar
Ġeks is
Ġdh aara
Ġprat im
Ġsan jay
Ġee tee
Ġtr ookolar
os emand
Ġdij it
Ġhar akat
Ġup asthiti
Ġkol d
Ġmaan o
Ġmaan ata
Ġmaan atee
Ġ9 2
aree kee
Ġchuk aane
Ġed itar
Ġshar ton
vid iyo
apr ail
Ġf ee
Ġpah ie
Ġbhar ana
Ġbhar amaar
Ġbhar osemand
gr ej
Ġkamp oj
Ġyoon ait
Ġaar kit
Ġmin istree
Ġtaim ar
tr aayamph
Ġbar n
Ġbar phee
Ġbol akar
Ġlait ing
po st
Ġlik hate
Ġdikh aatee
so phtaveyar
Ġmauk on
ita lee
Ġpat te
Ġ17 00
Ġla ega
Ġla egee
abee aee
ook he
ve b
Ġchip aka
kul ar
Ġyaad agaar
Ġnikal ee
Ġbane ga
Ġdab adaba
eel aind
Ġchhod ate
Ġlad akon
14 9
Ġbraand ed
chit r
Ġkab j
eshak on
Ġaadat en
Ġkharch on
Ġaham adaabaad
55 2
Ġphan atach
Ġson aakshee
Ġad bhut
Ġnee m
Ġnee la
Ġnee mb
ug aat
Ġins aanon
Ġins ulin
18 00
Ġstee kar
Ġektiv a
Ġrim oov
Ġseph aayar
Ġentee na
Ġlaid ar
Ġvishv asanee
Ġvel iditee
Ġphain ens
Ġdham an
Ġpos tar
Ġroo baroo
Ġsaha mati
phl iks
ĠâĢ ĵ
Ġlakshan on
sn aip
dij aayar
Ġproph it
Ġper ents
Ġnibh aata
Ġkair iyar
ux us
Ġpok etasarphar
ht t
Ġdaim ej
Ġchom io
Ġnird eshan
aing air
Ġkris tal
baj at
Ġast hama
Ġgrah on
Ġsook he
Ġplet inam
Ġsaind avich
Ġtyohaar on
Ġchup achaap
Ġkur see
Ġbind uon
Ġsantush ti
Ġkhule gee
Ġxz s
Ġer ar
Ġphotogr aaph
Ġpanj aabee
Ġmata ilik
Ġsabak uchh
Ġriph resh
Ġvaak y
Ġtarm inal
takanee k
Ġpanjee karan
Ġbro shar
Ġty pai
abai ree
achh id
ste p
Ġnorm al
Ġupar okt
Ġsabsakrai bar
Ġjur maana
Ġlekh ika
snaipad eel
Ġinsp aayar
nav ambar
Ġbhaga vaan
Ġaashchar y
Ġaph eyar
igra han
alab dh
Ġprasan n
Ġphreek vensee
Ġjah aaj
ikyoo tiv
Ġsnaipadrai gana
glo bal
dila chasp
takareeb an
oglo bin
Ġneemb oo
4 10
7 4
7 8
8 4
8 10
a x
b ud
b be
b adh
d aaya
h aad
k en
l aksh
l oomiya
m oo
m oglobin
o st
o unt
p os
r aast
v aib
y ant
z aar
z aree
ee s
ee aee
Ġk ik
Ġk hal
Ġk ra
aa ait
aa cheen
ha ip
Ġs r
Ġs aata
Ġs ind
in heen
Ġp il
Ġha b
Ġm umakin
Ġb ya
Ġb aas
Ġb id
Ġb oos
Ġb had
Ġd iy
Ġd isebal
ta tha
ta kh
Ġj el
Ġj adee
ai och
en ted
ak aim
ak ap
ak iyon
ak asar
Ġl iv
Ġr r
Ġr aakh
Ġr aajee
Ġr uteen
Ġv et
Ġv aisee
ur it
Ġt w
Ġe deeshan
Ġse gment
Ġkar aayee
Ġkar bonn
Ġko ted
am aaree
ph aast
ph inalaind
Ġaa bh
Ġaa tha
Ġaa eediya
il ahaal
aal oo
Ġg od
Ġg upta
iy aapaid
Ġ2 80
Ġch aav
Ġch heen
ais t
aik see
Ġkh in
Ġjee n
Ġo th
Ġo eleedee
Ġsh ub
Ġaap asee
Ġaap oorti
Ġbh aap
Ġbh oot
iv ud
Ġpr agati
up alabdh
Ġmo tiv
gee t
Ġjo y
Ġdee el
Ġdee ls
Ġdee haidreshan
le m
Ġem ishan
Ġem adablyoo
Ġpheechar on
Ġpro totaip
ent eshan
Ġ8 99
Ġan sh
ot ing
ut op
Ġdis t
Ġdis play
Ġbaad aam
Ġsee mos
pad hane
aga l
aga m
aga uratalab
Ġtar ak
Ġdo shee
var ana
vee p
st op
Ġ7 1
Ġaaee eph
sesar ee
ij y
ind us
Ġvar kaut
Ġsar kit
Ġphl aim
Ġphl eks
ra ha
Ġsa undary
Ġmod ai
Ġmod am
oon e
Ġut hakar
Ġdin ar
Ġeks ent
Ġkan d
Ġadh igrahan
Ġachch ount
Ġpee la
Ġdh van
Ġnaam ee
Ġsan tar
Ġen aseeaar
Ġphil tars
ig rast
Ġbik ee
Ġtr ek
Ġechadee emai
Ġaas an
Ġkhareed aar
Ġ9 000
Ġ9 30
Ġro han
vo y
Ġchuk aanee
Ġvarjan s
Ġap air
mee r
Ġpaar ivaarik
Ġmais s
Ġsth aayee
Ġtek sa
Ġpree aardar
Ġ14 999
Ġman u
Ġkamp on
Ġi maar
Ġes us
Ġtaiyaar iyaan
Ġsur aksh
Ġkant raast
Ġdijain ing
Ġav ish
Ġw vg
Ġbach chan
po var
de ta
bhav atee
Ġsl et
pr ati
jal dee
Ġsin ha
Ġot g
aahan ee
Ġpat ang
Ġpat aakhon
Ġgar bhaavastha
Ġphail ane
Ġ17 50
kaim ar
Ġsek s
Ġchun ate
Ġar ban
Ġ40 1
Ġprot ektiv
Ġrok et
Ġrok ata
Ġpram ot
Ġlain ar
Ġkaip heen
Ġdab a
reem oovebal
Ġstaindab ai
Ġchar bee
Ġvhee lar
Ġparaph aarm
Ġkis ane
Ġtoo te
Ġematee ke
Ġcham ma
Ġkab ja
pat rika
Ġshahar ee
Ġnikaal ana
Ġbit aana
Ġhd r
Ġrom achhid
Ġre venyoo
Ġvij it
dai al
Ġ29 4
Ġins teet
Ġneks at
Ġseek hate
khaas ataur
Ġmail aveyar
Ġostreliya ee
Ġinta ir
Ġkomp ekt
Ġveb apej
Ġemaee yooaee
Ġpras aar
Ġpras aaran
Ġshee t
vi bhinn
Ġvel yoo
chal ate
phes alipht
Ġtebalet s
Ġsai ph
Ġmet aabol
Ġmit subishee
Ġdikha ega
Ġsaha vaag
Ġsamb hal
Ġkaab il
Ġsuna hara
Ġtaar get
Ġsamajha ute
chaarj ing
Ġreg yoolar
Ġeksat reem
Ġip l
ahaar ik
raid mi
Ġgativ idhi
Ġbon evil
Ġdeep aavalee
Ġdip reshan
Ġtrend ing
saam ane
Ġpratispar dhee
Ġjai z
facha ibook
Ġjha pak
Ġegj ikyootiv
Ġdyoo al
Ġeksapart s
not iphikeshan
vol et
Ġnip atane
Ġshr ad
Ġedaj as
Ġaaaiph ishal
Ġbind u
Ġdeevaar on
Ġghut anon
Ġpramoshan al
Ġdaay ara
Ġsaur abh
Ġulaj han
Ġlas air
Ġrishted aaron
Ġrook hee
cham uch
Ġkshan on
Ġlaaj avaab
Ġkaamak aajee
vain tar
Ġinakam ing
Ġkshat igrast
Ġnit in
Ġanadek ha
Ġsav aaree
Ġby aaj
Ġsvatantr ata
pich halee
Ġphork s
ghan te
Ġeaar em
Ġchint it
Ġaauta dor
Ġasantul an
Ġkana var
Ġkobaal t
pais enjar
Ġpraikt is
Ġjaya pur
Ġspraid atram
Ġsaalagir ah
Ġtailee y
Ġmaiksim am
hep etaitis
aioch on
Ġemadablyoo see
utop i
/ -
0 4
0 99
3 10
3 30
b ish
b and
b snl
b oleevud
d aar
d ie
d op
d aadee
g s
h oo
h aane
h olee
h rday
i ens
j aga
k ahaan
k endr
l aik
n eend
o dh
r itel
s at
s ut
s istam
t han
u bh
v yavastha
z iox
ha is
Ġs iv
Ġs ust
Ġs ors
Ġp ep
Ġp voint
Ġm atee
Ġm yooj
an r
an na
Ġb aaya
Ġb aaj
is ai
is apar
ya pradesh
Ġhai v
Ġhai vee
Ġd ak
Ġd haee
Ġd ang
Ġd emo
Ġa ich
Ġa tak
Ġl at
Ġl iyon
ch d
Ġn al
Ġr x
Ġr aig
Ġr aing
Ġkee n
Ġv or
Ġv est
al an
Ġt u
Ġt end
Ġt ant
Ġt vee
Ġt ika
Ġt ft
Ġt wittair
Ġe ro
Ġe var
Ġh i
Ġkar em
ik ar
es aee
es tament
Ġph em
Ġph inalaind
ad ard
Ġaa bhaar
aat on
il ai
Ġpar avar
Ġpar idh
Ġhain gaut
ab ha
pan an
Ġg ha
Ġg ej
Ġg oon
it or
Ġho ge
Ġne paal
Ġta d
Ġta vaj
iy aa
Ġbhee g
Ġja u
Ġin t
et rik
aad amee
Ġek aag
maar ee
Ġch oos
Ġphon abuk
ap at
un amen
Ġkh one
Ġjee ra
aaya chee
Ġo onch
te balet
ay aalam
lee t
Ġ3 49
Ġto shiba
Ġbad hen
ag rah
Ġbh ejee
Ġpa van
ir on
Ġem igo
ase ptar
Ġy ur
Ġyoo peeaee
ail ing
Ġ8 16
Ġmil k
Ġan di
Ġan instol
Ġsab ab
Ġtee seeel
em ik
oor al
Ġsee io
pee dee
Ġtar ot
Ġjaan atee
Ġbl aast
Ġde pth
Ġphr ench
Ġba chee
Ġaaee v
Ġchal l
Ġmai ga
bal l
bal ki
bh ojan
Ġham ase
Ġham ala
Ġjis ame
Ġdiv ijan
Ġphl oo
Ġsa ugaat
Ġsa chamuch
ne char
Ġkhar a
Ġ10 8
Ġeks em
Ġchh oda
Ġkan var
Ġsel ekt
Ġdh aak
Ġ16 9
Ġmain yoo
Ġprat ish
Ġee komars
Ġee majee
Ġpha ee
Ġechadee ephasee
se v
Ġpaavar d
Ġkhareed aaron
Ġup agrah
aah aaree
Ġkl in
Ġgh aav
Ġgh er
Ġdet aabes
Ġam eer
Ġle tar
Ġle pht
Ġsir e
Ġmuk harjee
aree n
Ġx b
Ġgl aimar
Ġshar m
Ġor ijinal
Ġkr ip
Ġsv iming
Ġ14 2
Ġ14 50
Ġman aane
Ġpahun chee
Ġth in
Ġi be
Ġrang olee
Ġeyar aport
Ġmin im
Ġaan dhr
Ġbar ph
Ġbar asaat
Ġz opo
Ġnajar en
Ġnambar s
Ġtakaneek on
Ġrik avaree
Ġsamaj hakar
Ġaay aat
lab es
Ġsl ip
Ġbil l
Ġbil lee
pr as
pr int
Ġmas k
Ġsal ai
Ġvi panan
Ġpat aakhe
Ġmal hot
Ġmal eshiya
Ġtaak atavar
br ek
Ġtv ist
had aayak
Ġedishan al
Ġpradarshan ee
yo ga
Ġchip ak
sap halata
doo dh
à¤ ľ
Ġ22 2
Ġkro ma
Ġjam aana
Ġtoo ta
Ġjaik et
Ġaam ir
Ġchala e
Ġkaun sal
Ġrakh o
baar ish
Ġhel p
Ġintar nal
Ġpor n
Ġgun aa
jaan ate
ojit ek
chan vas
Ġang oor
Ġmaee kro
Ġbaith en
Ġjh uk
Ġgaur av
Ġseek hana
do st
Ġaus ha
san sth
Ġpahuncha tee
65 82
Ġphain ains
aavadh aan
Ġkarava en
Ġbur e
vig yaan
hu veee
no tai
Ġeg jost
phl aish
Ġbech egee
Ġped on
Ġmach aane
ĠâĢ ¢
Ġmana chaahe
Ġchak r
rom ai
Ġkad doo
Ġtod ane
Ġsteshan on
Ġkuk ing
Ġedavaans d
Ġriv eejan
Ġnibh aate
Ġpy aaree
Ġgad abad
Ġchail d
Ġdres ing
Ġbon as
Ġsaj aavat
Ġsat y
Ġdha iry
Ġsamud aay
Ġkleen ar
Ġkleen ik
Ġiphekt s
Ġbaan glaadesh
ris arch
Ġvr at
Ġmaansapesh iyaan
Ġpaa gal
ibal l
Ġain tee
Ġkamyun itee
Ġphraans isko
Ġjob s
lin ai
Ġtaaj e
Ġnatee je
Ġdilacha spee
Ġthree dee
Ġtuk ade
Ġtuk adon
Ġtraanj aikshan
Ġkontaikt s
vhee lars
Ġvast uon
Ġleed ar
Ġdush man
Ġdush prabhaav
Ġtip panee
seeaee seeaee
Ġof fair
Ġlaab hadaayak
vach chh
Ġjag uaar
Ġemes ema
Ġprej ident
Ġdeetee ech
Ġsnap drag
Ġprov aid
Ġprashan sa
tree b
Ġteedee aee
Ġinov eshan
Ġrisar char
Ġmaign et
Ġgaan th
Ġid har
taav iya
Ġaayurved ik
Ġkav ita
Ġvayas k
Ġsuz uki
let est
Ġlaap aravaahee
Ġunn at
Ġchaimp iyan
Ġvaibr eshan
Ġmukh yamantree
Ġsamajhad aaree
Ġbaing anee
staind ard
rim oovebal
yash aalee
Ġphevar et
natee ja
Ġmukad ama
Ġelapeedee deeaara
Ġvyas tata
gak aang
Ġkaarbo haidret
Ġsentee meetar
Ġbaaz aar
neta vark
rup aye
Ġdeeel ene
Ġinsteet yoot
bish d
Ġraing lar
Ġparavar ish
Ġmalhot ra
Ġsnapdrag on
0 6
1 90
4 7
6 1
8 000
9 80
b ilt
e val
e braaniks
f o
f or
g aanv
i q
i jar
j ulaee
k m
k ait
k ort
k aale
k aavaasaakee
l ink
m y
m aal
m aich
p ing
p er
p aans
r il
r akta
r aitis
s or
s and
t yo
u ai
v haat
v hotsep
v yakti
w as
x b
y ara
Ġ ikala
Ġk hee
Ġk veen
ha us
ar enj
Ġs is
Ġs ph
Ġs aak
Ġs va
Ġp ate
Ġp aayad
Ġp anka
Ġp amp
Ġp vaintar
Ġm ant
Ġm aaphee
Ġm yoot
Ġm atai
an o
an et
an ing
Ġb uniy
ya tha
Ġd reem
ta bandee
Ġa var
Ġa tai
Ġj ile
Ġme dis
Ġme gaahartj
ak yoo
Ġl aan
Ġl aata
Ġl em
Ġl aate
ch un
ch aay
ch ool
Ġka de
Ġn xt
Ġr ad
Ġr ais
Ġr ash
Ġr aich
Ġv iya
Ġv agair
ur an
at enshan
Ġt endar
Ġkar una
Ġkar oongee
am oto
am aastar
es o
es em
es us
es hakar
Ġph o
Ġph ed
Ġph er
Ġph igar
Ġph itabit
Ġaa vish
iya lee
as maartaphon
as ent
as var
Ġpar amparaagat
aal d
Ġg ub
Ġho bee
Ġne vee
Ġta th
iy olojee
Ġin ak
Ġin akaar
ro y
Ġek tres
Ġch l
Ġch ook
Ġch oorn
Ġhee ls
ap ool
aik a
un s
Ġjee aeeeph
aav aah
Ġsh aastree
Ġra g
Ġ3 90
cha ut
Ġto yalet
dee aee
Ġbh ram
Ġpr aap
Ġkaar l
Ġkaar ok
Ġkaar ning
Ġapan on
Ġmo onga
le val
Ġy utopi
Ġma uj
shan uma
Ġpro stet
Ġdil ait
ok ol
âĢ ĵ
aak hand
Ġ6 16
Ġan as
Ġan jaam
taree y
av ej
Ġsab amit
Ġdis treeb
Ġst ree
Ġban aanee
Ġban sal
aay ik
aka unt
Ġal chatail
Ġal kohal
Ġal amaaree
id ais
pee see
Ġya lo
hak t
od han
Ġjaan ale
hat ya
st ree
Ġ7 999
Ġstor m
ij al
ij ing
op har
oot o
Ġkv ortar
Ġpad hakar
Ġmaar tin
Ġsap leement
Ġdek hatee
Ġut hate
Ġvik ram
Ġkan ek
Ġsel kan
Ġpee jee
Ġ16 2
Ġ13 8
Ġ13 999
Ġdik hegee
ash aah
Ġprat in
Ġsan jee
Ġsan sh
Ġen asee
Ġen akripshan
Ġphil ip
Ġphil eepee
ig aree
Ġee dee
akar abarg
kh aan
iyaan o
ist ik
eks atar
Ġvan adraiv
da ud
Ġmaan ie
Ġmaan ge
Ġmaan akar
Ġsha ilee
bha vee
Ġdet ing
ord an
Ġdaur a
Ġkor iyan
Ġkor nar
Ġap ps
Ġap amaan
Ġpah aad
Ġsth ir
Ġsth aapan
Ġblaik abairee
Ġkr aanti
Ġprati bhaagiyon
Ġok taaviya
Ġak ela
aph ree
Ġlai aicho
Ġtaim s
Ġtaiyaar iyon
tr im
Ġbar gar
Ġ30 4
Ġneta phliks
Ġjen er
Ġnajar iya
be bee
Ġdar shan
Ġbach chee
Ġvid y
Ġ21 60
Ġach tivai
alee k
Ġsup air
tav i
Ġjud aav
Ġjan k
Ġkampyootar s
pa cht
pr ad
pr aiss
Ġjaen gen
ba cha
Ġmee t
Ġjiyo phon
Ġaip pal
Ġummeed on
25 00
Ġgar bh
Ġla har
Ġla chee
phil ips
Ġ50 6
Ġ40 70
Ġmu him
mah aar
Ġyaad on
haar d
Ġupayog akarta
Ġgre vitee
Ġnikal en
Ġnikal ata
Ġsoo kh
Ġnyoo yaark
Ġmot or
Ġsm ooth
Ġlaksh mee
Ġbacha en
Ġsaphal ataapoorvak
Ġik an
bit s
Ġbha y
Ġbas on
Ġbaraab aree
Ġintar aseptar
rail ianchai
bl oo
Ġpair el
Ġpraim ium
Ġbit aane
Ġrom aans
Ġkaaryak shamata
70 1
Ġkod iek
Ġsaph aaree
Ġad r
Ġprav rtti
Ġang ootha
Ġnee lee
Ġphor avard
Ġjh aank
Ġglo see
Ġpais han
Ġpen tee
Ġbhaag yashaalee
ho gee
nee char
Ġsach iv
Ġpooch hane
Ġmaal ikon
Ġkoch ing
Ġpahuncha ta
ech emadee
Ġbaay ars
Ġdon o
Ġash ok
Ġraah ul
Ġroo pee
tum ane
Ġintee gret
à¥ ĭ
Ġsig nechar
riport s
Ġshot s
Ġbhaav on
Ġmud ra
Ġmud don
aank shee
Ġchha the
Ġupaay on
Ġkaaro baaree
ov aigyaan
Ġkaish e
Ġvotar aprooph
Ġshed yool
Ġsoot r
Ġaaeeem eeaee
avid a
Ġpaatee n
Ġlu bha
Ġkris amas
mal tee
jul ate
Ġmaij ik
Ġstood iyo
Ġdhaar aavaah
leep aaaip
Ġpik ap
Ġkeem atee
aaai leepaaaip
Ġbej el
Ġphold ebal
Ġchid ach
Ġsanchaal an
Ġboo st
Ġphat ane
Ġphat aaphat
Ġdrink s
aarasee teesee
Ġmoon g
ule tar
Ġmaidi apad
Ġprej enteshan
Ġmarsidee z
Ġur doo
Ġsvar oop
Ġbok eh
Ġboon den
Ġkaamak aaj
gaar oo
Ġkorpor eshan
Ġakshar on
Ġmint ra
Ġkem ikal
adaata on
Ġpari bhaasha
Ġemp lo
Ġtait oo
Ġeemaan adaaree
Ġmanush y
nol og
Ġsaaha b
Ġaphord ebal
Ġaupachaar ik
Ġmenten ens
Ġdephin eshan
Ġvidyaar thiyon
Ġreem oovebal
Ġovara hee
aaid iya
tees agadh
Ġelyoom iniyam
Ġtaichh nolog
Ġpyoo ree
Ġfee char
haad hadee
Ġboos tar
Ġtarak kee
Ġtavaj jo
Ġoonch e
was aki
Ġpaayad aan
Ġpanka j
Ġvagair ah
Ġaavish kaar
asvar oop
Ġmoonga phalee
Ġjaanale va
Ġsthaapan a
4 17
5 000
5 90
b ro
b yoo
b aakoo
b iran
d ur
d eshabhar
d aleek
e ps
g in
g ait
g aama
h endaset
i ais
j h
j oor
j od
j aimar
k rik
k ris
n ament
n aino
o in
o se
p eed
p ok
p ujaara
r ish
s ent
s id
s aij
t aaja
t yoob
u bar
v araphul
x us
x pairi
y aahoo
z ai
z opo
Ġk ushal
aa o
ar ning
Ġs f
Ġs park
Ġs vachchh
in ako
Ġp s
Ġp aad
Ġp aatr
Ġm oor
an s
Ġb aah
Ġb ugaatee
is itee
Ġd esee
Ġd aanv
Ġd aataavind
Ġd yual
ta iks
ta yoob
Ġa th
Ġa ish
Ġa itam
Ġa chai
Ġa seem
Ġa uto
Ġj aal
Ġme hamaan
Ġke r
ak r
ak ad
Ġl ing
Ġl aaaileepaaaip
ch ross
Ġka hal
Ġka sar
Ġn at
Ġn ol
Ġn agar
Ġn eksa
Ġn akal
Ġn orth
Ġr ail
Ġkee paid
Ġkee taan
Ġv inee
Ġv etan
aan ik
aan tar
al ais
Ġt uaan
Ġt aayars
Ġse m
Ġh id
Ġh rtik
Ġko i
Ġko man
am panee
ph oo
ph aan
es ing
ad i
Ġaa o
Ġaa las
Ġaa streliya
aat ma
aat kaar
as hee
Ġpar aam
Ġpar ade
Ġpar de
pan nee
har ahaal
Ġga tha
or y
or ar
ek st
Ġu k
Ġu ch
Ġin ako
Ġin tal
Ġin tail
Ġin jin
Ġin deej
Ġin fin
ata wind
aam p
Ġch op
Ġch ild
aas it
aas hakti
Ġphon a
Ġsaath iyon
jee pee
dh aaran
Ġkh isak
Ġkh vaah
aav astha
Ġaap ada
uk on
tee sara
Ġto m
Ġto tal
ol dar
Ġbh ooshan
Ġna vaj
Ġpr in
Ġpr aay
Ġpr ach
sh ish
sh oot
sh aant
el itee
Ġdee dee
le yar
Ġsam mel
Ġ6 55
ul as
ot ek
av et
av een
Ġtee vr
Ġst ro
Ġc hana
Ġus asen
er ep
Ġsee tee
Ġsee em
Ġsee vee
Ġep arachar
us k
see tee
see ma
Ġab atak
Ġtha il
Ġtar bain
Ġjaan cha
var aaj
vee l
Ġphr aee
st an
Ġlag ana
Ġlag aata
Ġaaee kan
Ġsp ain
Ġsp aidar
Ġpheechars isamen
Ġku v
Ġmai gren
bal eno
Ġpad enge
Ġpad ataal
pha ishan
kar ee
Ġcha is
Ġkaard iyo
ich s
Ġve bas
Ġ10 1
Ġver ijon
Ġchh aatee
Ġchh aachh
Ġkan j
Ġkan gaaroo
rai ain
Ġchaar t
Ġachch haee
Ġpee tee
Ġdh aava
Ġbat takh
um ee
ash op
la hasun
Ġsan n
Ġbana va
Ġind eks
iph it
Ġtr iks
sham a
dar shan
ist on
re char
Ġon alee
Ġmem o
Ġup d
Ġup aj
oom ee
Ġkol aaj
ma jedaar
Ġkl aid
Ġel ig
Ġ9 4
Ġgh ul
Ġro te
Ġam ar
are tar
Ġil aayachee
Ġchuk andar
Ġvebasait on
Ġx t
Ġx ch
Ġx uv
Ġed s
Ġbaj aane
Ġf ai
Ġf hd
Ġ15 7
Ġap ahol
Ġkr ietiv
aash ingatan
Ġ14 7
tan aam
Ġth ink
Ġim ar
Ġim el
Ġjald abaajee
Ġchaah iye
aph aast
Ġes oes
Ġeyar alains
ika on
Ġneta varkig
Ġz yaada
Ġkant et
be ree
Ġw ai
Ġpahunch ega
Ġpahunch aata
Ġpahunch aatee
Ġpahunch aana
Ġlait en
Ġpain ik
sp orts
ko ch
Ġbhej ega
Ġmas aalon
Ġmee the
Ġummeed en
Ġsait ting
Ġmal ayaalam
Ġ200 00
br itish
Ġeksa jed
Ġphail ee
Ġantar raashtreey
Ġchun akar
Ġar ti
Ġprot okol
Ġupayog akartaon
sam asya
sam bhaavana
Ġrok en
idee j
Ġchhod ana
Ġlad doo
Ġud ane
Ġhaee tek
bah oo
Ġkyoo aar
phr em
Ġkaun asa
Ġrakh ie
Ġyojana on
Ġhel o
Ġmahatv aak
Ġtelee photo
Ġlo yal
sak ata
Ġsamajh aaya
jaan ie
Ġrom aantik
Ġaavaaj on
Ġres taraan
dek ha
Ġnotiphikeshan s
Ġkail endar
Ġpal ooshan
Ġ31 20
Ġadhyayan on
Ġkomp itee
Ġkom arshiyal
pair on
Ġkont in
Ġmir aral
Ġtaiks t
Ġyo utubai
Ġhan gaama
Ġvin ir
Ġaaid ent
Ġtren ar
Ġmet aalik
haid ar
Ġmit ha
Ġuttar apradesh
Ġmaarkit s
Ġsvee k
tum haaree
Ġdraivar ales
Ġphankshan ailitee
Ġbi jee
Ġemb es
Ġthak kar
Ġelee eeko
Ġpra chal
Ġpaal ak
Ġshu bh
Ġnait ro
Ġinjeeniyar on
Ġchha pee
ilekt ronik
gres iv
kit ane
Ġpy aas
Ġnauk ar
Ġsvaad isht
Ġbig aad
bon et
Ġgad akaree
Ġchail enj
Ġ199 8
nyoo yaark
Ġchunaut iyaan
kaam ars
Ġpleyar s
Ġsains ai
Ġsaad han
Ġphle var
Ġmainyuphaikchar ars
Ġmaig na
Ġholee vud
Ġeksapeer iens
Ġchit ron
Ġben elee
Ġben iphit
aansh u
phor iya
Ġgatividh iyaan
jul atee
rak char
Ġaartiph ishal
tur ai
Ġpratirod hee
Ġnirdesh it
vaayar as
aaai dee
Ġbej aan
Ġlaib re
sai bar
sin gal
Ġsch raiain
khar aab
Ġlaab hakaaree
Ġpach hat
Ġshatar aprooph
Ġmusk aan
shuru aatee
kvaal akom
890 9
Ġkshat i
Ġinov etiv
takanee kee
Ġkleeyar ens
Ġnyootr al
Ġdastaavej on
jim a
Ġtalaas hane
Ġseeree z
Ġkaa ailing
Ġvh aata
Ġartha vyavastha
sek end
maus am
Ġenteebaayot iks
Ġmaa aidal
Ġahan kaar
Ġhoo bahoo
Ġdain ik
Ġeksatee riyar
Ġkaata kar
istr ation
Ġaatma hatya
adars hee
Ġpratibad dh
Ġsile bas
Ġvaan ijy
Ġmoj ila
Ġritar n
Ġapach hai
Ġkampyoo ting
Ġyoonivars al
Ġdaval ap
list ing
Ġaapatti janak
Ġkaishal es
snaip achait
Ġbya ura
Ġaaeeeph e
Ġteksa char
Ġavish kaar
jaga h
Ġmatee riyal
Ġbaaya baik
Ġtend ulakar
Ġtant rika
Ġtarot aaja
Ġatai cha
Ġparaam arsh
8 6
b ana
b ul
b ig
b ada
d ais
d hat
d aayar
d abal
e pee
g hee
g us
g eshan
g haee
j ai
j aana
j itana
k ant
k rsh
k mpl
m am
m oshan
n iv
o w
p p
p olee
r u
r at
r aaja
s aim
t is
u chit
u haaree
w d
w al
x i
Ġ are
ee ee
Ġk shama
aa aito
aa ibol
Ġs ham
Ġs iph
Ġs veet
in as
Ġp ool
Ġp udee
Ġp aich
Ġp ass
Ġha j
Ġm aaya
Ġm ay
Ġm aak
an umaan
Ġb aab
Ġb re
is ar
is ta
is en
Ġhai ve
Ġd aav
Ġd ul
Ġd aks
on d
on ar
Ġa ti
hee sh
Ġme la
Ġme jab
ak iyaan
Ġl oo
Ġl im
Ġl chd
ch hat
Ġn aav
Ġn eed
Ġn een
Ġn yaay
Ġr abar
Ġr ooral
Ġkee de
Ġv al
Ġv im
Ġv yar
al ing
al enovo
at ig
Ġt aare
Ġt harm
Ġt haalee
Ġt itan
Ġt aasking
Ġe jeepeees
Ġse leb
Ġkar j
Ġkar oge
ph i
ph yoo
es tar
Ġph eyar
Ġaa dee
Ġaa aid
iya ee
Ġis t
ab ase
aal edaar
Ġg aaj
Ġg hon
Ġg hatee
Ġg aangulee
han oo
or ama
ek ses
Ġne char
iy aak
iy omee
iy aabaad
Ġin phr
aim mee
Ġsak ane
Ġ2 25
Ġki ra
Ġek ed
maar ooti
Ġch aan
Ġch ik
Ġch pu
Ġhee moglobin
ap hart
dh it
dh oop
Ġjee ele
Ġo tee
ara undar
Ġsh i
Ġsh oj
bee dee
bee see
lee l
ol ik
Ġbad on
Ġbad ham
Ġbad aboo
ag o
Ġbh r
Ġbh ent
Ġbh uj
Ġpr aij
sh aareerik
sh uda
up abhok
up avaas
atee t
iks ha
eed ents
ed an
th ree
Ġdee n
Ġdee tek
Ġem ajee
Ġy ang
Ġy etee
Ġsam pann
Ġyoo eks
og an
aak istaan
Ġ8 6
Ġ8 7
Ġ8 28
Ġmil it
Ġan aar
Ġan iyam
taree na
aaj it
ot s
Ġsab oot
Ġtee ke
aab ad
sar dee
sar vis
Ġst end
Ġst re
aay ara
Ġal avida
Ġraha s
id ra
Ġsee aar
Ġsee ton
Ġupalabdh iyon
Ġjar uree
Ġkaam phrens
see ee
Ġtha eelaind
Ġmaik sa
Ġmaik ra
Ġphr oot
Ġba ul
ham mad
Ġaaee tel
Ġsp ash
Ġpheechars ayah
Ġchal aee
tam ee
tam aatar
Ġbe bee
Ġmai gan
op era
oot on
bh oo
ind air
Ġmaar jin
Ġgr ahan
kar en
Ġ12 4
Ġdek or
ich i
Ġop tim
Ġsar aaha
Ġdoo b
Ġchaa ha
Ġmod yoolar
20 5
Ġvik aar
Ġ10 24
Ġver iphaee
Ġchh aap
Ġchh ua
Ġkan dhe
Ġ13 9
tha de
Ġen k
Ġen av
Ġen ivar
Ġen eemiya
Ġpha uran
Ġbah aane
Ġpaavar ap
Ġmodal ing
kan aada
tai b
Ġhotee n
bhaar atee
Ġgh ere
Ġgh ode
Ġam paayar
Ġtai tal
tal ait
lek ar
Ġsir adard
aj aan
Ġbr aav
Ġbr eks
vo is
Ġed avar
aag laid
vid eshee
kee l
aayan iyar
Ġ15 2
Ġpaar tan
Ġpaar adarshee
Ġkr ash
gr up
Ġaad aan
Ġprati bh
Ġman ovaigyaan
Ġvair n
12 00
Ġth o
Ġth ik
Ġkamp harm
Ġmah aas
Ġmah aajan
aph rant
Ġpo onchh
Ġpo varaphul
Ġbar st
Ġ30 2
Ġaaj am
Ġz ai
Ġw aib
Ġtekn ikal
Ġrik ogn
has pati
aink aphart
so ch
Ġrip eyar
ink oo
Ġoo bar
oda fonai
pr ast
Ġyu g
Ġtab lait
ba ch
ba chcha
ba harahaal
baik ap
Ġmee tha
Ġsin em
ita ta
ukh ta
Ġport ret
Ġmal i
sk ootar
Ġ24 99
Ġ200 3
Ġstaar s
Ġinst old
Ġanu bhavee
Ġgan dh
Ġ50 1
Ġchun ana
Ġar jun
taph esing
Ġ40 10
Ġmu haan
Ġchip ake
ted aar
Ġtel ug
mo tee
yoon ivarsitee
Ġrok ana
eek rt
Ġnikal akar
ran g
Ġamer ikan
Ġiv ok
Ġraaj akumaar
Ġeksap l
Ġanubhav on
Ġemem es
Ġchar itr
Ġai ar
Ġgir akar
Ġjoon iyar
Ġdr agan
Ġste bil
pat ti
Ġtelee phon
aphee d
Ġdas ha
Ġdas ta
Ġol iv
Ġsamajh aane
Ġrom aancha
Ġpi chaee
Ġ60 20
Ġdaaya log
Ġhaan gakaang
laga ta
Ġnee cha
pur ush
Ġmaah ir
Ġjh oothee
sel s
man gal
Ġpal on
Ġsach et
Ġkom iyo
Ġsocha kar
Ġviv ek
Ġana veel
Ġvel anes
Ġvel entain
65 72
Ġvin am
Ġphain enshiyal
Ġraas aayan
Ġsai telait
kol ej
aral aind
Ġroo see
Ġphu lee
Ġphankshan s
Ġhata kar
hot saip
Ġgol oo
Ġmud da
Ġruk aavat
aart hak
Ġbul a
Ġper is
ov air
pi xail
Ġhair at
Ġkat aar
Ġkiradaar on
Ġportal s
eh oon
Ġphij iyo
Ġ199 99
telee vijan
Ġbhaavana en
Ġrobot ik
Ġaiktiv a
Ġbon at
Ġsaavadhaan iyaan
Ġdeep ak
Ġbaan dh
Ġdai teeshiyan
Ġchom pacht
Ġaaeeem eks
kop hee
Ġhol dar
Ġech esapeee
Ġgaanv on
Ġsol v
Ġkris ta
Ġresh yo
phor s
Ġpash u
sl im
Ġchaud haree
Ġdyoo k
Ġmahaar aaj
vol vo
ena jar
Ġnibha ee
Ġsty lus
Ġpiks ee
Ġchup ake
Ġinph iniyam
Ġghum aav
Ġniy ukt
Ġkamyoon ikeshans
Ġmanga va
Ġkheencha kar
apad et
Ġtoha phe
Ġpraatham ik
Ġtaee vaan
Ġgrej iya
Ġdarsh aata
Ġpank hon
Ġsnap daial
Ġjhooth e
Ġdaravaaj on
Ġjaay enge
Ġlaim borginee
aantik aaree
Ġmanach aaha
Ġhaipar atenshan
Ġseeen avai
Ġsapor ted
khoo basoor
Ġdaayan aamik
Ġpanjee krt
Ġphis al
seting s
Ġdaakh il
Ġbita en
Ġkorpor et
Ġmegaap ik
parinaam on
Ġzar ie
leks as
Ġepee ke
Ġphran taphesing
Ġvyaav ahaarik
Ġjun oon
Ġsele riyo
Ġchab aane
Ġmanam utaabik
Ġgreju et
Ġsurkh iyon
paraph orm
Ġsne pad
Ġmaath ur
Ġatr aikt
Ġmaun ted
Ġseedee eme
Ġsansk rti
guru vaar
Ġsod iyam
Ġtaad aad
Ġpratim aah
Ġdhaman iyon
daaya biteej
Ġdist ens
Ġmaiss aingair
Ġdak hal
Ġyur aik
Ġausha dhi
Ġbuniy aadee
chool pad
Ġphileepee ns
eksatar anal
Ġnavaj aat
Ġsammel an
Ġembes adar
Ġlaibre ree
polee mar
Ġsiph aar
Ġbre za
Ġdaks hata
Ġkira e
Ġenivar saree
Ġromaancha k
0 3
3 39
8 80
a u
a hee
b ps
b mw
d ap
d aava
d ook
e bilitee
g aajar
h in
h ol
i os
i fai
j aik
j ara
j inamen
k t
k oo
k ut
k ood
k endreey
m t
m u
m ik
m iyar
n d
n et
n eeche
n eeboo
p od
p rod
r aanee
r pm
s i
s ch
u gat
v aana
v aatar
w atchh
y ur
y ok
Ġ eed
ee t
ee yar
Ġk aaya
Ġk us
Ġk isase
Ġk ukee
aa cha
aa udee
ha iv
Ġs iks
Ġs tam
Ġs anee
Ġs chan
Ġs sd
Ġs rs
in eshan
Ġp m
Ġp aakar
Ġp asaat
Ġp ujaara
Ġha vaale
Ġm ap
Ġm eer
Ġm ith
an aalee
Ġb am
Ġb rai
Ġb agal
Ġhai ad
Ġhai lait
Ġd aiv
Ġd roid
Ġd mch
Ġd veep
ta in
ta ik
ta id
Ġa kh
Ġa ikt
Ġj ip
Ġj hatak
Ġj vaint
Ġj akarabarg
aar ph
en tar
Ġme kars
Ġme ve
ak aal
ak alee
Ġl arning
ch ing
Ġka thit
Ġn ain
Ġn um
Ġn ig
Ġn aasa
Ġn aayak
Ġn usk
Ġr aanee
oo le
ga v
ga de
ga bi
ga darshan
Ġv aah
aan yas
ur am
at ek
Ġt iv
Ġt enshan
Ġse lar
am mat
am andal
ik u
ph u
ph ij
es har
Ġph rod
ad iyon
Ġaa iye
Ġaa ipaid
as v
as ta
as thit
as aayik
Ġpar ish
Ġpar os
Ġpar ijan
ab at
pan j
har ekh
Ġga dhe
Ġg areeb
Ġg ehoon
or itee
ek haas
it s
it ane
Ġ1 11
tar aph
Ġta ul
Ġja vaan
Ġja haree
Ġja oge
Ġin chee
Ġin aboks
et iks
ro p
Ġek tar
Ġek sesaree
Ġch ust
aas aan
Ġkam iyaan
Ġphon on
ais l
jee mel
jee laind
jee kyoo
aik char
Ġjee bh
Ġjee elasee
Ġo ke
Ġsh ek
Ġ4 800
Ġra gad
bee echapee
lee j
Ġ3 40
ate ras
Ġ5 499
Ġto uchh
iv arsh
Ġpr aacheen
sh or
sh ulk
atee n
el uga
ir ail
ir iyars
iks el
akee l
akee mat
Ġsam a
jar man
ail d
og o
Ġ8 999
Ġan kal
ul l
Ġhon d
ip eediya
Ġhu aavee
Ġdis p
Ġtee k
sar t
jan aral
oor a
Ġban dar
Ġban gaal
id o
id in
Ġbaad al
Ġsee bee
us ee
us ase
see mit
Ġsk il
Ġsk aut
Ġsk aarph
pee em
pee ke
Ġya ug
Ġend r
Ġtar k
Ġdo on
Ġdo wn
bar t
var jan
Ġbaar aha
eshan s
Ġbl ink
Ġmaik al
Ġphr aikchar
Ġ7 68
Ġlag aatee
he yar
Ġaaee seeaeeseeaee
Ġsp l
Ġpheechars akampanee
hane bal
Ġmaikro vev
bal a
bh ed
Ġpad aav
Ġmaar gadarshan
Ġgr h
kar bonn
oop har
Ġdek harekh
Ġham amen
Ġop tik
Ġda en
ra ph
aip s
air s
anee tik
Ġdivais es
Ġeks avain
Ġchh eda
Ġkan nad
Ġsel ular
Ġadh yaay
Ġprat ham
Ġpesh aab
Ġsim akaard
Ġtr im
kh us
kh ush
kh ushee
Ġadhik aaron
Ġlee ko
os istam
Ġsn ek
Ġup asthit
Ġ9 1
Ġro z
Ġam igo
Ġtai bale
Ġbadal ee
Ġbadal ata
Ġbr on
aree kan
gan oo
Ġgl aiksee
Ġed avenchar
Ġvish isht
Ġnirm ata
Ġkor al
Ġbaj ane
vid esh
Ġso ph
Ġmeed iyam
ishan al
Ġbhar en
Ġkr aim
Ġkr trim
Ġkr aantikaaree
Ġpree miyar
Ġoph ish
Ġth ietar
Ġkamp aikt
Ġvai dh
tak om
Ġes abeeaee
Ġbar baad
Ġbar thade
Ġeph ish
Ġbol ivud
Ġnajar ie
be ha
Ġw orld
Ġdar on
Ġtekn eek
Ġbach aate
Ġhaar lee
Ġapar aadh
Ġnik ale
yooj o
pa u
Ġbhej en
pr adaan
pr anaalee
Ġyu vak
Ġ19 6
Ġ19 00
Ġmas aale
Ġmas aaledaar
Ġphar neechar
Ġsal ekted
ajee t
Ġkai ree
Ġpat tedaar
sk op
Ġgar bhavatee
Ġkain etik
Ġ17 7
Ġ17 8
Ġla ud
Ġgan atantr
Ġbadha ega
Ġmu h
Ġprot ekt
sap ort
à¤ ¤
à¤ µ
à¤ Ĥ
Ġat yant
Ġlain ap
Ġnikal a
ib ai
ran s
aig n
Ġkaip tar
Ġraaj aneeti
Ġspee nar
ektar s
Ġbacha e
Ġbacha ega
Ġbaal akanee
Ġree jan
Ġree set
Ġste lar
Ġail yuminiyam
Ġcham akee
Ġtraik tar
Ġtraik shan
Ġpor sh
Ġkavar ej
Ġlo jee
acha y
acha ir
Ġbecha kar
Ġol amp
Ġol araundar
Ġtam anna
Ġtam baakoo
Ġgo yanaka
Ġgujar ana
taak i
fi chai
Ġpakad akar
Ġres ar
Ġres istens
Ġbraind s
Ġad van
Ġad avaans
Ġad avenchar
Ġprav aasee
Ġang oothe
dai tasan
dek hane
Ġ65 9
Ġoor j
Ġpal ak
Ġpal akon
Ġaak rti
Ġbhaag ane
inee ti
Ġkom al
Ġkont est
Ġviv aah
sil var
Ġjaanakaar on
san geet
Ġmon osh
Ġkaary aalay
Ġsambhav at
Ġkaaryakram on
Ġul at
Ġvikaas asheel
Ġhat aana
Ġmit r
intaran eshanal
Ġtal aak
Ġsvaas th
spee kar
Ġmak aan
Ġroo par
Ġrek ha
Ġduk aanadaar
no tabandee
Ġpareeksha on
Ġthak aavat
Ġank urit
Ġintaraph ej
Ġprab andhak
Ġdhee me
itai jar
Ġruk e
88 8
Ġichchha on
Ġkat oree
ux ai
Ġkath or
Ġsens ing
Ġvaat sep
fl ix
Ġsaj ag
Ġsaj aane
33 3
Ġnak ad
Ġeshiya ee
Ġektivitee j
Ġji en
Ġdood ala
chaal it
mas tee
Ġsaar as
Ġ55 1
Ġnota bandee
Ġchhat teesagadh
mil ega
Ġchhip e
Ġcharan on
Ġven char
sl r
Ġshart en
Ġsook hee
Ġjha p
Ġegj aam
Ġchhoo ta
Ġhim aachal
Ġvaik yoom
Ġsahaj ata
Ġlaipha taim
Ġama unt
Ġraak esh
Ġpik chars
Ġinj ekted
Ġdayool akor
Ġrie litee
teet yood
Ġichchh aashakti
Ġdhok haadhadee
Ġlap top
Ġheeroin on
khar eed
Ġheen g
Ġprots aahan
Ġnij ata
Ġmusk ur
Ġren iged
Ġasam bhav
Ġtor ch
Ġkaarya pranaalee
Ġseeen ajee
Ġinteleej ent
ben elee
Ġhaindal abaar
Ġanadek hee
Ġbook ing
Ġrit aayar
mars ideej
Ġvaigan aar
Ġmaiken ikal
Ġbuddh imaan
Ġnas l
Ġmano har
Ġsiddh aant
atv itar
Ġshish y
Ġgraaph ik
thak eyar
Ġshaak ha
Ġsahakar mee
Ġeem atee
Ġupayok ta
wi ft
Ġpot ret
Ġtyoo son
kanjyoom ars
Ġinsta int
aaain alain
Ġhtt p
Ġchutak iyon
risar chars
Ġsum it
Ġrajan ee
Ġenajee o
drai var
pul is
praiv et
Ġbhand aar
Ġron it
Ġaarkit ekchar
Ġoth ent
Ġkand ishan
Ġparaphaarm ens
Ġintair nait
Ġprasaar it
Ġparidh aan
Ġmaiga jeen
Ġpratish thit
sansth aapak
Ġmedis in
bacha pan
Ġpairel al
Ġadr aino
Ġtaichhnolog y
gin at
krik et
Ġpaad ukon
Ġnol ej
Ġseevee tee
Ġupd atai
Ġklaid ing
Ġarti ga
Ġkontin ental
Ġneen v
Ġvyar th
Ġaaaid iyo
Ġgaaj iyaabaad
Ġmilit ree
Ġstend ard
aaglaid ing
jeekyoo tiv
Ġbaaraha veen
Ġeksavain os
Ġolamp ik
1 60
1 32
2 20
2 14
5 8
5 60
6 600
7 60
8 1
8 30
b aan
b el
b ayaan
b bon
b ugaatee
d aal
d vee
d ukh
d aataavind
g mail
h ch
h iya
h aara
j eda
k ah
k han
k sh
k id
k aisa
l r
l en
l im
m id
n ambar
n aship
n aakhoon
p d
p aa
p ay
p esh
p oshan
s aik
s eed
s iyaam
s vasth
t ro
t ent
t ist
v ya
v eyar
w ork
y aamaaha
Ġ ord
ee e
Ġk aant
ar aaj
ar omeetar
Ġs par
Ġs aich
Ġs aahanee
Ġs aarthak
in yoo
Ġp ch
Ġp aan
Ġp uk
Ġp ut
Ġp od
Ġp eyar
Ġp ojit
Ġp aanv
Ġp iyaano
Ġp ukhta
Ġm yoo
Ġm ut
Ġm ita
Ġb ant
Ġb em
Ġb ordar
Ġb edar
ya p
Ġd ram
Ġd ablooveejeee
Ġd slr
ta la
ta kee
ta ivaanee
Ġa ud
Ġa sa
Ġa de
Ġj aat
Ġj yoo
Ġj ul
Ġj utee
Ġj aaye
Ġj aadu
en em
en asee
Ġme r
ak air
Ġl aatee
Ġl oom
Ġl aala
Ġka tha
Ġka chcha
Ġn aagapur
Ġr aav
Ġr est
Ġv on
Ġv aad
Ġv yan
Ġv edar
ur e
ur aksha
Ġt ara
Ġt eks
Ġe tee
Ġh aav
Ġh yoom
Ġkar ent
am ekar
am ooman
ik shit
ph is
ph yool
Ġph ok
ad anee
Ġaa grah
aat ir
aat ra
as im
as ens
il o
ah old
ah aaron
Ġpar ineeti
ab anr
aal eer
Ġg op
Ġg olee
Ġg uroo
ek ha
Ġne hara
Ġne chural
Ġta ivaanee
iy aaree
iy aaj
Ġbhee taree
Ġin as
Ġin apheeld
et ja
et eeem
ro kee
aad or
aad he
Ġek atr
ane litee
Ġch hal
aas or
ais alar
Ġhee t
ap aee
jee em
aee phon
aee pee
Ġkh aakar
aav aan
aav atee
Ġo ch
Ġsh in
Ġsh ooj
bee el
lee var
Ġ3 70
cha ill
dee eaee
Ġbad am
ag ai
iv oomi
Ġpr aanee
Ġpr aink
Ġpr ichai
Ġpr aavadhaan
sh odhakarta
im ar
im ph
im ala
Ġmo s
Ġmo st
Ġmo hammad
pal s
Ġjo kar
Ġdee ene
Ġem el
Ġem ech
Ġma unt
Ġsam iti
jar v
jar alaind
ant ran
shan al
ail l
ail ug
Ġ6 26
Ġ8 25
esh iyam
Ġan yatha
Ġhon thon
ip hai
av aad
av aee
ut vaakar
Ġdis chaarj
sar ch
Ġbai j
Ġban enge
Ġban aaye
om ri
Ġal aayans
id har
Ġupalab dha
ish ch
see dhe
aga lee
Ġtha g
od on
ka hate
Ġdo ch
Ġdo gee
var tee
Ġbl aastar
chch i
vee k
Ġphr ainkaphart
Ġba has
par y
par antu
Ġlaga egee
Ġlag ej
Ġlag aayee
Ġsp lit
Ġbe vajah
Ġmai gaapiksal
op oj
op haee
bh aash
Ġpad dhat
Ġmaar s
Ġpl aana
Ġpl ooto
Ġcha mat
Ġcha io
Ġcha tur
ich ron
Ġvar tikal
Ġvar zan
Ġsar j
Ġsar vo
Ġphl o
ra hee
Ġmod akar
Ġvik daleek
Ġkhar cha
Ġ10 2
Ġ10 4
Ġ10 6
Ġchh in
Ġchh aaya
Ġchh oone
Ġdh aal
Ġdh ul
um i
Ġ13 6
Ġnaam on
Ġprat ivarsh
Ġsan y
Ġsan ta
Ġsan ra
Ġsan kat
Ġen g
ual chom
ig an
Ġee sh
Ġpha iv
Ġpha ijal
Ġtr an
Ġbee aar
Ġbee ma
Ġbah u
Ġlee n
Ġlee p
re bal
Ġon linai
Ġghan tee
Ġup aaya
aaph e
eyar asel
Ġmaan y
Ġmaan ane
Ġmaan asoon
Ġkalar oes
padhen h
Ġgh ol
Ġgh oda
Ġgh aayal
bha vishy
Ġam areekee
Ġle aut
10 3
Ġbata egee
Ġil aiph
aj ab
vo sh
Ġ64 99
Ġpoor ti
Ġkor sej
int u
Ġno va
vid aiochon
Ġf dd
Ġf ull
Ġ15 6
Ġrej ar
maik ron
ke p
ke bin
Ġkr aik
gr ed
Ġpahun chana
Ġjaroorat en
sha bd
Ġi q
Ġi ball
Ġmah esh
Ġvai par
Ġmaisej es
Ġaar m
Ġaar aar
Ġaar atee
Ġkaratee n
Ġphoto shop
ment s
Ġaan t
Ġbar at
Ġbar taav
Ġlok ing
kaar t
kaar bonet
Ġeph echadee
Ġ30 8
Ġbol ana
Ġprod ak
Ġav enjar
Ġ11 4
Ġdar jan
Ġdar ja
Ġpahunch aate
Ġlait aning
Ġkhaasiyat on
Ġbach aana
Ġrik ordar
Ġvid iyokon
Ġnik har
Ġphaayad on
ink y
Ġjud akar
Ġsl ai
phai bar
abl ik
abl ok
Ġbil ding
Ġsil ekt
Ġyu varaaj
adh aan
jal i
Ġkon gres
tel ikom
25 8
Ġkai bal
Ġkai tareena
Ġ200 6
Ġeksa yoovee
Ġgar bha
Ġkah aavat
Ġar oda
Ġ40 60
elee eeko
Ġotom otiv
Ġchip s
Ġkoshish on
bo ard
à¤ ¦
à¤ ¨
à¤ ·
à¤ ¹
mo bil
Ġrikord ig
Ġkarav aee
Ġkarav aatee
eek s
67 95
Ġbes an
ib u
Ġpars an
aig uaar
Ġkaip asitee
Ġkro p
Ġdab aen
Ġ23 50
Ġche haron
Ġche rokee
Ġik vip
Ġmaltee tach
Ġphais hanebal
Ġaam adanee
Ġimej ing
Ġbraand ing
phr ij
Ġail ifai
aiv il
Ġasar adaar
Ġpahach aane
Ġyojana en
Ġeemel s
Ġnikaal ate
ang aana
kon test
pen aasonik
lai aicho
Ġpan ap
Ġkod ek
Ġsain sej
Ġdaaya lar
Ġad aal
Ġsank alp
Ġphor am
Ġlink din
Ġins aanee
Ġghat aakar
Ġpen aasonik
Ġaak aasha
Ġstee m
ho ga
Ġinta jaam
Ġkomp abuk
Ġchainal on
Ġsmaarta fon
mit hak
Ġkaan oonee
Ġparivaar on
Ġpooch hate
Ġsentar s
aabee n
sil ikon
Ġshee she
Ġdikkat en
Ġana ch
Ġana chaahe
Ġkata uti
Ġmar uti
Ġmar ammat
65 92
dis k
iz on
Ġdes hee
Ġbhool akar
Ġvip in
Ġkarava e
Ġsamaan ata
Ġshaadee shuda
Ġkvol kom
Ġhat aakar
Ġash leel
Ġ67 35
Ġsangee tak
Ġ99 8
Ġphu tej
teem et
Ġintee greshan
Ġkin ga
Ġphankshan al
Ġvail id
Ġprer ak
Ġprok see
Ġpaud ha
Ġram ajaan
Ġgol aakaar
Ġproses ara
Ġnai xon
Ġgro up
Ġmasheen on
Ġdhee lee
Ġglon ass
baee l
Ġkair et
Ġkhu shanuma
Ġlaut ane
phar bishd
Ġdu bo
Ġenj aim
Ġdha bbe
Ġkait igaree
adhik aansh
Ġanur odh
Ġsaad agee
Ġkathin aee
Ġain joy
Ġdom estik
Ġ38 40
Ġship ament
prat idin
Ġmor che
Ġsair vi
Ġnim oniya
Ġchikit sak
Ġdurghatana on
Ġnip ata
Ġtuk ada
Ġchon naicht
Ġdrsh y
Ġchhup a
boo st
unee t
baayot ik
Ġichchh aanusaar
Ġinph ormeshan
Ġenim eted
visheshag y
abhaar at
shodh it
Ġlip astik
Ġamaz ai
aakhir akaar
Ġdarsh aaya
Ġpank he
Ġchad haee
Ġaark aiv
Ġikai yaan
Ġlas atig
Ġtahal ane
ev olooshan
Ġjaay ega
Ġdail uxai
Ġrep har
Ġungal iyaan
samaj h
Ġsikh aaya
dv aara
yavas thit
Ġty aag
Ġhath elee
Ġdib be
bloot uth
Ġdaakh ila
Ġpratidvan dv
Ġkaaj oo
yooro p
Ġvayas kon
Ġsuz ukee
Ġbuddh im
Ġpraarambh ik
Ġher aath
ych lai
Ġphaik taree
Ġvyaav asaayik
Ġenteebaayot ik
Ġshyaam oo
Ġnah aane
hans ate
Ġanush aasan
Ġanush aasit
Ġchash ma
Ġsareek hee
Ġejens iyon
Ġejens iyaan
Ġnaaraaj agee
Ġkm ph
Ġboom asa
Ġkhinch aav
shaak rt
Ġsten ales
Ġaanval e
Ġmachhal iyaan
Ġaphavaa hon
tasvee ron
Ġbhoon en
Ġmoischar aijar
kampan iyaan
Ġapek shaakrt
Ġlaun g
Ġabhiv yakti
Ġilektraan ik
Ġbrok alee
Ġdub aara
Ġvishvasanee y
htt ps
laksh y
haip pee
Ġraakh iyaan
Ġdhvan i
Ġimaar at
Ġromachhid r
Ġmetaabol ijm
Ġedajas tebal
Ġraig istration
Ġphem as
Ġekaag rata
Ġmainyoo pha
dost on
Ġmaignet omeetar
rakta daan
Ġsaak sh
Ġlaan char
Ġtath yon
Ġanas end
Ġpentee yam
Ġchidach id
kris amas
akr aapht
aantar it
Ġprach ur
Ġapahol stree
Ġsaitting s
Ġmay ank
Ġbraav iya
Ġpaartan ars
Ġmuhaan se
Ġdasta prooph
Ġraasaayan ik
Ġparish ram
irail aiss
Ġchheda chhaad
beha tareen
Ġjaadu ee
aaleer aam
utvaakar shan
Ġpaddhat i
ualchom m
8 12
= =
a har
b aare
b enj
b aajee
b ingo
d as
d ham
d ast
e jeepeees
g y
g ur
g aaya
g ud
g reen
g iree
h il
h aata
i ee
j iyon
k hee
k ik
k air
k hair
m aim
m aane
m ed
m utaabik
m ith
o jar
o pee
o tel
p ol
r ej
r eted
r ino
s maarta
s aaree
t aapamaan
u vaan
v t
v iv
v iyar
v hait
v aashingatan
y een
y aabeen
z f
z ch
Ġ aanee
ee ke
Ġk aik
Ġk reej
Ġk aash
Ġk heere
aa aim
aa hana
aa chee
ha baik
ar inging
Ġs or
Ġs lee
Ġs olo
Ġs iree
in e
Ġp ap
Ġp ana
Ġp olar
Ġha eel
Ġm ch
Ġm ara
Ġm oot
Ġm aayan
Ġm ishan
Ġm arch
Ġb aaba
Ġb innee
is kop
Ġd royad
Ġd esha
Ġd ug
Ġd dr
ta ps
ta iyaaree
Ġa ivo
Ġa gresiv
Ġj d
Ġj p
Ġj hat
Ġj ig
Ġj ute
Ġj ukaam
Ġj ooton
aar ij
en g
Ġme s
Ġme har
Ġke bee
Ġke la
Ġl ook
Ġl aahir
ch l
Ġka chh
Ġn aakh
Ġn ukee
Ġn aatak
Ġr n
Ġr eeb
Ġr tr
Ġr aiv
oo shit
ga e
ga ee
ga dh
Ġv ud
Ġv aimmee
aan tam
al en
al pha
al ts
Ġt em
Ġt and
Ġt aajee
Ġt aaron
Ġt aark
Ġt aang
Ġe maar
Ġe le
Ġse telait
Ġh aaj
Ġh aaph
Ġh ila
Ġko ro
Ġaur ora
am i
am ik
am ukt
ph olo
Ġph aal
Ġph iet
Ġaa itel
Ġaa ivaree
as har
as ait
as uee
il ej
ab s
pan yaas
Ġg e
Ġg hane
Ġg had
Ġg aayak
Ġg mail
han t
ek yoo
Ġta le
Ġta yoomar
Ġin r
Ġin cha
et r
ata pha
Ġ2 67
Ġek eekrt
aam ana
Ġch aat
Ġch ir
Ġch aans
Ġch aakoo
Ġphon apaid
Ġhee ting
jee philm
aik tiv
dh oom
Ġkh ur
Ġkh aal
Ġkh aarij
Ġjee laar
Ġo is
Ġo jeees
Ġo cht
Ġsh aab
Ġsh oon
Ġsh aash
Ġaap amen
Ġ4 900
Ġra chana
Ġra ft
bee m
Ġ3 499
tee sare
tee saree
Ġ5 300
Ġto da
ol l
char cha
Ġpr ateet
sh u
sh ud
sh aala
Ġkaim p
im a
el aapan
end o
end roid
ed ed
th aak
Ġdee tel
Ġdee vaalee
Ġy ee
ant s
shan s
Ġpro chais
Ġdil ar
Ġyoo sej
aak shar
Ġmil aane
Ġmil een
Ġan tat
Ġan ablok
Ġhon th
av aane
av aah
aab et
sar v
sar akaaree
chh aatr
chh aatron
Ġst ol
Ġst res
Ġst rakchar
Ġal l
Ġal jaimar
Ġal teemet
er al
ish iyan
Ġbaad ashaah
Ġsee m
Ġep is
Ġep ik
Ġsk ech
Ġsk vaayar
pee peeaee
aga t
Ġkaren see
ort an
od hee
iyo s
Ġraim p
Ġbaar en
Ġbaar bee
st hal
par ivaar
par san
Ġlaga o
Ġyoojar on
taran al
yar aayad
ham p
Ġaaee ema
Ġaaee beeem
Ġsp aar
Ġstor eej
gal atee
tam aam
Ġbe vak
ki takait
ij ain
Ġmaikro s
op tar
op halain
Ġkv aantam
ind ag
pha in
pha id
pha see
Ġmaar a
Ġgr id
sa und
Ġ12 6
Ġ20 50
Ġcha un
Ġcha ir
Ġham ale
ood ha
Ġvar sha
Ġdiv eejan
Ġphl ais
Ġlen gee
hon e
Ġbaik alait
Ġroop ekhaas
Ġvik al
Ġvik reta
Ġve yar
Ġkhar ee
Ġ10 999
Ġkan gana
Ġsel akon
Ġskreen s
Ġsen itaijar
Ġpee kar
Ġdh aat
Ġ16 000
ti bal
ti gor
Ġ13 7
Ġdik hee
Ġsan vaar
Ġsan deep
Ġsan grah
Ġsan shodhit
Ġpesh evar
Ġen ebal
Ġphil mee
van yoo
Ġbana o
Ġbana enge
Ġpha indar
iph ik
Ġtr amp
Ġkhel on
Ġkhel akar
Ġhaind s
Ġteem en
Ġbee vee
Ġbee jon
dar ee
Ġadhik ata
aind raph
Ġsistam s
Ġdeta im
os hee
da phon
Ġon askreen
Ġghan to
Ġghan atv
Ġsn aatak
Ġup s
aah ul
ool on
Ġvee chait
Ġel aan
Ġel gor
Ġgh aata
Ġam een
10 5
araph aast
aj e
Ġbr haspati
Ġbr etja
gan ga
Ġx praiss
Ġgl ass
Ġed ob
Ġmaark s
Ġvish eshakar
ush k
ast ree
aahak aar
aakar an
Ġ15 1
ishan kar
Ġsv eedan
Ġman ha
Ġman or
Ġman aate
Ġok wu
Ġdaal ie
Ġak elaapan
Ġvair tu
12 5
Ġth iye
Ġkamp ait
Ġkamp res
Ġkamp ojar
Ġi phonais
Ġte b
Ġvai jar
Ġlai teetyood
Ġaar tikal
tr en
pop ular
kaar on
Ġas uraksha
Ġjen abuk
Ġ11 00
Ġw irailaiss
Ġsun aane
Ġsun eel
Ġdar en
Ġbach ega
Ġhaar le
Ġsamaj hata
kom paikt
aasha y
Ġlik hit
hai brid
Ġrip or
gl on
gl aas
main t
ko shish
Ġbil d
pr ak
pr aim
hy undee
Ġmas alan
Ġkon ph
Ġkon naicht
Ġpat ta
Ġ200 7
br is
Ġinst aal
Ġanu bandh
Ġ17 2
Ġ17 3
Ġ17 5
Ġkara enge
Ġgan da
Ġkah oon
Ġar bo
Ġbaink s
à¤ ²
à¤ Ĺ
à¤ Ł
mo te
Ġkarav aate
Ġsoch e
Ġlain on
Ġecha veejeee
Ġgre tar
tap aath
Ġsoo tee
Ġnyoo ro
Ġnyoo ja
Ġit iyos
Ġkaip ital
Ġkro dh
Ġrav aiya
Ġrav ishankar
Ġris paans
Ġsik ud
Ġlad aka
Ġprak aas
Ġkal ekt
Ġbacha ta
Ġud ghaat
Ġree stor
Ġjam moo
aaee oes
Ġche ree
Ġbait hana
Ġdhan ateras
Ġdr ivai
Ġphit ing
Ġimej ej
chom io
Ġraid ars
Ġkadam on
Ġkab ootar
ikaar iyon
ach ip
bl oging
Ġpair ents
Ġsekend s
Ġdas aveen
Ġprash aasan
Ġprash ikshit
Ġgrup s
Ġand on
Ġvidiyo j
Ġsamajh ie
jaan akaaron
Ġkod ing
Ġsain adisk
avar k
Ġpakad a
Ġson g
leekeshan s
37 35
Ġnish aane
Ġlink s
och ikit
Ġtacha vij
Ġkail ak
Ġghat ane
Ġkir aaya
Ġ31 3
Ġvisha ile
rod hak
Ġbo y
Ġrim aindar
Ġkom bo
Ġq vg
Ġsmaarta baind
Ġphrem s
Ġkheen che
Ġmir ara
shar t
Ġvanaplas a
Ġgam ale
Ġsoochana on
Ġrij yolooshan
Ġsels iyas
Ġepha bee
29 60
Ġmar ane
Ġkhoj en
Ġtren dee
amer ikan
Ġdham aal
taee vaan
Ġkaimar aa
Ġbaay en
Ġdit ekt
Ġnid aan
Ġuttar aakhand
kol ing
Ġsandesh on
Ġcharcha on
Ġsvee p
Ġbyoo ro
Ġaim b
Ġduk aanon
Ġvyoo ing
Ġapalod ing
Ġbet aab
Ġpul sai
Ġdho ya
Ġkroo zar
Ġchan deemal
Ġkuk ar
Ġbhaav uk
Ġmus ich
Ġ34 50
Ġsaik adon
aank sha
Ġephad ablooveejeee
Ġmotarasaikil s
sm art
Ġpy aare
Ġdu bee
Ġblog ing
Ġmiks a
Ġstik ar
Ġsat yaapan
Ġadhikaar ik
Ġyooes apee
Ġpainor aama
paas avard
Ġnak adee
Ġanur aag
Ġshan kar
Ġshan aaka
Ġshan ghaee
Ġ88 95
saam aan
Ġlak jaree
Ġlak hanoo
Ġdeel aks
Ġain gal
Ġepl aayans
Ġpai th
aphl ipakaart
chk ait
Ġplaitaphorm s
Ġromaanch it
Ġmis aal
adar shan
adar aaj
mej oo
Ġsook hane
Ġmichro sd
Ġdyoo rebal
Ġchhoo te
Ġchhut tiyaan
Ġdait ing
Ġnirdeshak on
Ġgair ej
spes hal
sas te
Ġthand ak
Ġeeyaraphon s
Ġapha sos
Ġgur utvaakarshan
Ġstr aik
Ġag u
aastr aik
Ġsamar pit
Ġkut ta
Ġkut ton
Ġchid iya
Ġandh era
Ġpvaint s
Ġkaipes itiv
lok al
Ġkheencha ta
Ġkheencha te
Ġsos aayatee
Ġgunag una
Ġmoon alait
Ġbator e
Ġfacha i
Ġpashch imee
Ġpradaata on
Ġsaur amandal
Ġaart ist
Ġasembal ing
maisej ing
Ġphepha de
Ġchur aane
Ġnic hala
kla ch
Ġdail l
Ġprashan sakon
opar eting
Ġdaayan aasor
Ġvaar shik
Ġmaanga ta
Ġkontr aikt
Ġummeedavaar on
Ġmaign etik
haath on
Ġphe balet
Ġrachanaatmak ata
mek ap
Ġrot eting
Ġ78 6
Ġjhurr iyon
Ġpay tm
Ġbu dh
Ġdraigan atrel
Ġsabsakrai b
Ġpratidvan dvee
Ġdaayamenshan s
Ġpoint s
Ġpatthar on
Ġpolee mar
Ġpolee kaarbonet
Ġkash t
Ġhin sa
Ġguj aar
Ġinv ait
Ġdop ahiya
Ġkolam biya
Ġcholor os
Ġbard aasht
Ġsabs idee
Ġchhil aka
kaip char
Ġnavar aatr
Ġpraan aayaam
Ġemee cha
Ġkorn ig
Ġrasoee ghar
Ġsareek he
Ġeksazed es
uvan shik
Ġelim ents
Ġaanval a
Ġeksapaind ebal
Ġmachhal iyon
Ġaphavaa hen
soor aj
amaikro sopht
Ġtarang on
Ġminaral s
Ġutsuk ata
gaan th
jag ga
naar iyal
saar vajanik
Ġspai akair
Ġkansal tent
Ġsilas ila
Ġtaga dee
Ġpropar tee
sambandh it
Ġenteeoks eedents
bud havaar
Ġsind rom
Ġkhin cha
Ġshub hak
indus taan
Ġsantar e
Ġapair turai
Ġjhapak ate
Ġgha bara
pras iddh
Ġphainains hal
Ġsva chaalit
Ġrad d
Ġviya tanaam
Ġpraap ti
Ġeedee jeeee
mahaar aaj
Ġath oritee
Ġker ektars
Ġchild rans
Ġkhvaah ish
erep ist
Ġsann yaas
Ġloyal tee
Ġvaanijy ik
mam mee
Ġneed aralaind
Ġtharm al
Ġdeetek a
Ġspash tata
Ġmanovaigyaan ik
Ġtho yaraayad
Ġzai ro
bach aav
Ġtelug oo
mangal avaar
Ġghumaav adaar
khoobasoor at
Ġparijan on
Ġyaug ik
khus hakhabaree
Ġtaibale ta
Ġophish iyalee
Ġadvan chai
Ġmonosh ok
Ġroopar ekha
Ġjhap akee
Ġpojit iv
Ġbedar oom
Ġsarvo chch
Ġtran sl
Ġikvip ament
Ġadaal at
Ġkaik tas
Ġmoot r
Ġkoro la
Ġshoon y
Ġraft aar
Ġprochais sor
Ġudghaat an
1 500
2 300
2 49
3 90
5 35
5 21
6 60
9 19
b aaj
b om
b els
d er
d atawind
e maar
g n
h eksa
i ar
i es
i ensee
j ha
j ik
j ait
j anavaree
k ash
l ak
l aan
l eshan
l aayans
l ivai
m ait
m us
m and
m areej
n ch
n ik
n or
n os
n avar
o yad
p ash
p aise
p ram
p aint
r ar
r ay
r ana
r akt
r oos
r uch
s ant
s um
s ig
s ingaapur
t ir
u e
u balee
v et
v od
v asan
v ash
v aada
v ibai
w ar
y oree
z on
z aib
Ġ >
Ġ ?
Ġ eedan
Ġk w
Ġk aanch
Ġk yok
aa hen
ha p
ha de
ar is
Ġs i
Ġs pal
Ġs om
Ġs oop
Ġs yaan
Ġs alp
Ġs ret
Ġs wift
in j
Ġp aay
Ġp yoojo
Ġm end
an ar
an ot
an ushka
Ġb ir
Ġb ooth
Ġb rik
Ġb yor
is heel
Ġd s
Ġd aat
Ġd aas
Ġd em
Ġd ash
Ġd abloo
on t
ta thy
ta gaal
Ġa teet
Ġa chair
Ġa uxus
Ġj iya
Ġj har
Ġj hon
Ġj aag
Ġj endar
ai ta
en atee
Ġke le
ak ram
Ġl al
Ġl oot
Ġl arn
Ġl ojitek
Ġl omri
ch chee
Ġka tar
Ġka wasaki
Ġka umee
Ġn iya
Ġn il
Ġr iya
Ġr em
Ġr ich
Ġr aish
Ġr gb
Ġr eel
Ġkee t
ga s
ga is
Ġv ek
Ġv eed
Ġv aarm
Ġv ents
Ġv aarasee
Ġv odafonai
Ġv hotsaip
Ġv akeel
al tra
at hon
at ren
at irikt
at urai
Ġt in
Ġt aan
Ġt ra
Ġt onee
Ġt di
Ġt ikee
Ġe tal
Ġse raam
Ġh ip
Ġh eks
Ġh industaan
Ġkar sar
Ġaur or
am il
ph ikeshan
ph ekchar
es emes
Ġph ur
Ġph itar
ad o
aat m
aat ro
as hak
il ed
Ġis o
Ġis haaron
ah aad
Ġpar e
Ġpar don
har tj
Ġg hate
Ġu panyaas
it eshan
it jaralaind
Ġ1 990
Ġta p
Ġta eem
iy aat
iy olojist
ata un
ata kar
ro teen
Ġsak oon
hal ka
hal ke
Ġ2 70
Ġek yoo
ane ta
Ġch har
Ġch oonki
ap aal
jee r
un ako
Ġkh ojana
Ġjee s
Ġjee yo
Ġjee vaan
aaya id
aaya ton
Ġo jon
Ġsh ram
Ġsh ekhar
Ġsh iyomee
Ġsh ushk
bee vee
ing air
cha ina
tee el
Ġ5 60
Ġto kan
ej ars
ag ong
Ġbh ed
Ġbh inn
Ġbh aamp
Ġpr inta
Ġpr aart
sh m
up ar
Ġtak ara
Ġkaar ak
Ġkaar yo
Ġkaar teks
Ġapan aana
Ġapan aate
Ġmo h
Ġmo m
Ġmo ka
Ġmo bik
ir it
pal ain
end ent
end em
end ars
eed aar
ed avaans
th iya
akee y
Ġdee r
Ġem akyoo
Ġy aar
Ġy en
Ġy uddh
Ġma ha
Ġma chh
Ġsam ak
Ġsam patti
jar s
Ġpro mo
Ġyoo vee
Ġyoo tayoob
Ġyoo phoriya
ok ee
Ġ8 50
esh chan
ip ar
aaj ma
aaj apa
ait ikalee
av o
av ail
av odaaphon
ut s
ut aara
ut osh
Ġtee s
Ġtee aaradee
aab andhan
sar i
Ġban ta
aay aat
aay aamee
om aitik
Ġsee eph
Ġep haee
Ġva chan
see tar
see bee
pee peeai
Ġya s
hak a
hak kat
Ġkaren uttar
od s
Ġrah o
Ġinch es
Ġdo j
Ġjaan chane
kam aj
bar lin
var ld
Ġbl ut
Ġde byoo
st d
st rom
Ġba uddh
Ġ7 30
ud ar
Ġlaga vaane
Ġran ga
Ġran gat
Ġlag aav
Ġlag zaree
Ġsp r
Ġsp il
Ġsp ok
gal ain
tam il
Ġbe bo
ij ibal
Ġkv aar
Ġkv aatro
Ġkv eshchan
bal at
ind astree
Ġpad osee
pha buk
Ġgr ens
aayad a
kar ate
Ġ12 2
ich m
Ġvar shan
Ġvar adaan
Ġsaal abhar
aid gai
20 13
aip pal
oon a
Ġut hatee
Ġut tej
Ġvik eta
Ġve v
Ġbeha taree
Ġ10 9
Ġeks eedent
Ġeks alaiph
Ġchh or
Ġchh ipee
Ġkan on
Ġsakatee n
rai b
Ġadh oore
Ġpee l
Ġpee en
Ġdh aaran
Ġdh aage
Ġbat tee
Ġbat aayee
Ġ13 1
Ġ13 3
Ġ13 66
Ġsan askreen
Ġsan dig
Ġsan shay
Ġsan rakshan
Ġsan disk
ig han
Ġee st
Ġee beedee
Ġpha sal
iph oto
Ġbee ns
se hatamand
eks atee
Ġvan chit
Ġemapee vee
Ġinjan s
da hee
kor iyaee
Ġdij aayara
Ġup akram
Ġaadh yaat
Ġvee bo
Ġkl oj
Ġmaan avee
Ġel aiph
Ġ9 80
Ġsu dh
Ġsha itar
Ġtai galain
Ġbr aik
Ġmuk ab
Ġ64 00
Ġgl aind
yak een
Ġbaj a
int iriyars
Ġmotar abaik
Ġf i
Ġf m
Ġf ach
Ġso yaabeen
Ġjin k
Ġkhil aane
aans on
Ġor gan
Ġbhar ate
Ġbhar apaee
ke tabol
Ġsv at
Ġsv adesh
Ġaad ity
Ġ14 6
Ġplas a
Ġprad ooshit
Ġman chan
Ġak aadamee
sha har
Ġth aak
Ġth yoree
Ġi roj
Ġte z
Ġyoon aited
Ġaaya kar
Ġes iditee
Ġeyar akraapht
een iyam
Ġred i
Ġum as
Ġ80 5
abh oot
Ġaan uvanshik
Ġbar atee
Ġpet s
Ġ30 90
Ġas aadhaaran
Ġsas hakt
Ġav agat
Ġpur ee
Ġ11 3
Ġw wd
Ġtekn o
aadh ikaarik
aadh unik
Ġ21 6
Ġ21 50
und ai
Ġnik at
Ġnik hil
Ġrip hand
Ġsup araphaast
Ġ18 5
Ġoo takon
ko hare
tiv al
abl ai
Ġmas hakkat
Ġphar sh
Ġsal aam
Ġsal aahakaar
baik teeriyal
Ġmee thee
Ġaip l
25 1
25 6
Ġpat ton
Ġpat tiyaan
Ġ24 5
Ġ24 999
Ġ200 1
br aajeel
Ġgar l
Ġkain chee
Ġstaar adam
Ġgan dee
Ġtok sin
ve dee
Ġgal atapha
Ġotom eshan
Ġ28 40
Ġchip achip
Ġmaus apaid
Ġprot ekted
Ġmilee graam
35 80
à¤ ®
à¤ ¯
sam ud
Ġtel angaana
Ġtel iphoto
gh oom
mo jee
Ġjod ata
Ġrikord as
Ġbhaasha en
Ġbra u
utee karan
bhar at
bhar akam
67 52
Ġsoo chit
ran ch
Ġnyoo ron
Ġkastam aijd
Ġgor ill
Ġsik ha
Ġkal araphul
Ġai chho
Ġbacha te
Ġbacha tee
Ġud yam
Ġree mek
Ġgir aane
Ġsekan daree
Ġmushkil on
Ġbait hee
kal pana
phr aans
phr ijar
aiv itee
Ġmaana chitr
Ġpahach aana
bata ur
Ġhel thakeyar
pat r
Ġtelee ven
Ġtelee graam
Ġpair aaglaiding
Ġutar ata
Ġpahan ee
Ġhd mi
Ġpan ne
Ġpan orama
eph eksa
Ġpop ap
lo ad
Ġgo bhee
Ġdaayar ee
Ġgujar e
fi aild
Ġdok yum
Ġdaaya t
Ġre vot
Ġpaik et
Ġpej on
Ġghat aaya
Ġneks asa
Ġij ahaar
Ġseek ret
phir ane
aich ial
ho sh
Ġinta zaar
Ġbo tam
Ġkomp leks
maan asik
maan asoon
Ġsthit iyaan
Ġglobal ee
mit tee
Ġaaait onomas
Ġpooch hata
Ġpras id
tek st
poor vak
ech o
Ġvel avet
je b
je dee
Ġhava on
Ġsans aad
dis ambar
Ġnyooj apheed
Ġvitaamin s
Ġul ta
Ġaaid iyaapaid
Ġkhoj a
sad ak
Ġ44 44
Ġmun aaphe
Ġshodh on
Ġdeelar on
Ġghoom ate
vik kee
Ġniv eshakon
Ġrod ing
Ġaim oj
Ġdikha en
Ġphu tapaath
no eda
Ġvail d
Ġbolee n
Ġnon astik
Ġvaastav ikata
Ġaj inky
ins ta
go yanaka
Ġimph ekshan
Ġnai ws
Ġnai xus
Ġkho e
Ġkho ya
Ġtaig ing
Ġnait flix
Ġnait work
Ġeksat ra
Ġsveekaar ana
Ġgus sail
tair y
Ġaik tr
Ġair tail
Ġprem ika
Ġchamak ata
Ġavasar on
Ġpholo var
Ġaal asee
Ġnibh aaya
asha omee
Ġhans en
Ġhans ana
Ġsvaad aanusaar
66 6
sv eedan
Ġvaay u
Ġphij it
Ġphij iks
Ġotomobail s
nyoo tr
Ġdai x
adhik aaree
yum eeniyam
Ġkoo lars
Ġji ophaee
Ġphle yar
Ġich on
Ġetam os
Ġinav ijibal
Ġmainyuphaikchar ar
saam agree
Ġcho pars
38 6
Ġvhaat sap
Ġshiks hakon
Ġphlait s
Ġchhip aane
Ġhaus ala
rak hee
esa yoovee
ahan kaar
Ġmis d
adar ak
prat is
evar ale
Ġti haee
Ġstood ent
Ġhim aalay
Ġpheed abaik
Ġgira phtaar
Ġpaande y
Ġsair iais
Ġtoor ing
Ġbailens ing
Ġdhoond hakar
Ġaash vast
mw ch
Ġchen nai
raj istar
vaigyaan ik
Ġest ro
Ġest ra
Ġubar ane
aicht rai
Ġjelee been
bhaag y
Ġchid iyon
kab eer
Ġboo te
Ġaaitam s
Ġlap book
Ġpariv esh
Ġof fichai
oloj ikal
xt bit
Ġhold ars
Ġkood a
Ġasembal ee
mail ej
Ġdeetee es
Ġakhabaar on
Ġprajaat iyon
Ġthahar aav
Ġrook he
Ġgat isheel
Ġenaal og
paar tee
Ġinebal d
Ġsapor ta
aai phon
taich no
gain iai
Ġdeevaan agee
Ġrisar chars
phrend alee
madh umeh
Ġded reem
Ġkorapor eshan
Ġchard aikho
door asanchaar
Ġmeen aakshee
mars edeej
Ġhast aakshar
Ġvas ool
Ġvir aas
Ġchoo hon
Ġkhaam iyon
Ġghabar aane
Ġghabar aahat
Ġtail ent
Ġmur alee
Ġkem istree
Ġhin sak
Ġdohara en
Ġamej on
Ġkhila une
Ġsurkh iyaan
Ġikon om
Ġbaand hakar
Ġpray ok
Ġchash me
Ġsahakar miyon
Ġaajama en
Ġupayok taon
Ġsulaj haane
kais habaik
neks as
Ġsaim pal
Ġtyoo bal
Ġmaite riyal
Ġselibr et
kanjyoom ar
Ġelim ent
******** ********
phan kshan
amaikro maiks
Ġaaair dar
Ġbiyar d
Ġtya uhaaree
Ġspai aid
Ġsilas ile
Ġthandarab ard
boot iyaan
Ġjhad ana
Ġnaap asand
Ġchomp ass
khoob iyaan
gaij et
Ġblee ding
Ġvitar an
Ġapheyar s
Ġraajee v
Ġtw in
Ġchaav ala
Ġmotiv etar
Ġkampon ents
Ġchamma cha
Ġsambhal akar
Ġkanavar tibal
sut hara
Ġtvee tar
Ġtika oo
Ġevar ej
Ġtad aka
Ġikala utee
Ġmant halee
Ġrag d
Ġpratin idhi
Ġsansh odhan
Ġikan omik
biran ge
Ġvinee ta
Ġinfin ity
Ġseeem oes
Ġthail aind
Ġamar ood
Ġmahatvaak aankshee
Ġsveek rti
Ġsham eem
phyoo jan
Ġghon s
upabhok ta
Ġphroot s
Ġmahaas aagar
Ġrikogn ishan
Ġeksapl orar
Ġstebil aijeshan
purush on
Ġsiphaar ish
Ġchamakee le
ahold ars
Ġguroo vaar
Ġsany antr
mobil ai
ibu ya
Ġaakaasha ganga
Ġproksee meetar
Ġboomasa und
Ġmainyoopha ikchar
Ġmaayan on
Ġthiye tar
Ġkailak uletar
Ġagu vaee
Ġshubhak aamana
war ai
Ġbyor a
Ġpraart hana
Ġemakyoo bee
Ġkarenuttar apradesh
Ġviketa kee
Ġwwd ch
1 80
1 40
3 11
3 40
3 18
4 30
7 49
9 6
a yadi
a uxus
b ek
b et
b ag
b iyan
b aing
b hakti
d ana
d aans
e va
e phaee
f z
g ujar
g aangulee
i i
j r
j ain
j aaree
j aata
j aanch
k ur
k char
k hat
k os
k no
k aathee
k vod
l iv
l oree
l ih
l ipop
m aanee
m aid
m aans
m astishk
n t
n aap
n akaaraatmak
n ubi
n idhi
p epar
p aakistaan
q areeban
r ta
r iks
r oop
r aate
r na
r ashekhar
s aab
s olar
s ink
s harm
t aar
t hand
u et
v ais
v ail
v ichaar
v emo
y t
y aaj
y aasa
y no
Ġ ]
Ġ ane
Ġ aansoo
ee p
ee tee
ee vee
ee van
Ġk isake
Ġk lem
aa he
ar o
Ġs ing
Ġs ingar
Ġp aam
Ġp ail
Ġp apee
Ġp aayaniyar
Ġm ag
Ġm onee
Ġm areen
Ġm ordan
an tap
Ġb han
Ġb er
Ġb havan
Ġb aang
Ġb abal
Ġb oodha
is is
is ane
Ġhai daphon
Ġd ent
Ġd hana
Ġd aindraph
ta hat
ta baik
ta bit
Ġa jan
Ġa ij
Ġa kar
Ġa ikshan
Ġj u
Ġj est
Ġj amee
Ġj akh
Ġj oll
Ġj indag
ai pal
ai yon
en ephasee
en eemiya
Ġme hata
Ġke p
Ġke v
Ġke teeem
ak ata
ak hand
ak avar
Ġl aks
Ġl aarj
Ġl pd
ch in
Ġka te
Ġka bee
Ġka pal
Ġka sa
Ġka dar
Ġka chche
Ġn s
Ġn ay
Ġn ars
Ġn akaar
Ġn vid
Ġn aksh
Ġn iyat
Ġn rt
Ġn aada
Ġn aich
Ġn aach
Ġr one
Ġr yno
Ġkee j
oo vd
ga ta
ga da
ga thit
ga print
Ġv aij
Ġv ordar
Ġv aiks
Ġv orn
aan o
ur chai
ur aasan
al g
al ai
al og
at ing
Ġt era
Ġt dd
Ġt yoomar
Ġh un
Ġh end
Ġh md
Ġko s
Ġko char
Ġko ment
Ġko tala
am od
am obail
ph oks
ph orm
ph ishiyal
Ġph aar
Ġph om
ad ai
ad eshee
aat ha
as tee
il lee
Ġis abaar
Ġis asen
ah it
Ġpar ak
Ġpar pal
ab il
ab aad
aal iya
pan kchar
har te
Ġga st
Ġga thiya
Ġg ets
Ġg iree
Ġg upt
han ush
ek tamee
Ġu hd
it ars
Ġho thon
Ġta ij
Ġta qareeban
Ġin kaar
Ġin sart
et u
et id
ata ijing
ro on
ro ton
ro bin
aim y
Ġ2 12
Ġ2 90
Ġki m
Ġek ata
Ġek jima
Ġch heel
Ġch idh
Ġch ill
Ġch voyas
Ġch vois
ake le
aas iyon
aas aanee
jee h
jee t
jee riya
aee t
aap asee
un nair
Ġkh ok
aav ya
aav as
ain tal
ain aasonik
Ġo h
Ġsh il
Ġsh reen
Ġsh ootar
Ġaap ar
Ġ4 14
Ġ4 499
Ġ4 32
Ġra chair
lee eko
Ġ3 80
Ġ3 800
cha tion
cha idais
Ġ5 690
Ġto var
dee gadh
ag e
Ġbh un
Ġbh iksh
Ġna haen
Ġpr is
Ġpr iya
sh ot
Ġkaar niv
Ġpa o
el iyon
el ist
el ateei
Ġphee n
Ġmo baeel
ir als
end ed
mat ich
gee g
th i
th en
Ġjo int
Ġdee aares
Ġdee veedee
ase ph
Ġy elo
Ġy aach
Ġsam aksh
Ġsam rd
Ġsam eeks
Ġpheechar a
ent iv
Ġdil ivar
Ġyoo em
Ġyoo phit
Ġyoo eee
ail itai
ok wu
aak aast
Ġ6 35
Ġ8 88
esh iyar
Ġmil aana
Ġan idra
Ġan ishch
ul ens
Ġpahal uon
99 83
ait i
ait hee
ot in
ot taree
av aahat
Ġsab av
ut ik
Ġtee zar
onch oo
aab hee
jan g
Ġst unnair
Ġbai at
Ġbai jing
Ġban dh
Ġban gal
Ġban aie
aay ojan
om ega
Ġal aix
Ġsee ne
itee y
see dee
Ġsk y
Ġsk alp
Ġsk olar
Ġsk art
Ġsk oolee
Ġsk rin
pad haee
iyar ing
Ġend ro
Ġtha ink
od ar
od ing
Ġtar abooj
Ġdo hch
kam are
bar u
var ya
Ġde vee
Ġphr il
st ood
st rok
Ġ7 499
Ġ7 49
ud aee
par d
Ġlag an
yar atel
Ġaaee pod
Ġsp on
Ġbe hosh
ij aaj
Ġmai da
Ġbadh ottaree
ind on
Ġpad aar
pha indar
Ġgr an
sa phord
Ġsap lai
Ġ12 99
Ġkuchh ek
Ġpl elist
Ġ20 4
Ġcha h
Ġcha gabi
ood on
Ġop o
Ġop as
Ġlog e
Ġda ul
Ġda zz
Ġsar aahana
Ġsa hane
anee y
Ġve val
Ġkhar onch
Ġchh ud
Ġchh romai
Ġsen dh
Ġdh und
Ġdh aarm
Ġdh okar
Ġdh uaan
Ġ16 999
Ġbat ar
Ġnaam umakin
Ġprat ir
la phrend
Ġsan g
Ġsan yam
Ġen adee
Ġphil os
Ġsim bal
ig s
Ġbik har
Ġee ph
Ġee be
Ġee raan
Ġee buks
Ġind igo
Ġind ian
iph irals
Ġtr akon
Ġtr eval
Ġmad ar
kh y
Ġbee s
Ġbee pee
Ġbee emaee
Ġbah aana
Ġpaavar atren
Ġlee eko
eks is
eks el
Ġaas aar
Ġpiksal a
Ġvo ichai
Ġhar ek
Ġhar bal
Ġkhareed adaar
Ġup ahaaron
ool s
gar bhaavastha
aaph esabuk
Ġvee ja
Ġvee aeepee
Ġel o
Ġel yumeeniyam
Ġsu shaant
Ġgh aate
Ġgh rna
bha ee
aayar as
Ġam g
lek h
Ġbata o
Ġbata enge
Ġjal a
Ġroope pheechars
Ġil aikt
aj ing
aj io
vo in
Ġvebasait en
Ġgl eshiyar
Ġmaark ent
aag on
Ġkor d
Ġkor at
ast ol
ast reem
Ġno b
kee bord
Ġpaas akod
Ġf il
Ġf ron
Ġf ps
Ġso ya
Ġso ft
Ġap aar
Ġap olo
Ġap arachar
Ġkhil aen
Ġphul avyoo
Ġpah aadee
Ġpah iye
ale tar
ogr aaph
Ġbhar akar
Ġkr tag
Ġsv etar
Ġalag aav
Ġkvaal ak
Ġdaal atee
Ġdaal anee
sha s
12 1
Ġth os
Ġim aii
aij oo
aij ing
aph ul
Ġvai bar
Ġyoon iphaid
Ġaaya shar
Ġaar dar
Ġaar mee
Ġes el
Ġes embal
Ġpo shaak
abh in
Ġapad eta
ment eshan
tr aik
tr ip
tr ich
Ġmaarsham ail
Ġbar baadee
ika en
Ġ30 70
Ġz x
Ġas u
Ġbol ar
Ġjen esis
Ġkul loo
Ġchee z
Ġnetavark s
Ġpur ai
Ġpur tagaal
Ġ11 5
Ġ11 7
Ġw in
Ġsun e
Ġdar ate
Ġlaip s
Ġbach k
Ġsamaj he
daan ganoo
Ġbuk s
Ġdikh aakar
Ġnik ee
Ġjan me
Ġbhej ate
pr ayog
Ġyu vat
Ġni dhi
Ġkosh ishen
hy aat
Ġjio phon
Ġshik aaree
Ġphar aaree
Ġmal aee
Ġmal aika
Ġtraans aletar
Ġod itor
Ġgar laphrend
Ġstaar taps
had diyon
Ġ17 9
Ġsupar b
Ġsupar astaar
Ġla ute
red it
akor n
abee see
Ġar pit
sap iron
à¤ «
sam ain
endr aid
Ġpost s
eek aant
67 32
Ġgre vee
Ġnyoo jeelaind
17 9
rel ave
Ġnukasaan adaayak
Ġgor ila
Ġje dee
Ġpak kee
Ġraaj an
mot aape
Ġhom ai
Ġhom askreen
aiga vaar
Ġprak at
15 11
Ġkal char
Ġkal iyaan
Ġvhee labes
Ġkool he
Ġud ad
Ġud iya
Ġud ate
Ġud aane
Ġkhat te
Ġree p
Ġree te
onai y
aasa und
Ġgir e
aaee paid
Ġik osistam
Ġmaltee neshanal
16 00
Ġbha iya
Ġbha iyon
Ġbha vish
Ġbha gaane
Ġbait hatee
Ġdr avid
Ġpainal s
Ġli fai
Ġimej es
Ġste bal
Ġail o
Ġvibh aajit
Ġhel palain
Ġintar naship
ach aal
Ġlo taree
Ġjed ateei
Ġutar a
sun dar
Ġnotai book
Ġdim aagee
Ġhd fch
Ġbrek aphaast
lo chk
Ġgo panee
Ġkod ak
Ġsaph aayar
Ġmaadhyam on
Ġmainual ee
Ġkapad a
Ġre vanyoo
Ġre phrijar
antr it
Ġaavaaj en
Ġjad a
Ġjad on
Ġpaik s
Ġad reeno
Ġaag aah
Ġnee raj
dek hana
Ġinstol eshan
18 8
Ġ65 1
Ġghat it
Ġgaur ee
ĠĠĠĠ Ġ
Ġpement s
Ġektiv eshan
32 2
Ġrim oo
Ġmid il
Ġbel o
Ġq laid
Ġq ualchomm
Ġ27 50
Ġsmaarta baay
Ġmish ra
Ġparis had
Ġsocha tee
Ġviv id
aagar m
shar aab
Ġstaindard s
Ġyo ur
Ġmen opoj
Ġana ginat
poor a
Ġaai esem
Ġmon o
Ġmar athon
Ġmaang ane
je braaniks
pro jekt
Ġmun haas
Ġmadh ur
Ġmadh yapradesh
Ġsaken gen
Ġnirbhar ata
Ġcharcha en
Ġ45 50
Ġyakeen an
dha bbon
Ġ67 37
asik yor
Ġrod astar
jin ake
Ġphin gaprint
bat an
Ġbhoomika en
Ġsara hah
Ġabhin etr
Ġdaala cheenee
Ġemb ulens
Ġbord ing
Ġ37 00
Ġ37 41
Ġfl y
Ġhendaset s
Ġsiy aam
Ġimph iniyam
Ġgol iyaan
Ġkad dook
Ġkad avaahat
Ġnai w
Ġnai ta
inst ent
Ġmaanasik ata
Ġchaal ak
Ġreg istaan
Ġshuk riya
Ġ48 50
Ġephad abal
Ġruk en
Ġruk ane
Ġmotarasaikil on
Ġmotarasaikil en
aart hee
Ġeksapo jar
Ġper ent
Ġper iphirals
Ġprast aavit
Ġgaad ha
kit aab
Ġaatm asam
Ġpy aara
Ġlaut ana
phar avaree
por tebal
vind o
Ġdu vidha
Ġsend hamaaree
baay om
Ġgud s
Ġvaay o
Ġtair r
Ġmam ma
Ġblu ai
Ġmy jio
Ġinaph oks
Ġhor izon
Ġdip l
phaay araphoks
Ġaaain a
Ġ88 90
Ġkoo lar
Ġsaad e
Ġkolej on
Ġaaaipar et
Ġtig von
Ġinav estament
Ġpaksh on
Ġrana veer
Ġaltr aav
Ġaltr aasonik
38 2
Ġmaig nee
vent aador
Ġmonitar ing
ensh iya
Ġphraans isako
saal aana
Ġben eph
Ġjon asan
Ġdish ej
Ġpratispar dh
phor i
Ġ36 30
muk esh
Ġphlip kaart
dik hane
rak tar
Ġdiph ens
mej u
aachaar y
Ġsook ha
akan ekt
Ġtaal aab
sur fachai
Ġri jarv
yuva on
Ġtoor ist
Ġapeksha on
Ġnim antran
yoor eka
Ġkort aana
Ġchikit s
emabee peees
Ġintelij ent
Ġdhoond hana
rav ivaar
Ġnatee jon
oh orn
Ġvyaapaar iyon
Ġstr aip
Ġsaja en
Ġchaahat on
abad dh
Ġshr uti
Ġchhup e
Ġneel aam
isk ut
Ġjhan de
Ġenim al
nir desh
nir maata
Ġ299 99
Ġkriya on
Ġlaab ha
Ġphel iyar
Ġklok d
Ġkriketar on
dig gaj
Ġdaay een
Ġphaay ara
Ġgupha on
Ġgupha en
Ġubhar a
Ġpach aas
Ġtred amaark
Ġkhan ij
Ġrait ing
Ġtrip aathee
Ġdarsh aatee
Ġmusk ura
Ġsus tee
Ġpaushtik ata
Ġyun ivarsitee
Ġsolyooshan s
Ġlas see
Ġdeetee eeke
Ġprajaat iyaan
hel th
Ġchham p
Ġbartan on
Ġsit aare
Ġubaal akar
Ġvishl eshak
Ġaix mor
draiv ing
Ġlaaj imee
Ġgat han
vij ay
Ġstan apaan
Ġlol lipop
Ġchn y
Ġmilen iya
Ġleevar apool
Ġpoorn ata
Ġkontr aast
Ġedamin istreshan
Ġblachk bairry
Ġrot iyaan
Ġtyoon ing
doktar on
Ġru baru
Ġphaarm et
aboo ja
Ġjangal on
Ġchitr akaaree
Ġhast iyon
Ġtain aat
Ġchoo he
Ġ728 5
Ġbujurg on
Ġtail ai
yooro peey
Ġkriet ivitee
traans aport
Ġegree ment
Ġjatil ata
Ġdivelap ament
Ġchin aim
Ġphaik tar
chen nee
Ġbhaaga te
Ġimpr oov
Ġsamajhad aar
Ġgreju eshan
Ġrap e
Ġsthal on
Ġsenk churee
Ġkliyar ens
Ġhak adaar
Ġbak aaya
Ġpray oga
otom aitik
Ġhedalait s
nish ing
Ġpun to
Ġhaad ason
Ġselibr itee
Ġindiketar s
Ġraina ult
bra ujar
Ġhtt ps
Ġbob bair
Ġbaayom edikal
Ġparya tak
Ġdiskaun ta
Ġplait inam
Ġchap tur
Ġthandarab olt
det aavind
Ġdijee j
Ġdijee tal
dim aag
gaij ets
Ġhail io
Ġhicha ki
Ġphotograaph s
Ġsabsakraibar s
Ġinspaayar d
ken an
Ġkra un
Ġsaata ven
Ġaabh ooshan
Ġaatha ven
Ġphleks ibal
Ġshrad dha
dop ahar
Ġjau har
Ġaaeev oomee
Ġbill iyon
sand isk
Ġsph eshiphikeshan
chaut ha
Ġdistreeb yooshan
Ġjener eshan
haard aveyar
Ġovarahee ting
oin tament
Ġaish varya
Ġgatha jod
shoot ing
Ġelig ent
Ġxch ovair
Ġmiraral es
Ġmitha iyaan
Ġpachhat aava
Ġataicha ment
dais irai
gus se
Ġpudee ne
Ġmejab aan
Ġtitan ium
Ġinphr aared
Ġeked amee
Ġbhuj a
Ġenav eediya
Ġthik aana
Ġaajam aane
prast uti
Ġsnepad raigan
prod akt
Ġkukee j
Ġmith aas
pau dhe
kah aanee
Ġpuk aar
Ġmut thee
Ġade ptar
Ġjaat i
Ġlaala ch
Ġtara jeeh
Ġoch tavi
Ġsanra chana
Ġslai aik
Ġkinga dam
Ġsairvi chai
Ġpratidvandv iyon
Ġsaaksh aatkaar
Ġchidachid aapan
Ġpana pane
Ġhaeel ait
Ġjig yaasa
Ġmes enjar
Ġreeb oot
Ġele phasee
Ġshaash vatee
parsan al
Ġvarsha gaanth
Ġdhaat u
glon aas
bris ben
ochikit sak
kash meer
Ġsyaan ojen
Ġsalp har
Ġlal ak
Ġnil am
Ġraish ej
Ġseraam ik
Ġsandig dh
Ġmaanavee y
Ġdokyum ents
Ġviketakee par
kvod akor
lih aaja
naap asand
Ġmonee tar
Ġlpd dr
Ġnay aapan
Ġnvid i
Ġvordar ob
Ġsameeks hakon
stood ents
Ġdazz lai
Ġdhaarm ik
Ġoditor iyam
Ġkaddook as
Ġephadabal yooveejeee
Ġaatmasam maan
! !
- âĢĺ
0 7
1 30
3 70
3 49
4 26
6 30
a q
a ham
a cheen
b ch
b aab
b la
b os
b eshak
b ijalee
b andhan
d f
d es
d ul
d ait
d olar
d arav
e z
e tal
g ir
g ail
g st
h aaya
h tee
h md
i fi
j u
j ub
k g
k ata
k ate
k old
k atop
k ren
k etan
l aim
l anch
m er
m edikal
o f
o shit
p t
p asee
p hanee
p vaint
p asand
r aad
s end
s hak
s aara
s avaal
s teev
s ookhe
t it
t ekt
t aayar
u en
u tal
u gh
v ist
v akt
v rata
w ik
w ay
x ch
y s
y aana
z b
z ik
z anee
z ebraaniks
Ġ 990
Ġ ),
ee sh
ee karan
Ġk ree
Ġk yool
Ġk aanon
Ġk mpl
aa ir
ha va
ar th
ar jun
Ġs w
Ġs aap
Ġs tem
Ġs hamee
Ġs tareey
in chh
in ens
Ġp aab
Ġp aip
Ġp uta
Ġp ista
Ġha zaar
Ġm d
Ġm ate
Ġm dr
Ġb un
Ġb aak
Ġb ich
Ġb aajee
Ġhai x
Ġd us
Ġd air
Ġd ars
Ġd aanon
Ġd dis
Ġd regan
Ġd ikshan
ta ur
ta kar
ta phapaid
Ġa iksal
Ġa int
Ġa ke
Ġa itihaas
Ġa seemit
Ġj es
Ġj il
Ġj aim
Ġj up
Ġj ast
Ġj yot
Ġj voin
aar atne
ai z
ai tar
ai th
ai aisl
en apee
Ġme jar
Ġme king
ak ai
ak tar
ak isee
Ġl ata
Ġl aad
Ġl el
Ġl ang
Ġl oded
Ġl atak
ch m
ch ur
ch uk
ch una
ch inta
ch okalet
Ġka ist
Ġka unt
Ġka pannee
Ġka chchee
Ġn is
Ġn aate
Ġn aag
Ġn aphar
Ġn abanr
Ġn ortan
Ġr ch
Ġr at
Ġr iy
Ġr ise
Ġr os
Ġr ib
Ġr iz
Ġr ona
Ġr pm
ga den
Ġv ed
Ġv aash
Ġv ith
Ġv emo
Ġv hel
Ġv aade
aan iyon
aan val
ur eted
al l
al tr
Ġt aat
Ġt aam
Ġt ent
Ġt aara
Ġt rol
Ġt nt
Ġe se
Ġe chaar
Ġe bs
Ġse r
Ġh w
Ġh yoo
Ġh orm
Ġko in
am ot
am areekan
ph et
ph ekt
ph ood
ph eshanal
ph itabit
es ta
Ġph od
Ġph os
Ġph igo
Ġph ikr
Ġph aastraik
Ġaa ail
Ġaa hat
Ġaa to
as at
as aid
as onee
as abase
ah el
Ġpar ee
Ġpar rik
Ġpar akha
Ġpar phekt
Ġhain dee
ab aay
ab la
har ot
Ġga un
Ġga var
Ġga yeen
Ġg en
Ġg aal
Ġg ree
Ġg ineej
Ġg sm
or g
Ġu bale
it ik
it ej
it iks
Ġta ich
Ġta ils
iy aas
iy ol
iy aatek
Ġja har
Ġin honne
Ġin tan
Ġin sapiron
ro tee
ree kshan
aim ai
aim ail
aim ars
yoo em
yoo pee
Ġsak ses
hal dee
aad i
aad hee
aad hana
Ġki gra
Ġek teev
maar e
maar ch
Ġch t
ake yar
Ġkam ish
Ġkam pee
Ġkam iyon
ais ar
ap iks
ap atr
jee v
jee seee
aik al
aap al
un g
un j
un ak
dh er
Ġkh aaka
Ġjee ela
Ġjee vit
Ġjee phors
aaya kon
aav edan
Ġsh oo
Ġsh ro
Ġsh od
Ġsh aasan
Ġsh oldar
Ġsh vasan
Ġsh evarale
Ġ4 60
Ġ4 31
Ġra han
Ġra gaden
ay on
Ġ3 15
tee pha
Ġ5 18
Ġto ta
dee n
dee aar
dee dee
dee see
ag aad
Ġbh id
Ġbh aatee
Ġbh bhee
Ġbh aanti
Ġbh ramit
Ġbh ookhe
Ġbh aaloo
iv edee
Ġpr edis
sh ep
up s
im i
im pen
Ġpa chane
Ġpa oge
el ens
el aje
Ġmo je
Ġmo vai
end roed
Ġjo shee
Ġdee aarel
le p
le tar
ase r
Ġy antr
Ġy zf
Ġsam bo
Ġsam paad
Ġsam asy
Ġsam agr
ant oo
Ġpro baayotik
Ġpro gainiai
Ġdil aaya
Ġyoo aan
Ġyoo eksa
ok ok
ok om
aak e
aak aash
aak habar
esh iyan
Ġan ap
Ġan gr
Ġan ootha
Ġhon gen
99 5
ip har
ait rik
av el
av aid
av aayan
av aij
ut paad
Ġdis eej
Ġtee esaee
chh aachh
em asee
em ajee
oor ja
Ġban een
aay on
aay ukt
Ġal sar
Ġal lo
id am
er iyan
ish iyam
Ġsee l
Ġsee dh
Ġsee zan
Ġun ich
Ġva zanee
Ġkaam a
see o
see t
Ġden amaark
Ġkaren yadi
od aijd
adee j
Ġkarata b
Ġbl ej
Ġbl yoot
Ġde ph
chch hata
Ġphr ik
st ik
Ġba un
Ġba hanon
par esh
Ġran jana
Ġlag een
Ġlag engee
yar s
yar ee
Ġaaee otee
Ġaaee yoosee
Ġsp aichial
Ġsp aichtrai
Ġpheechars a
Ġchal aakar
gal ar
ij eshan
Ġkv aid
Ġpad on
Ġpad hata
Ġmaar iyo
Ġgr aivitee
aayad e
sa j
kar aaya
Ġpl at
Ġpl aajma
Ġ20 5
Ġ20 8
Ġ20 21
Ġ20 22
Ġcha u
Ġcha up
Ġcha ita
Ġcha dha
Ġcha yaap
Ġham alon
Ġop air
Ġda zain
Ġsar d
ra jarooree
Ġsa han
Ġsa oodee
Ġlen th
20 48
air ning
Ġut hana
Ġvik kee
Ġvik ipeediya
to s
Ġkan teen
Ġsel yoolar
Ġdh aanch
Ġ16 6
Ġ16 8
ti al
ti haan
Ġbat aakar
Ġbat tairy
ash el
Ġprat yaar
Ġsan gyaan
Ġen teev
ig ing
Ġbik atee
Ġ32 8
Ġee jee
Ġee laiph
Ġind r
Ġind ip
Ġpha et
iph in
Ġtr il
Ġtr ast
Ġkhel enge
Ġhaind abaig
kh oon
Ġbah uchar
Ġadhik rt
eks eksa
Ġvan dana
re taree
os s
Ġemapee ech
yon g
Ġhar t
Ġhar aakar
Ġhar aman
Ġkhareed anee
Ġkhareed enge
Ġon ars
Ġgee le
ool y
Ġmaan esar
Ġel adee
Ġel eks
Ġsha in
Ġgh ot
Ġro y
aayar an
Ġam rta
Ġtai ap
Ġtai xt
10 24
araph laee
Ġjal aane
Ġjaroor ata
Ġbr adars
vo cha
gan dh
Ġchuk aana
Ġpoor vee
Ġx ai
Ġgl is
Ġgl itar
Ġed amishan
Ġ25 2
aag har
yak t
Ġno ugat
Ġshar aar
vid iyokon
Ġpaas ta
rol ik
Ġf ch
Ġf un
Ġf ord
Ġf indair
Ġso en
Ġap laee
Ġjaatee n
Ġsarv elens
Ġmais enajar
Ġor gen
Ġor aio
eeb har
Ġkr sh
Ġkr im
Ġkr onik
Ġkr shi
Ġkr aisalar
gr am
gr aiss
Ġghar shan
Ġ14 1
Ġok top
Ġok saphord
Ġkhud ara
Ġdaal o
Ġth ings
Ġim pairi
Ġim asen
Ġim tihaan
Ġkamp har
phot en
phot oj
Ġte p
Ġchaah oonga
Ġmah aap
aph ord
Ġlai g
Ġes aaratee
ban aane
Ġred iya
Ġgend en
Ġmin istar
Ġdaun ap
Ġdaun ataun
bhee m
abh u
orm al
Ġhaal ahee
tr ed
tr aimai
Ġaan ton
Ġbar ld
Ġlok ar
Ġeph il
Ġ30 5
Ġaaj aad
Ġz ebraaniks
Ġbol en
Ġjen etik
Ġsur esh
Ġav val
Ġdar ane
Ġdar janon
na jar
chaar jar
sp en
Ġaay aam
de vid
Ġphingaraprint s
hai chabaik
Ġshatak on
Ġrip haind
Ġrip ablik
lab ard
tav itee
Ġoo tak
main ual
Ġjud ana
Ġjan ak
ko pee
Ġvyak tiyon
eda yool
Ġsl ais
Ġstaind alon
pa ya
pa hach
Ġdekh oge
pr iy
pr adhaan
Ġsil aee
Ġyu v
Ġni reekshan
adh ikaariyon
Ġshik an
Ġshik aayaton
Ġ19 50
Ġmas kular
ba chk
Ġkon a
baik s
ita il
Ġsheyar on
Ġpat aree
Ġpat haree
Ġmal ik
Ġmal eriya
sk aip
br ash
br aind
Ġkain ekt
Ġinst raktar
Ġphail ing
Ġphes ataim
Ġsupar asport
Ġkhul aas
Ġsek san
Ġ50 9
Ġchun ee
Ġchun enge
Ġjeevan akaal
Ġtul anaatmak
Ġar un
Ġmi chal
elee t
Ġpetrol iyam
Ġotom aitikalee
bo bee
sap taah
Ġmaatr bhaasha
ep t
haar akhand
35 9
35 20
35 60
Ġtel iv
gh i
mo bilitee
Ġ500 00
Ġchuna uti
Ġrok ate
Ġ0 2
ib ishan
Ġnyoo d
Ġkastam aijeshan
Ġpars anelitee
Ġnav aachaar
Ġkaip shan
Ġkaip ebilitee
Ġstail ing
Ġiv oomi
Ġje talee
100 00
Ġpak ka
Ġraaj ama
Ġraaj asv
Ġspee ch
shet r
Ġsik ka
aiga dai
15 36
Ġkal am
rt iyon
Ġai ichm
Ġbaal an
onai air
Ġabh ish
rip laee
aaee v
aaee tee
Ġhaee end
Ġparaph yoom
Ġkhatar on
Ġsarakaar on
Ġbha ug
Ġbha utik
Ġdr ag
Ġsaaph taveyar
Ġuth aakar
Ġail yt
leek et
Ġkaun tar
Ġkaun asee
baar silona
Ġbas harte
Ġsthaan aantarit
vas ait
Ġintar aneta
kat hin
bl u
Ġnikaal atee
bil kul
avas aad
Ġpahan ate
thit iyon
Ġbecha in
Ġpan non
Ġol vej
Ġol avej
Ġsamajh aana
Ġtam aga
Ġgujar atee
55 3
aarm eshan
Ġdok taree
Ġpi onaiair
Ġkod s
Ġkod iyaak
Ġsain tist
Ġjad ai
Ġvij ets
Ġpaik d
Ġnish aanee
Ġmaiks iko
Ġins entiv
Ġhaard adisk
Ġkail aree
Ġseek hee
Ġseek val
Ġ31 50
Ġshak l
Ġmail aston
asar phar
Ġgarm aahat
ho te
rod hee
uta ir
Ġsach chee
Ġhaid rolik
Ġmid al
Ġmid arenj
Ġveb akaim
Ġq r
Ġq iku
Ġspeshal ist
Ġmish igan
Ġphal aish
Ġkaan te
Ġkaan sept
Ġpooch hana
Ġpras av
Ġmool yon
Ġphoks akon
Ġleek s
Ġana jaane
Ġyaat aayaat
Ġepha seee
Ġpahuncha kar
ech esapeee
ama zon
Ġmar k
aint s
je pan
Ġseeee esa
Ġsans aar
pro phesar
pro pheshanal
Ġvarld avaid
Ġpeed a
Ġpeed i
aavadh aanee
rsh y
Ġkhoj ate
Ġsai phaayar
Ġkarava egee
Ġzain ith
Ġmit ron
Ġphrend aship
Ġdit ektar
Ġnid ra
Ġdon ar
Ġdon aald
vig yaapan
13 1
13 66
Ġniv aasee
Ġniv aasiyon
Ġrod s
Ġmak ka
Ġroo hee
Ġroo chi
Ġsaha mat
Ġsara gun
no tabuk
à¥ ģ
Ġvyoo ar
Ġkin aara
Ġyoonivarsitee j
Ġvigyaapan adaataon
Ġvaatar amaark
Ġmobil ais
Ġemb eded
phl oo
Ġdaud a
Ġdaud ata
Ġdaud atee
sal amaan
Ġchaahen gee
Ġvil iyam
go ing
Ġgol iyon
Ġchaarjar s
Ġkad r
Ġnai xtbit
Ġdhee le
Ġdhee la
Ġpent ings
Ġmud akar
Ġnait rojan
buking s
su v
Ġlaind as
Ġbul aen
Ġseema on
Ġrel s
Ġprem ee
Ġprast uti
Ġpratik ool
Ġriv aij
Ġnibh aatee
kit anee
Ġrol s
Ġeeyar abad
Ġeeyar aring
Ġdabal yoo
Ġbojh il
Ġir d
Ġir aade
Ġenj el
Ġdiggaj on
Ġhans ane
gad akaree
mai th
Ġdog une
Ġchail air
Ġsens itiv
Ġpratikriya en
Ġkaite giree
Ġmam ata
Ġaaaitom obail
Ġiphekt iv
89 16
chaa hate
ris itee
Ġhol ly
Ġparinaam on
mas k
mas hahoor
Ġdais k
Ġlu bhaav
Ġmaut on
Ġaltr aasaund
kain sar
Ġsol yushan
Ġchit y
Ġchot on
Ġchot en
Ġspor tabaik
Ġchr ait
mil enge
Ġben cha
gam ented
Ġast r
Ġhil aane
Ġhil aakar
Ġgail ek
Ġmaij oo
lam bee
yav aanee
Ġtoor nament
Ġob i
oliyo sis
Ġtheem s
Ġsaind aston
Ġaash utosh
Ġ46 99
tur ant
Ġpaancha vee
Ġpaancha vaan
Ġnek ses
Ġsuk had
Ġgur de
Ġgur akha
Ġchon tin
Ġrisee var
Ġchet an
Ġchet ana
Ġbej od
Ġev ont
Ġlaib s
Ġqu iq
98 32
lok eshan
Ġà¤ °
sach in
Ġbigad ata
Ġsos aitee
Ġpach aane
Ġsamaaj on
Ġchad dha
Ġaark iyolojee
Ġasam ay
Ġnin j
Ġgand e
Ġtahal aka
Ġday aal
aikro maiks
Ġsvar g
Ġrep haree
Ġenaal ist
Ġpoochh ega
Ġprashan sak
opar etiv
Ġkaarya sthal
Ġdila ega
Ġspen ish
Ġchat anee
Ġvaak iph
Ġhy undai
Ġmaanga te
Ġkind lai
Ġphe b
Ġphis kal
Ġparich it
Ġgaan en
Ġnyootr ishan
Ġkhusha haal
kail iphorniya
madh yapradesh
ri aind
Ġhath iyaar
Ġnorm s
Ġrot et
Ġeeko boost
Ġpratibandh it
Ġkaaga jon
Ġutsar jit
Ġphans ane
Ġtalaas hen
kod ak
raas te
Ġdav aee
Ġmaiken ijm
Ġkaa airning
Ġkash meer
Ġinv estament
Ġpeetar asan
wind ows
Ġsok et
Ġsele ron
Ġchor ning
Ġbhaaga daud
ogn ition
Ġ66 60
Ġsabs id
Ġasantul it
mod al
Ġrap aye
Ġaaikon iya
Ġchhid ak
Ġpaath yakram
Ġloon ar
Ġphaas taig
Ġtakar aav
Ġdev agan
Ġeemaan adaar
Ġmanush yon
badal aapur
uvan antap
Ġrid akshan
Ġhaad ase
Ġpratibad dhata
Ġsile br
soor y
Ġsaan and
Ġkais et
Ġvaaya s
eksap art
Ġapek shit
Ġbaayom etrik
risar char
du bee
gaan istaan
Ġshat aab
Ġves pa
Ġten aaleeraam
aaap ako
Ġpit aajee
Ġdaad hee
Ġjhad ane
Ġveer endar
Ġilektraan iks
Ġasth aayee
Ġenteeoks eedent
bait hane
nam ak
tok yo
Ġpaat hak
Ġrist or
Ġrist aart
Ġvoo ch
Ġuj j
Ġshaah id
edis kaunt
grej uet
Ġinspaayar on
ax is
Ġkhal an
aaait omaitik
Ġbhad ak
Ġaatha veen
Ġmotiv eshanal
Ġtrek ing
prati bhaagiyon
Ġmyooj iyam
Ġaich osport
Ġkarem madhyapradesh
Ġgej ets
Ġchoos ane
peedee eph
Ġkrip tan
Ġminim am
Ġmaeekro maiks
Ġprovaid ars
Ġchaimpiyan aship
Ġraich ognition
Ġvikram ajeet
Ġdhaaraavaah ik
Ġdhaaraavaah ikon
Ġemplo y
akad amee
Ġkasar at
Ġkeetaan uon
Ġuch hal
Ġprin ted
Ġstro beree
Ġghul anasheel
Ġthink apaid
Ġkompitee shan
Ġaaident itee
Ġprachal it
Ġdavalap ars
daayar ekt
wal i
Ġpass w
anumaan it
Ġdul han
Ġvim aanon
Ġseleb r
Ġotee e
Ġbhr asht
seeee o
bhoo kh
Ġenk ripshan
Ġvinam rata
Ġphijiyo therepee
paraphorm ens
Ġschan nair
Ġmeer aakaast
Ġbrai zz
Ġhaiad sait
Ġdroid asarphar
Ġnum bair
Ġnusk he
Ġdown load
Ġspl aish
Ġephish iensee
aign etik
Ġreejan al
Ġlojee tek
Ġoorj aavaan
yap ti
Ġmer ath
Ġhyoom an
pary aapt
Ġmaars hal
Ġchamat kaar
Ġeng ree
Ġprodak tas
maim oree
Ġdesha bhakti
Ġjp aig
Ġnaakh ush
Ġhaaj ir
Ġdilar uvaan
Ġchaun ka
Ġkampait ibal
Ġnyooja hant
pram ukh
Ġphitar ist
Ġtaeem eks
Ġprinta ut
Ġblut ooth
Ġaadhyaat mik
Ġthaak ur
Ġaipl ikeshan
Ġteleeven chars
Ġaimoj i
Ġviraas at
rashekhar an
Ġane bal
Ġbaang la
Ġakar am
Ġnrt y
Ġnaich ural
Ġgast o
Ġpheen gar
Ġyaach ika
Ġskolar aship
Ġpadaar pan
Ġsoft warai
Ġkrtag yata
Ġkvaalak aaaim
Ġmaarshamail au
Ġbhavish yavaanee
Ġgopanee yata
Ġrephrijar etar
Ġdipl oma
Ġbeneph its
Ġchikits akeey
Ġchinaim ax
Ġnilam bit
bla chk
Ġmate riyal
Ġdus tair
Ġdikshan aree
Ġake lee
Ġaitihaas ik
Ġnaphar at
Ġriz olyooshan
Ġparrik ar
Ġtaich no
Ġsambo dhit
Ġangr y
Ġblyoot ooth
Ġranjana gaanv
Ġchayaap achay
Ġenteev aayaras
Ġbahuchar chit
uvanantap uram
0 90
1 10
2 600
3 62
4 70
9 4
9 20
9 10
b uj
b oks
b ukh
b ijan
b aavajood
b ooj
b izain
b aaba
b aist
b ure
d p
d har
d it
d ay
d ega
d om
d aid
d itel
d aada
e tam
f ais
f un
f ait
f ilahaal
g ha
g hak
h aare
h indus
j ad
j il
j ent
j aatee
j aate
j ukarabarg
j oging
k uk
k aash
k itana
k tiv
k shit
k aant
k yoob
k bps
k intu
k redit
l ens
l aapan
l ojitek
m ag
m ir
m uj
m asang
m aah
m aand
m abh
m ahaan
m ushkil
m sm
n an
n el
n aash
n yooj
n fch
n ekst
o th
p aat
p aik
p ent
p ot
p aksh
p yootar
p aisa
p ton
p ement
p eedan
r ch
r or
r aav
r aak
r aag
r eting
r aapt
r ekh
s tar
s ing
s ega
s aaj
s kor
s amee
s tej
s itai
s aadhaaran
s taim
s leep
s cho
s aavadhaanee
t l
t aad
t ol
t rik
t rol
t ron
t enshan
t hard
u bah
u veee
v iya
v inda
v abar
v aishvik
w aib
y uk
y olyooshan
y ojana
y pton
Ġ |
Ġ âĢĶ
ee y
ee aaratee
Ġk end
Ġk aay
Ġk re
Ġk aksh
Ġk aast
Ġk tm
Ġk iston
aa yah
aa hon
ha e
ha y
ha vaee
ar y
ar og
Ġs maar
Ġs le
Ġs op
Ġs aadiyon
Ġs onik
Ġs udhar
Ġs maj
Ġs panj
in iks
in aava
in jeeniyar
Ġp el
Ġp em
Ġp esar
Ġp uneet
Ġp df
Ġm x
Ġm ya
Ġm iy
Ġm aad
Ġm ast
Ġm atar
Ġm aapa
Ġm hz
Ġm istik
an v
an il
an aav
an okiya
Ġb ais
Ġb ing
Ġb om
Ġb reej
Ġb aans
Ġb halee
Ġb orn
Ġb aaaidee
Ġb iskut
ya i
ya kar
ya lar
ya taon
Ġhai ai
Ġhai tek
Ġd ra
Ġd aana
Ġd aree
Ġd avaab
Ġd eedaar
on aree
ta te
ta ing
ta iteniyam
ta iyaar
ta ijing
Ġa uj
Ġa gal
Ġa van
Ġa iti
Ġa ib
Ġa kaun
Ġj y
Ġj aava
Ġj um
Ġj iph
Ġj aaga
Ġj ui
Ġj aiguaar
Ġj aigavaar
Ġj haarakhand
aar oos
ai h
ai dh
ai aid
hee t
en arjee
Ġme te
Ġme rid
ak hee
ak ane
ak esh
ak vaar
ak haav
ak ushee
ak ranch
Ġl aara
Ġl oonga
Ġl oongee
Ġl ight
ch on
ch il
ch ip
ch op
ch aand
ch hai
ch tch
ch lass
ch hamp
Ġn b
Ġn aay
Ġn aanee
Ġn asee
Ġn alee
Ġn ason
Ġn ight
Ġr uj
Ġr olar
Ġr endar
Ġr abad
Ġr inyoo
Ġkee vard
ga le
ga ti
ga jab
Ġv ak
Ġv ala
Ġv aard
Ġv aaai
Ġv oksavaigan
aan taran
aan jali
ur o
ur abh
al ph
al ist
al okar
al aips
at o
at ura
at hair
Ġt eed
Ġt aalee
Ġt ilt
Ġt chl
Ġe vee
Ġe dar
Ġe vi
Ġe vaj
Ġe ventaador
Ġh r
Ġh em
Ġh elee
Ġh orn
Ġko tan
Ġko sta
Ġko chchi
am t
am areekee
am my
ik hit
ik eted
ph iya
ph ol
ph ren
ph iet
es alet
es ateedee
ad y
ad oo
ad or
ad and
ad arsh
Ġaa adi
as is
as ak
as alee
il aaj
il li
Ġis teepha
ah o
ah om
ah maand
Ġpar am
Ġpar amaan
Ġpar avaah
ab as
ab it
ab aala
ab ada
aal itee
har akhaav
Ġga han
Ġga hane
Ġga dha
Ġg ham
Ġg inee
Ġg aavas
han ga
or iyal
ek ta
ek al
ek asaath
Ġu dee
Ġu bhaar
Ġu bala
tar abooj
Ġho g
Ġho var
Ġne p
Ġta j
Ġta un
Ġta la
iy aalee
iy aaron
Ġja is
Ġja int
Ġja oonga
Ġin chh
Ġin tanar
Ġin astol
et ibal
ro g
ree dar
aim ik
phon s
yoo ai
yoo tee
yoo ke
yoo echadee
yoo peeaee
Ġsak htee
aad ar
aad heen
aad ash
Ġek at
Ġek taranal
Ġek aadash
aam e
Ġch im
Ġch hata
Ġch ilee
00 8
aas haalee
Ġkam aana
Ġkam atar
ap aat
ap ro
ap reet
ap aache
ap leekeshans
jee tee
aik il
aap ee
un da
un aaratne
Ġjee el
Ġo onee
Ġo gamented
ara yah
ara und
ara grejuet
Ġsh aar
Ġsh el
Ġsh aadiyon
Ġsh imala
Ġsh edayool
Ġaap aatak
Ġra ph
Ġra cha
Ġra phoo
bee ta
Ġ3 67
Ġ3 900
uk ravaar
Ġ5 35
Ġ5 19
ana gar
ej ament
dee tee
ag oo
Ġbh ul
iv ee
iv ahan
iv airs
Ġna oo
Ġpr aam
Ġpr ako
Ġpr aksh
Ġpr adeep
Ġpr aant
Ġpr iyas
Ġpr aanshu
sh on
sh ek
up ach
Ġkaar ana
Ġkaar yar
Ġkaar amekar
im ent
im eted
el ar
Ġmo tion
ir a
iks an
pal ar
ed ab
akee n
Ġdee see
Ġdee je
Ġdee kshit
le romeetar
Ġy ojan
Ġma chee
Ġsam osa
shan ing
Ġpro taich
ent ree
Ġdil on
Ġyoo s
Ġyoo tee
Ġyoo pee
Ġyoo kren
ok ing
og et
aak s
aak an
Ġ6 10
Ġ6 500
Ġ8 990
Ġ8 499
Ġan oothee
Ġan grej
ul o
heen e
heen on
ip ha
ip eej
Ġhu ma
Ġhu ami
aaj oo
ot ik
av al
av aana
Ġsab ha
ut aav
ut taree
Ġdis cho
Ġtee ka
Ġtee vrata
sar phes
jan an
chh it
chh ed
em iya
em eks
em endem
Ġst ek
Ġst iks
Ġst ant
Ġst haee
oor oo
Ġbai ai
Ġbai yon
Ġc hane
om akesh
ge tar
Ġus apar
Ġal t
Ġal ava
id eted
Ġupalab adh
ish tha
Ġbaad hit
Ġsee oo
Ġsee ke
us ai
Ġab hay
Ġsk oo
Ġsk vee
Ġsk oliyosis
Ġrak sh
Ġya mah
Ġlek han
Ġtha gee
od ay
od hak
od aayan
Ġtar b
ka ph
ka pannee
bar asaat
var it
Ġraim a
eshan aship
Ġbl a
Ġbl ohorn
Ġde yaree
Ġphr aid
st orai
st reet
Ġba hane
Ġ7 65
ud gh
par ivahan
Ġlaga ega
Ġlag joor
Ġaaee aar
Ġaaee es
Ġaaee aaraseeteesee
Ġsp el
Ġsp eyar
Ġsp irit
Ġbe phik
ki ta
Ġmai reen
Ġmaikro se
op iya
op le
Ġprosesar s
ind as
Ġpad am
Ġmaar atee
Ġgr ai
Ġgr aand
kar n
Ġ12 000
Ġpl aane
Ġ20 2
Ġ20 70
Ġ20 48
Ġcha tak
Ġcha pat
Ġcha kat
Ġcha fai
Ġham al
ood als
asan khya
Ġop ashan
Ġsar kul
Ġphl oting
Ġsa chche
Ġkhaas iya
apee s
20 1
Ġroop ediskaunt
hata ur
Ġut peedan
Ġve ree
to ph
to shiba
Ġ10 3
Ġ10 99
Ġver on
Ġeks an
Ġeks al
Ġeks il
Ġchh aapa
Ġnir dhaaran
Ġchaar tar
Ġsel aphon
Ġskreen ing
Ġadh oora
Ġpee yoo
Ġpee pal
Ġdh un
Ġdh aancha
Ġdh yaana
Ġ16 4
ti ons
aakh iree
Ġmain s
ash aastr
ash chek
Ġsan koch
Ġen ee
Ġen odaijd
Ġsim a
Ġbana vaane
Ġbik ana
Ġ32 99
Ġee ting
Ġee aeees
Ġind or
Ġind rad
Ġpha itar
Ġtr e
Ġtr igar
Ġmad raas
kh u
kh aalee
kh ulakar
Ġbee em
dar d
Ġbah oo
Ġbah aanon
Ġkha o
rik ord
Ġlee jan
ist aanee
Ġaas heesh
Ġvan atach
kan ekshan
kor s
Ġhar aaya
Ġhar iyaalee
Ġon iks
oom abarg
gar bhaashay
ma chchhar
ma uka
ma heene
ade v
Ġsaam agr
Ġkl or
Ġ9 40
bhaar gav
Ġgh odon
Ġro yas
Ġro bart
Ġam t
Ġle deej
Ġtai balat
tal ets
lek hak
Ġgeeg aabait
Ġil ek
Ġbr aas
Ġbr aanch
Ġbr ahmaand
Ġthe pht
gan it
Ġgl oo
Ġgl oree
Ġed rino
yool t
Ġ25 8
aag oogal
aag rah
ush t
int r
int an
Ġf ilahaal
Ġf ingair
Ġap akam
Ġap aartament
Ġjin apar
and roid
Ġpaar adarsh
Ġphilm aaya
aare ph
Ġrej olooshan
Ġsarv ot
Ġphul av
Ġmais enj
Ġphree chaarj
maik abuk
Ġbhar anee
Ġbhar akam
Ġbhar ose
unt u
ikal s
oks aid
asee m
gr h
gr aind
Ġsv ing
Ġdv aar
Ġman g
Ġman ip
Ġman sha
Ġman gaane
Ġok shan
Ġok ulas
Ġkhud akushee
sha impen
Ġth aane
Ġth ir
Ġth red
Ġth omas
Ġim alee
Ġi b
Ġchaah oongee
Ġrang ana
Ġmah aab
aph ish
Ġple talets
Ġyoon ee
Ġlai tar
Ġes apee
Ġes enshiyal
Ġeyar odaayan
Ġred iy
ja egee
Ġpo chkait
Ġsarvis ing
Ġshree raam
abh ibhaav
Ġvajah on
Ġapad eshan
Ġdyool akor
Ġaan alain
Ġbar chail
kaar an
Ġ30 3
Ġz aib
Ġas oos
Ġas amee
Ġas osieshan
Ġas vasth
Ġsas p
oos hak
Ġilektrik al
Ġbol atee
Ġbol abaala
Ġchee p
be ta
be cha
Ġav eyar
Ġav aidh
Ġw idai
Ġsun avaee
Ġdar je
meed iyaatek
Ġlait on
po int
30 6
kom iyo
Ġovar ol
chaar on
Ġlik hatee
Ġlik henge
Ġkareeb iyon
sp or
Ġ21 999
Ġnik o
tav y
Ġ18 9
Ġ18 50
yooj d
Ġjan asankhya
Ġkampyootar on
Ġsl atai
Ġsl idai
Ġsl ogan
Ġband han
Ġbatan s
pr eshar
Ġsil vair
Ġvol it
Ġvol tej
Ġyu phori
Ġni maarta
Ġni bandh
adh aara
Ġ19 2
Ġmas oodon
Ġyooj d
Ġsal avaar
Ġprodakt ivitee
Ġmee then
Ġjiyo phaee
ita s
Ġot onomas
Ġsaab haar
shree l
Ġkai ta
Ġpat ron
Ġtaak ee
Ġ200 4
br en
ahind r
Ġstaar tar
Ġphail ata
Ġsho dhaar
Ġgan esh
Ġgan jepan
Ġtul asee
Ġkantrol s
ve tar
Ġpaanch on
maikro bloging
yo utubai
Ġotom et
haar le
à¤ ª
sam aar
sam aadhaan
sam aachaar
Ġtel agoo
mo haalee
Ġjod en
Ġkarav aata
Ġsoch o
Ġsoch ie
Ġbra chai
Ġrok atee
67 0
67 55
vaas thy
19 00
Ġprabhaav akaaree
Ġkaip isitee
Ġsm ar
Ġsm ol
Ġsm aran
Ġkro karee
Ġiv aan
Ġje beeel
Ġrav aana
ven shanal
Ġpak ade
Ġpak avaan
Ġraaj amaar
Ġraaj aneetik
Ġkhol ate
Ġkhol enge
Ġeksap ortar
Ġlaksh man
Ġsik haen
Ġkanekt iv
Ġhom avark
Ġ26 4
Ġ26 000
Ġ26 20
Ġ26 50
Ġsarch ing
Ġchar am
Ġkal t
Ġai asy
Ġkool apiks
Ġud har
Ġree pharbishd
Ġjam bo
Ġabh yar
Ġgir ate
Ġhaee silikon
Ġmushkil en
14 2
Ġkis mat
Ġkis se
Ġsad a
Ġdhan k
Ġdr aing
Ġdr aapht
Ġchahal akadamee
Ġej ent
Ġphit ed
Ġematee enel
Ġli qu
Ġaam antrit
Ġuth ega
chom p
Ġail aich
Ġpoo jan
Ġmahat ta
Ġkab aad
âĢĶ âĢĶ
Ġmahatv ak
Ġintar aiktiv
bl ai
ang ik
Ġpahachaan en
Ġpahachaan ate
kon tekt
acha i
sun ane
Ġdim enshiya
Ġpan je
Ġpan jon
Ġol imp
Ġbrek ap
jaan iya
jaan akaar
Ġgo vinda
Ġgujar ata
55 8
aarm al
Ġpi chak
Ġsain su
Ġphan ee
Ġphan gal
Ġphan gas
antr aalay
Ġhaan i
Ġres ipeej
Ġprav een
Ġang ul
Ġaag aaj
Ġaag haat
Ġnee yar
Ġnee tiyon
Ġnish k
Ġ29 6
Ġjh aan
Ġ65 82
Ġhaard adraiv
Ġghat an
Ġgaur atalab
Ġvaid ar
Ġjor j
Ġbeees ai
Ġmail d
32 1
sab jiyon
Ġbo x
Ġbo dh
maan oo
Ġbel aaroos
aaga j
Ġaaraam adeh
Ġsmaarta ple
Ġsmaarta vocha
Ġvot s
emaee el
Ġrajistreshan aringing
bai the
Ġkheen chana
Ġmir ars
Ġshee tal
Ġmen oo
Ġaqu aris
Ġvig yapti
inta ir
Ġrij alts
eend han
san k
Ġpahuncha ega
ech es
ech emesaee
ech emaeeel
Ġsid anee
Ġvel yu
Ġjhata pat
Ġprograam ing
Ġhaik sa
pro j
pro phail
Ġphain tam
Ġdhon a
Ġtveet s
Ġindast riyal
Ġbhool ane
Ġvip halata
Ġkarava ega
Ġkaimar oon
Ġmit tal
Ġseesee teevee
Ġbaay op
Ġbaay otek
Ġnid han
kol estrol
Ġpos char
asap halata
Ġ67 52
jin hen
Ġchayan ika
Ġroo teen
Ġduk hon
Ġarab on
Ġsambhaal ana
Ġsamb ad
Ġeg jeekyootiv
Ġprais arenj
Ġpovar d
Ġhata en
Ġbi gade
Ġriyal atee
Ġvisheshag yata
Ġfl aish
Ġsig m
Ġmed al
Ġmed hak
Ġank it
Ġaj asta
les ament
Ġdur ga
Ġvil tai
Ġram esh
Ġreting s
ins aan
Ġvrd ghi
Ġsamajha en
bad hatee
Ġkad ava
Ġphood s
Ġchan deegadh
lain s
anj ak
itai chh
Ġ34 75
Ġgipht s
Ġsveekaar en
don ktar
Ġmait riks
Ġchha p
Ġriv yooj
Ġriv aijd
bol t
Ġmega piksal
Ġnibh aana
phar k
Ġbyootee phaee
Ġstai bal
Ġmaip ing
Ġ199 6
Ġmt k
Ġtair ate
udyog ik
Ġ74 20
Ġyooaee deeeaee
Ġsaj eshan
Ġvyavas aay
Ġaaaitom ekar
aayal at
chaa hen
Ġpatr akaaron
Ġlains et
Ġdip ojit
Ġteknol aajee
Ġinti gret
Ġkoo par
chaal oo
Ġphiks ad
Ġsanket on
Ġaautal uk
Ġlak ava
Ġnaagar ik
Ġnakaaraatmak ata
Ġken an
Ġaatan kee
Ġchot il
mar uti
Ġreed ing
gam bheer
rah e
Ġpash uon
Ġven am
Ġjimmedaar iyaan
Ġchaut haee
Ġteknolajee j
Ġdohar aane
Ġsook shm
Ġegj ibishan
Ġdyoo tee
Ġaiks ident
sur akshit
sur fair
Ġmahaar at
vidh aan
Ġapeksha en
Ġaaved ak
Ġaaved akon
Ġdi wali
yoor ing
Ġvosh ing
mais enjar
Ġjaagar an
Ġjaagar uk
Ġaaie m
Ġnibha egee
Ġnip un
Ġchon graiss
Ġmand ela
Ġest et
phul kee
Ġchhup ee
Ġnirdesh on
sain s
Ġag yaat
Ġdhak el
Ġdhak ka
aadhik aran
baayot iks
Ġleed ing
Ġpheel ings
Ġsamar pan
Ġklaim bar
sen tar
Ġtip ahiya
ipak v
Ġvivaad on
Ġà¤ ²
Ġlap tab
Ġjeev ant
Ġmanga vaaya
dablyoo echo
khar eedaaree
Ġelar jik
rab andhak
Ġkriketar s
Ġbek ing
Ġubhar ate
Ġom ichron
deep ika
Ġmaj ja
Ġlum iya
agr ast
Ġsanvaad adaataon
Ġchad hane
bain z
paal ak
Ġmata bhed
aikro sopht
Ġthahar ane
met hee
Ġubaal en
Ġvark ashop
Ġboon d
Ġboon don
shuroo aat
samaj hakar
Ġtor ant
Ġbor ing
Ġbor iyat
Ġbed e
Ġriph l
Ġvaar ning
chait ing
Ġkontr ekt
sth aaneey
Ġkansol ideted
kail shiyam
Ġid ol
Ġbaant ane
Ġlaee t
phal on
Ġringat ons
Ġet om
Ġspo talait
Ġhast iyaan
Ġbita e
Ġkhaam iyaan
Ġsaum p
Ġprodekt s
Ġnikhaar ane
Ġpratidvan dee
Ġkaaj al
Ġkaaj ol
Ġmegaap iksel
Ġnan vabar
Ġpachhaad akar
traans amishan
Ġegree geshan
87 83
lad akiyon
Ġpoon jee
Ġpros asar
Ġpros aser
Ġkaibin et
Ġabhibhaav akon
non astik
rain a
Ġvis phot
Ġguj hiya
Ġstrai tejee
Ġunn ati
maus amee
Ġkishor on
Ġkishor aavastha
Ġsok hane
Ġsud heer
Ġmaa yoos
Ġaauta going
Ġshish u
Ġkhila una
Ġimpr oovd
Ġgaardan s
Ġaashchar ya
Ġ= >
Ġphevar it
Ġpari bhaash
Ġchhid r
Ġmaans aahaaree
Ġudaas een
Ġsahej ane
Ġopareshan s
badal aav
Ġsulaj ha
gul aab
gul aabee
kaan apur
nol ej
Ġmaath e
Ġaupachaar ikata
Ġghir e
Ġsy staim
Ġanusandhaan akartaon
Ġtarang en
kampan iyon
Ġkhangaal ane
sos aayatee
Ġsum an
Ġpes tal
Ġtya un
Ġparya tan
Ġplait ina
Ġoks eedent
Ġpit t
Ġjaam un
Ġtish u
Ġparampara on
Ġrajan eekaant
aayurved ik
Ġveer andhan
Ġasth i
ghaat mak
Ġblee ch
Ġlaar gan
Ġchipaka en
Ġvishvasanee yata
htt p
Ġsr jan
Ġliv ing
Ġapair al
ritel ar
than da
Ġsiv il
ilai aks
Ġhaingaut s
Ġbheeg ane
peedee eeph
Ġklin ik
Ġthin book
Ġbill iyaan
Ġkaunsal ar
Ġkaunsal ing
Ġsaty aapit
for chai
maal aveyar
tyo haaron
Ġinak ript
Ġprostet ektamee
Ġstree ma
Ġsanjee v
Ġvidy ut
Ġvidy uteekaran
prad ooshan
Ġmotor ch
Ġemplo yee
Ġovarahee t
pok et
sid anee
Ġbaah ubalee
Ġrail ianchai
ashee ld
Ġchop ing
jeepee aares
Ġpraay ojit
Ġvinir maata
Ġprachal an
Ġnaukar iyon
Ġvhaata sep
Ġtantrika on
kant rol
Ġchaan dee
Ġchik ana
Ġpratibh aagee
Ġpratibh aashaalee
Ġkataar iya
kut ton
Ġaikt ivitee
Ġjhatak on
Ġselar ee
Ġjaharee lee
Ġendr aayaid
Ġbron j
Ġothent ikeshan
Ġdoch oss
Ġeesh var
Ġgarbha dhaaran
Ġanach aahee
Ġsamaanata en
Ġsangeetak aar
Ġrephar ens
Ġbuddhim atta
iee vitee
Ġslee vs
Ġkebee peees
Ġshaab aashee
Ġchair itee
Ġenebal d
Ġmanor anjak
Ġaimb iyant
aanksha on
Ġtransl ator
bom be
emaar asee
navar aatri
ruch f
Ġkyok in
Ġmend hak
Ġetal as
upar okt
Ġmobik vik
Ġdeer ghak
kamaj or
Ġkvaar tar
ghoom ane
pratis par
Ġhimaalay an
Ġtyoobal es
Ġghons ala
Ġkabee r
Ġkasa utee
Ġtaij en
Ġbhiksh u
geeg aahatrj
Ġbangal uroo
Ġspon sar
Ġchah et
Ġmunhaas e
Ġmaignee shiyam
Ġpratispardh aatmak
Ġspheshiphikeshan s
des katop
darav aaj
Ġkyool aks
Ġsaap hataur
Ġpaab andee
Ġjil on
Ġrise p
Ġhorm on
Ġaaail to
Ġekteev et
Ġkamish nar
Ġglis areen
Ġimpairi alai
photen ment
devid asan
priy anka
pradhaan amantree
Ġteliv ijan
Ġabhish ek
Ġbhaug olik
Ġlaindas kep
Ġbencha maark
Ġdayaal u
Ġshataab dee
Ġpassw ord
Ġbhrasht aachaar
Ġpheengar aprint
blachk bairry
bukh aar
bijan es
hindus tan
jad eja
sega ment
Ġaiti os
Ġjui chai
Ġmete riyal
Ġruj haan
Ġvaaai yas
Ġevi eshan
Ġprako p
Ġkaaryar at
Ġdischo unt
Ġbaiyon d
Ġskvee j
Ġbephik r
Ġmaikrose dee
Ġsaamagr iyon
Ġapakam ing
Ġpaaradarsh ita
Ġbarchail on
Ġliqu id
Ġailaich trich
Ġsainsu ee
Ġajasta bal
Ġparibhaash it
! âĢĻ
) ]
, âĢĺ
1 300
2 10
2 60
2 30
2 800
3 31
4 000
6 80
6 200
8 20
8 18
9 28
? -
a w
b t
b ak
b am
b han
b aata
b aanee
b old
b ba
c hale
c hala
d at
d ain
d ars
d ava
d aayam
e bee
e gar
e taon
f it
f ich
f irai
g iyar
g olee
g ipht
h ok
h er
h eda
i ga
i as
i ro
j at
j oos
j aapan
j iksar
k av
k ram
k hatar
k uv
k ishor
k leen
k eral
l atee
l air
l aakh
l abh
l ipakaart
l aant
l aarj
l ight
m ana
m ol
m ish
m ash
m aadh
m amee
m aada
m atai
m antraalay
n ak
n uk
n im
n aiss
n akalee
o tar
o ut
o id
o tai
o yalet
o vigyaan
p oj
p pa
p udee
p ustak
p aayalat
r ing
r iv
r aksh
r ens
r aint
r oosee
r inkoo
r aahul
s s
s ik
s ake
s aare
s akaaraatmak
s hakti
s ys
s vaasthy
t il
t aaree
t ikon
t iyaago
u va
u chars
v aat
v ing
v olyoom
v haata
w av
x g
x l
x air
x ian
x by
y aapak
z o
z ion
Æ Ĵ
Ġ !
Ġ aans
Ġ aand
Ġ ÆĴ
Ġk ak
Ġk aayal
Ġk ings
Ġk vartee
Ġk shud
Ġk aavya
aa in
aa ut
aa ham
aa haalaanki
aa hai
aa ioes
aa ipaid
ha il
ha im
ha jaar
ar at
ar as
ar eed
ar chh
Ġs aas
Ġs hata
Ġs avaar
Ġs aapt
Ġs aagar
Ġs inging
Ġs atta
Ġs aakshee
in i
in iyan
in shyorens
Ġp aap
Ġp ing
Ġp ir
Ġp isee
Ġp hata
Ġp ila
Ġp atel
Ġp aala
Ġp pi
Ġp aivil
Ġha s
Ġha eed
Ġha nee
Ġha jam
Ġm s
Ġm aish
Ġm utaab
Ġm aapane
Ġm aadha
an u
an kit
an aavashyak
Ġb b
Ġb aam
Ġb us
Ġb ij
Ġb ars
Ġb aayar
Ġb raiai
is m
is oo
is aal
is ip
is hars
ya j
ya mee
Ġhai m
Ġhai pee
Ġhai lai
Ġhai lo
Ġd hal
Ġd th
Ġd aid
Ġd aah
Ġd are
Ġd alee
Ġd abl
ta it
ta yah
ta bar
ta ingo
Ġa up
Ġa tal
Ġj ek
Ġj ub
Ġj uaan
Ġj akad
Ġj lr
aar ambh
ai lee
ai ait
ai par
en n
en th
en ajee
Ġme ks
Ġke sar
Ġke tan
ak ya
ak ool
ak shee
ak ript
Ġl t
Ġl ed
Ġl us
Ġl oj
Ġl igo
Ġl akh
ch hee
ch up
ch id
ch uka
Ġka jin
Ġn en
Ġn aan
Ġn asen
Ġn oodals
Ġr aana
Ġr aag
Ġr eej
Ġr ipht
Ġr ingo
Ġr utar
oo ta
Ġv og
Ġv aaj
Ġv ich
Ġv aip
Ġv oks
Ġv ink
Ġv aint
Ġv akta
Ġv aach
Ġv aayal
Ġv oophar
Ġv endars
Ġv aseem
aan u
aan and
aan ton
ur eshan
ur akshit
al d
al am
al tee
al oy
at ent
at hit
at aanusaar
Ġt har
Ġt iyaan
Ġt ujhe
Ġt uv
Ġt ulee
Ġt varit
Ġe aarasee
Ġe yara
Ġse lars
Ġh aaya
Ġh ita
Ġh uraak
Ġkar at
Ġkar ie
Ġkar aaree
Ġkar aay
Ġkar ish
Ġkar odee
Ġkar ekshan
Ġkar miyon
Ġko p
Ġko kar
Ġaur enj
Ġaur ang
Ġaur aton
am in
am ing
am atee
am ed
am sung
ik optar
ph aas
ph oot
ph epha
ph eree
ph laee
ph orniya
es atee
es enel
Ġph ort
Ġph ita
Ġph leet
ad hee
ad iyaan
ad ast
ad uniya
Ġaa idee
Ġaa laava
Ġaa phis
as aam
as te
as ol
as hon
as itar
as tail
as pataal
as abha
Ġis i
ah uveee
Ġpar vat
ab een
ab achch
aal o
aal do
har an
har oo
har een
har aitis
Ġg z
Ġg aim
Ġg os
Ġg aalon
Ġg ond
Ġg upach
han tar
ek jima
it ing
Ġho s
Ġho st
Ġne ha
Ġne lap
Ġne haroo
Ġta ph
Ġta phabuk
iy eshan
iy oks
iy aaja
iy aaghar
Ġin g
Ġin akripshan
Ġin atek
ata bit
phon y
yoo k
hal ar
aad ity
Ġek l
Ġek sare
aam maar
Ġch od
Ġch um
Ġch br
Ġch enjar
Ġch hadee
aas ar
aas ik
aas han
aas angik
Ġkam al
Ġkam ara
Ġkam ing
Ġkam pal
Ġkam ob
ais is
ap e
ap tar
ap ainaasonik
jee laar
aik tr
aee em
aap oorn
un ais
dh aanjali
Ġkh ep
Ġkh yaat
Ġkh aaton
Ġkh aatir
aav aadee
aav haatsep
Ġo el
Ġo emajee
Ġo asis
Ġsh iph
Ġsh aast
Ġsh inai
Ġsh aaleen
Ġsh aatir
te garee
Ġaap shan
Ġ4 990
Ġ4 15
Ġra unak
bee maar
bee kvik
ay ukt
lee ko
cha y
cha int
cha skreen
uk hata
uk aree
tee char
ate m
Ġvaal o
Ġ5 38
Ġto gal
ana jaane
ej ing
dee k
dee es
char an
Ġbad an
Ġbad henge
ag aadee
Ġbh aan
Ġbh aat
Ġbh im
Ġbh ig
Ġbh ula
Ġbh roon
iv alee
iv areej
Ġna ha
Ġpr ekt
Ġpr asang
Ġpr aadhikaran
Ġpr aasangik
sh r
sh aan
sh ort
sh iyan
sh yaomee
sh aastree
sh ukravaar
up ix
Ġtak aata
im iya
im ej
im aane
im ojee
im arajensee
atee em
Ġpa cha
Ġpa vel
Ġpa vit
el av
el iyaan
Ġphee pha
Ġphee kee
Ġphee kom
Ġphee yars
Ġmo ments
ir h
ir aaph
ir bhar
pal es
th erepist
akee b
le bal
Ġem pal
Ġem avee
Ġem ino
Ġem eselaar
Ġem astaar
Ġy on
Ġy ot
Ġma hak
Ġsam it
Ġsam ast
Ġsam mil
Ġsam aya
jar ab
Ġjeebee oes
Ġdil aks
Ġdil ivareej
ail p
ail ai
ail li
ok aar
aak on
aak aaree
aak um
Ġ8 199
esh aalay
Ġmil aavat
Ġan am
Ġan ant
Ġan anon
Ġan saaree
ul eshan
aata phon
heen agar
ip l
ip tar
Ġhu d
Ġhu i
aaj aadee
ait ing
ot y
av eediyo
av aadee
av och
Ġsab uk
ut u
Ġdis tar
Ġtee eph
aab ahaar
jan ee
jan gal
chh romai
chh illi
em p
Ġst ret
Ġbai jal
Ġban k
aay u
om an
om etrik
Ġus taad
Ġal eksa
Ġal tis
Ġupal aksh
er ik
er ent
Ġsee aee
Ġsee na
Ġep ayah
Ġep agoogal
us tee
Ġbaitaree is
Ġun m
Ġjar oo
see v
see ies
Ġsk r
Ġsk id
Ġsk ets
Ġsk aich
pee jee
pee la
Ġya un
hak eek
aga in
Ġmegaapiksal ar
od o
Ġtar kee
Ġtar akeeb
Ġinch hais
ka wasaki
Ġdo sa
Ġdo takom
Ġjaan iye
var g
var chual
Ġbl oks
Ġbl aidar
vee o
vee y
st ro
Ġbaat e
Ġba hatee
Ġ7 990
ud ai
ud aan
ud ev
ud deen
Ġyoojar anem
Ġlag aanee
taran j
ham ish
ham ashak
Ġaaee o
Ġaaee ne
Ġaaee na
Ġsp aee
Ġsp ail
Ġsp eks
Ġstor aj
Ġchal o
gal aimps
Ġbe vasait
ij ma
Ġmai teeriyal
bh una
bh aaga
ind al
Ġpad ana
Ġpad hon
pha inal
Ġmaar ata
Ġmaar akar
Ġgr esee
Ġgr asit
sa yah
Ġsap l
aara jee
Ġpl est
oop hars
Ġcha in
Ġcha ma
Ġcha taee
Ġham mair
Ġvar gee
Ġdiv aas
Ġdiv aseey
Ġphl ir
Ġphl aiks
Ġsa ude
Ġkhaas e
Ġkhaas iyata
hon d
âĢĻ âĢĺ
aip aid
air tail
air ation
Ġut tam
Ġut krsh
Ġvik re
Ġkhar e
Ġ10 20
Ġver iphaid
Ġjab aav
Ġeks ept
Ġchh odee
Ġchh uda
Ġkan ph
Ġkan sept
Ġkan ghee
Ġkan asol
Ġskreen a
Ġadh isoo
Ġsen sitee
Ġpee echadee
Ġdh vast
Ġdh uen
Ġ16 99
ti haee
um an
Ġ13 99
Ġ13 499
ash o
Ġprat yaksh
Ġprat ighan
Ġmaich ing
la ch
Ġsan yog
Ġsan alait
Ġsan gathit
Ġsan vidhaan
Ġen ah
Ġen atee
Ġen kar
Ġbal agam
Ġbal aatkaar
Ġbana vaakar
Ġbik ai
Ġbik ega
Ġpha unt
iph lip
iph takee
Ġtr es
Ġtr ium
Ġkhel o
Ġechadee dee
Ġechadee el
Ġhaind amed
kh il
kh aasa
kh aabad
Ġbee yar
bas ichs
dar aaj
Ġbah aav
Ġbah uv
se va
Ġkha e
Ġkha jaane
Ġkha jaana
ist iks
eks asee
eks alaiph
haal iya
re tar
80 1
80 80
kan d
kan ek
kan de
kor n
tai chh
Ġdij iphlip
Ġhar sh
Ġsn apaid
Ġmem e
Ġup i
Ġkol inga
Ġgee lee
aah ik
ma jab
Ġvee yar
Ġel on
Ġel it
Ġel eksa
Ġel aant
Ġel bam
Ġ9 11
Ġ9 500
Ġ9 499
Ġ9 70
Ġsu h
Ġsu hd
Ġsha sh
Ġsha uch
Ġgh aatee
Ġro ga
bha d
bha ya
Ġtai z
tal ain
are haidret
Ġjal ane
Ġjal atee
Ġjal ava
Ġsir aka
aj at
Ġbadal ega
Ġbr est
Ġbr aayan
Ġbr iged
Ġbr esalet
Ġx pl
Ġgl ch
Ġgl os
Ġed royad
Ġed aptar
Ġophar amejan
Ġophar aphlipakaart
Ġ25 40
Ġmaark e
aag rast
Ġvish aak
Ġvish raam
ast ra
Ġbaj ata
Ġno w
Ġno is
Ġno phon
gb ps
Ġshar ai
Ġmotar raad
apr iy
rol ojee
Ġso chee
Ġ15 9
Ġap k
Ġap r
Ġap ako
Ġap laayans
Ġap ointament
Ġjin asen
and e
mee the
Ġphilm s
Ġphilm akaar
Ġteen o
Ġteen ej
Ġmais oor
ogr aaphar
Ġilekt r
Ġilekt risitee
Ġbhar ata
Ġbhar ega
ikal peey
11 2
11 6
Ġsv adeshee
Ġdv iteey
Ġpree de
Ġpree ordar
Ġpree buking
Ġpree vil
Ġghar avaal
ron a
ron aij
ron ichs
Ġman dee
Ġman oj
Ġman aana
Ġdesh o
Ġok said
Ġok inaava
Ġdaal ar
Ġak harot
Ġth aan
Ġth es
Ġkamp yoot
Ġkamp leet
Ġi robot
Ġmah aakum
aph aan
Ġvai vaah
Ġyoon iyan
tak habar
Ġpaaree k
Ġlai phonai
Ġaar ch
Ġaar ojee
Ġaar ms
Ġaar abeeaee
Ġes eks
Ġes adablyoo
Ġes avee
Ġes paayar
Ġbeech o
Ġbeech on
ban aaya
Ġpo ha
Ġpo ch
Ġjaga mag
Ġum ang
Ġtaim alaips
Ġsarvis es
enj oy
Ġvajah en
Ġselphee j
Ġaan shik
Ġbar atan
Ġneta on
Ġneta buks
Ġlet in
Ġbol achaal
Ġjen a
Ġoes a
Ġsur ee
Ġkul la
be vajah
Ġav yavasthit
Ġ11 6
Ġ11 000
Ġw h
Ġw q
Ġw ish
Ġw ow
Ġw ammy
Ġdar aar
Ġjeet ana
Ġpahunch egee
Ġbach aatee
Ġhaar ane
30 3
na u
vish vaas
daan ton
Ġvid aiochon
Ġlik ho
Ġpain t
sp ok
Ġ21 3
Ġ21 8
Ġmaam a
Ġnik ata
Ġmeediy otek
me gaahartj
so urchai
hai ail
Ġrip har
tav e
Ġ18 000
Ġoo b
Ġrakhen gee
pa chai
Ġbatan on
Ġbil on
Ġbhej enge
amee tar
pr em
pr er
pr ash
pr aakrtik
pr thvee
Ġsil va
Ġni haar
Ġjio fi
Ġshik shit
Ġ19 3
Ġ19 8
Ġmas oor
Ġphar am
Ġphar nishing
Ġsal ekshan
Ġmee mo
Ġmee yooaee
Ġsin tabar
ita ir
ita idais
Ġvi rodhee
Ġkai tar
Ġkai rot
sk in
Ġ200 2
Ġod iya
Ġod isee
dam adaar
Ġdost o
Ġkain teen
Ġkain sil
Ġinst r
Ġphail e
Ġsupar ahit
Ġlam hon
phil tar
phil mee
Ġgan ita
Ġgan jaapan
Ġkhul ata
Ġkhul ate
Ġkhul enge
Ġsek retaree
Ġar m
Ġar ch
Ġar abee
Ġar ora
Ġar jit
Ġmu aavaj
Ġotom eted
Ġ28 99
Ġchip asait
bo x
bo dh
Ġyaad en
Ġdiskaunt s
haar lee
à¤ ĸ
sam aveyar
Ġtel alait
Ġtel iskop
gh r
gh oshana
gh innee
jed asee
Ġjod atee
isha baajee
Ġgraam ar
aksha y
Ġdraiv s
Ġaae g
Ġrok e
Ġpram ukhata
Ġriport on
Ġlain en
67 67
Ġaphree kee
Ġecha teeem
Ġnikal ega
Ġsoo jha
Ġnyoo ral
17 6
yam ayee
Ġsambh aala
aig g
aig raiai
Ġ22 000
Ġ22 999
Ġ22 50
Ġkaip s
Ġsm rti
Ġsm ailee
ren a
Ġje han
Ġpak adee
Ġ23 1
Ġ23 90
Ġris et
Ġeksap er
Ġlaksh it
Ġsik yur
Ġhom apej
Ġ26 10
Ġkal yaan
Ġkal asee
Ġai on
Ġbacha kar
Ġkool aped
Ġud yamee
Ġkhat aas
Ġree seev
Ġvy aakh
Ġvy aakaran
Ġjam ane
Ġjam pas
Ġgir ana
aaee aeetee
art hata
Ġhaee speed
Ġjeetee eks
14 00
Ġkis hamish
Ġsitee baink
Ġmaltee jet
Ġbait hata
tv in
Ġdhan ee
Ġdhan uraasan
Ġdig ano
Ġjaik ee
kal char
jeee ph
Ġail itaidais
Ġsaaj id
Ġraj istree
Ġcham ade
Ġshop s
akam pyootar
Ġbas u
Ġintar atenament
Ġintar akanekt
Ġtelee skop
Ġtelee nor
ach hee
bl ed
Ġpair ent
Ġumr adaraaj
Ġnikaal egee
Ġlo ha
Ġlo ar
Ġlo vai
Ġphokas d
Ġdas hakon
Ġutar ana
Ġpahachaan ana
Ġsev aayojan
Ġbit s
Ġpahan ie
Ġpahan aave
vaan g
lai an
dhe yak
Ġbecha te
Ġpan sad
Ġsamajh aata
Ġpop yoolar
Ġtur kee
lo jee
mach halee
Ġgujar ane
chan ee
Ġkod anem
Ġsain ik
Ġsain asuee
Ġphan sa
Ġvichaar adhaara
Ġeksakl us
shee tal
eksa jeee
eksa chenj
Ġril aanyas
Ġres kyoo
Ġbraind ed
Ġmaee jio
Ġaag ara
Ġpe gaas
Ġnee teesh
Ġ29 8
dek h
dek hate
och k
och tavi
Ġjh oom
Ġjh olee
Ġjh unj
eta id
Ġaid itor
Ġslot s
Ġghat aana
man ush
man irbhar
engal uroo
Ġpal loo
Ġyoot opiya
Ġchaahatee n
Ġpen ta
Ġpen adraiv
Ġjor on
Ġ31 99
Ġ31 40
Ġtraansap laant
Ġheda fon
Ġbhaag y
Ġstee kars
Ġektiv eted
kap adon
Ġphorm oole
ho ta
ho tal
Ġ300 00
ava e
Ġpeees a
Ġhaid s
Ġhaid alaimp
Ġbel j
Ġkom bee
Ġkom iks
Ġ27 99
Ġ27 36
Ġphal asvaroop
Ġjodee daar
Ġsnaipadrag ana
Ġpooch hatee
Ġvishv abhar
Ġvishv akap
200 8
45 1
45 9
Ġnam otel
Ġnam akeen
Ġtaiks iyon
Ġbijanes amens
Ġprakriya on
Ġaqu os
Ġsant osh
77 00
vi zion
Ġana phrend
Ġana chek
Ġana uns
Ġpletaphorm s
san gat
san jay
Ġmon te
Ġepha peees
Ġsid aan
chal ar
chal ie
chal ait
29 8
Ġmaalee tee
Ġseeee es
Ġvin igar
pro t
pro graam
haan kit
Ġbhool ana
rsh ti
anal imited
Ġkhoj e
Ġsai archh
atam and
son e
son ait
Ġhat ane
Ġras see
Ġguru jee
intaran aishanal
Ġbaay een
Ġbaay olojee
Ġprophail s
Ġnid eshaalay
Ġaavashyak ataanusaar
Ġdon et
Ġaat ishabaajee
Ġaat manirbhar
Ġraah il
Ġoon ghane
hu aavee
13 6
jin akee
Ġchayan akarta
Ġrek haankit
Ġaaai il
upha ik
Ġduk had
Ġuts aahee
baat on
baat en
îĢ¼ ,
Ġkaab arehaidret
Ġhata e
Ġbi he
Ġbi xby
Ġvail entain
Ġtik e
Ġthak a
Ġ42 7
Ġsig n
Ġdaud ana
Ġpaak istaanee
Ġmach book
Ġdur labh
Ġvil ay
Ġtim aix
Ġelee ment
abar n
Ġchak kara
maas tar
Ġimph aarmeshan
Ġdast aane
Ġgol e
Ġgol ph
rom aignetik
bad hee
Ġnevig et
Ġpra yat
Ġchunaav on
lain ni
Ġbhoo gol
Ġmasheen en
Ġmel en
Ġreg yu
dhan iya
dhan yavaad
dij aayan
anj as
Ġeksat ended
Ġsaans on
Ġsaans ad
su bee
su vidha
Ġsaik al
Ġsaik olojee
Ġpadh aaya
Ġsveekaar ate
bhaav it
Ġseema en
Ġskeem s
Ġeen aam
Ġshaukeen s
Ġpand it
Ġpand rah
Ġish yoo
Ġgril d
Ġpita ee
Ġgaad hee
Ġgaad he
Ġprint ing
ov era
Ġgul aatee
Ġghata tee
Ġkhu phiya
Ġgho sh
Ġpabl isitee
Ġkat ane
Ġ57 99
Ġlaut aane
atan aav
Ġenj il
Ġsend ha
Ġphool ane
rok et
mai gren
Ġgad hee
philm on
Ġsens etiv
Ġpratikriya on
stee yaring
Ġtair ane
Ġtair aakee
Ġ39 2
Ġplai x
Ġplai baik
Ġmiks ar
Ġstik ars
Ġaaaitom otiv
Ġmy aammaar
vit t
Ġdaan yee
kop tar
Ġshan ka
Ġsains or
Ġji om
Ġtro jan
Ġnaj aara
Ġkaarobaar iyon
mas heen
mas aale
Ġmaut ha
Ġkaat en
Ġmaig jeen
Ġsnaip ab
Ġain vizion
Ġchand an
Ġepl ikeshans
ummeed avaar
Ġavash oshit
pata lee
pata la
Ġken ya
Ġchhat ha
Ġos mo
test ing
Ġresh o
taibalet s
edee z
mil aan
mal teet
Ġgail eks
dr ivairs
Ġkes ing
sl aid
Ġpheeld ing
Ġjaanakar ee
keem ata
Ġaspataal on
mon okrom
akan ektivitee
Ġgais on
Ġdhaar ak
Ġmor ning
Ġri be
Ġri chard
Ġbahaad uree
Ġshortakat s
li q
Ġtoor naam
roj agaar
ix xair
room b
Ġdi avail
Ġchikit sakon
Ġmair chaidais
Ġplet in
Ġakele pan
rav i
sta dee
Ġphi esta
fai ai
sas tee
Ġsanstha on
Ġapha vaah
Ġapha gaanistaan
Ġnip at
Ġgur ej
Ġchon trol
Ġdrsh yon
Ġdrsh tikon
Ġmand ara
Ġnaata kon
phul ke
Ġchhup aaya
kool d
sain tial
Ġag n
Ġag air
Ġheyar astail
vaayar ales
Ġdhak ane
Ġdhak kan
Ġdor see
Ġdor emon
Ġphold ing
Ġgai forchai
Ġghum aakar
Ġghum aen
kr paya
Ġrain galar
Ġrain aigadai
Ġchid iyaaghar
Ġqu tai
Ġboo dhe
Ġkaran see
Ġhospital s
Ġkaal ing
Ġsink ronaij
Ġsaavadhaanee poorvak
lok apriy
Ġà¤ ķ
Ġjeev on
Ġaaeepee see
Ġpeeriya ds
Ġmanga e
Ġheeroin en
Ġbigad ane
Ġbigad ega
pai aid
Ġkamar on
Ġer ina
Ġmaalik aana
Ġpashch aat
deep ak
Ġkairektar s
Ġkhan na
Ġmesej ing
Ġrai achh
agr avaal
lik hane
lik haee
Ġkas ooree
Ġchikan aee
Ġasam arthata
Ġdrop aboks
sup reem
Ġais saintial
Ġtahal ana
ros is
Ġmata daata
Ġchur aee
Ġparat on
idai apad
mahila en
kai bin
Ġbok aih
Ġhaipar al
Ġlaaj amee
samaj hane
Ġasaphalata on
spesiphikeshan s
opar eshan
Ġraam abaan
Ġtor chalait
Ġeksee leromeetar
astaar tar
Ġsikh aane
09 6
jit anee
Ġbro ws
abai tain
Ġnyootr elitee
Ġull oo
dhee mee
gol oo
Ġbaant en
Ġded iketed
Ġalee baaba
Ġjaaya ke
Ġgaid alain
Ġyoonik orn
Ġtatkaal een
Ġbu y
Ġphyoo jan
Ġaarth raitis
Ġsunee t
Ġprasaad han
Ġphenk ane
kad doo
kad aahee
Ġsaa f
Ġby omakesh
Ġdal iya
Ġkav rd
Ġtain ing
Ġkhaam iyaaja
Ġsaum ph
Ġejuk eshanal
Ġbot hee
Ġnan o
asam aveyar
Ġegree kalchar
lad akee
Ġmur eed
Ġlaap aravaah
Ġher itej
Ġpros aisar
Ġspekt ra
baahar ee
sek and
Ġstrai ait
Ġdop ing
Ġvaibr ent
Ġsiddh aanton
Ġooncha iyon
Ġsok h
Ġgin atee
Ġchor taix
Ġbhaaga mabh
Ġchab aana
Ġchhil li
Ġwatair play
Ġpramaan it
vot saip
ver ijon
Ġnavar aatri
avan aplas
Ġtrel ar
Ġkaiy board
iai w
Ġikon omee
Ġpustak on
Ġtes tar
Ġkobaal ta
Ġub untu
Ġhosh iyaar
otom obail
Ġmukad ame
-------------------------------- ----------------
neks tabit
wi fi
Ġbaag hon
Ġraee t
robot iks
Ġphlor ida
Ġelapeedee deeaar
Ġghir a
by ureted
mun h
Ġpig menteshan
Ġpyor asel
tasvee r
Ġdephin ishan
Ġsansk rt
eksap loree
59 6
jag uaar
Ġritar ns
Ġchap pal
Ġrasaayan on
Ġmuskar aate
Ġmuskar aahat
Ġmajaak iya
Ġdaval apar
boot iyon
gre tar
kvaad akor
mair aathan
Ġdaad aajee
Ġlin aks
Ġtish yoo
Ġhen aree
Ġtaga da
Ġprateek sha
maj aak
Ġimoshan s
drai am
praiv esee
Ġpaat ha
Ġbrok ed
Ġgaar ament
Ġlagava en
Ġaarkit ekt
Ġbarphee le
Ġphainens ing
pos hak
Ġkra ud
Ġbaas ketabol
Ġraakh iyon
Ġsantar a
Ġkampon ent
Ġsuraksh aatmak
Ġromachhid ron
Ġkaabil iyat
Ġbonevil e
than de
Ġpep see
Ġatak alen
Ġnal ikaon
Ġvor ning
Ġtu ar
Ġint rod
Ġthin abuk
brek aphaast
Ġtoota te
Ġoffair s
tyo haar
vhaat s
vhaat saip
Ġkhee ra
Ġavar odhak
Ġrash iya
Ġphed areshan
Ġgub baara
Ġpratin idh
Ġenasee epee
Ġenasee eeaaratee
khaan apaan
Ġpahaad on
Ġlahar en
Ġlahar aate
Ġlachee laapan
Ġikan omee
Ġpyooree phaayar
417 0
rish ton
sent ral
Ġmoor kh
Ġbaah y
Ġnat s
Ġhid an
Ġgatha bandhan
Ġinjin iyaring
Ġaapada on
Ġspain ish
Ġvebas tor
Ġvebas aita
Ġelig ens
Ġfai aturai
Ġvinir maan
Ġvhaata sim
bana en
jai aip
pp am
eeee esel
Ġbaab oo
Ġlim ita
Ġnyaay aalay
Ġbhr aant
Ġaniyam it
Ġstre ching
Ġrahas yamayee
Ġwaib sitai
Ġdragan atrel
Ġteleephon ee
Ġdasha hara
Ġvinam r
Ġphisal ane
Ġmegaapik asal
mu pht
Ġkus heenagar
haiv e
Ġakh il
Ġakh tar
Ġjip see
Ġnig aah
Ġtiv aaree
phij iyo
Ġjaharee le
Ġworld phonai
Ġtekneek al
Ġmuh aanson
ksh aadheen
kid s
Ġmyoo zik
Ġbem isaal
Ġaud i
Ġaud io
Ġasa haneey
Ġloom iyaa
Ġvyan jan
Ġvyan janon
Ġphok al
Ġgop ro
Ġchhal aang
Ġshin ojen
veek end
Ġchatur vedee
Ġkraik ars
shabd on
Ġparsan ailitee
Ġkaipasitee v
aivil lai
Ġmarch ent
Ġlaahir oo
Ġkachh ua
Ġnukee le
Ġraiv iaiw
Ġtand ur
Ġphaal atoo
dhoom rapaan
charcha en
Ġdeetel s
Ġepis od
Ġspaar kal
Ġbevak ooph
Ġmaikros aapht
Ġvikal aang
Ġmanha ge
prak rti
Ġbudh aape
Ġemeecha prosesar
Ġneedaralaind s
919 8
pash ch
sig aret
tir uvanantapuram
Ġsom aiya
Ġbir ds
Ġlarn ig
Ġveed iy
Ġheks aakor
phekchar ing
aatm avishvaas
Ġghate gee
iyaat rik
Ġjeevaan uon
Ġmom abat
Ġmaha z
Ġsamak aksh
Ġspil it
eksatee riyar
Ġsudh aara
Ġgalatapha hamee
Ġchipachip e
Ġrevot ron
jeb roniks
Ġsansaad hanon
insta int
nyootr al
Ġprayok taon
kur ta
sharm ishtha
Ġpapee ta
Ġjindag eebhar
Ġnaksh e
Ġvorn ar
Ġhun ar
Ġanishch itata
Ġsabav oophars
Ġdaul od
Ġveval enth
Ġpratir aksha
Ġenadee e
Ġphilos aphee
Ġmadar abord
Ġkhareedadaar on
Ġkorat aana
Ġasu vidha
Ġbachk up
Ġyuvat iyaan
Ġreete lars
Ġvivid hata
Ġtailai chom
Ġprayoga shaala
laim borginee
Ġputa lee
Ġaiksal aromeetar
Ġaint han
Ġlel aind
Ġkaist rail
aanval a
Ġser emik
Ġkampee t
Ġpredis esar
lep atop
Ġphrik vensee
Ġbaun tee
Ġdhaanch e
Ġpratyaar opan
Ġkrim inal
Ġoktop as
Ġdaunap ement
Ġenjel is
Ġdaisk top
Ġlubhaav ane
booj h
muj hase
paksh iyon
skor piyo
samee kshaadheen
scho ut
Ġauj aar
Ġakaun ta
Ġmerid iyan
akvaar tar
Ġhelee koptar
phren ch
Ġnep aalee
Ġintanar al
Ġekat rit
Ġchim pain
Ġshaar takat
Ġstek aholdars
Ġabhay aaran
Ġlagjoor ias
karn aatak
Ġplaane yaratel
Ġsarkul et
Ġpeeyoo sh
Ġphulav ijan
Ġthir imaane
abhibhaav ak
Ġniko teen
shreel anka
Ġotomet ikalee
Ġolimp ik
Ġangul iyon
Ġtyaun haaree
Ġvinirmaata on
Ġchahet e
baata cheet
fich ial
kram ash
nuk asaan
Ġsaapt aahik
Ġpaivil iyan
Ġbraiai zai
Ġmeks iko
Ġvaint urai
Ġtiyaan agong
Ġkokar och
Ġaurang aabaad
Ġgupach up
Ġoel eks
Ġshaast reey
Ġbhig okar
Ġprekt is
Ġpavel iyan
Ġyot aaphon
Ġsammil it
Ġchama cham
Ġvikre taon
Ġphaunt en
Ġtrium ph
Ġsnapaid raigan
Ġelaant ra
Ġxpl orai
Ġpreede tar
Ġpreevil ej
Ġmahaakum bh
Ġvaivaah ik
Ġmuaavaj e
Ġsikyur itee
Ġjampas oot
Ġailitaidais k
Ġchakkara ghinnee
malteet aasking
abaitain fo
Ġbhaagamabh aag
" ,
, âĢĻ
0 20
1 35
2 100
3 322
4 25
5 10
5 12
5 70
5 49
6 49
7 1280
8 15
8 95
a z
a us
b ed
b aig
b aaki
b yoolt
c halee
d og
d ip
d abloo
d rop
d aill
e beees
f y
f raiai
g d
g el
g est
g hadee
g ems
g shaning
h i
h oon
h os
h rtik
i bo
i aayaamee
j as
j aal
j up
j ant
j aanee
j iyaan
j oom
j elee
j endar
j ems
j atan
j ektiv
j antu
j aiguaar
k w
k ha
k aaya
k taree
k araph
k ale
k ament
k isaan
k aib
l iya
l um
l aans
l yoom
l aakhon
l umi
m ega
m ul
m aitik
m rt
m ilee
m aign
m ichron
m phony
n g
n aak
n adee
n aanee
n eel
n ishchit
n ight
o han
o und
o tail
p in
p on
p ik
p aim
p ap
p aap
p ail
p oon
p est
p ink
p yoor
p rechar
p aayaniyar
p uneet
p yaaj
r iph
r aand
r aavat
r atr
r raitis
s av
s om
s va
s air
s hata
s anee
s aans
s una
s ens
s ook
s vaar
s lo
s aaha
s vaad
s atan
s aib
s aiph
s ena
s antul
s aavadhaan
t w
t y
t ya
t ul
t aanee
t anee
t rai
t ual
t aaron
u z
u ar
u ail
u eshan
v ag
v aaree
v aid
v aate
v aare
v aadee
v ens
v ayan
w orld
w again
y ord
Ġ Â
Ġ ie
Ġ ort
Ġ arav
ee sha
ee mel
Ġk va
Ġk onon
Ġk isakee
Ġk ila
Ġk yoon
Ġk intu
aa f
aa aik
aa hatar
aa uta
aa ipee
aa eediya
ha b
ha st
ha ilo
ar g
ar rant
Ġs b
Ġs x
Ġs ag
Ġs ip
Ġs aga
Ġs ooree
Ġs arav
Ġs aada
Ġs aank
Ġs aahit
Ġs rav
Ġs bi
in et
in honne
in aput
in fin
Ġp ake
Ġp aav
Ġp aayar
Ġp olyooshan
Ġp yootar
Ġp asar
Ġp ogo
Ġha eek
Ġha unda
Ġm b
Ġm cha
Ġm im
Ġm oom
Ġm ard
Ġm ens
Ġm rd
Ġm aada
Ġm enshan
Ġm istree
Ġm oorti
Ġm bps
Ġm onaiy
an ek
an gee
an da
an ush
an oki
an tat
an idra
Ġb ab
Ġb aath
Ġb hal
Ġb aap
Ġb ara
Ġb og
Ġb utee
Ġb ons
Ġb voy
is l
is s
is aid
ya heen
Ġhai is
Ġhai yah
Ġhai ka
Ġd ir
Ġd van
Ġd itar
Ġd aich
Ġd uniy
Ġd ts
Ġd agam
Ġd atawind
Ġd ahaad
on m
on alee
ta y
ta jee
ta bal
ta ishiyam
ta chaskreen
Ġa f
Ġa chaar
Ġa vach
Ġa hin
Ġa udyogik
Ġj aar
Ġj aav
Ġj ail
Ġj ait
Ġj ook
Ġj aiv
Ġj igar
Ġj vain
Ġj aadha
Ġj voy
aar o
aar ana
aar ika
aar avee
aar ola
ai es
ai bar
ai yaan
en ee
en al
en te
en im
en iyan
Ġme pal
Ġme yar
Ġme lab
Ġke l
Ġke vin
Ġke palar
ak ek
ak ash
ak uchh
ak sil
ak etu
ak ism
Ġl b
Ġl ay
Ġl id
Ġl aalee
Ġl oshan
Ġl yoom
Ġl ips
Ġl aayee
Ġl inai
Ġl aaain
ch oo
ch aan
ch han
ch aah
ch yor
ch ura
ch hair
Ġka ur
Ġka vi
Ġka ua
Ġka gaar
Ġka toph
Ġn x
Ġn iyar
Ġn ich
Ġn aana
Ġn aitik
Ġn aapa
Ġn iyok
Ġn aishanal
Ġn adiyon
Ġn aayakon
Ġn aarmal
Ġr aik
Ġr un
Ġr ir
Ġr aata
Ġr um
Ġr adaar
Ġr eyar
Ġr ush
Ġr enjar
Ġr atan
Ġr icha
Ġr shi
Ġr iksha
Ġr ools
Ġr dp
Ġkee l
Ġkee mo
Ġkee rt
Ġkee les
oo te
oo ja
ga int
ga daanganoo
ga yong
Ġv ej
Ġv ega
Ġv ul
ur aanik
al o
al in
al ek
al av
al eshvar
at t
at um
Ġt ane
Ġt aas
Ġt yooshan
Ġe b
Ġe rik
Ġe vo
Ġe varee
Ġe che
Ġh ind
Ġh ist
Ġkar aakar
Ġkar unaaratne
Ġko la
Ġko ma
Ġko hanee
Ġko bara
am g
am on
am ah
am and
am een
ik or
ph lek
ph eshiyal
ph aabet
Ġph aaya
Ġph ent
Ġph esab
Ġph reej
Ġph est
ad v
Ġaa ga
Ġaa vars
Ġaa lekh
as ted
as aadhaaran
as urakshit
il ek
il ona
Ġis uj
Ġis hy
ah on
ah aane
ah ed
ah ut
ah aara
Ġpar chee
Ġpar asent
Ġpar ipakv
ab o
ab on
ab ol
ab ot
ab aanee
ab haat
ab ina
aal t
aal id
aal aind
aal inee
aal yooshan
aal abhaat
pan ik
har aad
har mee
har aijd
Ġga p
Ġga lee
Ġga ist
Ġga hanon
Ġg el
Ġg ood
Ġg aip
Ġg est
Ġg iph
Ġg aayan
Ġg yaar
Ġg reet
Ġg aabee
Ġg yaat
Ġg ixxair
or ijanal
ek stra
Ġu kh
Ġu dhaar
Ġu kas
Ġu chcha
it ham
it ikal
it aabh
it yoot
it yood
tar a
Ġho p
Ġne tra
Ġta g
Ġta ik
Ġta lee
Ġta umr
iy aab
Ġja ta
Ġin alain
Ġin vent
Ġin photenment
Ġin byoolt
et har
ata l
ata ib
ata kal
ree dh
ree pharbishd
yoo zar
yoo tayoob
yoo phoriya
Ġsak sej
hal ane
hal aahat
aad an
aad aee
Ġek ne
Ġek aant
Ġek ava
Ġek jeekyootiv
aam on
aam ir
Ġch m
Ġch hara
Ġch ub
Ġch aang
Ġch lip
Ġch ult
Ġch ross
Ġch ubh
Ġch vt
Ġch aadar
Ġch liq
aas in
aas apaas
Ġkam aaya
Ġkam itee
Ġkam yootar
Ġkam aen
Ġkam peetee
Ġhee re
ap aik
ap ekt
ap has
ap pa
ap hand
ap agred
ap ls
ap vaint
jee b
aik tar
aap raapt
un on
un ga
Ġkh aanee
Ġkh etee
Ġjee aee
Ġjee vee
aav ot
ain igs
Ġo j
Ġo pal
Ġo see
Ġo pha
Ġo van
Ġo val
Ġo keen
Ġsh on
Ġsh en
Ġsh id
Ġsh aark
Ġsh reshth
Ġsh ikshan
Ġsh ev
Ġsh ibuya
te gr
Ġaap a
Ġaap aat
Ġ4 20
Ġ4 12
Ġ4 67
Ġ4 600
Ġ4 29
bee jing
ay ik
Ġ3 12
Ġ3 18
Ġ3 88
Ġ3 777
cha ti
cha ude
cha udaee
tee rn
ate lee
Ġvaal v
Ġ5 80
Ġ5 500
Ġ5 77
Ġ5 28
Ġ5 299
Ġto pee
Ġto st
ej ensee
dee ke
ol s
ol an
ol ais
ol to
ol lo
char aijar
Ġbad s
ag har
ag ij
ag iree
ag osh
Ġbh aashee
Ġbh oora
Ġbh aajapa
iv ent
iv ij
Ġpr ai
Ġpr aid
Ġpr abh
Ġpr ema
Ġpr ins
Ġpr eg
sh in
sh iks
sh er
sh imala
Ġkaar p
Ġkaar ag
Ġkaar yaan
Ġkaim aree
im ch
im ay
im phr
Ġapan aee
Ġpa har
Ġpa uraanik
el atee
el aseedee
Ġphee var
Ġphee go
Ġmo hal
Ġmo hare
Ġmo ped
Ġmo beekvik
ir st
iks igo
pal ing
eed ish
ed iled
th in
th is
th ing
th etik
Ġdee esajee
Ġdee vaanee
Ġdee seetee
Ġdee jeeseee
Ġdee emaarasee
le taree
le taphorm
Ġem o
Ġy od
Ġsam oo
Ġsam par
Ġsam ose
Ġsam uchit
jar n
Ġjeebee peees
Ġjeebee riyar
ant um
shan ik
Ġpro book
Ġdil aatee
Ġyoo ena
ok r
ok taakor
âĢ ¢
og ar
og esee
og areeb
aak ampanee
Ġ6 80
Ġ6 990
Ġ6 200
Ġ6 600
Ġ8 1
Ġ8 60
Ġ8 40
Ġmil anee
Ġan iyant
Ġan jeer
Ġan kita
Ġan areed
ul ai
ul et
ul tee
taree ke
99 7
ip ad
ip hak
ip aasha
ip oorn
Ġhu vee
av aanee
av aala
Ġsab h
Ġsab amen
Ġsab sk
ut ha
Ġdis kanekt
Ġtee r
Ġtee enatee
chh ut
Ġst ich
Ġst ren
oor v
Ġbai dam
om o
om et
om inee
ge hoon
Ġal aave
Ġal au
id e
Ġbaad hak
Ġsee e
Ġsee ment
Ġsee tab
Ġep rechar
us ing
us ets
us halata
Ġbaitaree yah
Ġbaitaree lenovo
Ġ( @
Ġ( [
Ġun hee
Ġun apar
Ġun chaee
Ġun ity
Ġva jr
Ġva uchars
itee z
Ġkaam pane
Ġkaam ayah
see ree
see riyal
Ġsk od
Ġsk op
Ġsk vid
Ġsk ailp
pee yar
pee riya
pad os
Ġrak harakhaav
ekt ing
Ġya shar
Ġya krt
Ġya jars
Ġden iyal
Ġlek hakon
aga la
Ġend oyad
Ġtha m
Ġtha p
Ġtha ga
Ġtha ilee
Ġtha mb
od iyo
Ġtar aajoo
Ġrah oon
ka hane
ka umee
Ġjaan oo
kam yoon
kam arshiyal
bar s
bar phee
iyo gee
iyo porosis
var an
var un
Ġbl end
Ġbl aink
Ġbl ashon
Ġde vel
Ġde haraad
Ġmaik ap
Ġphr en
Ġphr ent
Ġphr aind
Ġphr aij
st r
st ok
st orm
st reshan
st rakshan
Ġbaat em
Ġ7 500
Ġ7 35
Ġ7 97
ud dha
par is
par amishan
Ġlaga enge
Ġran aneetik
Ġlag akar
Ġlag hu
Ġlag aaye
taran etiv
Ġaaee see
Ġaaee maik
Ġaaee kon
Ġaaee eso
Ġaaee bro
Ġsp oon
Ġsp ichai
Ġpheechars asaimasang
Ġchal engee
tam ain
Ġlais a
Ġmai greshan
op t
op hat
op air
op tikal
op shans
Ġkv ika
bh aad
bh ej
bh ooti
bh oomi
bh aanti
bh aajapa
ind ing
Ġpad engee
pha it
pha et
Ġmaar t
Ġmaar kar
Ġmaar val
Ġmaar kande
Ġgr en
Ġgr aph
sa han
sa phesabuk
sa chenj
sa fai
kar ana
kar iyar
kar egee
kar ensee
Ġsap phir
ple yar
Ġ12 990
Ġpl an
Ġpl aya
Ġ20 9
Ġ20 25
oop hee
Ġcha iye
Ġcha tap
Ġcha iree
Ġcha iptar
Ġham an
ich chh
ich kl
Ġvar king
Ġda ya
Ġda ch
Ġsaal a
Ġdiv yaan
Ġsar cha
Ġsar anem
Ġsar kular
Ġphl aee
Ġsa jee
Ġsa udee
Ġkhaas is
Ġdoo shit
Ġmod ane
Ġmod em
ne ha
Ġbaik on
20 12
aip od
oj on
bail ls
air y
air itee
air gy
Ġroop halain
Ġut hee
Ġut teern
Ġvik hyaat
yad dap
Ġdivais is
Ġdin aank
to uchh
Ġkhar abooja
Ġkhar agosh
Ġ10 7
Ġver iyan
Ġeks eph
Ġchh ips
Ġchh aatra
Ġkan phyoojan
Ġkan venshanal
Ġkan strakshan
lar ain
rai g
Ġchaar o
Ġsel ekshan
Ġadh ooree
Ġsen adisk
Ġpee lee
Ġpee oes
Ġpee eph
Ġdh ulaee
Ġdh ru
Ġ16 5
ti g
um andal
tha i
Ġprat iyogee
Ġsan d
Ġsan yo
Ġsan asanee
Ġen ar
Ġphil ar
ual ee
Ġsim at
Ġbal k
Ġbana engee
ig areshan
Ġbik enge
Ġ32 6
Ġee s
Ġee see
Ġee gal
Ġee vent
Ġind ivij
Ġpha bata
Ġpha sil
Ġtr ais
Ġtr ikon
Ġtr itaichh
akar an
kh ul
kh oj
kh ule
kh aalid
sham itaabh
Ġbee bee
Ġbee bar
Ġbee esee
Ġbee ts
Ġbah us
Ġbah um
Ġkha ee
Ġkha enge
Ġkha sak
Ġkha yaal
Ġkha joor
rik t
rik ol
Ġlee chee
ist ant
haal aaki
haal ahee
Ġaas hee
Ġaas aana
Ġvan apls
re tars
Ġvo bizain
kor aphrant
Ġdij nee
Ġdij ipaid
Ġdij italee
Ġhar adam
yaan ak
Ġon asel
Ġon ly
Ġsn ooj
Ġsn aipar
Ġmem or
oom en
Ġkol h
Ġgee ta
gar bhavatee
aaph ted
50 1
50 2
ma han
ma un
Ġsaam an
Ġvee n
Ġvee eks
Ġvee oosee
Ġmaan yat
Ġel an
Ġel av
Ġel op
Ġel pha
Ġel asee
Ġel tis
Ġel overa
bhaar ambh
Ġsu ee
Ġsu deep
Ġsha v
Ġsha il
Ġsha taranj
iyam it
Ġgh aat
Ġgh aas
Ġgh oshan
Ġgh usane
Ġgh onchoo
Ġro en
Ġro utair
bha chin
aayar is
Ġdet ro
Ġam baar
Ġam areekan
Ġle gen
Ġtai bee
10 7
tal l
Ġgeeg aahatar
Ġbata ie
Ġjaroor atamand
Ġroope is
Ġsir i
aj h
aj o
aj jit
Ġbadal egee
Ġbadal ava
Ġbr il
Ġbr el
Ġbr ij
vo tar
Ġchuk aakar
Ġmaheen o
agar on
phee l
Ġx m
Ġx traimai
Ġgl adi
Ġed ed
Ġed ep
Ġed ablyoo
Ġed asens
Ġophar is
Ġmaark ing
aag r
Ġkor ban
Ġkor byureted
ast or
Ġaane vaala
Ġbaj aana
Ġno vo
Ġno vel
Ġshar an
Ġshar abat
Ġaadhaar abhoot
apr at
Ġf p
Ġf it
Ġf ind
Ġf uail
Ġf irst
Ġ15 8
Ġap amaana
Ġap rat
Ġjin eva
mee l
Ġmais ajing
Ġor kut
Ġphree jar
Ġpah iya
Ġpah aadiyon
sep tik
Ġilekt ro
Ġilekt onik
Ġsta imp
Ġkr aas
Ġkr oor
Ġkr ist
Ġkr aapht
Ġkr itik
Ġkr ypton
11 1
Ġtek akranch
Ġsv aan
Ġsv itjaralaind
Ġsv aarthee
Ġdv ivedee
ron it
Ġman dar
Ġman ochikitsak
Ġesa jeeem
Ġdaal on
Ġdaal ega
Ġak ad
Ġak kee
Ġvair i
Ġvair aitee
Ġvair sys
iphikeshan s
Ġth it
Ġth erepist
Ġim p
Ġim paikt
Ġim pals
Ġkamp aartament
Ġkamp eniyan
Ġte ree
Ġte gra
Ġrang o
Ġmah aatma
aph il
aph eyar
Ġnot on
Ġnot iphaee
tak aard
Ġlai tas
Ġmaisej avhaatsep
Ġaar at
Ġaar adee
Ġaar asee
Ġaar ts
riya s
Ġes i
Ġes em
Ġes pekt
Ġeyar alain
Ġeyar etal
Ġsah elee
Ġpo jee
Ġpo shit
Ġpo taishiyam
Ġdyool asim
Ġcheen tiyon
tr um
pop akorn
Ġaan sar
Ġbar ason
Ġbar atane
odee n
Ġdaunalod s
ram bl
Ġz f
Ġz uk
Ġas an
Ġas ain
Ġas aahee
Ġas amar
Ġas tabal
Ġjen eks
Ġjen aretar
be vak
Ġav eted
Ġpur je
Ġpur ifi
Ġw s
Ġw ith
Ġw arrant
Ġsun n
meed iyaapaid
Ġpahunch enge
Ġ100 8
Ġlaip ataib
Ġlait v
Ġbach em
Ġhaar m
Ġhaar man
Ġsamaj hatee
Ġphingar apr
30 2
30 5
30 8
na ukaree
chee jon
vish eshakar
Ġovar alod
Ġovar akl
Ġlik ai
Ġkareeb an
Ġpain el
Ġapar aadha
sp a
sp aiaid
Ġ21 000
Ġbuk amaark
und ree
Ġdikh aanee
Ġaay ega
Ġaay odeen
Ġopshan al
de v
de dh
me han
too phaan
Ġsup arav
uth e
Ġjan galee
haj amee
echa see
Ġgem ars
Ġsl aaait
phai b
Ġband hee
pa hal
pa enge
Ġbil ing
Ġbil dar
Ġbhej atee
Ġbhej anee
pr aacheen
Ġsil ekshan
Ġvol ks
Ġni gal
Ġdrai g
Ġghoshana en
Ġ19 4
Ġ19 60
Ġmas ha
Ġmas se
Ġdoor adaraaj
ba che
ba hanon
ba chat
Ġyooj as
Ġkon sep
ita taon
Ġot s
Ġhaas y
Ġhaas yaas
yan g
Ġkil e
Ġkil ov
Ġsait ing
Ġkai rol
Ġmal ti
sk ain
Ġ24 000
Ġtv it
Ġaaaip halain
Ġkain an
Ġkain sal
Ġdam a
Ġinst ityoot
Ġanu bhooti
Ġphail aee
Ġ17 1
Ġ17 999
Ġphes al
Ġsupar as
kaim pas
Ġla haron
Ġedishan s
Ġsho w
Ġgan gaar
Ġgan araaj
Ġkhul atee
red iyo
Ġchun nee
Ġkah ie
Ġbadha enge
taph ood
Ġmi ree
ve i
Ġ40 30
mah esh
maikro phon
Ġ28 80
40 5
Ġprot ektar
Ġmaatr tv
ep it
haar t
35 3
sam aaj
sam eer
sam bhaavit
Ġtel ap
Ġtel aget
gh aav
Ġat m
Ġat ul
Ġat oot
mo ta
Ġsoch enge
yoon ik
Ġjim ma
Ġrok ar
Ġrok akar
Ġrok astaar
bhar a
Ġlain ing
Ġlain eks
Ġmajab ooree
ib air
ran al
ran abeer
17 7
17 00
Ġnav onm
Ġ22 60
Ġprabhaav on
Ġkaip achar
Ġkaip asitar
Ġstail o
Ġstail ist
ren tag
Ġiv o
apoor vak
Ġdab aana
Ġdab aate
Ġdab ba
Ġdab ae
Ġgiyar oskop
Ġpak ane
Ġraaj ap
Ġraaj esh
Ġchhod e
Ġ23 9
Ġ23 99
Ġeksap eed
Ġeksap oj
Ġsik ke
xy nos
Ġhom ashop
Ġstaindab aee
Ġ26 5
Ġ26 9
rt t
Ġai aisl
Ġai xynos
Ġbacha ee
Ġud aaya
Ġree tel
Ġree staart
Ġvy aas
Ġjam aav
aaee seesee
aaee aaraseeteesee
aaee emeks
Ġkamee shan
Ġsarakaar en
14 3
Ġtoo tee
Ġtoo phaan
Ġtaaree k
Ġmaltee eyar
Ġsad upayog
Ġaatee n
Ġbait samain
Ġphais alon
Ġphais ilitee
sim phanee
Ġdr dh
Ġdr aama
Ġjaik san
Ġjaik leen
Ġphit anas
ship t
kal asee
Ġaam ane
Ġuth en
Ġuth aata
Ġuth aatee
Ġste royad
Ġste bl
baar on
Ġivent s
Ġtraik tars
Ġkab ool
Ġbas en
Ġbas tee
vas a
Ġintar aikshan
pat aakhe
Ġophis on
bl ad
bl ok
yoom erik
Ġpor she
Ġnikaal ata
Ġlo he
Ġprash aant
Ġbaind a
Ġpahachaan akar
Ġmukhy aalay
Ġbit aaya
Ġpahan atee
Ġpahan aava
Ġand aragrejuet
Ġsaund s
Ġsaund abaar
Ġkharch e
Ġbecha ta
Ġol x
aatr aran
Ġutha ie
Ġtur ing
Ġgo gal
hala en
55 4
dil eet
Ġkaaryak ushalata
aave ree
Ġsport ivo
chan da
Ġdok os
Ġbhu jang
Ġsain y
Ġsain tiph
Ġphan se
Ġphan gshaning
Ġdaaya bit
khabar en
avar ataijing
Ġril eks
Ġril aiks
Ġril eshanaship
Ġpakad ata
Ġres paans
Ġad ig
Ġad da
Ġproj ek
dai teeshiyan
Ġnish ch
Ġ29 1
Ġ29 5
Ġsank raamak
Ġsank shipt
ug n
ug dh
pur aana
Ġjh ootha
Ġjh uka
49 8
rag rah
Ġ65 8
Ġ65 90
Ġ65 92
man ovigyaan
che ree
Ġseek hata
Ġtraansap or
Ġsaphalata on
Ġphorm al
32 60
Ġgarm aagarm
sab jee
Ġsach cha
Ġbo ing
asth aanee
Ġhaid rojan
Ġhaid reted
Ġkomp it
Ġprashn apatr
Ġ400 00
aaha ur
aaha maare
chai jee
Ġvot ing
Ġemaee tee
Ġkvik ar
Ġkainavas a
Ġseed aan
aark aiv
sil indar
Ġdisk avar
Ġmool abhoot
Ġtaiks at
Ġyo u
Ġkost aarika
Ġvyaayaam on
Ġvig yaanee
Ġaath rraitis
Ġgam aage
Ġsundar ee
san ta
san stha
Ġmon astar
Ġmon okok
ech ebal
Ġsid gh
Ġvel apheyar
Ġpich on
Ġprograam s
Ġprograam ar
Ġmaang ana
Ġmaap adand
baad hit
Ġsaajh edaar
Ġvin egar
pro teen
Ġprayaas arat
Ġbhool ateen
Ġsai talait
Ġvip akshee
Ġbhugat ana
Ġdham akee
Ġdham akiyon
Ġkaimar o
Ġkaimar ek
Ġkaimar aas
Ġmit hak
Ġmit aashee
Ġguru graam
Ġbaay olojikal
Ġdit oks
Ġpol ing
Ġpol aind
Ġdon glai
Ġdon ktaree
aarth raitis
Ġ35 60
Ġghoom akar
Ġpos takaard
Ġ45 1
Ġ45 8
dha iry
Ġ67 00
Ġvaas udev
Ġbhoom i
Ġleval s
Ġmak ain
Ġmak adiyon
Ġmak khan
Ġmak khee
tum haare
antar iksh
Ġimojee j
din ar
Ġdraivar on
jis en
Ġchek ap
Ġvyoo phaindar
Ġmobil iyo
Ġbi on
Ġbi tak
Ġemb iyat
Ġpadaarth o
Ġnon gadaanganoo
Ġthak e
Ġthak ke
Ġ37 3
Ġ37 6
Ġ37 60
Ġfl air
Ġmed iteshan
Ġyog aasan
raaj y
raaj adhaanee
Ġank ush
Ġpepar s
sal aad
Ġaj avain
Ġaj avaayan
Ġmana gair
Ġvil upt
oonga phalee
Ġdho te
Ġsiy aar
eeph aayar
Ġimph osis
Ġimph initee
Ġimph okom
Ġkanekshan s
bad hata
bad hegee
vaee phaee
Ġnai xian
Ġtod ana
Ġprab al
Ġyaatra on
sn ap
sn aiks
Ġsail aanee
Ġpra janan
lain gvej
28 80
inst rooment
Ġchaal aakee
Ġshu bhaarambh
Ġsteshan s
Ġpent iyam
Ġmud ane
Ġbeeta ta
Ġ34 6
Ġ34 8
Ġsaik olojist
Ġsoor at
aank adon
Ġinjeeniyar s
Ġalart s
Ġmaith ilee
umaan it
53 4
53 8
Ġruk a
Ġdhoon dha
Ġsveekaar ane
don o
aart haraitis
Ġbul aane
tair s
Ġproph eshan
Ġaaeedee see
Ġavadh aarana
Ġnar m
Ġnar v
elo it
kl aim
Ġip od
Ġhrday arog
Ġaal to
Ġriv ok
Ġaaiphon a
bol a
roed s
Ġkair on
Ġghata ta
raid ar
Ġ999 0
Ġpabl ish
Ġpabl ikeshan
Ġpabl ishars
Ġ57 90
phar st
phar aah
por sh
Ġir aphaan
Ġdu bala
Ġblog ar
Ġenj els
Ġenj voy
Ġbyootee phai
Ġraip araund
pl aastik
sv ipht
sv itjaralaind
Ġgad dhon
Ġchail kon
Ġsuv yavasthit
ank urit
Ġvaay umandal
stee labard
Ġjat aaya
Ġjat aane
Ġjat aate
Ġtair a
Ġ39 30
pu taix
Ġrobot s
Ġaiktiv et
fl y
fl ipkart
fl inai
Ġmiks ee
Ġmiks ad
Ġmiks ing
Ġsaj aavatee
Ġinaph ormeshan
Ġkleen jar
Ġkleen ikal
aach usets
Ġhor ijon
jeevan ashailee
aayal et
Ġyooes esadee
89 39
89 76
vel entain
Ġdai taich
akh aane
Ġchom mand
Ġchom putaix
Ġpeedit on
vit tal
Ġdip har
Ġteknol oj
Ġhais iyat
Ġsaad iyaan
Ġich ichi
Ġtig uaan
Ġphiks ing
Ġparinaam asvaroop
Ġdro ing
Ġcho is
Ġcho tee
Ġcho par
Ġsanar aij
Ġkailoree j
Ġsvich ing
kain an
yooaee deeeaee
Ġsakaaraatmak ata
aing th
Ġmul taanee
Ġain fiaild
Ġchand rashekharan
Ġavash oshan
pata le
Ġchit t
Ġchhat hee
Ġkris pee
Ġphraans is
baj aj
mil egee
oph ishiyal
intar avyoo
chk air
Ġreed ijain
Ġbaiktee riyal
phor as
seen iyar
Ġcharan abaddh
Ġast haee
Ġhil ane
Ġhil aana
Ġkopee rait
Ġeksel aromeetar
Ġnotabuk s
Ġprim o
Ġmis ing
Ġjai w
Ġdohar aaya
Ġpojishan ing
stail as
Ġjha gada
Ġgais en
Ġegj em
Ġegj otik
Ġdyoo o
Ġpran aal
Ġoparetar on
Ġtaaj jub
Ġtoor ijm
roj aana
Ġob aama
Ġpriv enshan
vol tai
Ġkaalee rona
Ġnim bal
Ġniyo in
mais enajar
Ġbaaree kee
Ġaash aavaadee
Ġpaancha va
Ġpaancha ve
Ġdup leeket
Ġtree ton
Ġphi roj
sas ta
sir i
Ġmuj hamen
Ġapha sar
Ġtuk ad
Ġstr ing
Ġstr aiti
kas tam
Ġmand al
Ġdhad akane
Ġest rojan
Ġinj ekt
Ġbeet ane
Ġmanj oor
ute re
Ġsemee phainal
Ġsemee kand
etee e
roshan ee
[...]
