[PAD]
[UNK]
[CLS]
[SEP]
[MASK]
!
"
$
%
'
(
)
*
,
-
/
0
1
2
3
4
5
6
7
8
9
:
;
<
=
>
?
@
[
]
_
`
a
b
c
d
e
f
g
h
i
j
k
l
m
n
o
p
q
r
s
t
u
v
w
x
y
z
|
~
¨
°
µ
º
½
×
þ
ƒ
ः
अ
आ
इ
ई
उ
ऊ
ए
ओ
क
ख
ग
च
छ
ज
ट
ड
ण
त
थ
द
ध
न
प
फ
ब
भ
म
य
र
ल
व
श
ष
स
ह
ा
ि
ी
ॉ
ो
॰
–
—
‘
’
“
”
•
₹
❤
##d
##h
##y
##a
##n
##o
##j
##l
##t
##p
##k
##r
##g
##e
##s
##u
##4
##b
##i
##m
##c
##v
##6
##0
##w
##9
##7
##1
##3
##8
##5
##2
##x
##f
##z
##q
##ो
##न
##×
##र
##ह
##ि
##ष
##ा
##त
##º
##ज
##व
##क
##फ
##म
##ट
##ल
##ी
##ओ
##ब
##ध
##स
##य
##च
##ण
##प
##ः
##ॉ
##ड
##छ
##µ
##ग
##°
##द
##þ
##इ
##ख
##ए
##ऊ
##भ
##श
##ee
##aa
##ai
##ar
##an
hai
##in
##ak
##at
##on
##ah
##aar
##al
me
ke
##ch
##ya
##en
mein
##am
kee
is
##oo
ph
##ur
##aan
##sh
##ap
##ad
ko
se
kar
##hee
##aat
ka
aur
##ik
ki
##as
di
##ane
##ab
par
hain
##aal
##aee
ch
in
yah
##is
##et
##es
ho
##ie
##or
##iy
bhee
##it
##ata
ne
##il
##ph
##ek
##pan
##aim
##tar
##aph
kh
pr
kam
ga
sh
##ga
ek
lie
sak
##aath
##amen
##ree
ja
##ha
phon
##aad
##aart
saath
##aam
##panee
##ake
##ais
rah
##ain
##ay
jee
##ate
hee
##aik
sm
aap
smaart
##ana
##aphon
bh
##eech
gaya
##00
##ag
##esh
smaartaphon
kiya
##aav
##ol
##aj
##aas
##atee
isamen
##dh
##ing
##adh
##au
##aaya
kampanee
##aap
##ara
##bee
##ej
##ot
to
vaal
##lee
##ahin
ap
##ale
diya
##iya
##od
##ars
nahin
##uk
kaim
##av
st
##jee
kaar
##ro
tak
##aah
##adee
##up
##eed
##ant
##el
pah
##een
##ed
##ail
isake
en
##ait
##yoo
##shan
##iks
na
##em
##ega
em
bhaar
##akee
##og
##ir
##mat
kaimara
dee
yoo
keemat
an
sam
jis
##ase
##gee
##ach
##un
##aane
##see
pheech
rup
up
##aaree
karane
jeebee
jo
un
naee
apane
gaee
dil
##ok
##iksal
mil
##aay
hon
##aak
ab
##chh
##os
sab
hu
##ti
##ul
kah
sakata
lag
##onch
dillee
##ent
lek
##le
al
us
##alab
##aaj
##aab
lonch
dis
##ish
##tee
tar
##aye
##aata
##taree
##aka
ep
bhaarat
##im
ban
see
##sar
##oot
bai
##oor
sakate
gh
ve
upalab
rupaye
upalabdh
##ta
baad
##ako
vah
sk
baitaree
end
##ip
##id
jar
ye
kaam
tee
##itee
##ort
##ut
rak
ais
yooj
den
meg
##aapiksal
badh
##aava
sp
##aip
inch
vaale
megaapiksal
hoga
##jan
##iyar
maik
mo
karen
jaan
##ge
pahale
baar
bl
baat
ham
disp
tha
raim
raha
##iyo
phr
##he
karata
##iyon
##aree
aa
aaee
##dee
ise
ku
rahee
##om
mah
##99
##aise
##ist
maikro
ran
intar
be
##op
##akar
##eshan
gr
##aanch
lekin
##hen
pheechars
##yar
do
padh
ya
eks
stor
20
gae
##aanee
isakee
apanee
pros
##pee
bad
kv
##esar
##aid
##and
kaha
maar
##ri
lais
aapako
ag
pl
##yaad
##ki
chh
##egee
kuchh
dh
mau
##vee
12
prosesar
det
phrant
jyaad
sabase
tarah
pheechar
dek
tai
sar
doo
##ank
riyar
hone
##aayad
jab
##aara
chal
shur
alaava
jyaada
rahe
ach
##aun
##alee
kor
disple
##oop
var
khaas
div
##esab
kaard
len
phl
log
##eek
##gal
laanch
##apee
ut
##ud
es
##aaphee
##oj
##us
saal
##bal
##ood
##hat
emeech
thee
kisee
ech
mod
##bar
hue
##tr
##anek
##reen
kaee
baik
naya
kanek
10
oph
sap
##tiv
##iv
jaise
chaah
main
jaega
##ala
mob
##end
mai
##rient
roop
divais
vaala
va
die
din
nae
vik
padhen
##ast
samay
##aind
phil
##har
##oon
##aset
vaalee
##var
haal
##aatee
don
sel
##art
mobail
bach
##aavar
karate
##enge
khar
##anal
koee
storej
karana
4jee
##aur
nir
##000
##ang
bat
##ne
endr
chaar
##aana
adh
su
op
##reej
isaka
##oree
donon
skreen
16
sakatee
de
endraayad
##aish
el
saport
seereej
13
201
##ash
apan
##hon
aise
achch
hogee
##iph
hota
yoojars
##st
sim
intaranal
sen
phot
bee
paavar
tr
prat
32
shuroo
la
br
ist
vai
##aate
pesh
##ind
dik
isase
naam
goo
ind
rakh
##aaph
chee
kal
istem
##aakh
maich
istemaal
mauj
haind
jarie
kie
jise
apana
echadee
maujood
bal
bah
vish
##ra
##yad
agar
bik
##est
doosar
bana
behat
##tivitee
bhaaratee
behatar
googal
##ual
dekh
teem
##anee
##20
##rai
endro
##um
haindaset
sah
##ade
jaata
verient
khel
bhaarateey
laga
##peees
injan
van
##aash
aas
lekar
am
adhik
kaaphee
kl
kanektivitee
##hit
##sham
hua
dene
pi
##jeebee
##ep
##iyaan
on
##aag
kol
##aksh
yoojar
##te
rupe
##istam
modal
vaheen
kr
##ambar
har
endroyad
sistam
##ooth
vo
dij
##ool
##ooree
bloot
vee
aapake
emapee
veed
baare
ro
deta
##adaar
##bas
ak
sabhee
##ush
##oph
##hav
piksal
##air
##akaaree
##honne
khareed
badhaaya
tat
sn
##aare
##esadee
ot
##yon
bahut
##are
mem
25
maan
##phon
mot
aadh
mad
##esabuk
##eetar
vaj
11
gee
maikroesadee
th
##oom
bata
##80
saam
ghant
15
aisa
##aanki
##asang
veediyo
bikree
##yaan
blootooth
##aimasang
phlaish
sensar
##bh
hotee
##eyar
madad
unhonne
alag
##char
haalaanki
kya
##gaah
phesabuk
logon
laakh
saimasang
##iyam
##ich
##ord
kap
memoree
jal
not
il
snaip
##aayar
desh
##er
##th
##akaar
##va
jaanakaaree
##alain
baaj
##balet
##uj
ed
mut
dual
sir
pichh
dikh
muk
jaroor
baajaar
##aabik
geegaah
vaee
##ka
64
kalar
the
shree
pad
##basait
##artj
tatha
mutaabik
vebasait
phee
chaarj
roope
maark
vh
poor
gl
##ij
##ans
##dar
chuk
999
##anka
unhen
indiya
##ig
##aret
maheen
##enj
##adi
baj
##osh
yahaan
##re
abhee
elee
aane
daur
dar
##yool
##ogr
phir
nirm
##och
##gan
##akon
paas
##avar
kvaad
speed
jin
##val
motar
badee
teen
cheen
##eks
int
philm
##gb
000
pichhale
any
##ament
le
kaimare
14
##ikeshan
kaaran
badal
##old
aadhaar
##esabee
bachch
sirph
##apr
dun
phree
geegaahartj
blaik
phul
lanka
##abar
##ektr
taiy
sarv
eph
sv
isee
##aki
intarane
shaam
varjan
phees
##aakar
meed
use
mais
kyon
or
eleedee
phaee
banaane
ghar
jabaki
tah
##oks
jeepeees
##vid
ilektr
jaatee
taibalet
ophar
pee
khil
graah
ghante
rej
##aans
khud
tek
##asee
gail
##akt
##phee
snaipad
yooesabee
tv
dhyaan
jisamen
intaranet
##van
tahat
##ost
balle
##arm
pa
##50
kit
dispale
it
aag
milega
doosare
unake
vanade
bataaya
maheene
##rol
nik
ok
##sep
shaamil
pree
##eksee
jaane
smaartaphons
achchhee
viket
man
duniya
aaj
##aij
##int
gaileksee
dv
maarket
aaa
nirmaata
im
##olo
##olyoo
kvaal
##vo
kamp
pahalee
eyar
jald
##olee
achchha
aaeephon
##aunt
dauraan
pheesadee
shaan
jag
plas
##ahaal
##ayog
prati
daal
jaroorat
vy
##kar
##10
##unch
rang
yoon
pahunch
prad
red
his
128
taraph
um
san
##ishan
photogr
ril
kab
##ajee
balleb
lai
net
##atak
dvaara
##olyooshan
##aut
##eeb
maisej
##alp
##alod
##abh
##ekt
khabar
##da
kom
ee
beech
pet
##odee
let
##aalee
phai
gend
usake
##aadee
bhar
huee
paaree
selphee
philahaal
photograaphee
taim
daava
aaya
min
chun
##aiks
##onee
tej
##iphikeshan
30
3jee
as
80
dyool
kyonki
##sara
vikalp
onalain
jais
aar
##riy
##vidha
##atop
shuru
hote
daun
karaaya
pahala
jaaree
sarvis
rakhee
shaanadaar
##90
sun
suvidha
vhaat
100
##ika
pas
taur
karega
kampan
aapakee
gold
chhot
jagah
apad
taiyaar
keval
photo
vajah
test
hoon
utaara
jen
pat
saph
maat
apadet
##usaar
sek
##iyat
##ban
lee
##aand
lok
##aast
##alie
jaegee
karatee
kul
naj
##had
##ens
isalie
##orm
jeet
klik
at
##opht
chaahie
##akom
graahakon
##aneek
aage
##ajaar
jarooree
teevee
maarsham
moto
##raigan
yadi
kareeb
tum
##aayans
spes
oparet
##elee
daunalod
paanee
nok
anusaar
takaneek
khat
##akr
##ailo
paar
4g
pro
ilektrik
mukaab
rejolyooshan
pur
jaanen
vishesh
sur
##ateeee
##pop
bol
##areer
tab
jisase
buk
bar
##oleepop
port
shareer
##omee
##eph
##varee
maarshamailo
loleepop
##iyan
##aen
kant
##io
aay
dijain
oes
##ech
prod
vhaatsep
honge
peech
lagata
glaas
pata
kapt
aata
pain
##oos
snaipadraigan
pooree
banaaya
najar
##ke
##60
pasand
netavar
plaan
##ingar
aadhaarit
lait
lene
av
muj
liya
vid
daata
vind
chaahate
karake
shik
##ina
tekn
netavark
ple
##akh
phingar
jisaka
jisake
2017
rohit
##ron
jae
rik
samaj
bech
laip
nambar
##aink
rip
varsh
##okas
leetar
set
soch
##yas
maj
rilaayans
khaasiyat
##aajee
##oda
unakee
21
tach
##gl
##aprint
18
karod
##aadh
behad
kampyoo
peechhe
jaate
##akti
##ekshan
laipatop
ovar
aasaanee
phes
hiss
lik
aisee
500
sho
ar
disk
sahee
ballebaaj
##aon
##ovo
##mee
##hag
saamane
bajat
samas
mujhe
ranon
##imit
##oovee
haar
##amb
##ilt
chalata
vajan
phingaraprint
##olojee
usakee
##halee
dete
##ps
yu
##tai
samasya
##rom
kampyootar
aip
phlip
##la
kvaalakom
ghosh
nyoo
##ebal
##akaart
19
vairient
apar
agale
opareting
haath
oto
sup
karegee
cheej
banae
##olar
doosara
opshan
hajaar
##abhag
meediy
bina
lagabhag
maam
sil
kahana
sthit
##aadiyon
suraksh
jed
badalaav
##meed
nokiya
sl
kabhee
##ub
rakhane
802
nog
200
##12
##ikal
jisakee
vol
bada
khilaaph
##amee
nogat
okta
phaayad
khush
skor
tareek
suj
drai
aparchar
staind
gem
shatak
##ook
##imited
balki
gun
jah
##ork
jud
bhej
kaaron
##abl
paanch
kohalee
aapaka
teknolojee
##ld
inamen
##aahar
ummeed
bil
seg
##aatek
dinon
vindoj
17
##uti
inab
phlipakaart
jiyo
##anga
rakhen
meediyaatek
bait
jio
khoo
jeepee
kon
##riyant
taip
minat
door
##tan
##pal
batan
##aund
spesiphikeshan
4000
hed
##ejan
top
band
jaisee
segament
sas
bade
##gr
prot
dega
sal
##atalab
kosh
detee
##po
##riya
kain
honda
ksham
##iket
##iyal
jod
sank
inabilt
vi
##anon
jaen
aad
50
aank
24
oop
ghoshana
gay
##eem
sait
sakenge
##ivaar
poore
sheyar
jahaan
##30
inst
##oobar
##itar
khul
prodakt
lagee
##ink
kampaniyon
aakar
##amaan
##ayoovee
teesar
kshamata
amejan
##edaaree
thar
hamen
jan
##maiks
upayog
itana
##yal
##acha
poora
riport
dolar
mal
saab
sonee
##ukee
kan
padhe
supar
list
maikromaiks
##ukh
traans
doosaree
##abee
akt
aph
##tree
epal
bachche
aktoobar
haas
taak
##ren
aaeepeees
amer
petrol
met
##agee
##aud
ni
aav
esayoovee
bachchon
oopar
dost
##ard
saamaan
sth
vyakti
##kat
kil
samajh
taata
maaruti
behatareen
dam
##hy
antar
phail
##ship
##atel
pradar
od
##ja
yoonit
shuruaat
haasil
##aphorm
bit
vaah
hona
chukee
raaj
mahil
meediya
gendab
kaptaan
40
aadi
mu
mahin
##eedee
lain
tas
##sha
jaenge
dekhane
kantrol
##chhe
gal
mi
mahind
ingl
kaise
vaap
##aveyar
yahee
rakha
tasvee
renj
tork
28
aaut
3000
##aataar
baink
edishan
mahindra
aai
sau
tvacha
##adam
##abaik
kriket
maid
lagaataar
pradarshan
dhee
eps
sujukee
hamaare
lenovo
##ath
teesare
post
##chch
##antr
esa
##akor
gayee
otom
diskaunt
##kh
nav
tul
yaad
##ital
elajee
pratish
baiks
koshish
vaayar
gaur
baahar
maim
akaunt
draiv
inglaind
maus
hal
##aomee
jeevan
badha
maatr
##eet
aaega
gan
saabit
720
mahaj
ris
##ahar
lagaaya
inteks
##eej
chip
##oshal
luk
dekhen
esadee
tel
##bandh
buking
tulana
##onik
kaary
speek
hamane
##ichaar
##jar
eyaratel
pratishat
shaomee
aasaan
aakarsh
odiyo
soshal
##ug
##anes
##agr
##ava
unaka
maichon
mukaabale
rit
##sopht
##hare
ud
kis
achchhe
##abhaav
shor
##rt
karenge
chaarjing
rikord
maimoree
##ooch
deej
23
##aig
22
andar
samet
koling
laiph
##akait
vakt
##atar
bhaash
kum
preem
khaane
jeen
cham
##stam
sthiti
##999
26
paresh
oppo
vishv
bodee
kastam
badhaane
tharanga
kara
vhee
##yor
##aatar
kitakait
sambh
roj
##ob
2016
aae
kool
rok
##ram
elateeee
jim
maana
sit
##br
maikrosopht
##aich
graam
mainne
khele
dikhaee
gb
preemiyam
##ahal
uth
voyas
too
##arch
seva
1080
chuka
##iye
rahane
sahaare
##havan
tejee
komars
##yooj
maamale
##par
usaka
motaras
ej
aaaiph
aphree
ritel
os
phons
dhavan
##avaar
##ipht
khareedane
motarasaik
jh
majab
shoroom
aam
iv
kaip
##asaan
sambandh
motars
haee
pars
##port
chait
kanekt
dijital
ksh
nuk
##mah
chahal
eppal
##gh
##esha
gre
baal
jind
lamb
##aapt
anal
sarakaar
beem
##enjar
aphreeka
jana
rav
nukasaan
pram
stail
lagaane
deejal
janavaree
##40
milegee
maidaan
bane
paart
chale
sik
mas
mila
khelane
##heen
dab
##aimp
hamesha
otoph
vahaan
chalate
##kil
mauka
echatee
yuva
##yam
##aitik
graaph
phit
eksap
gor
lage
laksh
vit
##ablyoo
eem
##asan
hom
maas
pais
saare
##35
maujooda
nikaal
garm
gaadee
kimee
jeepeeyoo
echateesee
990
##apoor
sitambar
giyar
lad
##a2
##akshan
kaheen
plet
goril
je
usane
##eg
##67
anub
chalane
che
bloo
kyoo
sopht
##yoon
##sap
saksham
aakarshak
esee
##yoom
vhait
hissa
ah
and
chhod
khareeda
saphal
sasta
neech
raj
yaanee
prabhaav
sarch
theek
sharm
eksapee
kvaalitee
star
chom
khol
abh
jeenen
jimm
po
##las
inhen
bes
sing
##haas
##kee
sake
##omeetar
dekha
dheere
##reem
29
bas
jul
kaun
staindab
limited
kamee
jindagee
graaphiks
anubhav
##ks
##agar
emem
lens
nikal
agast
chhote
gorilla
gala
##ojan
##uv
##xy
##ahaar
ematee
joon
milee
plus
brau
gir
raid
saaph
##onai
mausam
taaki
kshet
niyam
##aach
sauth
telee
##trel
amerika
ail
##bo
dig
neeche
##als
prayog
jaana
sekand
shodh
##kul
chain
milane
31
aakh
##ith
pak
jeetee
seet
skain
gaadiyon
mush
khaana
mushkil
sad
##eel
##yav
##aant
aate
jam
mait
py
mere
emabee
voltai
galaxy
haik
##aapat
##avaal
baikap
cheenee
mukaabala
suraksha
maltee
ik
##aple
damadaar
vir
##atv
sharma
##treliya
pair
2018
##aakhaapat
vishaakhaapat
##tanam
vishaakhaapattanam
naye
##auk
kaaren
##taon
motor
dr
taaree
mash
opan
##oy
ekva
braand
protekshan
staindabaay
sitee
##era
laiv
saij
veriyant
jaakar
##a1
##ask
letest
tay
##ooshan
rahata
##adeep
tvitar
chhoot
aatee
vaalon
##aayan
guna
##eno
dilee
chuke
jaik
ret
##mach
taiyaaree
laaya
##ootar
dekhate
spesiphikeshans
ju
##aiv
##arav
royal
khatm
pramukh
hel
##mp
ins
##ektar
bij
##aib
ostreliya
##akam
milata
##ular
imej
vibh
otophokas
##ven
##ooph
phaast
##aboks
prash
##aavana
saaj
##ada
karv
##ros
##ojana
2000
baind
##ita
##aasa
pahach
kuladeep
##vaan
proph
256
bilkul
##agred
lakshy
motorol
phais
##aphul
##aamee
##aakee
usamen
kaish
pand
##oes
shop
##ajed
painal
ai
haan
phokas
##aikt
apagred
deshon
asar
kaal
kampaniyaan
seting
tareeke
navambar
apr
##aabh
phaayada
metal
galat
matalab
##aiga
##akl
sakega
##phonai
ivent
paid
yojana
##reshan
##ati
aapane
aasus
graahak
jaisa
sooch
samb
ophis
traik
rediyo
60
haph
kadam
rangon
umr
sekend
300
guj
takkar
veel
##aatm
praim
kilomeetar
dok
##rd
aan
vaise
##jeee
ghat
intel
##arad
##asal
khoob
vaapasee
dim
khelee
redamee
puraane
sthaan
##aigaship
##hya
##aran
mahatv
chhah
phlaigaship
klaas
##akram
viraat
ol
sev
rahate
kahate
der
baraab
sophtaveyar
pandya
##ikt
##pht
##ukt
##edaar
seem
lena
45
son
grup
251
shikhar
krom
noo
sain
##areshan
skootar
kharch
hisaab
eemel
singal
meree
##heer
99
daksh
##aphee
kir
disambar
kharaab
silvar
pahachaan
vidiyo
chala
theen
mukhy
sankhya
khulaasa
jimmedaaree
pop
saund
utar
##ning
##aix
##orai
lagatee
rakt
2015
dena
sport
hamaaree
doston
400
499
laane
ree
karav
##abuk
jabarad
doosaron
paariyon
karvd
sach
kod
##idee
notai
otomaitik
degee
laag
tam
##aark
shahar
##imee
maatra
vheel
ballebaajee
haard
kont
aprail
jabaradast
boks
##ih
meh
##ikaar
ant
hd
##aplas
hongee
niraash
brek
majaboot
baraabar
##leek
lete
surakshit
65
ad
rog
rakhate
##ograam
laava
tan
ken
##ikon
maiks
chhotee
aadat
tur
rahen
chipaset
sikyor
35
raat
savaal
##aavaj
spesh
julaee
##apar
##ikee
inakee
rahatee
staart
kvod
##aatmak
dakshin
da
jit
rom
dit
##tra
##endr
myooj
##avas
yoot
darasal
jenaphon
aaaiphar
eksapeeriya
kavar
##aaja
jaanate
gendabaaj
aat
##ia
sehat
32jeebee
aham
49
sa
##vaab
##enshan
##abd
tok
pahan
##aayak
usase
badhane
rakhana
ghanta
paenge
##25
thoda
lokapr
rish
##a3
##vitee
##11
##yay
neks
##1280
speekar
kastamars
lokapriy
33
##ax
##reet
##ipshan
beees
paavaraphul
maadh
baavaj
jaanch
maarch
##ojit
vanaplas
##treey
baavajood
go
shre
shabd
javaab
jaldee
##ghz
##askreen
motorola
kail
##aarm
##dhaar
adhyay
##aashtreey
saaree
vij
praapt
##aasonik
##eloo
1280
utha
haphte
27
maee
sin
vichaar
##asoos
##aakor
mahasoos
atir
ay
##ataur
##aint
bhaag
videsh
gujar
##aave
baith
chehare
judee
phor
chau
##ents
ghareloo
atirikt
800
niy
##aron
##ets
proj
##dhe
##antee
milenge
vairiyant
bhaashaon
maadhyam
mum
nish
eksakl
##ivars
khilaadiyon
pan
##paad
hot
deel
teesara
notiphikeshan
pradaan
kaptaanee
giyaraboks
##apheeld
iphonai
##yu
##bale
##aabee
##emapee
ophalain
padata
aavaaj
mupht
myoojik
aid
saat
##qu
prav
unase
##aayee
##omi
ephem
vaahanon
braujar
pau
sand
##jaree
##aahee
##aaron
##chit
dhan
mainual
braind
##oosiv
jude
instol
ayyar
hin
mach
paane
mera
##aada
jenaret
##ephasee
vaayaral
##iaomi
link
##aariyon
##shanal
##tim
taib
okt
lokeshan
##echajed
44
saphed
gur
paaya
##apaid
kamaand
utaar
dijaayar
parsent
aind
jad
xiaomi
##a5
men
paraphorm
##avard
phesing
lambe
analimited
70
phara
##ilitee
khoobas
eksakloosiv
pharavaree
lo
##ung
stors
saamaany
mahilaon
85
daayar
##19
##inn
##amishan
lagae
taareeph
khoobasoor
madh
viv
yog
seph
milatee
milakar
divaisej
kumbale
ravivaar
##leekeshan
adhyayan
2jeebee
jaap
jiya
maah
lagane
seekh
yoonits
vaahan
shoping
##bah
kariyar
##eta
enapheeld
utpaad
glo
laabh
paik
res
raah
##alon
enem
##aneeti
chammach
95
##oov
##adeel
##istreshan
mainej
150
khatara
##rik
##sung
##aapan
##engee
4jeebee
gendabaajee
kshetr
jor
pej
rim
##akal
##asar
prakaar
##aama
chalega
saphalata
pakad
1jeebee
khaan
kaarban
disaple
veb
prashn
leek
pem
##eree
keeb
pareek
prakr
##eshak
##teevitee
##areej
##aaphon
chhota
cheejon
kainavas
digree
pyaar
mumbee
mail
##taar
pareshaan
motarasaikal
kvodakor
ben
##dr
##x1280
enephasee
epleekeshan
ekses
snaipadeel
3jeebee
oor
ul
##ejee
##aayaam
##tiph
kanekteevitee
elidee
slot
sambandhit
turant
jiyaomee
keebord
daam
yooro
ij
paise
##oel
parera
##agan
komp
usee
##adon
samsung
chaahatee
dard
likh
5dee
8jeebee
bel
600
##yot
##aares
##aamin
##odaaphon
emaee
hamaara
##hava
skainar
##ikaarik
41
laal
pen
##dai
banaate
kram
rajistreshan
tanaav
ektiv
angr
subah
aadhikaarik
imph
shuruaatee
720x1280
evan
gar
had
kaan
mid
raph
##dha
##ye
phorm
##autee
##eja
kvik
sambhaavana
##apoorn
pement
mee
meetar
haid
phoks
rananeeti
aaait
aakhir
hindee
900
vaar
phar
bhojan
##aavat
upabh
jinamen
te
##abaig
##aala
baaten
veeoel
512
ht
##lai
##aatr
ank
hedaphon
##brid
upabhok
paasavard
gendon
oorja
poo
sevan
staar
entree
aksar
maheenon
athava
tareeka
sikyoritee
veeoelateeee
vot
##ayaan
tokat
antim
skoda
jyaadaatar
##ashy
maanana
peees
aayojit
tachaskreen
nijee
ganv
speshal
##abhar
##yoob
baatach
##veet
divaalee
tokataim
kait
vodaaphon
entee
dhonee
kaale
soochana
oktaakor
baatacheet
mich
##idh
inake
banee
koriya
##asth
bayaan
pot
sant
##ayan
jeees
lonching
banaakar
spin
jinhen
vyaayaam
bhav
parivaar
##esee
##iyonee
eyarabaig
jeepeeaares
gauratalab
mish
##atan
##eraatee
dikhaaya
pae
maaseraatee
ematee67
niyamit
mahatvapoorn
ring
phain
rahega
phrem
vishay
aaraam
painaasonik
likha
haathon
khushee
vishvaas
vitaamin
bord
rai
##adablyoo
##aayal
##ishy
tasveeren
shreyas
global
raphtaar
34
480
maal
pal
##oh
##aayam
vahee
skool
jaanakaar
thodee
poorv
rileej
visheshata
staindard
5000
baakee
ltai
##asp
aaeeoes
##echadee
ash
aqu
shaimp
toyot
##achaar
##aste
pahunche
baalon
angrejee
mon
phyool
shoot
banaee
risarch
phaisala
42
hat
jiyonee
liye
nau
seed
zain
##aapa
denge
maanen
traansamishan
pareshaanee
laagoo
##mm
##dhan
snaipadr
cheejen
laid
##ooj
hokar
pray
baaton
korning
thand
itanee
jhat
mar
saste
##kaar
##raam
bheetar
esem
bharos
vaayaras
toyota
vig
##37
kost
praiv
##eene
dooree
dijaayan
kvaadakor
tumhen
##sapp
niyantr
gaij
nam
##aiph
rahana
badhatee
sels
sentar
chunautee
##heench
aus
aakaar
kheench
vyav
##ijan
##mi
##seesee
minee
vaapas
##ichaarj
phitanes
2jee
dast
mir
mool
haibrid
##akartaon
##hatsapp
aankhon
sambhav
reno
richaarj
vin
vaid
##bhar
charch
##eted
##olooshan
gaeen
photoj
modals
maang
ordar
salaah
no
rij
##atr
koch
##isthit
##estor
philmon
prabhaavit
bijanes
vibhinn
bhavishy
bain
vel
##biya
##ons
##aaran
khabaron
##arsh
##ahoor
isako
karanee
dikkat
blaikab
muh
mashahoor
##1920
jodee
lav
mimee
##pai
paristhit
##phaee
shaadee
##ele
tumh
noobiya
snaipadragan
aath
sid
kamaj
altra
tarbo
chhak
lagaen
speekars
##aiya
##aphar
shauk
puraanee
kainsar
kumaar
neen
yaat
##aul
daalen
gaan
lg
paate
jeeechajed
engal
##aabaad
dekhana
intaix
prakriya
4k
##ojee
##ib
##aaha
karaane
heero
##aayat
lagega
mauke
nyooj
pletaphorm
aaip
mel
chin
bhaaree
varld
kanj
raidmi
aaid
whatsapp
##chaar
##aput
dekhakar
sundar
kaishabaik
tebalet
37
aal
mun
##avai
##achenj
lagate
seeee
ghz
dikhane
doktar
mailej
maap
baje
kaipchar
paartan
##dhash
nee
##asit
##istar
##itai
prograam
str
honar
baay
##otaree
##oled
badhotaree
##sth
kapil
jinakee
##ton
##adaan
##araship
miliyan
rakhata
##aastav
push
ton
##iree
##aseedee
##aban
eksachenj
roshan
khilaadee
maisejing
prodakts
tasveer
klaasik
650
maalee
pita
##dhi
mile
khelana
veeikal
intajaar
kaaranaama
kitanee
galatee
dimaag
kros
pol
tveet
##nee
##vin
##atam
phin
##aarth
milate
16jeebee
32gb
rakhakar
yoonivars
visheshag
saajh
raas
saav
##aatak
kahaan
##endar
hisse
ardhash
##reno
1080x
htch
360
peed
##desh
phal
inph
##etar
##aimps
##eena
doodh
klaud
edreno
shaimpen
bharosa
neend
bur
das
kata
khaate
##undee
vikasit
elaseedee
tren
vaig
indiyan
khoobasoorat
blaikaberee
duk
eeyar
kadee
magar
##yolooshan
##king
##fonai
##eeem
pras
bhool
badhakar
kaaryakram
##ugat
dileet
vaigyaan
big
stee
enes
banane
##uth
sudhaar
varshon
beemaaree
popular
esemes
ausat
82
dhe
##akaash
nirmaan
bole
rikording
prayaas
kanjyoom
199
##15
khoj
##aino
jeep
app
jisapar
phrend
indast
##aapha
2500
tekst
shikaar
paisenjar
raiad
tim
##kom
##aasth
khela
yaadav
saajhedaaree
67
morai
##aard
##aalay
banaana
seedhe
uttar
##aagar
kantent
bhaasha
povar
vaarantee
75
gaane
lih
##akeen
##enament
##apaas
##adhaan
anok
aajakal
chainal
yootyoob
sinh
pothaas
kat
##bol
##mel
pary
vikaas
traansaphar
ganvaane
haich
intee
stet
upalabdhata
aaeepee
##galur
sens
aasapaas
darj
teenon
kitana
3g
90
dot
sang
##se
##oniks
##aphes
samaan
kvol
plestor
dham
kred
deshabhar
1920
seeeeo
gi
hava
loom
saj
tal
##sa
med
##etik
rahegee
##aaka
eksa
##veejeee
##astha
banaen
prophail
aaipee
1080x1920
enesajee
lam
yuj
##agaar
##avendr
rejyolooshan
yujavendr
des
pep
ras
uchch
##baara
bhugat
ghoom
ophars
adhikatar
patala
ashvin
vist
yakeen
##roport
kvoch
bajaaj
svaasth
juda
jeeteees
sadas
paida
mehamaan
haichabaik
kvochroport
1000
phord
saken
upakar
seesee
mahan
chaahe
edav
leval
maisenjar
aavashy
kredit
aj
esh
ped
##yaapan
##aayab
unamen
##ishiyal
ilektroniks
sangee
sastee
gendabaajon
sephtee
aavashyak
##han
##inee
##amain
##emand
anil
sabj
sabs
badhat
praty
maarkit
prodakshan
##pairi
kamajor
chinta
36
bud
hara
maip
nis
rod
som
##ela
##ips
amerikee
kramash
55
aim
otee
##70
##anj
aaegee
dobaara
jadeja
zainfonai
##avaigan
kaich
mak
##amp
chaut
streem
aaeep
##akaraar
bachaane
opt
svasth
barakaraar
jaapaan
lihaaj
sangeet
aaik
gamb
hend
hyoon
vaastav
##yog
##nal
kahatee
tee20
##riph
suv
rakhatee
64jeebee
jinake
svaip
patr
noki
##echapee
lainovo
sandesh
gambheer
byoo
fl
non
said
svee
##pr
##vas
mek
##gaj
smaartav
##jeen
##antree
abhy
jariye
nirbhar
shreel
ilektronik
itane
tabhee
baithe
seedha
namak
yoonivarsitee
bhugataan
bet
peedee
rach
##utee
##aral
##ama
emoled
rob
vheek
teleekom
54
niv
oonch
pent
tait
vaatar
##ting
##taah
##aks
##alait
##asik
chayan
saptaah
haindasets
padega
##regan
peteeem
paisa
abhin
lambee
abhyaas
nid
rek
##saah
khaen
##istaan
veevo
philmen
analok
shaharon
ijaapha
jhataka
desk
84
naino
pul
xpairi
##77
##ame
phank
karava
##abaar
bhoom
banaatee
chaahata
imojee
bharapoor
paartee
chauke
roshanee
loomiya
svaasthy
hyoondai
48
kad
kaart
siy
##na
##laee
##araah
adhikaaree
##aagraam
shikaayat
gems
mahila
besd
nisaan
66
bag
eg
vyoo
##ahee
##ejal
aaaipshan
maja
vigyaapan
dur
gps
iti
iyar
mit
wi
##akeey
##oorn
dikha
kapade
setap
taakat
sambhaal
koolapaid
##park
bengalur
indastree
itihaas
gat
kais
mp
##dam
##diyon
emes
##aavaran
elatee
bajaay
aaie
ladak
seemit
kontekt
kendr
jitana
dait
joom
nait
sig
inaput
##iyaab
##itv
##aphaarm
jee4
sampark
padhane
voch
asus
arab
muhaiya
hendaset
eek
mat
vail
##55
##ailee
chek
inaka
prais
shaayad
jeemel
apalod
##unik
vaeephaee
aanand
sports
paraphormens
kompaikt
aaipeees
somavaar
46
74
bolee
et
kin
paak
riyal
sadee
ty
##apreet
##pha
teeeph
jaanie
echapee
blootuth
leta
letee
becha
##uvaar
gujaraatee
bhoomika
820
gol
ji
klee
tik
##vig
prer
##ave
emb
ballebaajon
instaagraam
esa6
guruvaar
yoorop
oteejee
bum
jas
maay
##uch
##royad
ang
bacha
saamana
khabaren
215
##glai
salaamee
phoksavaigan
bumaraah
aart
kaab
##araashtreey
enj
##emeech
usb
seek
vaib
darsh
duniyaab
phaayademand
poochh
bail
dablyoo
paapa
taiks
vent
##ran
smith
##avee
milaakar
##aayatee
##osport
##istent
snaipadregan
purush
antararaashtreey
katautee
pratyek
duniyaabhar
4gb
bold
fi
mana
max
sai
tool
yaan
##jing
##enel
##ampar
shakti
##anash
endar
jedateeee
halka
saajha
charcha
ardhashatak
aahaar
hundee
jat
jade
manee
mareej
soot
soor
##to
##eeph
##akat
phut
##ason
bhaav
stok
##aareerik
huaave
beeechapee
chuna
jeb
vaayarales
pareeksha
visheshataon
teeephatee
39
frai
odee
pik
ram
seen
chan
##eeda
##rij
##ust
nirn
bataate
likvid
phaayade
draivar
sankram
jasapreet
3gb
boot
daud
s8
sheer
##jie
##lo
##iz
##zal
##alipht
chik
shaareerik
emai
lagjaree
jarm
proses
deskatop
best
gah
joda
kair
sail
##lus
##ma
##aanon
chadh
##ayah
##otenament
##oge
deezal
honor
kalars
this
mangal
jeetane
pasandeeda
reting
projekt
optikal
88
hans
yo
##hara
##eh
##ubh
##vaas
chaal
jeev
dharm
dekar
vart
saalon
tatv
ghanton
kitane
ovaron
jode
##obail
phinish
pepar
bo
paal
peene
rel
taar
##veen
##shee
shot
kanekshan
chaahen
kroo
##akaard
##onaiai
haikars
opanar
neksas
sheersh
38
bul
lakshan
##ment
##65
##atakeey
##alet
##isk
##edee
seejan
dens
maanasik
glon
badalane
kitaab
##aijeshan
lokal
phesalipht
beemaariyon
dabaav
tamaam
ringing
vistaar
phankshan
endarasan
laind
meet
vais
##riyar
phood
print
##oth
upachaar
lagaee
taig
phreedam
pheesad
daala
jenareshan
samajha
garmee
aakhiree
ditel
videshee
jeeesatee
gionaiai
aik
paksh
vrd
##vud
mej
nevig
tod
aashan
chhut
varana
bachane
brit
kolak
veeaar
64gb
chunaav
maith
aaidiya
nivesh
62
835
gul
saadh
vil
##bit
##fi
##irai
usen
mahilaen
##rday
mishel
yaatra
densitee
yukt
##haar
##resh
inaph
##adhi
yooz
kors
##oonga
250
thak
testing
bijalee
##oovebal
praivet
edavaans
paakistaan
aashanka
57
93
kuk
reg
##yata
##ret
##gen
##xail
##alaimps
ish
##orn
pres
##aitis
##achh
eksat
dho
pada
tvin
draiving
ditekshan
jaanakaariyaan
gipht
paee
taap
##isee
##ilai
ekadam
blad
kort
2014
dikhen
amaree
ilaaj
yuaan
aankade
masheen
dileevaree
shabdon
sadeera
thisaara
gus
hrday
vip
##x8
##ensee
##ootee
vois
plaant
janaret
janareshan
setings
karavaaya
niraasha
aatm
paudar
paristhitiyon
kvolakom
yaani
kolakaata
310
baan
ebee
saik
saans
##pad
##sht
##asen
##ila
prast
shuk
play
chhaatr
daure
jinhonne
vyaap
128jeebee
tasveeron
mehan
talaash
43
mud
##aii
##aanak
##shit
##anesh
prem
badaul
sapana
baleno
nyootan
vairients
janm
nibh
pletaphaarm
giraavat
aaikan
smaartavoch
hata
jolo
laut
raash
##ae
##gat
##uon
##bha
##eey
##antar
injeen
bhook
##aasan
16gb
deval
googlai
pixail
##romax
##eemeetar
suparabaik
parsanal
vibhaag
veelar
sains
vivo
santul
badaulat
72
700
##a8
##yap
steshan
keematon
kahee
##areeban
##istree
maig
beeta
##inda
chaarjar
sansth
bhejane
yuvaon
kyooechadee
apagreded
ghatana
projektar
aaeepaid
air
dog
kaat
mars
ruk
##oogal
kho
praban
alart
##iteej
##aiplus
achaanak
beeem
##chchha
upabhokta
pulis
bengaluru
taapamaan
gad
lakam
vaay
##ong
kiye
##aikchar
sted
deep
banaata
skeen
aaenge
khaasataur
##asht
sahit
kols
sanv
phaishan
khataran
sujh
jaengee
aaiphon
motarasaikil
niyantrit
aaeepeeel
sveekaar
peedeeeeph
nevigeshan
lakamal
6es
sent
tes
##sil
##inaam
kare
##asaas
disha
##abaree
prakaash
skeem
aaeedee
##andhee
dhoon
kapoor
##sept
sany
sunane
aipal
staartap
beeesenel
joradaar
mooly
vartamaan
mehanat
stediyam
khataranaak
ichchha
per
sans
##ov
##ls
##kon
hair
khade
kamaal
##aadha
ghaatak
dekhee
chalaane
bachen
##umaan
onaiplus
saphaee
##akripshan
phestiv
dabal
daayarektar
ebeees
day
gud
kath
kaib
pok
##ui
##vijan
##720
##17
##arjee
##aarj
##apat
khy
##avaee
##una
##aayata
badhate
blok
aaeeem
intaraphes
bachat
shurooaat
edit
149
khushakh
##greted
uthaaya
paartanar
nideshak
injeeniyar
4ke
daant
kai
pe
##aport
shren
##reey
bhale
##agab
baarish
aaeebol
chalaaya
votar
hedaset
halke
aamataur
aaaito
upabhoktaon
shaukeen
vaigyaanikon
mangalavaar
2gb
dop
ly
rol
##pl
##akta
chak
##adhaanee
##roid
##seee
upaay
blog
gril
padhaee
##aidom
dhoop
dhoom
sartiph
sahaayata
##havaar
aayojan
konsept
diggaj
sambandhee
madhy
eyarabaigs
budhavaar
vrddhi
een
toot
##aaz
##amet
chail
##iyok
##aphl
##ajaan
##dhon
skin
varch
philtar
teemon
aankada
teleevijan
veelj
sony
nooga
shukr
khushakhabaree
299
eeem
mt
mantr
pooch
sat
utaree
##pons
##gai
##ft
phij
pholo
##apur
parinaam
##ekhar
##ejar
takareeban
dinesh
devid
pratik
modalon
bachcha
saphar
chamak
koold
##rama
ailug
rishte
bels
michromax
vyavahaar
sujhaav
bon
mam
pink
re
phool
##aatron
kha
shah
##ateek
##rodh
yooes
spr
chhat
125
nirantar
1440
128gb
aayan
avadhi
bechane
2300
shodhakartaon
robot
sankraman
dhoondh
##iyokon
ev
jem
rot
##ikom
beete
pahuncha
skorakaard
haardaveyar
garbh
poochha
8gb
baen
daayab
moovee
pabl
##ion
##14
##inch
##iniyam
phol
short
shart
##ayoo
kaarob
samaadh
baitar
##peeaee
chaahenge
traee
padane
svaad
peesee
kampaas
esa8
##aspot
dher
rekord
elateei
tyoh
chanvas
khyaal
boj
les
mis
poj
sook
tu
##yaas
##bin
##chai
karaar
sakriy
##yooesabee
spasht
plait
##ashaala
pratid
kapadon
padatee
##eksa
phaisale
seema
gaijets
byootee
glonaas
shrenee
63
dukh
iph
naabaad
room
##uchh
##amand
##abord
parda
chaay
##aahir
alk
##imitee
graind
groth
##aprooph
svipht
##riyal
kiradaar
saathee
aaaitom
streeming
dharmashaala
shukravaar
samaadhaan
53
gati
legee
vaat
##yah
##aathee
##phaikchar
##aathan
bhuv
anumaan
samud
##aaye
##tish
maikroyooesabee
dohare
mobilai
vhot
daalana
samasyaon
##romeetar
slim
ganva
helth
shooting
fraiaidom
##aneshvar
lyf
bojh
1gb
bha
hit
hartj
nar
naar
saar
##ux
##ba
##ataal
mega
##aman
phog
kiph
holee
proks
shed
##aing
aapase
step
##elo
unako
##aakaar
banaam
mainyu
##karan
riports
kilograam
eksapo
rajistar
ailaan
sidain
boleevud
jems
3dee
350
dav
e7
paata
raip
tig
##yun
##yaksh
##a4
##be
##vik
##waii
phaayar
yooaee
mileemeetar
##aajan
jaanavar
agala
bikane
baajaaron
suvidhaen
##rtik
insaan
hotaspot
shreelanka
proksimitee
220
bot
li
roo
send
##yular
##ow
##poorn
##saip
##uga
##apaan
karo
##etiv
hol
bhaavana
stik
diliv
blu
chhaatron
chalatee
kolej
motaee
madadagaar
##ikaon
jodane
esa7
propheshan
pravakta
rimot
gaijet
mirch
inphotenament
pratikriya
bhuvaneshvar
52
haart
my
nakaar
pagab
##kan
##ral
##ww
kav
##aus
##avela
jisane
moh
dikavela
geegaahart
pradesh
avasar
vindo
otomobail
telikom
karae
abhiyaan
ikaee
dres
reeyar
vijay
kaiteg
daayabiteej
##tishk
kiphaayatee
pagabaadha
dol
gaad
ich
pank
sw
chaav
##itr
kahaanee
badhata
chalie
bataee
vee4
khareedaaree
geega
maarketing
pahunchane
pati
lains
majabootee
saavadhaan
vheekal
##izu
maithyooj
saadhaaran
490
g5
lep
miks
mus
paan
##az
##nm
##baik
##53
##aphal
kaimar
kaaraple
##achaap
##une
honee
lekh
teebee
maiizu
##ashekhar
##indar
kalekshan
veejeee
vebasaits
bolt
boling
salekt
uthaane
mastishk
chhakka
kleen
maayane
##reshth
varchual
ips
nak
raay
##les
##shiyam
##asel
paraph
praar
##rok
deev
eluga
echadeeaar
huawaii
chuninda
netavarking
haardik
jaapaanee
phark
rijolyooshan
visheshagy
kanjyoomars
kaartik
430
aana
gain
ir
root
saara
ztai
##de
##vg
##oolee
##aang
parich
chand
##ieshan
bhaee
##ajan
##aakhon
aloy
121
##trol
##ividh
pien
vyakt
chunaut
portebal
arth
ghoshit
geming
upayogee
stailish
pairon
gatividh
aiktiv
dikhenge
##yapur
beeemadablyoo
tesla
kathin
399
aara
so
vr
##oshan
##ins
##atta
sed
khaalee
##aget
pahal
##ulk
sarakaaree
aaain
aaaip
hissedaaree
##gres
thard
samajhane
480x8
pushti
inteeriyar
sanyukt
3ghz
51
litai
pav
pade
rana
##maan
##54
kament
grah
2020
chhed
dekhe
ophishiyal
taibalets
avas
slaid
uddesh
taareekh
dimaand
daayarekt
mainejar
sadasyon
egj
du
posh
##ve
##alt
phait
##asa
pariv
chat
chur
inav
apek
ema5
anajaan
joki
altr
upalabdhi
maikabuk
chhip
##veee
utana
brod
aadhunik
##abarg
sarve
sarvisej
patt
apadeted
proteen
aakarshit
##asanchaar
##aravaah
traikar
sone
jitanee
yootilitee
peedit
devalap
eendhan
sedaan
ba
daim
laimp
##haat
##68
##16
##yast
##uree
##aphut
prooph
kamaee
kamarsh
jayapur
bharee
##agree
##avish
kaars
##emaee
##emem
##iditee
mahanga
##990
##aundar
utsaah
nirdhaar
##aago
maansap
ephadablyoo
daalakar
asal
jeetakar
nyooy
slo
yogadaan
munh
timaahee
eshiya
jarmanee
amareeka
mainyuphaikchar
uddeshy
dro
lejar
maata
natee
nauk
pest
rain
shatakeey
##aamak
kaimp
anur
##achai
alpha
##ident
badhiya
deth
trend
endroed
##thiyam
padaarth
sarvash
reddee
leethiyam
paarking
painor
socha
##aaharan
sheyaring
romaanch
nishchit
gaanv
sabsakripshan
nirnay
chakkar
nakaaraatmak
maansapesh
83
hejal
pin
riv
ub
wind
##pu
##sm
##mb
##vaint
karmach
dish
chot
hor
ektivitee
##aape
##aapako
##edar
enasee
lagaakar
ghadee
moshan
jaanane
eksele
agr
120
taivaan
modyool
baikaphut
phaibalet
sekshan
paark
portal
teknol
majedaar
volet
28ven
rispons
andaaj
aidgai
niyantran
anokha
stetas
ghoomane
etam
nirantarata
kaitegaree
naukaree
sarvashreshth
ekseleromeetar
daay
jon
liv
nah
reed
s7
##yum
##aaraatmak
##chan
##ensh
phiks
##apan
##aatel
##ikrama
char
inti
shar
sakaaraatmak
##avud
emold
##areet
adhikatam
##ushka
khareedana
1500
##igo
itail
1800
opshans
raajashekhar
rojaana
android
chaineej
sadak
olto
kailoree
machchh
raahat
rimoovebal
paryaapt
taaraget
vipareet
hejalavud
625
dom
jara
jaahir
mul
mith
resh
phaay
##shar
inf
inase
shulk
##aiss
rahenge
smart
kaimaron
##avid
epl
phraans
saalaana
bataane
sahaara
sahayog
koles
140
nikon
pradooshan
##aastik
ataik
teeveees
beche
sanket
beemaar
eseee
prasid
ephadablyooveejeee
410
aakr
gais
haus
sol
til
tro
taaja
vyast
z5
##ulee
##bon
##atram
##aanj
##shaalee
chard
praud
##eshar
##dhar
##deeshan
mahaar
bep
onai
haraane
edam
takaneekee
bechatee
bheja
doorasanchaar
antargat
udaaharan
jameen
aindroyad
jeeesem
chauthe
662
iphekt
praudyog
ios
nig
naagar
sr
tiy
##rah
##zan
##aton
##aansh
##asad
kamyun
shok
jee5
##oto
##ode
##avaas
##edan
##yoot
upul
##okar
sabake
12vaan
baiktee
bachaav
akasar
saamagree
dikhega
padegee
##areting
intaraneshanal
##olyoom
kampas
khatare
avord
plebaik
lambaee
pravesh
mainejament
tumhaare
mahange
purushon
##asonich
alkaatel
dilivaree
beparavaah
bos
gyaan
mantree
vaada
volyoom
##hd
##sp
##vaave
##18
##fl
##aank
diph
ekas
##oded
kaaragar
samarav
dilach
huvaave
jaanee
badale
dhang
nirdesh
chaaron
pratis
svich
sanar
##eeboo
phaibar
asp
asistent
patnee
puraana
silendar
bheje
khoobiyaan
kailshiyam
monitar
vinse
visheshagyon
raasta
upakaran
mahangee
briten
nirdhaarit
kolestrol
799
jai
laik
neeboo
pai
soo
shee
tips
##pi
##vak
##aris
##ona
kebal
pharm
##ikata
khoon
##agoogal
lagaana
rakhe
eksatar
dood
khaasa
phlait
modee
nird
veediyoj
notabuk
##ere
riples
chalegee
aatank
pareekshan
praivesee
makasad
mekap
aatmavish
mammee
pablik
vhotsep
praudyogikee
tiyaago
samaravikrama
615
ain
bampar
del
dahee
gil
nim
saah
##intar
##ales
praak
##eechar
street
bled
##aaneey
sardiyon
logo
maij
debit
veediyokon
110
jagat
asalee
asaphal
suna
bechee
listing
sthaaneey
soochee
vijeta
utpaadan
ditels
eeemaee
avasaad
aatmavishvaas
dos
e6
heksa
juk
kans
pash
riph
##por
##ped
##aio
kes
kophee
chr
heel
##00mah
spais
spot
eksel
plaastik
##asthit
haaliya
beet
ilaak
eleet
jinaka
aark
bola
janaral
aaaiphars
veriyants
tamil
panasonich
deelaraship
ektivet
##atrj
sootron
raipid
750
daayam
green
mor
taayar
ven
wat
www
##gar
##eb
##bai
##ahiya
kopee
karaana
##abaind
inj
kamare
##aavee
##ingatan
##geegaah
skr
sarph
motaape
pichhalee
aagaamee
jeda
ritelar
jama
khoobasooratee
raaste
##anashailee
chaaloo
kaarobaar
##aajanak
gaadiyaan
chaaval
intigreted
47
5jee
aais
aait
bart
gair
him
xolo
##ho
##yaat
##adar
##ador
kot
chen
##eschar
##itt
nek
nem
shr
ekabaar
##ainal
stood
##upta
anu
jisame
usako
karengee
##akarta
selph
amb
vee8
dikhaane
mukhar
paen
jarooraton
sunakar
maamalon
2600
eksapart
poshan
nikalatee
braujing
laagat
phormet
pholdar
ekasaath
aspataal
praakrtik
baah
darav
etee
hil
joos
paand
taik
##hanee
##eniyam
isen
##asy
##asitee
jaj
##ings
stel
huveee
##andan
sari
khareeden
maanate
aartiph
maamala
silindar
gunav
saits
chaiting
stailas
kaangres
spinar
kanjyoomar
saibar
inaphokas
eksatenshan
mt67
shahad
plaitaphorm
aaaitomaitik
sanarooph
59
5emapee
69
950
haree
naakh
pait
paka
taee
##kop
##ghat
##mimee
##anaatmak
##one
##ambh
chap
choree
intr
##phr
shug
stadee
anek
upahaar
##ishchit
tarb
banatee
badhaakar
aash
khaasakar
trip
kraish
shaant
daale
aares
avel
biliyan
aadamee
vitaara
chehara
kholane
besik
sehatamand
854
prerit
aaeeemeks
prasiddh
mukharjee
gunavatta
bilt
dash
daayal
gu
ob
ubar
##ht
##sej
##adesh
ses
karaee
dip
prim
sakegee
##aasee
##audee
##ishth
##akash
teek
spor
naamak
pich
akele
sochate
vibai
gaye
vitt
jimmedaar
seets
helamet
tumhaaree
upakaranon
jeevanashailee
geegaahartz
chunautiyon
shugar
56
68
baag
dyoo
daark
eh
e1
e5
taal
tantr
##je
##gun
##alaind
##isamen
preshar
phonai
enarjee
##achk
job
badhee
maut
vark
three
pheeld
maamoolee
##yorens
rokane
dokyoom
raktachaap
pahanane
rishton
3310
nishaan
eksakloosivalee
dastar
dheron
medikal
eekosport
poket
mantraalay
baitariyaan
tigor
aaainalain
210
77
810
bs
gale
lak
laakhon
naak
ri
##osee
##los
##laind
##tha
##pard
##kr
##arn
kohare
chool
insh
##etee
ekshan
bhara
keematen
saraund
utanee
bachapan
3200
endroid
##aksha
kris
vosh
##ichai
geegaahatrj
##repee
jagahon
pleyar
samasyaen
2800
eksaport
nikaala
##aibook
utpaadon
applai
sabjiyon
siyaaz
durghat
pikchar
poshak
##haatsep
teknolajee
trophee
baikteeriya
avelebal
ehasaas
5mp
dor
dron
dava
ii
mand
paana
taaj
vaish
##ds
##yo
##vajan
##33
##aiyon
keejie
pheed
##asand
##aeen
chaabee
##iyant
priv
ship
##ipai
phrij
dohar
mair
dedh
sahaayak
onar
119
pahunchaane
khaasiyaten
aips
##akampanee
sadasy
dopahar
pojishan
pratidin
aaaipareting
##geegaahartj
inshyorens
450
540
aair
limit
mood
mrt
maaha
om
oyal
raashtreey
teks
uchit
haish
##aped
##asport
cheyar
##eka
##pann
##ajaat
##aapit
ema
dhaar
breja
peshakash
daalee
tareekon
##rtv
otophoks
##oyan
instr
praimaree
##yushan
ajast
taiteniyam
ladakiyon
krooz
prabandh
spred
shortakat
itailiyan
naagarikon
##gunaa
maahaul
599
aiks
baaree
kaalee
landan
pach
##res
##uta
##ibh
mekar
kebin
##ooh
phe
##astar
##abaink
chaun
##ity
neshanal
pran
bhatak
##aapur
##avaah
ghane
1200
kaardan
mods
braun
vishaal
kreta
##aijar
imar
netrtv
patale
teesaree
andaaja
sadakon
galatiyaan
karavaane
prashnon
polisee
vaigyaanik
aavashyakata
##loud
chikit
chadhaav
saarvajan
dolbee
swipai
lepatop
window
soojan
paande
saarvajanik
699
76
heyar
jet
kaa
lith
niyo
peek
paatee
raak
tw
veek
##lie
##41
##wair
##100
##eev
##ataar
##aten
kayaas
chon
chop
chauk
##ilee
##ektiv
##aphesabuk
##aavind
##arst
##achar
##seem
milana
badhaava
agalee
theem
bahaad
dekhabh
##enjars
paega
najadee
baitree
koshikaon
aadha
kastamar
sevaon
sevaen
motarasaikals
eksapeeriy
roming
4100
bura
821
seekha
prakaashit
jaanavaron
ranajee
dostee
sportee
dekhabhaal
ax
aakram
e9
gaar
gpu
jaas
kur
m2
roos
saind
vet
x1
##500
##anjan
##chars
##urv
##abal
khapat
steel
##eda
upay
##osis
sabako
banana
baikagr
130
##stha
sahaj
25000
bajae
##ochus
pratibha
sanstha
aayaris
mujh
kandhon
403
kirlos
savaalon
haddiyon
thanda
lavars
kaisa
emesaee
bailens
vento
manach
yoga
maansapeshiyon
vaishvik
kirloskar
beshak
gaard
jain
lon
naag
rs
vor
##haid
##mon
##ataig
phesh
##abol
chaud
##iek
##iliyan
##phar
##pana
saks
##eshiya
##achait
josh
##ipt
badhaee
jaanakar
akh
112
mukaam
iseelie
manj
pahunchaaya
sunah
avashy
hisson
jodate
bukings
kaaryakaaree
ande
nikalane
##aachaar
intelij
kontaikt
3500
hotal
kamaando
paraphormesh
haidalait
ematee6737
neele
eeyaraphon
signal
sooraj
sailfi
saikil
bhookh
naariyal
daimenshan
painorama
eksapeeriyans
baikagraund
2ghz
aaudee
dais
dup
jang
kaav
kri
pyoo
paach
raink
ruch
s6
suk
tiv
##lin
##ppi
##man
##chee
phaind
##adaaree
chup
chloud
##aitooth
unheen
##aabait
seetar
seepee
kaamay
jaanana
doon
ekspo
badala
maarsh
plaans
sardee
varna
login
utaare
eses
esid
##umeh
##aagat
##bhaar
snaipachait
dikhata
148
peepeeaee
chunen
sektar
##aicht
lamba
maastar
prabhaavee
heliyo
menyoo
##oojh
eshej
oonchaee
sambhaalane
tikat
relave
samajhauta
ishaare
bluaitooth
enaseeaar
dilachasp
gilaas
durghatana
windows
lithiyam
aakraman
6999
daish
fw
kut
lah
nub
neel
piks
paayee
saad
##bl
##ient
##vel
##aarel
##amor
##aanv
##adak
##abaan
priy
##aikho
##ajar
##avyoo
##teet
jarur
##ankaee
varishth
##apeeem
esasee
echadeeemaee
amit
rovar
piksals
mota
jinase
manor
leejie
riplaee
jeda3
jodon
instent
kilar
2200
eksapend
nikaalane
garmiyon
kholen
kshetron
nekson
videshon
ull
paartanaraship
sabjiyaan
soory
dayool
vaataavaran
ichchh
aakraamak
pratispard
haishataig
sailfiai
3es
435
adar
bing
fach
ip
jelee
lega
m5
taph
##haaya
##andee
##akul
##alak
phat
##apane
charan
chorai
kamph
kamod
##aasking
entar
enim
anup
##seejan
kahen
mahendr
eksamor
chhup
echem
modail
trank
traayam
traanj
shurooaatee
rejol
eyarasel
leeg
hedar
kandeeshan
sthaapit
halkee
##aache
prashik
shrey
michros
koriyaee
chunauteepoorn
noeda
velakam
mehamaanon
darshakon
ventil
tatvon
santulan
daanton
anuroop
naakhoon
cheyaramain
spredatram
traayamph
89
bej
bejal
nip
nand
namee
pvaint
reech
sos
tuk
z2
##ashan
##300
##anch
##ooti
karan
karaata
##asun
##ilaayans
##tarn
printar
apaache
##aven
sty
staib
samart
samooh
kaamon
denasitee
##aiptiv
chalee
phlem
uts
esatee
##oongee
bataatee
320
klaim
maanav
pheel
##ikeshans
preeped
aarapeeem
10000
rikaard
haaraman
miui
navaaja
badhaegee
kise
ailitai
panj
kamaandoj
madhumeh
ankon
hedaphons
##seeseeaee
rijalt
phrends
betee
abhinet
seeniyar
propheshanal
praaroop
kamarshiyal
primai
bahaadur
nubi
kamoditee
230
79
78
a7
kood
maane
moov
rait
reem
sair
sink
ter
##hz
##af
##ovar
##kyoo
##riyo
##45
##ix
##ibal
##31
##atantr
##alan
kep
isame
chih
hosp
khaad
##ajam
andh
eksa1
dhool
132
beeseeseeaee
paavarabaink
traiph
brait
000mah
leg
okseejan
daalane
lenevo
traansaport
phailaaya
speshiphikeshan
pahanen
beeesaee
likhane
mishran
yaatree
saavadhaanee
sensars
flash
vheekals
maneesh
raashi
raashtr
santulit
mohaalee
doodal
ambaanee
stelth
##phrens
rejolyushan
staibilitee
aakaash
gand
histree
kreem
nadaar
sch
vain
##doo
##x10
##shy
koting
##ikr
chet
##ataun
##aphol
##ated
##aapak
ston
##aahat
sammaan
lagenge
##aidar
divas
2012
indas
indakshan
##yadi
khelate
amaz
rotaree
aksh
aarop
sunishchit
2005
aavedan
aautal
masaal
##sapaavar
ematee65
girane
kshetreey
raktadaan
adaiptiv
3300
gujaraat
baithane
trening
549
kroojar
thakaan
gussa
gatividhiyon
inavait
infochus
chardaikho
eteeem
aairis
paachan
ruchi
fwvg
adarak
hedarest
chihn
traiphik
nadaarad
180
6000
8mp
asth
lum
naash
of
ola
slee
vast
##den
##tal
##kin
##rn
haip
##akaast
pradhaan
shan
##agupta
anuk
milaen
##yaring
##oodar
2019
senagupta
khelen
amal
thode
edaj
sanchaar
phaib
tumane
laits
jedeph
volvo
raaja
otometik
ikosport
utare
tamaatar
siddh
chhakke
peedhee
shreelankaee
mareejon
vaisa
480x854
chhedon
nirdeshak
riplesament
aartiphishiyal
pakaen
teekeem
##urved
pheshiyal
haidalaiten
rainking
seepeeyoo
ventilated
290
537
710
98
deedee
esar
han
havaee
jooree
jaagar
lap
leed
naaj
##a7
##nl
##odh
##66
##21
##zar
##inal
##akaara
phaik
phold
##uratalab
##adaayak
##abad
inheen
shep
shakh
##aavastha
##aastr
##aasaakee
##dhik
##dhata
##ote
staark
##emabee
emaphl
deetee
yoor
jisen
ghut
ghum
grainal
kvid
laisens
dhok
kaards
##uso
saplaee
13mp
kalaakaar
lagajaree
khareedate
sanch
laib
aayee
avataar
##aadhik
samajhate
powair
3100
traiking
machhalee
ultr
ijaaj
steeyaring
badhatoree
aimfl
kinaare
bovar
vilkin
prastut
injeeniyaring
gainasport
nyooyork
karmachaariyon
horsapaavar
aaitam
taiksee
chaunk
axon
emesaeeel
nandinee
hospital
emaphlaks
grainaluso
aimflux
a1
baak
bind
daar
dush
er
gaana
lit
lip
lubh
maanee
tip
viph
xl
##sal
##480
##baay
isane
##aboo
chid
##ors
prth
kamaan
eksar
heen
strok
##elik
jisasen
kahar
kahane
veriph
spaark
aaeetee
##andaaj
##andran
##yaadh
sarjaree
mobails
opera
cheeph
kalpana
bahan
krej
memb
pichhad
9999
epha1
pees
##aseey
yoonib
portaphol
peechha
luks
kaiptan
breking
sinem
vichaaron
imphr
paristhitiyaan
dhamaak
aaaipshans
vailiditee
jionee
yoozar
president
chrorai
heeliyo
introodar
voshingatan
ijaajat
viphal
prthvee
190
bek
dan
daans
gard
laimps
poon
ru
ren
saur
yaam
##tek
##ua
karaen
##aeees
nel
khada
shipht
##gauratalab
##aamitv
tos
##yoovee
##oging
yooaarel
jisako
##janal
sark
chalen
varg
esosee
bache
niryaat
adhyaksh
elyoom
tred
svaamitv
peeriya
chunane
bolane
bukhaar
najaron
najarandaaj
gunag
baiting
sasp
niro
raajy
udyog
kaipes
ladakee
ghatakar
vheelar
652
rogee
kend
vaayaralais
belt
kaanoon
visheshataen
kheenchane
vyavastha
anokhe
maips
patrika
bete
kaaboo
##anasheel
mejabaan
chhutakaara
gusse
1440x
paviliyan
pashch
baaharee
chaukon
intelijens
lahasun
anukool
shakhs
sanchaal
portapholiyo
gaaj
ikat
m3
padee
rag
##vej
##aishanal
##atne
##alaimp
##cht
semee
##abit
kamyoon
shatar
##aapaid
##leej
sameek
badhaate
eksa5
laanching
chaahane
##asto
##astail
eloy
trik
braajee
##umaar
adhikaansh
saamanj
##ichandran
nirmit
svabhaav
shaanti
atyaadh
suranga
aayurved
dijainar
rikol
varsheey
sochane
volt
##athan
riseev
ravichandran
gira
skootars
vairiyants
paudhe
vivaad
prakrti
aakhirakaar
santush
maalik
heeroin
aaloo
dukaan
dukaatee
laindalain
hairaan
phestival
phijikal
##rodhak
mainyuphaikcharing
nateeja
jajba
daisirai
kaavaasaakee
tivatar
bingo
naajuk
##baayot
gardan
5d
510
a9
buj
dha
daadee
gam
jaay
jeschar
k8
koo
ledar
mm
ori
rau
rivars
viyar
vasa
xz
##don
##oft
##ev
##bat
##book
##82
##fch
##akod
##ahan
##aarp
keem
##oosee
phen
phalon
karaate
##heed
kas
##iksh
kamins
##aatham
##ailik
##yooshan
ema2
##mati
dilaee
skaip
aaen
raning
sarajam
vard
dongal
160
##aashay
adhikaar
259
bataen
tvs
##aijd
bharat
leevar
sthitiyon
jeda1
phails
raajadhaanee
chomp
malteet
bigad
dhamaaka
saja
suvidh
vailyoo
prerana
embiyant
enjelo
baills
##orniya
vyaapaar
doguna
samudr
musk
lekhak
parichay
eplikeshan
e6000
nekst
anumati
naagapur
dupahiya
echemadee
esateedee
khaady
edajast
niroshan
braajeel
saamanjasy
sarajameen
6jeebee
itar
king
lut
nij
neem
paath
toor
u11
yun
##yars
##a6
##bair
##ian
##95
haidar
phan
##asaij
##isake
##ition
##aadu
##aarthon
##aavit
##aastar
toh
kaaryav
samaaj
banakar
teejar
ekse
dhar
saral
korn
utpann
##uddh
philips
bataata
2013
##indr
##aasha
##aasht
kriya
hare
##ooment
edres
padaarthon
kaaranon
preel
taimalain
##hada
##graam
salamaan
aadhee
aankadon
240
dheemee
jhalak
mastee
drink
kaala
seving
sachch
jitane
rishta
paikej
ematee6735
hataane
nauven
paryaavaran
abhinay
kaabij
paalan
mejoo
vibhaagon
sansthaapak
prabandhan
sanskaran
ganvae
brodabaind
paitarn
daravaaj
tarboch
doonga
jarurat
manoranjan
fachaibook
yoonibodee
dhamaakedaar
yaamaaha
atyaadhunik
5mm
960
a5
baant
laim
rook
##fachai
##arabarg
##chat
##yadhik
##amaark
##amantree
phej
pheph
##apati
sele
parth
chok
choon
khaata
khand
prej
praatham
smail
stop
##unt
jopo
kahoonga
##aajik
##isht
plen
maun
tair
tairiph
##reeno
bator
dev
beej
##aapht
adhikaariyon
klok
snap
mote
svayan
daalate
photograaph
suvidhaon
judane
protsaah
kanph
maidi
239
sambandhon
ravindr
256gb
aix
utarate
niraashaajanak
##2560
jadane
mainejing
poochhe
vishayon
mirar
chayanakartaon
mittee
dablyooveejeee
chikan
hansate
gulaab
editing
vyaktitv
drop
reedar
phiksd
reshiyo
ilaakon
bsnl
pranaalee
michrosoft
preeloded
hep
jut
kaksha
lod
mup
meel
nin
nich
taink
##yaalay
##jab
##pa
##akchar
##atai
##amps
phel
##urg
##apasand
##ass
##anet
##etaitis
##ile
##gav
raheen
##avaree
##aahak
##edeej
##emo
deees
milengee
spen
intaran
maarooti
dikhe
2560
aadhe
badalate
tahal
pee10
maarkets
pradaata
paariyaan
plaaning
samajhen
sochen
khoobee
405
##brik
singaapur
niyamon
pyaaj
kirin
lokapriyata
phors
dhananj
imphot
haidalaimps
seedhee
thande
buree
vaastavik
nirnaayak
pakshiyon
sanvaad
apeksha
machchhar
asaphalata
stoodents
prashikshan
aautalets
yooreka
mupheed
dhananjay
00
425
bakh
daat
dail
gai
haavee
kala
laayak
mol
naata
naix
pune
reet
solar
##lait
##tiyon
##tedaar
##paayar
##sak
##uaee
##32
##24
##x7
##anja
##alit
##ene
phi
phans
##shak
##iyars
##tars
##aartaphon
##aist
##olt
##oloj
stan
stamps
anivaar
lagegee
##imaan
bang
##oore
tee8
aaeet
grej
gred
eksapr
127
kanektar
chaahega
indon
##oola
motaapa
dikhaata
mukt
mukesh
manapasand
801
shiksha
rikavar
219
kanaada
metro
naveen
ganit
ejensee
chhodata
##yavaad
utaregee
##ikaarak
rishtedaar
goyal
pausht
seekhane
midan
dastak
kairektar
meeting
british
##achhaad
korteks
sentral
phaayaraph
utsaahit
##ittair
mairaathan
esesareej
samarthan
abhinetree
pradhaanamantree
jaagarook
1ghz
2emapee
5eks
5ven
97
alee
aiv
bro
benj
dub
f5
joot
kang
las
naathan
paim
patak
paaye
##nishan
##piksal
##rapaan
##mw
haipar
mesej
##amar
phaim
phaundar
pharst
##aanusaar
##heel
chut
inv
##esis
hold
##ora
khinch
kamar
ekad
##ainee
##aikshan
##ola
##ajensee
##aahe
##emment
ema3
anuv
mahaan
intaravyoo
dhadak
chaahat
skreenash
2010
##ashaan
balb
motee
peeth
manaaya
808
vikalpon
paseene
paseena
pattee
atyadhik
aayaran
hajaaron
jeda2
bhejana
nibha
laiphastail
masaaj
ahasaas
haanikaarak
##ation
htt
ganvaana
spinaron
maaloom
jaanakaariyon
chhakkon
gaanon
steevan
robin
penting
##aveer
maign
botal
chura
chapet
doharaate
raakhee
saksesar
kepataun
eksarasaij
veriphikeshan
kendreey
tohaph
tarbochaarj
choonki
anivaary
7s
8veen
ajee
ast
bmw
gst
katak
por
sul
vau
vait
vaaka
##mal
##9s
##89
##eer
##oobee
phek
chenj
khid
khokar
prajaat
kaaryon
anushka
samar
##seeaee
##aakshee
##ideej
dengen
badhegee
blachk
maikrophon
beyar
##galane
##galor
##ivaseey
##astik
##iphorniya
trai
brash
vishl
verients
amol
klon
##aksheey
kreg
veeseee
veedee
snaiks
bataur
saamaajik
153
therepee
dauron
pratibh
asem
ataich
prov
surfachai
##romaiks
aankhen
bainking
aaioes
kaunsil
maitelik
insteet
rogon
aadaton
dhanyavaad
ulaj
phains
tumhaara
emesem
jarman
todakar
yoozars
dhoomrapaan
madhyakram
tyohaar
davaon
vijayee
##yuminiyam
eksataranal
jukarabarg
watchh
choolpad
instrooment
aikses
stonamain
hansee
litrai
peeriyad
saspenshan
orijanal
rautar
kaaryavaahak
chokalet
intaranaishanal
ekadivaseey
3999
530
6s
630
899
92
daada
haara
ig
jonee
long
loyan
lanch
mw
nai
nit
solyooshan
sateek
teechar
v5
##fai
##aarasee
##ura
##urai
karn
##aphr
khur
##aartament
rahoge
##ains
jeero
bhare
##aask
stej
stebal
##antu
enaal
anaaj
dilashaan
##oskop
seeen
baig
##ipaksheey
baarsil
##akaratne
##peey
maarg
dhaabee
chalan
##astaar
elistar
sahool
khelega
##aashtr
##bhp
dikhatee
glook
dvipaksheey
pratirodhak
maisejej
##abhaar
asist
2100
##aadhyaksh
supreem
ummeedavaar
instold
malaan
listed
raajyon
ladake
2900
##aantik
jamaane
haphton
utarenge
dhaniya
dhananja
pakadane
pareshaaniyon
pharjee
monok
baingalor
veeikals
krosovar
ardhashatakeey
dukhee
siyaaj
ladakhada
gahare
nakalee
paraphekt
tilakaratne
baagador
dokyooment
gaarantee
reechaarj
lutph
anuvaad
tarbochaarjd
beyarasto
mwch
dhananjaya
05
bed
eedee
hy
hp
idee
nm
ost
pay
raam
satar
vaik
z17
##pekt
##go
##vai
##zain
##ees
##onom
##shn
##aprai
##adek
karee
##ilaaka
shaarp
eksee
##aathilaaka
##aveen
##aahoo
##elaar
ena1
nasht
##unee
ungal
sabak
alaarm
##ishal
maikron
moong
##omadaar
1011
mobilitee
endraid
haraate
vee5
##ushal
##airy
thahar
jalan
640
padha
ephajed
peele
paengee
oks
nirmaataon
import
sansh
petent
181
ovaratan
khushiyon
shatakaveer
gunaathilaaka
hedalaimps
antaraashtreey
bithaaya
aautaput
aaiye
deejie
vishvavid
raiding
jamaaya
emabeepeees
haiking
prophesar
madhyam
marjee
vigyaan
neeti
oonchee
daitasan
riyalitee
embient
angoot
shaktishaalee
kitaaben
marsideej
perara
chailenjars
steps
ubaal
beemaariyaan
shiping
imarajensee
pratispardha
stylai
teraabait
baaki
daaromadaar
danushka
hepetaitis
imphotemment
bakhoobee
midanait
patakhanee
skreenashot
veedeeseee
emesema8
baarsilona
sahooliyat
vishvavidyaalay
4x
daayan
e3
f3
g4
gin
laaj
nay
pun
pens
peena
qu
saim
sus
svar
tail
treet
ugalane
##diyaan
##hal
##yual
##jana
##ten
##piyo
##plas
##kaal
##son
##sas
##mar
##200
##aie
##aibal
##arbh
##akaree
##att
##atti
mele
##aany
##aaniks
##apor
kichan
##abadee
parl
haing
inebal
khich
shubh
##dhaan
##odhee
##jeei
##emon
samaar
samaapt
##aakoo
abu
lagaate
seerij
seeriyal
kaamak
##areek
gret
ekstra
plag
dhak
sarkil
##aleeph
lenge
105
selkan
##artan
dekhie
akila
##ordar
poorn
##yoolar
1460
svach
aaguaee
1286
goldan
jeetate
jeetaane
##iox
aayu
haarmon
skorpiyo
kontr
konphrens
taiping
jangal
traansalet
samajhana
aaibol
karaega
jhoot
iko
drsh
sachin
jenaphona2
baithak
##tiphikeshan
ematee6750
maalaveyar
jataayee
prosesing
baandh
sansthaan
rotee
mooveej
parivahan
mahaaraashtr
mrtyu
baareek
twittair
piksel
eksapendebal
taphapaid
sleep
phaayaraphoks
phaimilee
amolaid
beyarasto14
ideejeei
pensil
5es
bi
boo
bor
boon
hast
kshan
norm
pos
polo
tor
tain
tol
tyoob
yaahoo
##oee
##krt
##vars
##aring
##aroom
##akin
##akrai
##akreem
##atoo
##aared
##enovo
isapar
phab
phaarm
##adaata
kosm
dib
##aeetee
chn
chm
chaand
chitr
inte
bheed
bheem
khuj
prashan
jeene
aapas
##upr
##aito
upaadhyaksh
##osieshan
##ental
alchat
tarm
endee
tee720
saraphes
##harsh
##aneey
##ichk
##ujik
italee
nikaalee
aaeephons
redieshan
phaibrik
asam
vhaatsaip
##ormeshan
likhe
ooparee
methee
raajasth
haldee
maasik
ladane
je7
je5
ai4
phainal
aaraamadaayak
sangharsh
chauthee
bagair
kendrit
kleeyar
aarth
kitaabon
regyular
marsedeej
##ateekshit
narendr
myujik
g5s
kaimpas
dipholt
obj
andhere
##x1080
ikattha
indoneshiya
glookoj
ostiyo
aarm
daph
daeen
ejee
get
he
jikr
joging
kind
kaayam
nadee
navar
nfch
tebal
ving
vaak
vaiks
##rata
##uaar
##ium
##me
##akaal
##amaar
##urr
kob
kachch
kish
##aba
chaik
inaam
inakam
inov
##iti
##ekar
##aimar
prok
ekam
##amens
##haen
##aavej
##iyas
##aviyar
##roj
##eeniyam
yooke
jokh
dila
leksas
tarn
banata
denim
spa
##opo
##aara3
##eeko
philap
##haraitis
maujoodagee
bahupr
dekho
##oomi
##ijm
##igar
145
ephasee
yoonik
laipatops
khushiyaan
hedalaimp
postaped
rojagaar
maask
abhibh
chainals
kiran
karavaana
aidition
utaarane
votsaip
dastaavej
baing
aaloch
steeriyo
sangathan
1920x1080
jataee
phinishing
satah
devidasan
evenjar
garbhaashay
edamin
srot
aaisakreem
omega
vorantee
1440x2560
bujurg
eksapres
vauchar
hyundee
samaaroh
inteleej
alchatail
abhibhaav
2999
3d
4999
58
94
been
bok
eriya
fon
for
gaid
gahar
khee
kaaj
kaid
lol
rail
sukh
tyoon
udhar
ziox
##nis
##lar
##litee
##ts
##evar
##960
##52
##araanee
##inam
##alar
kek
##chak
phaund
##shal
chl
chil
##ekh
gajab
saka
##avaan
deevaan
upar
abs
##aaba
seeree
##oorti
rakam
badhaata
##eshanal
##eeke
modarn
donk
bachaata
deph
13emapee
troo
kalaak
##airs
khareedadaaree
##ooman
bharane
mini
ports
avastha
likhen
virodh
505
aankh
khula
aphavaah
antariksh
sauda
graameen
jhurr
chhodakar
##keemat
chaina
braands
##askaar
aanch
kailiphorniya
panjee
deelar
deelars
guru
resing
ultee
sambhaavanaen
haidaset
enteebaayot
kamajoree
phinalaind
vaataraprooph
abhineta
kaisee
seekhen
phutaviyar
gulaabee
kaibin
sartiphikeshan
sartiphiket
sookh
bhaavanaon
domin
shokes
tamilan
daayamand
ema9
sunahare
kaamayaab
priyanka
reemoovebal
off
haippee
sinema
haidaraabaad
monokrom
eedeejee
##apraij
jokhim
02
4a
5g
550
5ghz
7000
a3
aayog
bin
book
ded
jvel
katee
laee
riek
vdai
xb
##yaay
##tm
##goo
##vaar
##75
##36
##atenament
##oniya
keyar
##amas
##amaal
phyoo
##aden
##eting
##iyog
##ils
##phor
kaarya
##elait
emadee
anach
upavaas
##oorvak
maiken
mohit
aaee7
eksaboks
##veejan
korapor
esesadee
##oonee
haalaat
suz
deree
trak
pratiyog
bred
istamaal
vaidhata
aasamaan
klach
klastar
edreeno
svaagat
svatantr
peepee
preev
pratibandh
yoonait
redee
sunana
barlin
vidy
vijan
khule
kilo
kism
kastamaij
sambhaavit
jhel
khola
maital
dileevar
khoobiyon
rahengee
bhaageed
sandarbh
daamon
haddiyaan
inteegreted
sabsakrai
rachanaatmak
phutabol
gaharee
bhookamp
sanved
shaukeenon
dhoondhane
##ayooaee
misaal
aara7
480x800
rivyoo
sharaab
nigaraanee
kansol
sarphes
dashak
esasee77
klaimet
amazon
kaipesitee
gaajar
koopan
paushtik
satark
khujalee
ekamaatr
bahuprateekshit
eedeejeeee
vdaio
3s
5999
6gb
8emapee
96
bu
dej
daakh
eaar
gaayab
i7
kaph
koop
kaiph
meen
macha
p1
puj
paund
paig
raast
reph
s3
sud
saiph
uchh
vas
x3
##kam
##83
##aagee
##aiyaan
##aksee
##atig
##churee
phand
kabhaar
kaushal
##asaimasang
parat
##orp
##iyaana
##atach
khaam
prabh
shak
shat
sher
sakengee
jao
##aikromaiks
##othe
##avhaatsep
staibal
takaleeph
##ailitee
ent
anus
anaavaran
anadek
upasthit
milen
kahata
alph
##ipop
raksha
dengee
##istr
dosh
2030
chhil
sarvar
chalaate
korpor
##ball
sapane
opareshan
vaigan
vaibr
indi
##raiv
amooman
klab
khareedee
tatkaal
memaree
motok
11esee
pichhala
kampoj
yooneeb
probl
##akhabar
arj
minaton
249
janata
ejuk
jhap
dabaane
kholakar
julata
sekendaree
rees
khaanapaan
sundarata
baayom
phrendalee
kramashah
chautha
byootiphikeshan
wifi
ladakiyaan
yooropiyan
enjoy
pakshee
pixails
praarambh
patthar
livai
##bonn
eksatarnal
##porosis
daayamenshan
chennee
teksat
kaagaj
najadeekee
upayukt
mujhase
daishabord
chaunkaane
malteetaasking
dharatee
sachchaee
kanpharm
treetament
khichadee
kishor
09
1999
61
by
besab
dal
f1
gaay
jaayar
joojh
los
laana
mur
nan
peetar
pust
r11
restor
s1
sav
satr
ten
vaakee
zopo
##ham
##jo
##pm
##vaanee
##98
##xt
##initee
##ineshan
##ataim
kem
##yaomee
##ench
##amel
keet
##ural
##shik
##apej
##adisk
##adraiv
karaatee
karbonn
##ikan
parantu
chab
chlas
##ilar
prach
shy
shvaas
jee3
##aavik
##ara3
##rob
##eedent
pahiyon
##yooaee
nazar
sampoorn
sabjee
##imam
ghata
skaee
aasha
eksatee
storee
dhab
dhone
varun
roopaye
vayas
elarjee
ame
klip
krooj
tathy
madden
geet
143
badalakar
mano
aajam
asant
##ikaen
vidaio
meediyaapaid
##meediya
kainavaas
##yalet
laing
##rtj
masalan
kyoob
abhaav
shodhakarta
shopakl
aanv
kromabuk
kenavas
baithakar
444
daayariya
haddee
phoksave
shaimpoo
##chaarj
strot
bhoolen
khojane
inteegr
ajay
peedeeeph
sigaret
poochhen
jatil
taigar
728
sheds
deevaar
duo
apeksh
altraapiksal
nyooyaark
kaimpen
agranee
agravaal
##enshiyal
deelaraships
akhabaar
sukoon
kamphart
raashtrapati
sanchaalit
phenk
protsaahit
##amarra
karnaatak
raajasthaan
prokseem
phaundeshan
tamilanaadu
sanvedanasheel
problam
chlass
maddenajar
phoksavegan
260
5inch
71
beta
ds
dat
draigan
dabl
eaee
fz
firai
her
j7
jur
jaij
lin
lat
laas
laap
maath
polee
pachhaad
rooph
tag
tir
tri
teedee
##din
##no
##jin
##ly
##tik
##ry
##72
##eesh
##aaai
##ino
##inst
##atane
keral
sevar
kid
choo
chaimp
##tarik
khadee
shiv
shyaomee
##aadoo
bhp
steek
stets
pahana
##asep
mileg
lonchar
taral
ghabar
badhaana
spl
bebee
graund
padhana
eksa2
eksa3
##andar
chhoo
divel
utsar
maigr
bachana
##aship
laen
bike
##raich
saham
##adeh
injanon
kliyar
kolar
batae
bataega
mukti
649
pheet
lebal
144
svaabh
gailaksee
nikhaar
manush
aajaadee
yooneek
ass
vhaats
leeph
oparetar
prodekt
becheen
bandal
khulane
traansal
musee
3000mah
yaadad
kanekted
banegee
masaala
retina
paidal
aantarik
olaid
pahanana
2700
yooropeey
imphotenament
##abandee
rodhee
flip
taitan
##amparik
baangl
prastaav
nibhaane
deepika
sentrik
tyohaaree
lions
propheshanals
parivartan
edamaayar
nigam
jukaam
chaudaee
akshay
lumi
vastu
shanivaar
pashchim
viyarebal
nijaat
naveenatam
paimaane
astitv
asembal
stebalaijeshan
kareebee
drshti
kosmetik
philapakaart
aalochana
gaharaee
shopaklooj
04
330
790
a4
aup
bih
e8
hoo
if
ipad
idhar
iball
jaag
kik
lau
laiks
loded
maa
naap
nort
ora
panee
qhd
ray
ubhar
vaan
xa1
yaatr
zar
z11
##jay
##tro
##kart
##ginee
##450
##bad
##600
##zz
##eep
##andhaan
##ataap
mer
phork
##aanti
##aateen
##asaat
##asus
paramishan
cho
yaheen
##ekchar
kama
shaahar
##reek
##ayoot
jeeel
bhram
##aaviya
##dhak
staayal
##eedeedee
##eenos
milaan
##aakaat
##leyar
##ishkaar
##ima
baadha
megaap
greph
ekseenos
detaavind
jabard
esosieshan
dinachar
kharaabee
bataana
2011
kalaee
aman
roy
rochak
15000
geegaahrtj
sarvaadhik
oriyo
peeem
##ahaalaanki
##karsh
sunen
patalee
seks
paaramparik
puraskaar
2008
bilakul
##abeer
phailon
kantrolar
mausamee
udaan
kisaan
chamair
rojamarra
##aicho
jhooth
paarts
kyoo5
chomio
point
##ithi
malteemeediya
draee
heldee
ophisar
tokyo
yogyata
##asarphar
soochanaen
maraathee
aaliya
doktaron
polish
stetament
gambheerata
kadaahee
elateepeees
aartharaitis
fraiai
sartiphaid
phoolon
##bineshan
rajistard
mulaayam
mulaakaat
bartan
taajagee
dhaarana
jaasoos
jaasoosee
gandagee
lubhaane
gunagune
deeeselaar
##olojist
jaagarookata
ajeeb
khidakee
traival
ostiyoporosis
donktar
jvelaree
paigasus
raaston
motokorp
svaabhaavik
yaadadaasht
flipkart
3t
4e
haathee
i5
ky
laun
pes
pals
paayal
r7
soda
sote
ui
##haree
##jon
##thee
##400
##boo
##mail
##meg
##maartaphon
##von
##vain
##92
##88
##800
##x480
##zed
##aaratee
##amaahee
isak
##aanik
##asv
##asam
dizain
##abhee
parv
##aale
##aalon
chol
chhav
inako
##esaee
##ito
nep
ekting
sakht
##aade
##ainik
bhala
##agnishan
##otee
##eedan
##eediya
##eme
anush
##und
unn
banate
jariya
badhega
spektr
aaeed
aaeeaeetee
ranabeer
dohara
chhaan
chhamaahee
chalenge
lenee
1600
delee
apanaakar
banaegee
aaspekt
emapee2
maanak
thai
thandee
dikhate
dikhaana
shreev
1400
##apradesh
pee1
rejistent
oke
manam
vyaav
laiaicho
komedee
sunee
apadets
visheshataur
bechainee
sets
maje
siler
jedi
aadesh
2400
kshamataon
kriketar
akaunts
risar
##braaniks
1080p
ritelars
jhanj
pramoshan
nikalate
ikaiyon
help
sona
kiranon
phorch
resip
eksesareej
michro
ematee6753
##iba
steev
anokhee
eksazed
rasoee
smaartavaach
angon
darshak
premiyon
hairaanee
pokemon
bhaga
narvas
paraphor
karmachaaree
naheen
mithaee
kamyunikeshan
watair
lakadee
naakaam
krisamas
mandir
chikitsa
##haidret
rikaarding
bekaar
daravaaje
phephadon
praathamikata
maunt
dhadakan
ignis
khuraak
nayee
riekshan
pujaara
yooneebodee
besabree
jaayaroskop
restorent
divelap
paneer
yaatriyon
shaaharukh
grephait
dinacharya
##megaapiksal
2g
5x
520
baath
baap
bug
daag
e2
edee
leyar
nahee
oaeees
p10
pda
q6
ron
sd
sne
tit
tyoo
taing
vok
##ding
##oshanal
##laid
##get
##iai
##22
##arilaayans
##akaim
##amaaree
phish
##apad
seb
karoon
##anem
parish
chint
##esapee
##ortar
##orginee
##phai
khaamee
jeelaind
##aavanee
stron
##iksar
anj
##teebee
ghus
veg
skraich
##aavashy
spai
spaim
spre
moon
grast
129
123
sarapraij
##uda
esus
sapanon
elab
apanaane
senk
beejing
rakhega
klaint
onaito
dijit
notis
ilekt
maheena
eleeeeko
paasaport
sarvekshan
gharon
manga
imyoon
##ajeebee
##ekted
oparetars
glaasa3
majaak
silk
170
topik
salaad
khulakar
saabun
phailen
mix
inglish
udaas
karaegee
uthane
majaboor
jinda
mask
nikaalen
raidar
veelars
reedh
rogiyon
ahamad
neksan
vijual
chaudee
paudhon
yogy
benelee
likhakar
thandar
prasaad
kaartoon
iyaraphon
dikhae
jioph
bobar
vilen
regular
ishaara
kaiy
chamakadaar
garbhaavastha
sookhe
anumaanit
pankh
devalapars
devalapament
machchharon
ilaake
skrab
sarphing
aashchar
najadeek
entaratenament
anupaat
kandeeshanar
ghutane
membaraship
imphraared
sameeksha
santusht
ekse1
daataavind
greju
##varseshan
aarthik
objekt
daphtar
abhibhaavak
bhaageedaaree
anusandhaan
amezan
asantul
bihaar
cholor
sileriyo
jhanjhat
paraphoramens
bugaatee
pdaf
taingo
##aavashyak
onaitouchh
6pee
620
660
86
aak
aant
bak
bant
bir
bun
g6
hakee
jaaya
kana
maart
mang
naaran
oon
ocht
pit
rid
riyo
ss
s2
sok
soon
tya
tot
##naicht
##tet
##galee
##ez
##eaee
##sai
##ibr
##x720
##fps
##aage
##aagal
##airee
haiv
##aham
##alo
ke3
##che
##she
##apep
##adin
sem
kash
##iko
##asoon
##abaajee
chash
bheeg
##aphaast
khulee
pramaan
prachaar
shaast
##aadesh
##aamaany
rahaane
jeete
##aikro
##eshvar
##ajh
kaarr
##rop
##emp
##emel
deet
yooai
dilaane
##okt
##teey
##iming
banen
##idr
denee
phresh
aaeev
aaeeseesee
##deel
grip
ekson
dhaans
12999
taichh
##ankaar
achchh
selibr
##arth
elyuminiyam
trel
traayal
apanaen
##raig
##uma
amej
kold
krist
maanyata
thr
notabandee
dikhaate
orenj
pee7
imx
sanr
kombineshan
ee4
eevee
309
aarajeebee
surkh
kantr
nambaron
art
sile
teknolojeej
kone
hedalait
metailik
vyaktigat
maidam
telalaimps
sikh
eemaan
##yoonar
juta
##vensee
bainds
ghataane
vheels
kontest
adm
neksat
uthaen
nishkarsh
utaaregee
menten
garv
garam
pooja
votsep
hataaya
nov
vistrt
aaeeped
##riphaayar
durust
bengaluroo
kontekts
##rijon
gahara
dhoen
vyaapak
vyaapaaree
devalapar
kaatane
robotiks
tyohaaron
samudree
naaraaj
kamarshal
skript
gupha
dipaartament
phevar
veekend
krietiv
pyooriphaayar
amitaabh
traanjekshan
braitanes
naashte
deedeeaara3
##aastrakchar
poonam
##ianchai
nichale
tohapha
kalaakaaron
shyaam
laingvej
museebat
paayalat
naarangee
dhaansoo
2x
690
8000
91
aaph
are
bijan
gt
gpr
hak
hen
jun
jheel
jiksar
lakee
maaph
naio
raee
raund
ta
teech
taask
uk
vest
zoom
##ova
##ount
##jio
##lr
##loo
##paid
##ietar
##met
##mph
##miyon
##mhz
##vs
##vaayar
##aaee
##aachh
##akha
##ataik
##chom
##amm
##oodee
kids
##asaay
##aalt
chor
chais
chvo
hokee
##itent
##ataon
khu
prop
shaak
##gaut
jashn
phont
smok
##aavalee
##aasiya
tosh
sten
takar
anaavashyak
ungalee
##ula
##ulin
lagaam
##entain
##idai
teesee
badhe
aaeen
padhate
eksasee
204
phleks
uttaree
haalat
batt
16mp
simpal
sena
pratir
bren
sahakar
amoled
pij
onabord
ona7
vajanee
155
nots
dikhana
chaarjig
##ochk
kvaadechadee
142
badalana
paegee
umda
sanjay
chune
3080
aardar
sunaee
##aandhee
##eleedee
bolate
kantree
rikagnishan
##ooveejeee
yuv
badalaavon
slet
paanchaven
jodakar
aadarsh
##eemiya
khulega
aakarshan
saabut
kanvarseshan
suparakaar
amerikan
badhaen
paison
nikaalakar
ahankaar
chhodane
retro
256jeebee
turbo
gova
1280x720
machhal
paraphormensh
pareshaaniyaan
pharn
ringaton
349
muno
indastreej
eksa9
aimi
shikaayaten
tools
daudane
paalatoo
ghatanaon
iraada
parichaal
##mbps
solid
mahaaraaj
kamyunikeshans
injekshan
taeevaan
dokyooments
##krti
manachaahee
chaude
manjil
gaiar
ungaliyon
svachchh
ejeepeees
vaikseen
pratiyogita
esasee7731
staibalaijeshan
ejukeshan
jurm
poleemar
jabardast
chhavi
shreevaastav
risarchar
phorchyoonar
elabam
hakeekat
##aikrosopht
admirai
gprs
617
73
87
aab
ada
aseem
boom
fil
gaandhee
haad
ipl
loon
nyoon
naiv
rut
sareek
td
ur
vis
vaash
vimaan
##haaree
##jaish
##li
##tag
##tiyaan
##rs
##ras
##rast
##sub
##vaah
##vand
##71
##anna
##akiyon
##all
##amai
##amit
##shakon
karant
pariyo
paribh
##aalik
inova
##isitee
hosh
neg
##aphord
praan
rahakar
sms
bhoore
##arachar
steb
kaarbo
ema4
yooth
samaachaar
##acheen
sabaka
dist
epp
baadh
jarnal
teeyoovee
moj
jaanata
##areeb
maikros
eksis
storai
maarane
deka
taivaanee
phlor
baikalit
vazan
elap
lae
indr
sahej
##aagiyon
saamp
154
##alains
padate
phreek
ephad
pee8
peela
gailaree
aaaikt
impr
kabj
##alpik
3020
aarambh
sunate
buks
bard
barphee
shikshak
sochana
aippal
nyootr
silikon
##ubai
##ookolar
gunjaish
rakhenge
protot
kaindee
upayogita
esayooveej
saamaanon
samajhakar
antaraal
bainkon
##athaam
esa5
risk
jeena
rokathaam
ejens
chaits
phitabit
skaining
opaning
##mpl
sthaanon
4500
kromakaast
pahachaanane
utarane
reeyal
ahamiyat
##quai
khaansee
likhana
phormoola
maalish
jaanakaaron
ausatan
vyavasthit
charchit
muhaans
##aarthiyon
bure
sudhaarane
kvolitee
eksa7
sabjekt
aimui
vigyaapanon
naitro
bulet
##isko
chhuttee
sansthaanon
gadabadee
perents
tootane
baitariyon
pratidvand
pahaloo
sahayogee
tripal
upayok
##haidreshan
kriet
neelaamee
saadhe
panjaabee
chetaavanee
dhokha
elyoomeeniyam
kamyoonikeshan
aayurvedik
reetveet
pratibhaagiyon
naiw
vaikalpik
chng
chmos
dominar
kaiphe
kidanee
bijanas
pariyojana
390
4s
5pee
830
980
dai
daave
ghee
geschar
goyan
gmail
jaam
kup
kand
lakh
pil
paagal
r1
rist
r9s
sy
tree
uda
wr
x2
yang
zed
##nai
##gaat
##gulee
##iquai
##vest
##900
##akol
##atek
##atha
##ahej
##alaiph
phis
##app
##adarsh
kareena
diye
parahej
chch
chesis
ink
##ischar
hod
##itiv
##ekhanee
khit
shesh
ektar
rahit
##ayaal
##agadh
##agaanv
##avich
pahane
##yootar
yoopeeaee
kahenge
##ishee
tarang
banaayee
ghir
teev
##utubai
dengoo
megaah
badhaatee
spo
moischar
blar
displ
phrench
aao
aaengee
aaee20
##yaada
##kig
chalana
achair
##aleek
khaasee
dinar
adhig
elim
135
indiket
banaega
dekhata
##ept
hariyaana
maano
maangee
maanakon
##phonais
mukadam
##ight
peete
##aijing
aaair
##voint
jaguaar
pratibad
rangeen
santar
taimar
pataak
atom
maarshamelo
daunaloding
baraten
barasaat
likhee
diskavaree
196
baitha
2450
aphord
raajak
dheema
##khala
kaaryak
##aigyaan
kooling
uthaate
nukasaanadeh
eksapaind
lakshyon
ladaee
seeten
malteepal
oled
popyular
kontent
nishaana
vebapej
kompekt
imphormeshan
ankur
palsar
dikkaton
gaangulee
aaidal
tebalets
baayo
saavan
kahaaniyon
kahaaniyaan
buddh
kaddoo
mitsub
bhaavanaatmak
chandee
sailent
chhuttiyon
janmadin
dogunee
gadakaree
eeemayooaee
sakriyata
muskar
phaitee
riphresh
himmat
eksaparts
mt6737
aaeeemeksa3
guph
chopada
manjooree
kutte
enimeshan
naakhoonon
asthama
naashta
siddhaarth
phaiktree
laimb
maidiataik
bangaalee
aaeetyoon
broshar
susaid
normal
kindal
lolipop
phyoochar
preevyoo
sabsakraib
koope
##otherepee
pustak
aupachaar
aaeediya
vegaas
ahamadaabaad
##apepar
teechars
toshiba
pijja
parichaalan
naivig
negetiv
elapeedeedee
aaaiktaakor
goyanaka
##ekhaneey
08
340
aud
atr
aush
aich
aakal
baee
biyar
bob
baaz
daak
hind
j2
jid
laab
loop
laast
put
pyor
rr
raanee
seedee
sleek
saundar
v8
vaip
xch
yor
##kl
##uee
##uaan
##499
##ial
hail
hait
##inai
##ali
phem
##aantar
##ape
##add
##asim
##asaathee
##aald
##atavar
##aphalee
khet
khang
praikt
kamaane
shaah
ekj
ekaunt
##aarthee
##aamik
jee6
jeeaee
aapasee
bhoot
bhoon
bhatt
##ago
##leey
apamaan
apeel
##avain
##avaag
##elajee
##yood
deeel
lagen
##aabes
##aabol
disordar
ghaav
##uto
badhana
badhaayee
##janak
baarakod
kuv
bev
grh
graasiya
storm
##aidal
maare
ples
##yaadi
chhaachh
dhairy
taijan
sarason
echesapee
seling
##anghan
traind
trookolar
##epal
harakat
khareede
membar
11999
64bit
jinako
phulechadee
epha5
khilaun
rejal
ityaadi
nikale
manch
306
paarivaar
tabdeel
barn
barb
laitin
vidya
rikvest
bechana
karodon
##ubha
vidh
##abeeaee
phailaane
aautalet
aautador
halach
jeevanasaathee
##agrah
udaasee
##rtti
andaroonee
jeens
vishvas
uthaana
jhuk
haeebrid
nikaale
je3
abhiv
##rosesar
sonam
adr
3340
baithate
resistent
raahul
pareeksh
penaasonik
ektiva
512emabee
##ohal
skoolon
5000mah
kheenchee
strait
buraee
sangh
sankramit
kairiyar
sailaree
youtubai
##achhai
deepaavalee
gudagaanv
##ametal
125chch
vrat
daayare
livar
domen
smartphonai
jaie
sheet
saahas
venyoo
shrad
jimmedaariyon
varkaut
privyoo
veting
kaamayaabee
ullekhaneey
ullanghan
utsuk
utsav
lapt
##2160
epha1es
imphraastrakchar
saurabh
##bairry
ninja
rishtedaaron
vishleshan
postar
forchai
railianchai
deevaanon
uparokt
jhurriyaan
koraporet
arjun
chlassich
utsarjan
assitent
baanglaadesh
##ataapoorvak
staayalas
kantraast
nyoonatam
khitaab
adhigrah
pataakhe
mitsubishee
aakalan
saundary
khangaal
echesapeee
paarivaarik
2geegaahartj
aux
bistar
brok
daan
daad
e4
eetee
gs
goon
hm
hab
j1
jank
jaadoo
kaash
kada
laar
laakar
lahar
nol
orij
pud
raajee
ritar
rukh
tish
taist
tithi
vg
vs
x4
##hp
##a10
##obar
##tb
##tail
##sakon
##ualee
##49
##by
##bs
##buk
##mit
##vaane
##wn
##eeaee
##aaaip
haikar
##akate
##ator
ke5
##amejan
##amoto
seshan
karoonga
kireen
##asab
##abr
paramp
chad
chha
##phesabuk
prag
prom
prasan
prateek
ekt
##akeyar
##agon
##agir
##ajaane
##dhr
##otra
##uki
##avaad
stichk
##ante
##els
enajee
emadablyoo
##ogl
ansh
##aayars
hueen
kahe
kahakar
alaav
banaavat
verijon
spaich
blaast
aaee5
pheecharsis
doshee
dhul
taileey
chall
phloo
##tres
dinabhar
dono
selyular
1300
vairn
haindal
bikeen
sahavaag
bhaarateeyon
aasan
##airn
thaak
padataal
chukaane
1499
badalen
badalatee
sveedan
pee6
kampon
daalata
bhartee
3050
3jeeechajed
paaradarsh
barph
##ephe
sochata
2160
silas
slip
khushaboo
gunon
bhejata
bill
billee
vidhi
saiton
metaabol
antarr
pradarshit
4050
ganametal
roka
roket
sitaaron
1080×
kaipheen
dabaakar
vitteey
eemajee
paisenjars
ladakon
je2
kyooveejeee
chhoden
besiks
nikalana
sekands
jamakar
ostreliyaee
##venyoo
galatiyon
aandhr
sonaakshee
653
pahanakar
bhaagon
niyaamak
pravaah
sandeh
##innee
risarchars
jhatake
paristhiti
##ibilitee
munaapha
neela
gif
365
flamai
siyaam
eeko
##551
angoor
dablyooaar
##amparaagat
meethe
dikhengee
mudde
ghatanaen
pholoars
parinaamon
daval
davaen
kavars
kavach
deevaaron
iris
chandrama
pavan
nimn
##adarshan
shrrn
daravaaja
dipreshan
saindavich
ichchhuk
panjaab
suvidhaajanak
muskur
yuniquai
joote
https
sabakuchh
quad
inteleejens
suzuki
uchhaal
prabhaava
prokseemitee
laaparav
steekar
maigren
manushy
spektram
resipee
bhagavaan
baatharoom
strong
kaarravaee
propar
teeseeel
nyootral
kuposhan
aaeetyoons
rejalyooshan
ritarn
parampara
emadablyoosee
06
01
03
1es
5t
5emem
6ch
930
aans
daaya
dul
evar
e53
hang
hich
hath
hrtik
jadee
jhad
laa
m6
mant
maaphee
q7
raig
si
taad
taavar
tang
tenshan
uj
ves
vitar
waib
yur
##haan
##nair
##teen
##pit
##googal
##uvan
##wu
##86
##aaap
##aiai
##aarat
##alenovo
keyoovee
##adaba
kopar
##ikyoo
##asl
##asmaartaphon
diy
dijee
paraphaarm
ch1
chros
inchh
##photo
shamee
shumaar
shuddh
ekaag
jeeta
heem
aapatti
bhaap
##auj
##arash
##otiv
##avan
##eens
eneemiya
##emik
emishan
deehaidreshan
anda
dilaata
##enth
disebal
##tees
skel
skrol
##ipakaart
baarah
aashee
##oma
##omars
20mp
##veer
chalakar
chalaen
phlop
utt
utane
utaaree
saalagir
108
##tivai
divaison
##aston
##haron
bachaaya
chaarakol
138
apanaaya
##iphaid
senchuree
vaiphai
rakhanee
bahu
##estik
onalee
vee3
emapee3
rohan
snaan
maanasoon
motiv
thaee
##bhut
mukh
chukandar
darjan
1450
14999
##abard
sviming
peetee
nikalee
rangolee
pahunchate
komiyo
ee3
ministree
asaamaany
jena2
pataakhon
dijaining
laiting
vidiyokon
arban
jeda5
2009
bhejakar
1700
jiyophon
koshikaen
jodana
upayogakarta
kann
bitaate
edishanal
esa1
draivars
badhae
dekhenge
222
uthata
aamir
ivoomi
dabadaba
##yamantree
eksapl
khole
kholana
294
emateeke
##aachal
pakaane
insaanon
insulin
haang
vheelars
hdr
adbhut
adhyayanon
uthae
sinha
chauda
mumakin
notiphikeshans
vivaran
restar
respons
rimoov
likhate
sambhaavanaon
enteeoks
prayaason
3600
##aralaind
ooncha
dikhaega
kinaaron
typai
goloo
sootr
888
bulaaya
samajhaut
inaphinitee
bladai
deepak
kaitar
pey
##aphliks
bonev
spraid
samudaay
geegaahartaj
lekhika
grahon
chhipa
brodakaast
pattiyon
jaiz
taalamel
jobs
poketasarphar
riveejan
sunahara
chupachaap
ip68
phataaph
anupam
moovament
##afon
siddhaant
deeteeech
erar
membars
santushti
rookhee
http
prajaati
provaidar
insteetayoot
##onomas
kaamakaajee
vaaky
kiranen
enteebaayotiks
svatantrata
peepeeai
enteena
eksateeriyar
##eeshiyan
nepaal
manamut
aashchary
shaastree
kaarbohaidret
prototaip
spoilar
laimborginee
naivigeshan
orijinal
shrrnkhala
prabhaavashaalee
chross
280
2mp
560
768
9000
a8
aaye
baeen
daane
dang
demo
eed
god
gum
ha
hi
hid
haayar
jel
k5
kun
lach
namb
nakal
oeleedee
oobar
raakh
rich
roobar
s5
sph
siv
saakaar
tav
tend
tih
##agauratalab
##laar
##gs
##gor
##ghar
##51
##58
##aitar
haive
##akanee
##ahol
##aaradee
##aardar
ker
##yapr
keen
pheek
##apa
##api
karuna
kabee
##aspee
##abes
paravar
paramparaagat
chah
chit
indee
##orld
##eko
khaaya
khaatee
kaments
sakee
jeera
heels
bhand
##agaan
##aje
##ajah
##beeem
toyalet
##leet
##avaab
staaph
##upt
pahie
##yoos
##emai
emp
##akeemat
anas
anoot
sama
##achan
ups
milk
milaaya
sabakee
huaavee
tarj
seebee
seetee
ghul
baadaam
skils
##ida
mom
maikrove
eksent
prostet
##rich
dhaee
dhaara
maukon
detaabes
chalaana
koriyan
kaardiyo
kaardabord
lenaden
##ojen
##anekt
##aindar
philip
bachee
169
elaan
tre
laega
laegee
##2015
lagava
##aashee
khareedaar
otg
maanata
maanatee
##iyamit
editar
dikhaatee
lepht
bachchan
epha2
svadesh
varjans
maiss
snaipadraig
okwu
manu
imp
bharana
bharamaar
patang
patte
##hadaaree
bolakar
barat
bargar
rikavaree
samajhadaaree
haarlee
volapepar
jahaaj
1750
4000emeech
khulegee
nidhi
sthaayee
401
lainar
yaadagaar
chipaka
kisane
sambhal
##obin
uthakar
ravi
pramoshanal
banega
lakshmee
pletinam
chhodate
##ahaarik
##aacheen
##yavastha
braanded
inspaayar
prophit
kaishe
kroma
kharchon
maiksimam
aadaten
aathav
kailendar
sandisk
sephaayar
emaeeyooaee
4199
garl
##idhaan
3400
laidar
maruti
bharosemand
sambhavat
##atrel
veliditee
velentain
blaikabairee
aaipaid
yoonivarsal
prasaar
2500mah
dhaman
sajaavat
eksa20
taitoo
mitr
matailik
kaabil
##ehoon
lakshanon
vaisee
edavaansd
kuking
regyoolar
nibhaata
saty
revenyoo
shaharee
sharton
holeevud
##aingair
roosee
pankaj
kleenik
egjost
dubee
daimej
mainyuphaikcharars
trending
infin
vyastata
kamyunitee
rakhegee
nirdeshan
aarkit
aaeeemeksa2
kursee
gaardan
nipatane
masaale
dhokh
binduon
dushpr
tippanee
sarkit
elyoominiyam
xzs
neemboo
phanatach
photograaphar
chutakee
porsh
nitin
moongaphalee
angootha
laajavaab
torch
##adaataon
tarminal
kobaalt
bainganee
panjeekaran
eaarem
upasthiti
vaibreshan
inteegret
##instol
sahamati
traansaleshan
naapasand
asantulan
tyau
kashmee
jurmaana
aabaadee
ruteen
phreekvensee
adhigrahan
auxus
nolej
pragati
prasann
##oglobin
antarraashtreey
laaparavaahee
##ikyootiv
restaraan
phataaphat
roobaroo
paravarish
snaipadraigana
2teebee
5ch
5mimee
777
850
aabh
a12
aabhaar
bya
bid
dm
desee
ero
gej
gub
gupta
gehoon
id
ibe
lar
ling
moor
myoot
ov
oot
ps
pamp
porn
pvain
pvoint
rie
rash
sod
saak
sanee
sust
sors
tamb
tendar
taasking
urd
viyat
wvg
x20
y6
y1
yaar
yut
yalo
##dablyoo
##jet
##pth
##kt
##bish
##bhav
##vaakar
##wind
##850
##26
##x960
##zaree
##aioch
##ark
hais
haivee
##akyoo
##aheet
ke4
ke6
##chural
##chno
##amah
##amuch
##amaastar
pheyar
##shi
##shuda
karaayee
##aaton
##abooj
haingaut
##aalaanki
##aeel
chaan
chaart
chakr
choos
chheen
##esa
##iteshan
nevee
khone
shek
ekatr
jay
heet
aapoorti
##agair
##ajjo
##dharee
##aayas
##aapake
toks
apair
apachhai
##avi
##avet
##avaans
kaarl
kaarok
##edikal
##ailing
enivars
empl
aniyamit
aninstol
##uniya
joy
##enteshan
alj
alamaaree
##teevee
tarot
bansal
seeem
baij
skol
hamala
aaeees
##deep
kushal
##istens
intaraph
intarasep
##opi
eksajed
##ande
##riens
##riphaee
chhamp
dhun
dhvan
##veep
pheecharon
taichno
phlaim
modai
modam
1024
saplee
##ivud
mainyoo
mainyual
vikkee
selekt
opo
162
depth
136
131
achchount
##stor
sendh
paavard
trek
naamee
echadeeephasee
echadeeemai
bikee
##2010
amar
ameer
klin
##shamata
veer
khareedaaron
thin
think
156
kapan
##ijy
chukaanee
##ograaphee
bachchee
peejee
preeaardar
##aijal
##voy
eyaraport
pahunchatee
kabja
komarsh
chunate
304
taiyaariyaan
leeeko
najaren
netavarkig
rikog
haarle
aparaadh
supair
2003
segment
baithen
protektiv
vipan
jaengen
instaint
upayogakartaon
maleshiya
##treeb
taakatavar
metaalik
phaila
phailane
bitaana
saugaat
gaurav
rokata
aaaiphishal
kshatig
pramot
daba
nikaalana
andi
bason
staindabai
##kular
seeton
pyaas
pairaag
seemos
chalae
sachamuch
kodiek
romaans
romachh
vijit
deels
lojee
seekhate
leeko
mailaveyar
##daial
garbhav
ashok
bainar
velyoo
prasaaran
1998
medis
daiteeshiyan
eekomars
matai
749
##aveejeee
pikap
draivarales
paalak
taarget
shots
eksatreem
amareekee
nibhaate
gadabad
philtars
phijiy
bonas
kaarobaaree
alkohal
bhay
e7000
dresing
gatividhi
egjikyootiv
nateeje
raina
daayara
charbee
aarkiy
jeda35
barth
himaachal
koted
dyooal
threedee
taaje
540x960
manachaahe
kutton
pratispardhee
traanjaikshan
sosaayatee
tukade
ghutanon
bindu
dukaanadaar
prejident
snapdaial
maidiapad
phiet
lasair
provaid
insteetyoot
ulajhan
##aphrend
emesema89
bijee
kshanon
inakaming
seereez
##kampanee
anadekha
korporeshan
byaaj
savaaree
keetaan
vayask
north
vaanijy
phorks
unnat
jedi551
maunted
titan
chintit
kanavar
silebas
eemaanadaaree
mentenens
phevaret
display
kaaryakshamata
ankurit
baazaar
praiktis
bevajah
halachal
saalagirah
samajhaute
spraidatram
nambars
maikrovev
dushprabhaav
pvaintar
yutopi
##aiochon
kshatigrast
garbhavatee
099
3x
3tee
616
81
816
ati
aish
auto
bom
barst
deen
dreem
dyual
dainik
eee
edeeshan
gop
havaal
jaal
lch
lem
laata
liyon
laate
lojit
lubha
mch
matee
nal
naasa
pate
pool
roor
rep
rib
saan
sind
tika
tft
vim
vemo
wai
zai
zaib
##haee
##hotra
##yan
##jit
##jed
##raj
##ift
##mo
##vet
##aram
##akap
##aktar
##akaang
##atya
##atenshan
##alog
mes
##cha
##chail
##yashaalee
phed
pher
##apl
##adiyon
##adard
ser
##aati
##aatri
paros
##aeepee
chook
inakaar
hobee
hoge
##ory
##iyaar
##itor
##ilej
##phit
khara
ektres
phonabuk
##aamp
jeelaar
##aiksee
smooth
##anaship
bhooshan
bhigo
##aavaah
##olog
##auda
##aayachee
##been
##oteen
tom
apps
##jeeechajed
kaarn
enakripshan
##aitee
emigo
##iron
yook
yooeks
anav
##acht
upagrah
hond
##ull
alavid
distreeb
##teesee
tarak
seeio
gher
vev
jaanatee
hamamen
hamase
phrod
mahaas
intarnal
gretar
pheecharsisamen
eksem
badon
chhaap
chhid
chhaatee
chhoda
dhaak
##ankar
divijan
vikr
vikram
phileep
##nechar
sumit
elig
13999
apanon
rakho
bahar
##estament
dekhatee
vanadraiv
ampaayar
pig
roz
oth
memo
maany
maans
114
sire
glaimar
philmee
147
epha3
tvist
nikat
manaane
manov
##inteks
imoshan
pahunchee
sann
netaphliks
koman
letar
##909
saphaaree
##hadaayak
takaneekon
aayaat
##oostar
bechegee
##glar
ovaraheet
arti
yuvak
kampyootars
jedee
gunaa
bhejee
4000mah
salai
501
saitting
malayaal
malhotra
kanvar
sthir
raajaneeti
aai3
pradarshanee
esa2
chipak
telug
grevitee
baalakanee
kyoo6
kyooaar
julate
kaunsal
jamaana
pyaaree
ikv
ikan
ikal
jaiket
helo
300mah
karavaen
sachiv
kodak
##ideez
kontin
romaantik
maeek
phoravard
chaudharee
machaane
oktaaviya
vivek
vivaah
seekhana
150chch
##dragon
mee1
512mb
kaitig
palooshan
koching
gaanth
baayars
pedon
##praiss
oonche
signechar
bhaavon
todane
baanta
prastuti
muddon
steshanon
marsideez
senteemeetar
votaraprooph
chaild
##aphlipakaart
svaadisht
tuaan
roopee
kavita
kleenar
chunautiyaan
rainglar
maansapeshiyaan
mithak
phraansisko
iphekts
dilachaspee
pratispar
aintee
saahab
aarkaiv
##ebilitee
854x480
dyook
chont
kontaikts
pyooree
tukadon
masaalon
vastuon
dushman
chidach
sarkal
daravaajon
prejenteshan
snapdragon
##seeaeeseeaee
jhoothee
prashansa
inoveshan
dastaavejon
dephineshan
vidyaarthiyon
kemikal
aanvala
teedeeaee
ronit
maartin
ssd
distens
mukadama
laabhadaayak
jeeaeeeph
deeelene
hmd
1080×1920
heemoglobin
thaeelaind
mukhyamantree
haangakaang
tavajjo
##yapradesh
kabeer
kashmeer
urdoo
##bishd
intaraseptar
vipanan
lojitek
rooral
malayaalam
1x
2tb
3geegaahartj
5s
5see
590
7999
ait
aing
avar
ath
aiti
bash
boostar
data
eer
fai
feechar
gadh
gareeb
i3
iq
jile
kade
mag
nars
naay
naach
nxt
p2
paad
paayad
paich
paateen
rais
sf
sash
saich
t3
tap
taayars
ubh
voks
vagair
xuv
yau
ze
zyaada
##ych
##nolog
##joy
##ling
##tis
##turai
##paans
##paaaip
##raitis
##gik
##san
##ben
##vast
##wd
##was
##87
##854
##27
##aai
##arenj
##anaam
##aning
##inidh
##akaam
##ats
##athit
##aheen
##aaroo
##amer
keepaid
phle
phigar
phaijal
##apool
##adai
karj
karoongee
kaum
kawas
##asos
##asvar
##abai
##abara
##abaay
parade
chana
choorn
##ise
##isar
##etr
##estar
##iyalee
nehara
##phot
##aphree
##aphart
khaal
khis
praay
praij
praacheen
shin
shailee
ekeek
jau
##aika
##aiktr
##anav
bhr
##agai
##ateen
##dhit
##adhan
##otin
##otek
##aleva
##avej
##jeees
kaarning
pahaad
##eds
##shanuma
emajee
deek
yooem
dilait
##okol
abatak
saboot
sabamit
##ulakar
all
##alabaar
tarabooj
##tareey
bandh
banaanee
seevee
##ooto
ghode
kaamars
tee10
badham
spok
spaidar
karensee
jaanaleva
phroot
aaeeephe
aaeeseeaeeseeaee
mahesh
##istik
bevak
##akarabarg
##yarth
padhakar
eksalaiph
badalee
kvortar
dhaava
deting
saraah
doob
achtivai
esoes
101
ophish
##endroyad
maiga
##oone
##vard
bachaen
16emapee
139
##ashaah
photosh
beevee
pratinidh
##aakhand
aastreliya
kolamb
modaling
kraanti
akela
##ushee
tath
maanie
maanga
maange
maanakar
thietar
157
151
152
##eyaratel
##ordan
eds
vebasaiton
daura
darshan
##eksa1
anyatha
jaldabaajee
##1080
pahunchata
sanjee
taims
mintra
308
asah
taiyaariyon
jener
aty
visheshakar
portret
paint
painik
najariya
##aadhadee
##aadhaaran
kampyooting
likhit
##ambhav
judaav
ummeedon
inaboks
kainetik
506
sthal
sthaapan
bitaane
4070
3000emeech
dheeme
navajaat
yaadon
gandh
uthate
jhaank
haeetek
##mahatya
eematee
cheree
saphalataapoorvak
eksapeeriens
julatee
kaunasa
nikalen
nikalata
##atvitar
pairel
dragan
phaastaig
kaishales
praimium
oliv
baraabaree
song
antat
kenan
aatmahatya
neksa
kailakul
bhaagyashaalee
pravrtti
linkdin
glosee
laabhakaaree
kompitee
staars
santa
phainens
maalikon
palak
palakon
##aspati
muhim
aaidiy
neelee
strip
edaven
nonastik
bagal
##aileepaaaip
poochhane
phankshanailitee
vipin
talaashane
mudra
maigna
kaatakar
aaeeemeeaee
injeeniyaron
upaayon
chhathe
chhattees
robotik
##ayoob
shedyool
holdar
bhaavanaen
aara5
modyoolar
charanon
domestik
##aanshu
##aankshee
maijik
injin
stoodiyo
taikst
aartiphishal
pichaee
dhaaraavaah
peeke
vetan
chupake
phatane
bejaan
bejel
aksharon
pholdebal
sanchaalan
keematee
muskaan
drinks
a57
seleriyo
praathamik
dikhegee
tahalane
daill
bangaal
aaeetel
kangaaroo
maignet
sulajh
##aphrant
paytm
svaroop
kaamakaaj
boost
boonden
bokeh
maikenikal
dhabbe
jeeelasee
laung
anjaam
buniy
sokh
taichhnolog
achchhaee
kristal
arthav
khushanuma
battakh
pratirodhee
mojila
improov
teevr
megaahartj
aphordebal
aupachaarik
abhivy
##airnait
yuraik
kannad
tendulakar
tihaee
dhokhaadhadee
larning
chaandee
employ
tarotaaja
komarshiyal
alavida
tarakkee
kaitigaree
paayadaan
vagairah
zebraaniks
kawasaki
##asvaroop
sthaapana
chhatteesagadh
4es
bhag
baayab
daen
daanv
e35
e77
e55
fhd
golee
gath
hav
jip
jvaint
jakarabarg
kaaya
kukee
krodh
krop
laarj
ma
may
most
naav
need
nagar
polar
paatr
sveet
tad
tvee
taul
toorn
vaad
xt
y66
##daleek
##yul
##a9
##ni
##leks
##pro
##kmpl
##rup
##rep
##so
##sat
##bhee
##ifai
##moo
##maikromaiks
##vot
##eeta
##anoo
hailait
##inat
##akad
##akiyaan
##ahaan
##aarish
##alais
##aling
##chk
pha
karem
karent
##aatkaar
kasar
##asent
##astr
##anebal
paraam
parakh
parde
inas
##etal
##esem
##iyos
nechural
##ilm
khair
khvaah
praav
kampee
shish
eked
ekyoo
##havee
phonapaid
saathiyon
jeeele
aapamen
bhed
##oll
##ajio
##aasit
##aapr
##ots
##leen
apahol
##ukon
##eedaar
enav
##yoosee
##shans
emech
yoophor
anaar
anishchit
samp
sammel
upd
kahal
lagana
lagaata
usasen
##aajit
tark
eparachar
##imp
bandar
see2
veriphaee
spain
maikal
blash
phraee
phraink
aaee10
aaeekan
##omik
pheecharsayah
##yaratel
down
eksayoovee
##aidais
##rivai
plooto
chhapee
dhaanch
124
sarah
achai
phlo
##bart
102
chaahiye
vikdaleek
padhenh
##astor
##varaaj
1366
##ashop
##iphik
##iphit
triks
trim
pratim
pratham
bron
breks
peshaab
indeks
rakhie
banava
##raiain
##aashakti
klaid
##eptar
##iyaano
on5
kolaaj
##akshit
krip
krash
dijaay
thik
thail
##oomee
##ichs
nota4
ilaiph
ilaayachee
##akaaron
edob
padenge
glob
glaiksee
##igh
##iged
##aretar
bajaane
##rechar
intal
intail
meediyam
mangav
aaaid
imel
eyaralains
pahunchega
pahunchaata
pahunchaana
phailee
bharakam
chunakar
asur
aaratee
leep
lee2
4ghz
kantet
laiten
vidaiochon
teknikal
pleyars
kampyoot
yug
yuvaraaj
1900
jeda4
2006
20000
bhejega
ummeeden
protokol
kshama
aadity
saitelait
kandhe
aphasos
aaved
samajhaaya
esa10
esa60
ganatantr
kaaryaalay
udane
225
1080pee
ivok
kshati
laddoo
je1
anubhavee
chhodana
brauj
##aachee
teleephon
teleephoto
3120
yojanaon
mahatvaak
olar
sainadisk
655
1280x8
##ivarsitee
aavaajon
loyal
##bahoo
beniphit
phainenshiyal
480gunaa
naukar
miraral
vinam
vinir
charchaen
velanes
##ault
trenar
bigaad
828
uttarapradesh
uttaraakhand
povaraphul
##galuroo
sajag
rasaayan
maarkits
551
aaikon
pentee
taital
embes
meetha
thakkar
sainsai
airtail
ichchhaon
peris
hairat
chailenj
bonat
sookhee
saavadhaaniyaan
chandr
gatividhiyaan
altraas
chhipe
eplaayans
##bonet
nirdeshit
paishan
nimoniya
pashu
venchar
jeda9
aaitel
chennai
tarbain
##kripshan
teksachar
ema6
pachhat
phebalet
kaaailing
manachaaha
phaindar
schraiain
laibre
poonchh
reniged
kamyoonikeshans
shataraprooph
jeda11
nijata
tee860
haiparatenshan
blachkbairry
##aaraseeteesee
angoothe
jhoothe
kleeyarens
inovetiv
kheere
##istration
reeset
maathur
##aaaidee
hoobahoo
maaaidal
anushaasan
vyaavahaarik
biran
ochtavi
total
##asaayik
chvois
2048
pharneechar
vaashingatan
teeyoovee300
ephadabl
pratibaddh
santare
##aigyaanik
kuv100
davalap
hangaama
hichak
laaaileepaaaip
raigistration
ekaagrata
aapattijanak
manamutaabik
chitron
indeej
maissaingair
byaura
dmch
sodiyam
tambaakoo
aljaimar
kapannee
medisin
baharahaal
kontinental
aitam
datawind
phlevar
kaumee
arthavyavastha
baayabaik
paraamarsh
khvaahish
1280x800
5jeebee
5gb
7x
7es
890
8999
aadee
a41
baab
boy
baul
dem
dakh
droid
find
haj
i2
j5
jha
jhag
kaant
leen
m4
m8
maad
mok
maak
mast
nain
nus
num
nob
nyaay
nasl
oh
ojon
pm
pon
pch
paav
pod
paip
paayan
palon
q3
q33
raav
resar
rabar
raich
sb
sor
siks
siph
soph
suth
sootee
ti
tin
taare
vaim
vaas
voda
x9s
yas
yetee
सी
##hai
##haspati
##yat
##yaanee
##oint
##thit
##ple
##ko
##km
##geshan
##sain
##39
##320
##520
##fair
##zon
##×720
##aashan
##arv
##anot
##ond
##aarph
##alaang
kev
ke7
ketan
##enajar
##ampanee
##amobail
keede
##oole
##oost
phaur
phreej
phulee
##apaat
##ado
kop
koi
karat
karoge
kachh
aurora
##ikit
kira
parijan
parinee
chaaha
chpu
##etaree
##etrik
##esiv
##orar
##orama
##iyaabaad
##itree
nechar
##ild
##ilit
kamiyaan
shoj
shiph
shishy
shooj
sakane
javaan
##haon
phonon
##ainaasonik
bhent
bhuj
bhinn
##agam
##agoo
##ajaam
##aapach
##oting
##avy
##avaane
##avij
stend
##eedents
##anta
##eding
eng
emee
ema8
anajaane
samos
sampann
upaj
jokar
lagzaree
##aabad
epeeke
seeaar
ghan
ghoda
ghere
ghabara
upalabdhiyon
baadal
skil
skaut
skaarph
##idra
jaruree
kaamphrens
teeke
raksh
spark
blink
##helee
mahaajan
intarn
bebo
pheecharsakampanee
205
badam
badaboo
kveen
kvaant
maarjin
chhrom
chhua
dhana
phrantaphes
dekor
sarj
saraaha
##aara4
chalaee
estro
esabeeaee
##tron
##trim
104
10veen
vikaar
selakon
adhyaay
optim
164
saported
##asheel
paavarap
bris
brez
vaidh
hainds
haindalabaar
bahaane
vishisht
amg
onaskreen
ona5
kraim
krais
kraik
kraantik
krtrim
snek
geeg
thaalee
siradard
intir
intairnait
leaut
##50mah
aajama
aaeephona6
pahunchaatee
sanaskreen
chunana
302
asv
khatar
##akraapht
bolivud
tablait
portals
tekneek
##roniks
samajhe
sochakar
185
silekt
jaharee
bild
177
178
sankalp
aadaan
2499
##inkoo
mali
aavishkaar
samajhaane
bitaen
4010
mi5
otomotiv
pratishthit
chips
chipake
roken
##ghante
graaphik
eksapoj
ladaka
kyoo7
neecha
besan
##keel
anubhavon
ememes
nikalakar
jooniyar
girakar
ailyuminiyam
ikonom
insaanee
traikshan
6020
998
dakshata
##apheed
sachet
kodek
tamanna
adavaans
yootayoob
vanaplasa2
chauth
niyukt
hoteen
##emapee2
maahir
##dr3
meer
##achaarj
monosh
hatakar
mark
kheenchakar
shaadeeshuda
sidanee
##abanr
##aarthak
inphr
inphiniyam
katauti
19999
kataar
vikaasasheel
sensing
sangrah
1920×
sabsidee
makkh
optik
rekh
phankshanal
egree
golaakaar
darshaata
pikchars
ramajaan
3840
phankshans
saadhan
kortaana
310s
mudda
nibhaee
rukaavat
vaayo
sanskrti
dopahiya
rote
kiradaaron
vaatsep
vhotsaip
saaras
yooaeedee
pankhon
aiktiva
ranaveer
grahan
pattedaar
romaanchak
gaanvon
charitr
reshyo
solv
sheeshe
saahanee
kansalt
jeda50
daayalog
krista
twin
chonnaicht
##linai
piksee
ichchhaanusaar
ichchhaashakti
kampharm
stylus
masaaledaar
ematee6580
ematee6582
leedar
ghumaav
lipastik
heeng
ragad
jaayenge
chompacht
kornig
selebr
reetel
grejiya
jooton
lasatig
maignetik
tohaphe
seeenavai
##abhaarat
daayanaamik
saimpal
kaajoo
aphavaahon
panjeekrt
enteebaayotik
booking
anachaahe
budh
daakhil
korporet
praarambhik
chabaane
aanvale
split
zarie
spaiaid
mangava
grejuet
chashma
surkhiyon
junoon
##ammad
sahakarmee
machhaliyaan
filahaal
praanaayaam
lakhanoo
phisal
indiketar
raajakumaar
chandeemal
atraikt
aushadhi
seedeeeme
brokalee
paaradarshee
metaabolijm
taadaad
baarahaveen
kaitareena
bonevil
prasaarit
dhamaniyon
tyauhaaree
viyatanaam
enivarsaree
intaraphej
barthade
lchd
anaveel
phileepeens
saittings
gadhe
khisak
seeveetee
edavenchar
buniyaadee
praavadhaan
yoophoriya
sammelan
phrainkaphart
pratimaah
aaaidiyo
olaraundar
embesadar
laibreree
dakhal
paayaniyar
siphaarish
vaimmee
vodafonai
सीओ
phauran
kirae
phrantaphesing
breza
kraantikaaree
535
825
aah
ateet
bem
bedar
daav
dug
daiv
daayat
d850
dveep
fm
g9
g3
gro
gob
hyoom
iroj
jd
j3
jup
jala
kaanch
lang
mos
mint
n1
naat
naksh
niyat
naayak
p8
pail
paakar
paud
pyooj
rch
rest
raag
reeb
s60
siree
schan
saarthak
tale
t10
tonee
taaron
t720
veech
vakee
vedar
vyarth
wir
world
x5
z45
##dd
##dis
##hiya
##yaatm
##out
##odhan
##jen
##the
##rpm
##gad
##gait
##gair
##eyars
##saimasang
##balee
##bps
##vhaatsep
##01
##13
##xi
##×1280
##aaf
##aaga
##anas
##anaalee
haiad
##aksar
##akair
##ahold
##ald
mela
meve
ke9
kebee
##chl
##enem
##amil
##ammat
##amaikromaiks
##amaikrosopht
isabaar
phu
phoot
##aanyas
##apaal
##apaee
karsar
##aatan
##iku
##ikar
kist
##anelitee
##abat
##abot
paridhaan
##aaloo
chaat
chust
chagab
chaio
chaakoo
inr
inhonne
hori
##oritee
##iyaa
##iyaak
##itaijar
##phaan
##ekha
##ekhaas
##aphish
praap
praink
shaab
shim
shiyo
shreen
shang
shankar
jaoge
##aadi
##aisl
jeebh
##ateras
bhaiya
##aginat
##olik
##ateet
##ara5
##beeechapee
##otik
touchh
##leel
ste
strai
steem
strob
##jeelaind
##jeekyoo
##rokee
##eenar
##aild
##akeepar
deeene
yoo11
yoophit
anaginat
##achitr
##okiya
militree
##osistam
sabab
##tion
lagaatee
alaix
epis
##sart
##oora
ghatee
veyar
##ipeediya
tees
tee3
speenar
inchee
maikra
baarbee
thag
phraikchar
beh
eksavain
chhar
chhaaya
dhad
dhaal
126
dekhar
koral
##eekaar
esajee
##bala
echaveejeee
##ivarsh
##ala4
mobik
mobil
divaises
haalahee
selular
bachaate
adhoore
deb
##aishanebal
133
##iphaee
##stree
simakaard
senitaijar
bees
trast
trans
tramp
prativarsh
brai
bret
vairt
bahas
bahanon
teemen
##aneetik
##2016
amaunt
amigo
adhikaaron
kolam
krpa
harek
vee7
vee2
akshar
maansaah
madar
116
thom
thaink
##oomar
##bhaag
##chard
deshee
padaav
##igan
bajane
daron
##ograaph
nirmata
##ganoo
##avark
badalata
ephaee
ephish
ephechadee
maisenajar
ilektraanik
nikala
kampaikt
umas
##ajeet
komal
pets
bharen
asaadhaaran
asambhav
aaraar
suneel
pasaat
jenabuk
loking
purtag
najarie
avash
avishkaar
bechakar
189
194
supara
2007
bhejen
bilding
vindoja10
protekt
malaika
##ukhta
lainap
saump
##antran
##antrit
badhaega
720×1280
ritaayar
kisase
laiphataim
preemiyar
chamakee
rokana
kaiptar
parsan
grevee
beema
sikud
rajanee
##reement
giraph
teleegraam
ailifai
313
maite
braanding
##ektars
##oophar
2000emeech
aiaisl
asaradaar
traiktar
##aatma
olamp
brekaphaast
659
advan
adaven
kavarej
1280×720
##aints
bhaagane
gujarana
baithana
pravaasee
dhanateras
brainds
resistens
pakadakar
eksesaree
oorj
ulat
ankal
potret
parivaaron
phainain
ashleel
hataana
hataakar
hathelee
marammat
namot
2jeeechajed
dastaprooph
neenv
370
aalas
paartanars
stres
raasaayan
bhoolakar
kaaryakramon
lihaaja
katoree
kathit
sajaane
talaak
eksa10
ajink
##701
makaan
##pranaalee
mekars
5499
rekha
4800
naitfl
tyaag
jien
bachae
bachaega
aartist
bula
##iskop
korsej
thakaavat
kukar
masheenon
lautane
dogee
ruke
beeemaee
vaayu
sanvaar
motarasaikils
##silikon
kathor
kairee
kaibal
sharten
##amandal
helthakeyar
##uxai
mohammad
salekted
nakad
deevaalee
kathinaee
egjaam
eshiyaee
ektiviteej
agresiv
nahaane
phraansis
aakrti
srs
nirdeshakon
sheetal
doodala4
ainjoy
injekted
stelar
paith
daayalar
shipament
raakesh
chopars
sahajata
saadagee
dayoolakor
enimeted
chhupa
786
kooda
phaiktaree
kaanoonee
1440x2
gaajiyaabaad
heeroinon
leevarapool
chompass
yunivarsitee
ematee6735pee
phephade
protsaahan
dubaara
kangana
chutakiyon
enaalist
seeenajee
maargadarshan
vaikyoom
ungaliyaan
sanshodh
emesema8909
tailent
navaraatr
navaraatri
kachcha
inteleejent
aphavaahen
offichai
kaaryapranaalee
daakhila
anadekhee
vaiganaar
baayomedikal
vayaskon
manohar
dslr
heraath
lauta
tyooson
##laiding
##akaimara
aaeevoomee
shyaamoo
stenales
paribhaasha
##acheenee
muhaanse
upayokta
naiws
kandishan
moischaraijar
buddhimaan
ekjima
barbaad
adraino
pareekshaon
laptop
raajeev
##buks
enajeeo
manthalee
paraphaarmens
bhandaar
aarkitekchar
rielitee
y69
jedi551emel
havaale
zairo
artiga
chidachid
paadukon
##abaitaree
ekeekrt
maigajeen
photoshop
atyant
pairelal
taichhnology
tveetar
##rupaye
phaet
updatai
klaiding
nusk
parineeti
stendard
pyoojo
veechait
vakeel
chagabi
shiyomee
shanghaee
##jeekyootiv
eksavainos
dekharekh
vairtu
olampik
adavenchar
naitflix
0l
730
a2
bam
baas
baud
baaba
binnee
daas
dram
droyad
ele
eedan
full
fdd
hr
hur
haav
haaj
jp
jest
jig
jaig
jendar
jaadu
kate
kreej
kint
k18
kmph
lu
loo
loot
lom
laatee
laud
laahir
male
myoo
mishan
march
naanee
nasee
og
ois
oonee
ojeees
puk
peyar
pojit
piyaano
qual
rn
riya
raiv
rone
raf
s9
sag
soop
s41
tand
taajee
taang
ug
von
wwd
x9
yaach
yelo
yuddh
z1
##aw
##ayadi
##non
##nolojee
##lenovo
##tv
##tri
##thon
##rat
##ring
##rti
##rilaayans
##epee
##sail
##uai
##44
##410
##iet
##ies
##vatee
##vaay
##96
##76
##79
##38
##2o
##fo
##eee
##arens
##aromeetar
haiks
##inyoo
##akv
##aaro
mehar
kele
kela
##chek
##ena
##amik
##amaana
##amekar
isasen
phur
pheen
phok
phang
phaint
phleyar
phaishanebal
##shm
##adhee
##adanee
kos
##aatir
##asait
##astee
##asens
##abach
##abaaron
##aalit
##aaleen
##aeephon
cht
chir
chitt
inapheeld
##isai
##ista
##ese
bheetaree
##itej
##ilaijeshan
##philm
##aimai
khan
khaj
khaakar
praanee
prichai
shv
shud
shoon
shekhar
##aador
jee71
##aikal
smaartafon
bhiksh
bhaanti
##agat
##agun
##aavaan
##aavatee
##aasor
##dhati
##auti
##beedee
##eju
##ods
std
stol
##eedablyoo
##aile
##ailaiss
##emee
emaar
emel
ema1
##ogn
##ogo
##ogain
deesee
yoopee
samiti
##achhee
honthon
##aakrt
sabav
##tid
kahaavat
lagej
lagaayee
altee
alaayans
##aabet
dischaarj
##ishiyan
epee
banenge
banaaye
see7
seedh
ghol
ghaayal
ver
baadashaah
skech
kaamp
##uttar
##utvaakar
badhen
##aips
blaastar
raimp
aaeeaaraseeteesee
##opoj
##oppo
doch
2050
chhin
chhoone
dhaat
122
detaim
korat
korola
varzan
laanchar
##apeees
estra
modakar
baikalait
106
107
10999
roopar
roopekhaas
bachaana
##angaana
batar
sudh
elar
elgor
beeaar
braaviya
brhaspati
vair
naamon
##aaphe
lagaegee
amt
kloj
onlinai
vee6
vee20
emapeevee
##airitee
maanane
maanachitr
1100
tho
bataegee
##802
ghantee
##ichi
nota7
ilaiktr
edr
6499
kalaroes
paddhati
maarks
poorti
poorvee
glass
darja
##ochch
##avarat
##eksa2
intajaam
000emeech
badalaapur
sarvochch
peeen
rejar
aagrah
nikee
nikhar
imaarat
kampait
daalacheenee
jarooraten
vyanjan
yooniphaid
pahunchana
pahunchaate
pradoo
kabootar
laig
neta
maisejes
##abhed
koment
eevan
##aaleeraam
aayashar
karateen
##akript
probaayot
bolana
##echo
laitaning
avenjar
shikshakon
ripeyar
setelait
sochie
khaasiyaton
aroda
arbo
nyootri
slai
phaayadon
judakar
##ablai
##ablok
179
172
konph
kongres
##aude
4060
dheelee
esa20
otomeshan
koshishon
gauree
720gunaa
telangaana
udgh
kisake
rikordig
2350
chamat
##oboost
koolar
aamadanee
kaipasitee
parsanelitee
sikhaaya
dabaen
nikaalate
jebraaniks
cheharon
cherokee
##yoomar
andon
raidars
shodhon
chainalon
pakada
jamp
jammoo
pyaare
ikon
ikaiyaan
pairents
dravid
drshy
tayoomar
jutee
imejing
2000mah
##aiktas
yojanaen
ghataakar
eemels
reephar
reestor
karavaee
karavaatee
adaal
jenaphona3
##aintal
phoram
panap
deelaron
deelaks
##aabeen
gurutvaakar
madhur
##oovaar
rimaindar
kompabuk
laalach
imphiniyam
aaaitonomas
vaarshik
pharaaree
teb
ankit
bordar
3499
thandak
sentars
nova
dikkaten
aaident
poleekaar
inphormeshan
dasaveen
1990
6735
samaanata
kvolkom
vaastavikata
nidaan
karavae
daiting
vailid
##vigyaan
prerak
enjaim
darshaaya
poochhate
phutej
kairet
chadhaee
glonass
meethee
meju
chhuttiyaan
626
eksatend
sainsej
maigaapiksal
##ovair
phijit
phijiks
evolooshan
bhaut
stikar
pankhe
swift
paanv
nakadee
aara1
chhedachhaad
rainault
anuraag
anurodh
##speed
e6600
riphand
morche
bartaav
gairej
mt6753
dyoore
lakjaree
prabandhak
chikitsak
jetalee
##abalyoo
akhabaaron
durghatanaon
tukada
sairv
andhera
amazai
lapbook
deeteees
gunaguna
pashchimee
jaayega
malteetach
edajastebal
dailuxai
naixon
naixus
##x768
stanapaan
dubo
invait
khinchaav
ataichament
ummeedavaaron
daayanaasor
puneet
svachaalit
kontraast
kontraikt
dibbe
ephaseee
bujurgon
childr
jhurriyon
sookhane
suzukee
yoonaited
meenaakshee
chhilli
muralee
tenaaleeraam
prachur
dhabbon
inteegreshan
apekshaakrt
dablooveejeee
tagadee
megaapiks
kyok
anushaasit
vyaavasaayik
rasoeeghar
snepad
jiophaee
soongh
naaraajagee
##chomm
eksasee40
boomas
sareekhee
visphot
ejensiyon
ejensiyaan
pratidvandv
pratidvandvee
vaipar
phemas
##aantarit
bhoonen
vishvasaneey
shraddha
propartee
aasheesh
raakhiyaan
kerektars
anasend
dhvani
amarood
pairaaglaiding
romachhidr
lojeetek
titanium
mateeriyal
vikreta
manovaigyaanik
sannyaas
ikvip
yaugik
##ychlai
tathyon
maignetomeetar
abhivyakti
mayank
needaralaind
sarahah
penteeyam
ephadablooveejeee
suthara
parijanon
##aapachay
ghanatv
kraisalar
intiriyars
monoshok
yooaeedeeeaee
bedaroom
group
paudha
wirailaiss
shimala
bretja
advanchai
phainainshal
raasaayanik
ajinky
jaiguaar
jaaduee
kintu
lomri
pojitiv
qualchomm
wwdch
alteemet
nyootrishan
reepharbishd
gurutvaakarshan
07
2k
380
3mp
4eks
6p
aanee
aij
a77
baun
bood
baajee
dah
daind
daul
dust
drivai
eel
fachai
gaayak
gsm
hip
haaph
i20
idai
iphonais
jy
jyoo
jhar
jyot
jaaye
joll
km
kw
k7
kaiktas
look
larn
m7
moot
msm
nukee
naatak
pd
pap
papee
pukhta
qui
qvg
rd
rtr
raish
radd
syaan
solo
soy
taam
tau
tep
taark
upan
val
voo
vek
vud
v30
vachan
xpraiss
z60
कष
##hu
##haalaanki
##yakram
##nd
##oga
##joor
##lain
##lair
##tam
##tur
##taik
##ris
##raph
##raas
##ue
##vair
##62
##work
##1000
##810
##aaaim
##aiy
##aiye
##arals
##anar
hailo
##akan
##akanekt
##atin
##atiyon
##atiyaan
##ahom
##aarij
##alai
##alaava
##ami
##amal
##amukt
phaal
phing
phasal
phaastr
##aaniyon
##apaath
##appa
##adiyaan
##aatra
kasht
##asuee
diveejan
##abha
##abaad
paree
chaans
chidh
##etid
##esenel
##iyans
##ilektr
##phaayar
##phasee
kharee
khaarij
priya
proch
prateet
gaun
gavar
shil
shaash
shram
##haj
##aadamee
heeting
##aiktiv
aapada
smaartabaind
bhad
bhaamp
##eshiphikeshan
##ajing
##ateei
##otai
##avind
strom
##jeephilm
##roon
##upayog
##ants
##elaapan
##eded
enebal
ena2
##yoojan
bhaargav
##ogan
deer
yooen
yootee
yoosej
anaph
anablok
##achip
mileen
milaane
honth
##aaki
##tibal
kahoon
disch
##ishing
##teekaran
epik
##iment
seeeph
##taz
skvaayar
spir
baaren
bleech
hamale
phril
aaeem
aaeebeeem
maikrobl
##optar
grid
grens
##yaraayad
doj
storeej
208
##peepeeaee
kvesh
maara
##riais
chhud
kuchhek
dhake
##veeaar
lengee
utp
esel
esiditee
109
##tival
mobaeel
##endo
bachega
endraay
subh
suman
skreens
16000
137
vaijar
peshevar
##indi
dikhee
kalasee
kalekt
vishaile
banao
banaenge
khelon
khelakar
lagao
ameen
adhikata
##ephee
yoojaron
kronik
harbal
sistams
veeja
veeaeepee
emapee4
akelaapan
##ushk
piksala2
snaatak
maanavee
aadhyaatm
113
11bee
thiy
ghanto
nota3
nota8
##eriya
edamishan
mutthee
6400
##ijain
daren
phirane
##ochikit
paasakod
jink
teenej
svit
##aakaran
organ
peel
pee2
tvit
##vanyoo
##armee
itiyos
manaate
eyarakraapht
jagga
daalie
sandeep
##ishanal
##ishankar
rilaanyas
kombo
phaiv
bharapaee
minaral
minarals
30fps
3jee4
sunaane
vhaatsap
vhaatasep
pass
jenesis
patta
atakal
suresh
aayakar
laiteet
tekno
soche
216
tachavij
##roma
nyood
nyoojeelaind
198
jedateei
2001
khushahaal
173
175
konnaicht
salaam
sankat
instaal
tharmal
malaee
malteen
suparasport
nireek
samajhie
samajhata
raajan
lainon
bainks
aaivaree
aaiesem
aai701
saum
esa4
maatrbh
rispaans
teliph
##jaralaind
udyam
267
kastamaijd
karaenge
kaipital
jindag
ravaiya
ravishankar
masood
phiting
kyoo450
##haasik
kauntar
##uvaee
##yavasthit
chhoote
jaikee
##aivitee
imejej
prashaasan
aiar
galataph
kadamon
sekends
gujaar
aanuvan
ghatane
ghataaya
grups
kharcha
kiraaya
vidiyoj
karavaate
sachchee
koding
maiksa2
ditekt
4900
saoodee
tokan
nishaane
panch
hothon
hinsa
links
gurakha
menopoj
emaee5
angrej
kaanon
pharsh
soochanaon
mishra
phrems
prayok
marane
selsiyas
kheenche
kheenchata
kheenchate
vineeta
charchaon
maangata
rijyolooshan
nyoojapheed
munhaas
neeraj
straik
straip
strakchar
baayen
trendee
dukaanon
khojen
dhamaal
yakeenan
aimb
sandeshon
byooro
fly
sveep
sveekrti
betaab
rachana
##asikyor
pulsai
kadd
666
vyooing
naitwork
vaild
##552
apaloding
maayanon
aartikal
sairiais
phutapaath
bhaavuk
bootiyaan
8895
hansen
vartikal
##iskaunt
printaut
taiging
eksatra
dhoya
amareekan
saikadon
431
sveekaarana
perent
sanskrt
dabalyoo
doping
bloging
toote
mt65
satyaapan
revanyoo
yooesapee
dhoondhakar
roteting
##1440
misd
spashtata
5300
botam
musich
sour
soft
churaane
altraav
pattiyaan
painoraama
romaanchit
jonasan
1800mhz
mithaiyaan
##aissor
##aanjali
jee5es
monitaring
phlaits
maijoo
##adaraaj
anubandh
mt6750
plaitaphorms
dashah
kroozar
peekar
eeyaraphons
kutta
jeleebeen
m5s
prashikshit
michrosd
nipata
pvaints
raiting
ganda
shanaaka
deeteeeeke
chidiya
sauramandal
kaipesitiv
ragd
eksa555
gamale
keemata
adhikaarik
jeda17
chomput
kornar
rookhe
batore
beejon
jute
nichala
pradaataon
naixt
tee880
aivo
jeda25
samarpit
ulajh
enaalog
sanshodhan
##aringing
prashansakon
asamay
asamarth
kachche
beens
offair
koraporeshan
rachanaatmakata
chhilaka
kampojar
jhapakee
jhapakate
pattharon
daayamenshans
aajamaen
728g
draiganatrel
asembaling
megaapik
points
eksazedes
parishram
spaiakair
moonalait
jiophon
choloros
deeteka
selibret
sanrach
sanrakshan
hedalaits
machhaliyon
sareekhe
tdd
paribhaash
indradhan
bardaasht
tarangon
eliments
aaairdar
eksapaindebal
hindust
64bits
utsukata
silasila
billiyon
keyoovee100
enteeokseedents
spheshiphikeshan
treval
sambhalakar
gubb
apairturai
dhundh
sapleement
phijiyotherepee
vaanijyik
sindrom
eligent
othent
telugoo
ikanomik
ikalautee
athoritee
eeraan
p2m
sashakt
bevakooph
ophishiyalee
kolambiya
kukeej
##repist
apaholstree
sampatti
1366x768
globalee
loyaltee
intarnaship
kvaantam
1920×1080
kansaltent
ghumaavadaar
reeboot
##aholdars
praapti
stroberee
behosh
transl
sanshodhit
raftaar
shoony
rooparekha
thoyaraayad
udghaatan
adaalat
poleekaarbonet
dyoorebal
childrans
ikvipament
daindraph
mootr
quiq
soyaabeen
upanyaas
phaastraik
prochaissor
maikrobloging
atakalen
laiteetyood
nireekshan
5em
5geegaahartj
7ghz
920
9mm
a37
blee
booth
baans
byor
bisk
babal
dair
daix
ey
eest
eejee
eeshvar
e2010
fch
fun
fron
fps
gest
hyoo
heks
hila
hyun
i4
ib
joo
jil
jhon
jlr
k4
k3
koor
kaans
kanon
katar
lp
laks
m1
moo
mara
ns
nil
neet
naich
naada
oel
oob
p9
paay
pind
qlaid
qiku
rt
riy
rem
rgb
rooch
reel
span
saadiyon
sret
taan
t20
tiyaan
tikee
ubale
v2
vand
vaarm
vents
vaayal
vaade
win
x10
y7
yee
yon
yen
zch
##hch
##hoo
##hil
##yt
##yp
##yur
##yoree
##aga
##now
##oyad
##jik
##lon
##taan
##tist
##pt
##poorvak
##prosesar
##kaart
##gadh
##si
##sam
##seedee
##uya
##bro
##baaba
##iensee
##mor
##vt
##vaad
##ws
##war
##150
##x5
##fich
##araaj
##andhan
haidr
##ine
##inas
##inga
##indee
##akkat
##akisee
##atn
##ativ
##athon
##atren
##aturai
##ont
##ahant
##ahalee
ked
ketee
ke10
##entar
phaar
phos
phitar
##shas
##shaala
##apaavar
##apanee
##apatr
##aprosesar
##adars
koin
seraam
##aatro
auror
kim
##asoot
##asta
##asonee
##abaanee
##aboojh
pare
param
pardon
ch2
chay
intaz
##isa
##isakee
##etiks
##etabol
##esta
##esament
##esasee
##esareej
##iyosis
##illee
##iled
##phekchar
khojana
praarth
progain
shevar
shaitar
shushk
ekata
sakoon
##hay
##aisee
raho
jees
jeevaan
jeeyo
smaartabaay
bhaaj
##aganga
##agong
##aavas
##ajab
##aasiyon
##aasus
tovar
toda
##odon
##avo
##avail
kaarak
takara
##aaham
##antapur
##elist
##eliyan
pahanee
pahaadee
##aill
ems
emend
emakyoo
deejee
deeaares
yoosee
yoovee
anubh
anidra
samrd
##achaal
##achain
##achand
##seej
upakram
dilar
##aayah
##aayaat
##aayaamee
##aakshar
##chho
##ulas
##ulens
lagaav
##entaador
alt
##aajakal
##aajma
##aabandhan
##isheel
##teeel
see9
see1
see5
baich
##oorat
ghate
ghons
##idiyan
teeen
teezar
teeaaradee
##iteey
##iteev
##utosh
speech
inches
karenuttar
blut
aaeeotee
gresee
ekseedent
2022
##peeai
##peepeeai
kvaatro
agn
aguvaee
plaajma
chhor
dhr
dhaarm
dhaaran
dhaage
1299
12veen
taigal
taibal
saragun
chalo
##auns
##aleet
varshan
varadaan
phloting
esaaratee
saalabhar
##trai
103
mainualee
##endars
##endent
vikipeediya
bachata
bachate
bachatee
battee
bataayee
subee
opair
166
168
sakateen
eladee
elaiph
elyum
apanaana
apanaate
beebee
beepee
pratigh
braik
vai2
vairi
vaibar
naamum
indigo
indian
behataree
sahan
lagav
lagavaane
injans
vanchit
klor
pionai
##aagarm
krim
krtag
haraman
voichai
veebo
robart
akaadamee
##ophon
25mm
115
geele
thos
thyoree
##ichm
##ichromax
kapada
##eriyal
siri
mukab
vaee51
kalaraphul
padosee
glaind
##ijibal
baja
motarabaik
intan
146
phreechaarj
ephabee
svat
svetar
ord
ork
pee25
khilaane
nikhil
okshan
manha
manchan
manochikit
rangat
umang
sanyam
lai2
##eebhar
##abhoot
ee8
eeph
eebe
eebuks
eebeedee
bharate
minim
minimam
chunauti
3090
3070
805
100gb
patton
patharee
atm
atak
puree
boleen
baratee
prodak
avagat
shikaaree
bechain
laips
sochatee
218
##aadhan
500mah
arch
arun
aipl
nyooron
supara3
sthitiyaan
jedasee
##ubalee
staindalon
baithee
protekted
kainan
kainchee
jodata
sankoch
245
24999
janak
suparastaar
suparaphaast
apheyars
taakee
nigaah
bits
muaavaj
2840
##chchi
tulasee
koshishen
mausapaid
gandee
chipachip
kaaryo
udad
rikordar
rikordas
bhaashaen
koolars
koolhe
uthatee
toophaan
sikha
homaskreen
gorill
jebee
##6737
ahan
mileegraam
giraane
##onaiy
teleeven
##board
sekandaree
315
mushkilon
maiteriyal
viraas
mashakkat
pahachaana
aichho
aiichm
haani
soochit
gujare
dokyum
olvej
olavej
sainasuee
popap
utarata
mehata
hdmi
hdfch
651
333
jaanchane
gov
270
bhaagate
panne
panorama
iphonai8
sandig
hinsak
guroovaar
lotaree
vividh
paiket
pejon
leeks
pements
ulta
ijahaar
kompleks
likhaee
emaee4
imphekshan
vaarasee
tez
staaradam
ematee6795
vitaamins
3450
480×
staindards
marathon
2jee4
salaahakaar
velavet
yaataayaat
##ibuya
aalasee
munaaphe
1080x2160
khoja
paryatak
sajeshan
eksa50
ghoomate
sakengen
buddhi
roding
somaiya
aimoj
vaataramaark
kaarteks
egreement
vyooar
durga
mithaas
dikhaen
gatisheel
mp3
sign
etal
embulens
seekret
poochhata
boote
daudatee
##load
prosesara
hansane
hansana
bobee
##menteshan
aiktr
niveshakon
inaphoks
ishaaron
gussail
prastaavit
premee
premika
nibhaaya
bhookhe
khoe
khoya
sanyantr
staartaps
##overa
guds
chaill
pholovar
chamakata
mamma
revot
rotet
svaadaanusaar
sookha
plaitinam
kolejon
myjio
otomobails
ichon
chaavala
miksa2
kaimaroon
parichit
soya
aaaiparet
avasaron
parivesh
inavijibal
chhipee
chhipaane
mainyuphaikcharar
nateejon
etamos
daayeen
daayaree
hausala
baikteeriyal
jaiaip
nimantran
##intaranet
750chch
jeda10
kotala
shruti
stoodent
baahubalee
taeem
upahaaron
aashvast
aashutosh
obi
ubarane
richard
pheedabaik
chikits
chikitsakon
paandey
bailensing
intelijent
neelaam
saade
taphabuk
chhupe
reemek
aakaashaganga
##abaddh
aaitams
chidiyon
sameeksh
paathyakram
tooring
toorist
phangal
tairr
photograaphs
ninj
##olojikal
aleebaaba
holdars
prajaatiyon
prajaatiyaan
vishleshak
asembalee
solyooshans
v5s
thaharaav
sanshay
gineej
inebald
shubhakaam
poornata
baandhakar
hastaakshar
phaarmet
aarmee
kindlai
kachchee
chill
deevaanagee
dedreem
kaaryasth
sabsakraibar
rephrij
vasool
khaamiyon
mileniya
baayometrik
kemistree
##robot
manovigyaan
4444
prokseemeetar
dabloo
maathe
choohe
choohon
ghabaraane
ghabaraahat
splaish
seksan
doharaen
tyoobal
parishad
senkchuree
thandarabard
grejueshan
banta
pitaajee
selibritee
amejon
surkhiyaan
chvoyas
sahakarmiyon
tdi
stebilaijeshan
upayoktaon
ektaranal
eliment
guphaen
guphaon
sabsakraibars
aichosport
biyard
khilaune
pudeene
##asabase
promo
spaichial
spaichtrai
pee690
kamponents
silasile
emadablyoosee2015
aansoo
evarej
jhadana
vitaran
shameem
uttej
motivetar
eksaplorar
lachee
aathaven
infinity
ootakon
toksin
seeemoes
skolaraship
mainyoophaikchar
rikognishan
kanavartibal
816jee
tikaoo
mesenjar
kaarniv
ovaraheeting
chontin
aingal
voksavaigan
phroots
saraahana
pratinidhi
kailakuletar
aaidiyaapaid
sulajhaane
havaon
tadaka
ekedamee
download
thikaana
thailaind
asuraksha
mahatvaakaankshee
moka
q339
rakshaabandhan
brisben
eksapojar
jeda50kyoo
gobhee
mobikvik
debyoo
thomas
##bhaagy
purtagaal
chamakeele
giraphtaar
1440x2960
chidachidaapan
bauddh
elephasee
pukaar
pradooshit
720gunaa1280
megaapiksel
boomasaund
boodha
msm89
pdf
raishej
syaanojen
deergh
endraayaid
maanaveey
svitjaralaind
malteeneshanal
teliphoto
aanuvanshik
kaddook
naixtbit
hindustaan
bleeding
byora
tiyaanagong
##warai
keteeem
intazaar
praarthana
progainiai
shevarale
bhaajapa
emendem
emakyoobee
karenuttarapradesh
dhaarmik
taigalain
elyumeeniyam
naamumakin
pionaiair
shubhakaamana
2ke
3emapee
4aai
5a
635
7th
7jeeechajed
840
9i
940
9emem
avan
a40
born
baist
dain
dent
dregan
daanon
dauda
eb
eesh
eesee
eees
gen
gaaya
gang
gets
giree
gaadha
gathan
gupt
hem
hart
hantar
haz
jaava
jvo
jakh
jamee
jug
jada
jaiga
jaint
k6
k9
ktm
kmpl
l1
laara
latak
lalak
map
mij
mamee
mita
maada
mordan
nvid
nrt
paam
ping
padaar
paiks
p75
qr
ry
rx
rap
rapat
rona
rape
sis
singar
s30
seene
soojh
taat
taara
taun
tooth
tuj
tilt
tera
tchl
tyoomar
uhd
v4
vich
vorn
vakta
vordar
vaayas
xai
y5
yadd
zx
zuk
##yaar
##laayans
##lipop
##taveyar
##ping
##kchar
##kriy
##raate
##rna
##gon
##gra
##gadaan
##eva
##sur
##sait
##430
##470
##ms
##mas
##max
##maint
##vis
##vaalee
##63
##760
##550
##240
##x9
##zf
##qareeban
##aro
##akis
##akit
##akavar
##aha
##ahit
##aharee
##aarika
##alg
##alok
kel
##ching
##chual
##chint
##chaidais
##entiv
##amot
keej
iso
istee
phod
phro
phom
phigo
##uraasan
##aano
##aanu
##shaant
##shaatkaar
##apet
##aper
##adoo
##adast
##adaud
kochar
kotan
kach
##asai
##asis
##asank
dipl
##abait
##aberee
parip
parpal
##aeedee
chatak
chubh
chheel
inak
insap
inkaar
insart
##isis
##isaka
##etu
hog
##iyaam
##its
##phors
##pankchar
##aimy
##aphil
khal
khok
prak
pris
prakat
praanshu
shol
shau
shaadiyon
shootar
shaark
ektee
##aisa
##aisar
rahas
##ainch
##ayee
##ayon
smaj
bhoo
bhun
bhul
bhim
bhid
bhuna
bhaiyon
bhadak
bhaaloo
##agh
##agy
##eshiyar
##eshiyam
##aavane
##ingair
##adhaar
##ota
##ottaree
apaar
apolo
apleekeshan
aparachar
apoint
##iyaomee
##oding
##avaanee
##avaij
##avodaaphon
stun
##jeeriya
##roph
##roed
##aahaaree
##anth
##eliyon
pahiye
##aileksee
enadee
##aith
##aithee
##ira
##irals
##matich
deeem
ans
samm
samaksh
samagr
##aseph
##acham
upal
joint
##okr
milaana
##aayojan
##aaks
##aakaast
##chhale
lagan
##onchoo
##entag
##aabhee
##ishn
tarajee
banaie
seeo
seeies
##saree
baijing
ghaata
ghaate
ghrna
##ta4
##ta2
sky
skart
skalp
skoolee
##ipaid
##utai
denamaark
badhottaree
spon
##iyaring
jaanoo
bloh
phrik
phraid
aaeesee
aaeeyoosee
mahaab
##9983
ber
##opee
dohch
202
##anda
plelist
dhokar
dhuaan
12mp
sarog
kord
kaardiy
loge
##galar
uthen
##udd
##udr
echasee
##baru
##anektivitee
kanektiv
saplai
chaahaton
maigan
roopephee
##astol
##astreem
philos
##varya
selaphon
##arte
bachk
kharonch
batans
adhy
sushaant
16999
dey
devee
elo
##ashee
##iphai
simbal
bee12
paavaratren
trol
trakon
328
brest
##indagee
indip
##aaphesabuk
cheez
kalpan
kaliyaan
kalchar
##aakhabar
bahaana
bikhar
sahane
aasaar
klem
on7
onars
##aagon
kraun
kraapht
akaram
khareedadaar
memor
maanoo
117
111
11en
11ach
thah
tham
batao
bataenge
1511
alagaav
notaibook
deshabh
edalt
dikhaakar
thepht
pados
vebasaiten
maarkent
gleshiyar
999rupaye
##oshit
darate
daraaj
paasta
141
phulavyoo
##abarn
ephadee
org
ilektraaniks
pee9983
khilaen
pao
aagaah
aagaaj
okulas
viketakeepar
aajaad
aaaina
impairi
imaii
kampres
kampleet
daalatee
daalanee
redi
umi
##ektamee
eev
bharakar
asoos
sune
saphaayar
leejan
kulloo
##aneekaant
maarshamail
khatte
purai
##aengee
painals
vidyu
netavarks
##akhand
varshagaan
212
2150
arpit
yuphor
kampyootaron
phlipkaart
193
192
1950
slais
2004
200gb
##1200
volit
bhejate
##abloo
##ablik
paanchavaan
jiyophaee
salphar
kainekt
malt
suparb
##abeesee
apheyar
nibandh
sthalon
samajhadaar
phailing
oditor
bita
##shaomee
mahindr
kriketaron
maida
posts
##akorn
udate
udiya
udaane
231
sitaare
jhande
kaipshan
haeelait
nukasaanadaayak
sikka
homai
garmaagarm
gorila
kyoo8
rajaneekaant
##uvaan
emateeenel
gire
ailyt
pakkee
maitee
pyaara
ikosistam
draapht
##askep
imejes
vibhaajit
pahachaane
ai3
aiasy
phokasd
ghatit
dimaagee
redamee2
seemaon
saintist
utara
reeph
kodiyaak
otomaitikalee
vheelabes
adreeno
adeptar
dazz
ditektar
gopanee
kailaree
baithatee
chaup
maadhyamon
panapane
aavaajen
saataven
dhanuraasan
instoleshan
4499
gurde
jadai
jadon
madhyapradesh
rimoo
maild
beneph
belo
414
ektiveshan
midil
midarenj
meeyooaee
haidaphon
santosh
bhavish
mishigan
bording
raiachh
##aspes
moneetar
429
prayoga
mareen
vyavasaay
vaidar
maangane
rijarv
nyoojahant
chinaim
3741
stret
peedita
prasav
phrendaship
6737
aaeepeesee
sensitiv
sajaen
3630
rods
rodastar
aimail
oteee
aaikoniya
##riphirals
nongadaan
nirbharata
rachair
4850
kadr
kadar
kadavaah
bageech
mittal
gathaj
kaiset
hendasets
4699
7499
riyalatee
bhoomikaen
goliyaan
darshaatee
poochhana
jebroniks
kairoteen
chadhane
8890
your
chaalak
rels
maanasikata
aikshan
pakshon
neviget
registaan
aatmasam
shukriya
vyaapaariyon
mudakar
janme
lautana
maignee
dogune
kaathee
ruken
rukane
motarasaikilon
motarasaikilen
sansaar
periphirals
chailkon
29999
dhoondhana
rotiyaan
sookshm
aaaitomekar
holeede
tigvon
lifai
roohee
dilivar
bluai
##www
kaitegiree
lainset
kaimaraa
paraphyoom
deeveedee
##ajanak
aara9
pahaluon
duvidha
poshaak
inavestament
altraasonik
pestal
dishej
choten
living
nahaen
##enshiya
mult
night
naagarik
diphens
nirdeshon
chrait
skrin
bartanon
mt6735
chaptur
tripaathee
akelepan
5690
taalaab
810g
mairchaidais
pachane
pachaas
axis
kurta
##abolt
sakses
ematee6737tee
kaavya
maarshal
##ajarooree
esasee98
ip67
m5ch
enimal
sosaitee
klaimbar
pheelings
abhinetr
a71
##afai
gande
schout
chetan
aautaluk
ematee6572
ematee6592
phaiktar
##abooja
rubaru
sameekshakon
nekstabit
kingadam
kriyaon
klokd
aixmor
pheliyar
paushtikata
lassee
sulaj
pratibhaagee
oksaphord
ubaalakar
4x4
laajimee
nayaapan
punto
sustee
tails
jangalon
hastiyon
tainaat
chny
chitrakaaree
aarthraitis
##akaaleen
edaministreshan
lollipop
tyooning
uchhal
shatakon
kaagajon
peetarasan
aajamaane
7285
apekshaon
chaimpiyan
kliyarens
manushyon
traansaletar
jaagaran
nortan
merath
helpalain
divelapament
thandarabolt
anusandhaanakartaon
bakaaya
ridakshan
tota
chashme
aaeevoomi
krietivitee
hakadaar
taqareeban
takaraav
phleksibal
haadase
haadason
maikrosaapht
ephadabalyoo
muhaanson
jaamun
indiketars
chandeegadh
elapeedeedeeaara4
bobbair
xchovair
hailio
shaahid
##agoing
barbaadee
laptab
thaakur
kamponent
dulhan
dijeej
dijeetal
motiveshanal
peeteeaee
eksaploree
hidan
seebeeesee
ghulanasheel
svadeshee
inspaayard
garlaphrend
infinix
snaipadraigana410
aabhooshan
moorkh
saakshaatkaar
sendhamaaree
treking
klinik
veerendar
aarkiyolojee
provaidars
keetaanuon
aishvarya
bombe
distreebyooshan
vikramajeet
maeekro
pratispardh
avarodh
aitihaasik
basharte
ubhara
xuv500
##amerika
jauhar
jenereshan
kompiteeshan
bhagaane
gathiya
shishu
enaveediya
eksayoovee500
480gunaa854
mirarales
chandrashekhar
altraasaund
pachhataava
birange
hichakich
numbair
asvasth
chauthaee
inphraared
makkhan
horizon
braizz
phraansisako
k188
maleriya
phaintam
khanij
shvasan
bhikshu
##ejuet
dhaatu
##avarataijing
kampaitibal
probaayotik
slaiaik
eksatended
bhautik
sairvichai
kyokin
snepadraigan
pratidvandviyon
eelaiph
rdp
phingaprint
gavarn
shaashvatee
kveshchan
aadhyaatmik
thiyetar
maatrbhaasha
masoodon
sourchai
deeteeeeke50
sanrachana
spheshiphikeshans
biskut
hyundai
lpd
naichural
seraamik
krtagyata
manochikitsak
jebeeel
dokyuments
sandigdh
kaaryasthal
rephrijaretar
kaddookas
jaigavaar
nvidi
ryno
vordarob
yaddapi
insapiron
sholdar
apleekeshans
stunnair
tarajeeh
blohorn
roopepheechars
deshabhakti
varshagaanth
yuphori
oditoriyam
dazzlai
nongadaanganoo
kadavaahat
gathajod
aatmasammaan
ephadabalyooveejeee
1eks
1geegaahartj
2nd
335
3emem
3mimee
4i
420
460
525
610
6ghz
765
970
aiksal
aanal
aavar
a2010
bri
bhavan
baask
daid
davaee
ddis
evee
e10
ebs
ford
fingair
gaal
gaayan
ginee
gyaat
gasto
gleyar
gaavas
hw
hun
ird
irobot
jaar
jaim
jast
jaateen
kree
kaay
kank
kyool
krok
laad
lel
lim
lenth
md
mya
mate
maaya
mdr
mistree
nb
naate
naphar
nabanr
nophon
obee
orai
oma
pake
paj
pir
paab
pesar
p50
peg
p65
pachai
pitt
pista
q11
qutai
raun
rolar
reej
riz
rx10
rabad
rpm
schh
sist
sajee
saib
saada
stareey
tn
taj
tent
taalee
temp
ubala
v7
v1
vars
vog
vooch
yantr
yzf
zb
z6
जि
##dri
##htee
##yak
##aya
##naar
##nch
##noo
##nor
##jal
##jas
##jor
##jait
##laik
##lim
##taad
##rar
##gn
##gaar
##garee
##gaanv
##skop
##udee
##uvee
##uchit
##uveee
##4g
##bachk
##maar
##madh
##maata
##mair
##veyar
##vij
##vaala
##vaale
##wk
##wali
##57
##x2160
##x320
##x1440
##fit
##zai
##zik
##zanee
##eetee
##eevar
##aae
##aih
##ary
##arr
##arog
##artee
##anr
##anam
##anik
##anaak
haix
##akya
##akhee
##akata
##akalee
##akool
##akaaaim
##ating
##atok
##ahamee
##aartar
##aaratne
##aarakhand
##alle
##alist
mejar
meking
mevon
##chi
##chamaark
##yavar
##eng
##ensar
##amod
isuj
phent
phort
pheree
phisk
phikr
##ureted
##shaan
##shiyan
##shaon
##apaik
##apiks
##apiksal
##adv
##aduniya
karm
karun
karish
##aataphon
##ikshan
##ikyor
kigra
##asaid
diseej
diwali
##abil
##abase
parph
parrik
parakha
haindee
##aeet
##aeeel
##aeeem
ch5
chane
chity
ch45
ing
##etan
hovar
host
##orola
##iyanaship
##itik
neha
nels
##illa
##phanee
khaaka
khalan
khanna
praam
preed
pred
prij
praant
priyas
kamiyon
kamishn
shain
shash
shakl
shaasan
shreshth
sakat
##akesh
rahan
##ayool
##ayukt
jee9
jeephors
##aikil
##anagar
bhaatee
bhig
bhbhee
##ajon
##ajen
##ajet
##aasin
##adhaaran
##aapee
##aapal
aplaee
##odaayan
##odaijd
##avel
##avitee
##avaid
##avaana
##avaayan
stem
stamp
##adeej
##antoo
##eling
##elitee
##elens
##elaje
##eenyoo
##ediskaunt
enah
enatee
enech
enodaijd
##shanaree
##iran
deeaarel
yooaan
yooeee
anebal
sambo
sampaad
sameer
##aser
upi
upaaya
joshee
unich
dilaaya
##okom
##aayukt
hong
hongen
##aake
##oss
huma
##tial
##tihaan
lageen
lagengee
alsar
##aabdee
##teeshan
baneen
seel
seeke
seezan
baiat
ghot
veree
skot
skod
baitareem
##idam
teeesaee
aissain
yoojd
speyar
##janee
moment
moje
movai
karenyadi
blej
blyoot
hamalon
aaee3
aaeeaar
mahaapr
ranjana
beph
bevas
grai
graivitee
granth
padhata
eksan
ekseksa1
2021
kvaid
maariyo
##riaind
chhidr
mauton
taiz
taiap
taixt
sard
sarkul
##aayada
chalaakar
varn
##eekaran
##apees
utkr
estr
estan
esenshiyal
echaar
##trail
##traimai
chaahengee
chaahoonga
mains
maireen
vazanee
vikalaang
##oona
donar
donaald
selaree
selyoolar
bataakar
chaartar
sub
opashan
skreening
165
elk
elit
eleks
elovera
134
##iphin
tril
bradars
dikshanaree
indor
kalt
kalam
haindabaig
echadeeel
bikatee
dekhoge
##aneeyata
##raiad
##raiaidom
khelenge
vanatach
adhikrt
pigh
##aaghar
##akshee
##akshep
yoojaranem
krshn
krshi
haraakar
##oolon
vee9
vee1
veeeks
vee10
emapeeech
akhar
akelee
##airg
##airning
khareedenge
khareedanee
otonomas
##yong
252
maanesar
motion
madraas
geelee
thap
thaane
things
158
##charchit
kapal
jalaane
##eriyan
ediled
shreeraam
padon
padam
pheepha
chaarjars
glitar
chukaana
darane
##amented
sarvelens
ephil
epha8
sving
svaarthee
orgen
gharshan
ilektrisitee
pee20
peepal
khudara
##armiyon
paoge
##rolik
manoj
mansha
dvaar
dvesh
aaai
aaailt
imasen
imtihaan
kvaalakaaaim
plasa2
daalo
vyaakaran
rangana
pahunchakar
rediya
sanyog
##ajeee
laiphonai
ee1
phaitar
genden
ministar
chunee
chunenge
305
astr
asamee
aaradee
aaraadh
##riyars
daunap
daunataun
jenetik
pataree
lokar
oparetiv
khataron
ilektrikal
bolar
bolen
barld
aayaam
dijainars
##eches
##60mah
avval
jaeg
ripablik
socho
majja
213
##aadhaar
##aadhanon
phesataim
likai
50000
show
##ambit
phingaraprints
##taich
nyooral
silaee
200mah
jahar
judana
paanchavee
171
kona
##pals
hedafon
##graiss
salavaar
509
gayeen
##eemo
sheyaron
khulaas
prodaktas
##yalar
malik
saabhaar
aphagaan
petroliyam
dosto
samajhaana
raajasv
raajaneetik
laineks
aaiem
saumph
kriketars
dheele
dheela
navaachaar
tulanaatmak
jeevanakaal
ganje
720p
720pee
riseevar
teliv
##ugh
##agrast
##agrejuet
kismat
##aigadai
264
kastamaijeshan
koolaped
koolapiks
rokate
graamar
uthana
uthaakar
ejent
aphreekee
jhaarakhand
ivaan
kaipisitee
kaipebilitee
haeeend
##ghi
baalan
sarakaaron
stailing
masoor
maskular
vith
##3520
nikaalatee
garmaahat
##670
chomm
kholate
abhish
singing
kaunasee
gird
saaphtaveyar
ailo
pakka
##yavaanee
insentiv
##akamp
pandrah
aib
aiarth
aproov
gujhiya
dokos
doktaree
ghatatee
dimenshiya
sthaanaantarit
4550
995
pahachaanen
sportabaik
reejanal
kods
kodanem
tamaga
haardadisk
##leeket
658
maiksiko
dazain
myoojiyam
aatma
pahanate
nekses
3300mah
##aarmeshan
vijets
2750
maeejio
bhaagatee
bhaagadaud
gujaratee
800x480
nishaanee
nishkriy
pannon
praveen
oktop
##198
##19tee
paikd
jorj
vebakaim
mailaston
benchamaark
angry
kaante
kaanapur
midal
haidrolik
phoksakon
speshalist
enteevaayar
michal
phainensh
aquaris
427
42mm
zainith
##kaard
esembal
vigyap
mirara5
moolyon
maangate
nougat
gaanen
##ibishan
melen
varldavaid
munnaar
seeeeesa
baayop
baayotek
peeda
phalaish
phalasvaroop
inphot
eeyarabad
eeyararing
bigade
1996
khojate
7500
sangyaan
mediteshan
seeseeteevee
ajavaayan
sabsid
makka
aaeepod
##yogik
yoonivarsiteej
nivaasee
nivaasiyon
pentiyam
pentings
nidra
849
8499
karavaegee
kadava
shikaayaton
egjeekyootiv
vigyaapanadaataon
mitron
kaistrail
eekoboost
##aileeph
kinaara
820kyoo
goliyon
embeded
seekhee
seekval
poochhega
dablyoodee
ramesh
bootiyon
daudata
##izain
chikana
jeevit
jeevant
box
3800
bulaen
laindaskep
printed
viliyam
giphts
talaashen
432
nibhaatee
marsadeej
##umaanit
dayaal
aaeeema5
rols
diggajon
chailai
mtk
parinaamasvaroop
pratikool
mamata
phoolane
evont
eventaador
garbhadhaaran
pablish
iphektiv
roomb
aaaitomobail
538
bojhil
bhaug
shedayool
bothee
sendha
holly
pratikriyaen
528
kavi
gaadhe
iraade
chanda
vyaktiyon
aara8
soen
518
chatanee
chaturv
apekshit
ema530
rainaigadai
rivaij
choton
hormon
charam
intigr
solyushan
aatankee
dosa
riphl
riphaind
475
gairajarooree
himaal
hilaane
hilaakar
naakhush
chappal
dyootee
e5000
tantrikaon
varkashop
mandela
instraktar
pachaane
chaunka
kaaairning
choping
theems
saindaston
sukhad
##bhaarat
jeda37
chhupee
echemesaee
bejod
chetana
asthi
asthaayee
lumiya
sleevs
jaagaruk
##emabeepeees
laibs
spaarkal
beking
nelap
peeriyads
kaanoonon
m3s
ragaden
vivaadon
bigadata
paathak
samaajon
seleron
devale
devagan
spenish
tahalaka
##x71
phansane
haiparal
investament
ema350
vishlesh
z17s
##eesel
okseedent
##areeksha
boodhe
norms
torant
phab2
prashansak
vaakiph
##akaalik
dilaega
abhibhaavakon
gaidalain
kheera
kaajal
kaibinet
maikenijm
pratibandhit
vidyut
koopar
repharee
sudheer
saiphaayar
x360
khaamosh
shataabdee
kishoron
kishoraavastha
prachalit
linai
tiruvan
chaimpiyanaship
utsarjit
sahamat
baangla
laute
bhramit
kych
launchh
##800piksal
edee3520
q6a
majaakiya
udaaseen
asantulit
620jee
aanton
oongh
pitaee
soket
silebr
eemaanadaar
chorning
shaakha
battairy
aseemit
loonar
naitrojan
ristor
ristaart
pratibaddhata
##aigyaanikon
elapeedeedeeaara3
audi
daadhee
pudeena
##asabha
chadha
chaddha
anshul
paramparaon
hathiyaar
jhadane
ujj
vespa
##aaapako
##avanaplas
bahucharchit
darjanon
jeda51
enteeokseedent
pheekom
anootha
inspaayaron
aathaveen
gejets
ootak
choosane
skoliyosis
thinkapaid
aarkiyolojist
jeda3580
jeda3560
eeeeesel
gopro
saanand
vimaanon
##alogon
yookren
mahaasaagar
chhidak
pigmenteshan
maeekromaiks
khaalid
bhraant
bhrasht
draganatrel
dhaaraavaahik
dhaaraavaahikon
e555
toornament
##akadamee
karemmadh
kasarat
anishchitata
kriptan
vinamrata
davalapars
droidasarphar
findair
raichogn
phreejar
karatab
kachhua
shiphon
engree
samosa
chhromai
meeraakaast
aahat
hyooman
p8000
schannair
haiadsait
shaabaashee
esajeeem
mobilais
krpaya
maansaahaaree
ephishiensee
oorjaavaan
namotel
nuskhe
haajir
jpaig
ogamented
yaachika
haiksa
pheengar
elarjik
chamatkaar
aaidentitee
dustair
k7i
papeeta
##ilektrik
spirit
passw
jindageebhar
softwarai
eksa555elaje
indradhanush
kaansept
nilambit
roochi
vandana
phitarist
chayaapachay
##antapuram
deejeeseee
dilaruvaan
blutooth
vaee51el
aiplikeshan
teleevenchars
viraasat
aimoji
taeemeks
chikitsakeey
hazaar
jvoin
nrty
padaarpan
rapaye
isteepha
diploma
ekteevet
apointament
impairialai
maarshamailau
gopaneeyata
benephits
bhavishyavaanee
chinaimax
aara9es
chandrashekharan
lpddr3
aanalain
hw01
krokaree
materiyal
napharat
oraio
rizolyooshan
tnt
जिओ
phiskal
parphekt
parrikar
predis
sambodhit
aissaintial
blyootooth
ranjanagaanv
bevasait
aaailto
aphagaanistaan
ganjepan
enteevaayaras
vigyapti
seeeeesa2015
chaturvedee
tiruvanantapuram
karemmadhyapradesh
raichognition
090
2i
2dee
2megaapiksal
3eks
312
412
5u
6a
6see
6plas
7e
7i
735
7990
8k
8ghz
8990
8megaapiksal
9chch
9mimee
af
auj
aantee
aaadi
bod
bars
breej
baaaidee
daah
dach
daree
daana
daig
daany
deedaar
eent
eeting
f2
friaind
gup
gel
gaip
good
gaabee
ganesh
gaalon
gond
hau
haun
helee
jek
jaad
jait
jir
jiph
jum
jer
jamb
jub
jook
jaati
kro
kaksh
k10
kaast
kyoon
lot
led
loj
lyoom
loonga
loongee
ledeej
light
ms
miy
mard
matar
maapa
mhz
mistik
naan
nag
naas
nalee
nood
nason
oem
osee
odar
paap
pel
polyooshan
paiv
pochk
q4
ruj
raib
rendar
rinkoo
rinyoo
sint
s10
sonik
saagar
s31
saude
tet
tala
tvar
teedablyoo
uh
u5
uim
udee
ubhaar
vaaya
vala
vint
vilt
vaint
vaaai
wx
wow
wamm
widai
whai
xa
yi
yai
yot
yed
yojan
yamah
y27
z3
z55
##hale
##hind
##yolyooshan
##jub
##lip
##lich
##tj
##tor
##kg
##khee
##kara
##kaaron
##kuchh
##kbps
##raad
##raav
##rait
##riks
##rta
##raapt
##ruch
##gol
##ged
##ey
##evee
##eval
##sitai
##uen
##uva
##bach
##baaj
##baab
##bizain
##iro
##ifi
##my
##mr
##mai
##men
##masang
##maand
##vabar
##viz
##650
##wat
##way
##74
##81
##521
##2000
##xx
##x450
##fy
##for
##fais
##fait
##eevitee
##eephaee
##eeaaratee
##aao
##aidh
##arat
##aras
##arej
##aroop
##any
##ano
##anv
##anokiya
haim
haipee
haitek
##iniks
##inaava
##inishan
##akai
##akane
##akushee
##atakon
##atons
##ataanusaar
##atura
##onaree
##ahel
##ahuveee
##ahmaand
##aaroos
##alets
mete
meks
medhak
ke8
ke480
##cho
##chr
##chon
##chen
##yaj
##enk
##enment
##amin
##ameetar
keevard
isi
##ooja
pho
phanee
##uro
##uram
##shana
##apainaasonik
##adand
kok
kokar
kochchi
karaaree
##aatrik
kaur
aurenj
##ikhit
##ikilai
kiy
##asat
##abas
##abel
##abeen
##abaiks
##abada
##abaala
paramaan
paravaah
##aalitee
##aeesee
chaip
chenjar
chakat
chapat
chilee
chimp
chairitee
chafai
inastol
##isase
##isip
##ete
##etars
##etibal
##esus
##esalet
##iyai
##iyaalee
##iyaaron
##itakait
##ityood
##ilat
##ilis
##phaik
##phikeshan
##ekal
##ekyoo
##aimik
##aphaan
##aphlaee
khas
khep
khaabad
pra
prako
prasang
pradeep
prins
kamal
kamaana
kamatar
kamob
kamaron
shon
shoo
shaart
shel
shibuya
ekl
ekaad
sakhtee
jaga
jaoonga
##aadar
##aadheen
##aarta
##aame
##aament
##aisis
##ainchai
smar
smol
smaran
aapaatak
smaartaple
##anaj
bhat
bhaad
bhalee
##age
##agaad
##aghar
##agyon
##eshanaship
##aavan
##ajat
##aasas
##aasang
##ateey
##ateeem
##adhaara
##ejars
togal
apach
apakam
apaartament
##oday
##aval
stek
stain
stant
stiks
stre
kaaryar
kaaramekar
pahaadiyon
##ailp
##ailai
##ailli
enapee
ena3
enkripshan
enakript
##aited
##yoor
##yoosh
##shaning
##iksan
naoo
##emiya
##ement
emen
emeks
##matta
deeph
yoos
yooechadee
anap
ananon
anaphrend
##achchh
##unk
##unhonne
pheechara
dilon
##oki
##aayon
##aayanon
##aakan
abhay
hud
huvee
huami
##tieevitee
##uleshan
lagjoor
##leromeetar
alp
alava
allo
usapar
ustaad
##ishtha
bandhan
bangaluroo
seeoo
seeaee
baiai
baiyon
##ooroo
ghaat
ghodon
ghonchoo
veron
upalabadh
baadhit
skvee
skets
sketing
baitareej
##iddh
##ideted
teeka
##ortaix
rakhar
megapiksal
spal
spaee
spichai
spilit
karenk
jaaniye
bloom
hamp
hamal
hamash
thagee
aaeena
##deesee
##omakesh
mahaak
mahaz
mahatta
mahaatma
##istiks
##istaanee
intarakanekt
intaraiktiv
##opiya
##ople
graand
##aanchal
eksal
eksil
2070
prosasar
prosaser
##peee
badan
kvartee
kvaartar
##aido
maaratee
##rio
agal
agair
agyaat
plan
plaane
chhaant
chhaapa
chhaatra
dhank
dhona
dhote
12000
taijen
##ankshan
##ankhy
divaseey
phlaee
phlaiks
##eeks
uthe
estet
##ustan
echemaee
##trik
##triyal
kanektieevitee
1099
chaahoongee
maish
roopediskaunt
dinaank
##astair
##haranet
##artaijing
bachakar
kharabooja
adhoora
suh
sudhar
suhd
opas
elan
13megaapiksal
##ashaomee
##staim
simphanee
bee6
bee2
324
3299
braas
braanch
brachai
braidal
brahmaand
vaij
##indiya
cheep
maiching
echadeedee
balagam
bahoo
bahane
bahuv
bahaanon
bikana
banavaane
##2018
##raiai
##adev
khelo
lagaega
##aashaalee
amrta
on8
oniks
##aagoogal
##aagrah
kolin
kryp
harsh
haraaya
hariyaalee
dijnee
##ools
veeran
royas
##ophr
sno
othar
258
2540
11b
1199
geeta
thir
thaka
saamagr
159
##ichron
##erik
##than
edap
padm
vhel
glch
gloree
glisar
##iging
eleement
##yoolt
jinapar
jinasen
philmaaya
14enem
phulav
phulkee
sarvot
epheksa2
##oksaid
pee55
rejolooshan
khudakushee
##vandee
aagara
aaghaat
okinaava
preebuk
manip
manaana
dviteey
imalee
eyarodaayan
yooniyan
rileshanaship
kabaad
laitar
netabuk
##abhaag
komiks
eeaeees
bharanee
303
asosieshan
dyoolakor
aarasee
aarojee
##riyals
sarvising
sunavaee
vhaatasim
apadeshan
photo1
vajahon
vajahen
patron
sekret
leeeeko
kareebiyon
spesiphik
khataas
##akrt
##akranch
bolatee
bolachaal
bolabaala
barchail
kanteenyoo
##ingaraprint
laiton
aveyar
avaidh
shikshan
##akhaav
riksha
21999
18000
1850
##aadhikaar
ovarol
arm
artha
samasy
##ambe
nyooro
nyootrel
maama
silvair
slatai
slidai
slogan
##ubah
2002
200chch
200seesee
##ikals
volks
sujha
paanchon
vindoja8
kainteen
##iketed
joden
instit
khulenge
tharm
janasank
malti
suparahee
##abeeesenel
nidhan
sthaee
phailata
bith
bitae
raajesh
raajamaar
kantrols
aautagoing
##adame
esa90
risep
telagoo
##avae
kisse
229
andaragrejuet
26000
2620
2650
rokatee
rokastaar
uthega
aamantrit
kaipas
haeesilikon
kanektavitee
chahalakadamee
##ghaatmak
lamborginee
ravaana
sikhaen
sikyur
phited
eksaportar
lakshman
homavark
nikaalegee
pletalets
##6753
kyoo4
kyoo3
prabhaavakaaree
sarching
sharmishtha
kholenge
poha
296
kaunt
kaunase
girate
saaphataur
##aacha
teleenor
teleeskop
ailit
ailaicht
pakade
pakavaan
jeeteeeks
mushkilen
sada
maitriks
malteest
malteejet
pairent
motorch
draing
chhoota
juaan
juichai
##aravhaatsep
insp
##venshanal
aion
aansar
mahatvak
olimp
99mm
pahachaanate
popyoolar
4990
reepl
karavaata
haardadraiv
brekap
6500
6582
turing
turkee
dakshinee
yootopiya
aato
safai
pahanaave
339
beeesai
sinth
gujarata
800chch
800mah
panje
##quid
sande
machee
machbook
menoo
mendhak
loar
saamaanyat
yogaasan
9500
bengal
likhatee
belaaroos
emaee3
415
rajistreshanaringing
imphl
imphosis
raphoo
haidro
vaard
vaarning
pharam
tevar
##laitar
poojan
staartar
vots
poteshiyam
mishr
##atanaav
ringatons
aaraamadeh
3475
palat
aaeeoesa9
mono
snaipadrag
jhatakon
jhatapat
##raamak
bharose
kostaarika
namakeen
kheencha
kheenchana
dastaane
mirars
vinay
bainz
velyu
##paiaid
375
3700
aalekh
neeyar
##itaichh
prograams
prograaming
baayolojikal
##abandhan
##abandhak
650chch
tveets
visheshagyata
saajhedaar
360×
dukhon
bhoolane
##1536
6752
povard
katane
kathaen
paryatan
paryatakon
inteeriyars
aaeepee67
aaeepee68
darje
medal
pepsee
ghoomakar
ajavain
maiping
##anjak
makadiyon
streema8
sangeetakaar
patrikaon
patrakaaron
flaish
betiyaan
chayanika
karavaega
siyol
6660
sambhaalana
emeselaar
naita2
sigm
jee4see
arabon
matabhed
praisarenj
7420
etom
esa6es
angul
kaabare
enjel
dablyooecho
3900
prosesars
gahan
gahane
retings
bodh
kanekshans
neksasa6
388
bull
meethen
phoods
samajhaen
aiktivitee
vrddh
vrdghi
maiths
6200
gulaatee
##fiaild
939
regyul
saikolojee
saikolojist
saanson
nibhaana
smaartavocha3
hataen
sainsor
sainsuee
gadha
sveekaaren
##play
khao
125seesee
2300mhz
evaj
evieshan
pahunchaega
kaarobaariyon
tulee
plaitina
pratidvandee
byooteephaee
534
davaab
tiguaan
liquid
pratikriyaon
kaimaraas
rooteen
chandan
pavitr
egjibishan
##1600
nirdhaaran
nakaaraatmakata
rivyooj
rivaijd
ubunt
##smaartaphon
chotil
horn
enaseeepee
enaseeeeaaratee
teknolaajee
reeding
phiksad
sharabat
phaayara3
sanketon
trojan
mahaarat
srjan
##aankshaon
aatankavaad
nimaarta
kansal
pashuon
spotalait
moris
taayaron
venam
obs
dipojit
vittal
jimmedaariyaan
e57
lakava
##kript
voshing
durghatan
teknolajeej
doremon
taajjub
##333
privilej
doharaane
omichron
ajastabal
aiksident
imarj
imaraan
chongraiss
gaardans
jainee
vorning
akhil
akhtar
##aachaary
manoranjak
ipod
nipat
nipun
samarth
panjon
rijalts
koodane
indastriyal
amazfit
lumix
lapet
leeding
##aadhikaran
lubhaavane
tipahiya
heenata
poonjee
rutar
tredamaark
##chtch
voltej
heeroinen
bujh
gamalon
xz1
kasautee
sachche
baanten
baantane
tairate
dropaboks
sanvaadadaataon
008
phiroj
tee830
ema330
mahaanagar
nibhaegee
porshe
samarpan
pratibhaashaalee
bede
thaharane
ubaalen
svarg
dhakka
dhakkan
kontrekt
ematee6750tee
bichh
boole
boring
boriyat
boond
boondon
hastiyaan
poschar
taining
kobara
yoonikorn
kaajol
likhenge
laeet
anachaahee
kansolideted
satarkata
buy
repharens
khaamiyaan
opareshans
daliya
nanvabar
prachalan
apekshaen
pachhaadakar
trigar
maigreshan
nikhaarane
prodekts
maayoos
ubharate
##ayootyoob
r7s
unnati
pee1em
resipeej
titalee
ilektro
kaiyboard
aashcharya
mangaane
tyaun
##ahamaare
bheegane
phevarit
henaree
raeet
smoking
eksasee90
svachchhata
maikrosedee
sahejane
sym
systaim
tarangen
ghire
teevrata
santara
aaeeemeksa318
aupachaarikata
audyogik
##aantaran
khilauna
vishvasaneeyata
khangaalane
daadaajee
laargan
tishu
paaradarshita
billiyaan
m6s
simat
waibsitai
294ppi
lacheel
raakhiyon
richa
sivil
anoothee
huaaveee
prostetektamee
impaikt
401ppi
chipakaen
satyaapit
aaeeemeksa258
idol
ovara
haingauts
apairal
thinbook
keetaanu
imoshans
kaunsalar
kaunsaling
pratisparghaatmak
aitios
bashchek
saichur
##8783
praayojit
shinojen
pahaadon
deekshit
sanjeev
injiniyaring
sokhane
improovd
e359
jipsee
parakhane
ekyoopankchar
dhaancha
bronj
mangavaaya
aavedak
aavedakon
naukariyon
vinirmaata
ponchh
sbi
sorsej
geegaabait
tekneekal
jahareelee
jahareele
kataariya
egreegeshan
dugdh
jupitar
kebeepeees
phujeephilm
kiston
straiait
huraak
myoozik
tandur
phangas
khajaana
dochoss
korataana
edrino
jampasoot
samaanataen
phaalatoo
priyajan
enebald
anapholo
dischount
dhakel
utpeedan
munhaase
aimbiyant
dashahara
paribhaashit
othentikeshan
translator
jilon
ns200
neetiyon
spanj
ghonsala
eladeeel
orkut
prodaktivitee
govinda
buddhimatta
etalas
sameekshaadheen
tyoobales
avanatura
tujhe
vornar
bhullar
deeemaarasee
ansaaree
sponsar
phrikvensee
deyaree
vidyuteekaran
maigneeshiyam
sulajha
pratispardhaatmak
kyoolaks
myaoon
paabandee
pegaasas
karunaaratne
kamishnar
bephikr
taiz4g
akharot
aaaiil
aaraadhana
telivijan
abhishek
##akampyootar
dayaalu
chailairio
bhaugolik
himaalayan
jeda3735
vishleshakon
bhrashtaachaar
pheengaraprint
password
haunda
jaitoon
jambo
noodals
pochkait
q426
rujhaan
tvarit
uimi
vintej
viltai
vaaaiyas
wammy
yedab
y27l
##ruchf
##watchh
meteriyal
meksiko
kokaroch
##ikilaiaks
prakop
ekaadash
##aasangik
apakaming
kaaryarat
baiyond
skveej
rakharakhaav
bloomabarg
echemaeeel
krypton
veerandhan
saamagriyon
glisareen
sekretaree
barchailon
janasankhya
ailaichtrich
ubuntu
1l
1see
1mimee
1teebee
2e
2v
2plas
367
440
5tee
580
5eph
515
577
519tee
6e
6x
6mm
6inch
737
715
7mimee
8s
8mm
911
919
914
aain
aand
aikt
a11
aachaar
aaks
bb
baam
bais
bog
bent
beek
baayar
baalee
baphar
bix
dag
dalee
dare
dth
dolee
daich
dahan
ddr3
eej
e50
e12
eesha
erik
e82
eaarasee
eelait
fu
fb
f0
fir
fchch
gd
gz
gap
gaim
gog
gos
g70
hajam
iks
jiy
jaav
jeph
jigar
jvoy
jakad
jvaay
kaiv
kheer
kaayal
kings
lt
lil
lus
loch
lob
lipht
lips
ligo
maphal
moorti
mx5
monaiy
meemo
nx
nat
nen
nor
naarm
nasen
nats
out
oasis
paayar
pans
patel
paala
pisee
ppi
q8
ra
rir
ros
raana
racha
ripht
rih
ratan
r15
rmb
rshi
saas
satee
sip
sut
sanal
sooree
savaar
saapt
saaha
seena
saank
saakshee
saaf
s333
t1
tane
taav
tun
talee
thit
teg
tuv
tere
tote
teedeedee
u3
vej
vaaj
vum
vasee
vink
vaach
voophar
vendars
ws
wq
wish
what
with
wabait
xp
xpl
x400
xtraimai
yam
yaj
yup
yaun
yakrt
z900
##drai
##dolar
##hala
##ys
##yee
##a12
##not
##nos
##naiv
##netik
##naiss
##oyalet
##jaapan
##jhal
##let
##laish
##labh
##lochk
##light
##pam
##pair
##kale
##kvik
##ror
##red
##raint
##gam
##sel
##uvidha
##uchch
##bam
##baad
##bain
##bot
##band
##biyan
##baink
##ias
##ijee
##matee
##manee
##vaal
##vais
##vaaya
##viya
##viyar
##vind
##vairs
##6000
##wav
##whatsapp
##3ppi
##xl
##x18
##x600
##×2560
##eelee
##eevee
##aiait
##aishan
##aibar
##areed
##archh
##araund
##ani
##anir
haiai
hailaitar
##inj
##ini
##inaph
##iniyan
##akes
##akaana
##akaksh
##akvaar
##akanektivitee
##atent
##atum
##onin
##onda
##ahut
##aarajee
##aarambh
##alag
##alchar
##alaips
meyar
kesar
kepal
##chal
##chaee
##chebal
##yamee
##enn
##enaasonik
##amag
##aming
##amed
##amait
##amaree
##amukh
##amichromax
##amabhaag
keel
keer
keeped
##ooba
phas
phaaya
phesab
phaunt
phaikt
phikom
phleet
##urb
##aansee
##shon
##sheen
##apatee
##aples
##adr
##adamen
##adel
##adaon
koyal
sep
karie
karaay
karodee
karekshan
karmiyon
kaul
kaua
kajin
aurang
auraton
##ikoptar
kisham
##asm
##asaph
##asol
digan
diavail
##abul
paraton
parasent
##aalabh
##aalta4
chod
chul
chum
chbr
chaang
chortaix
chaacha
inaphorm
inakripshan
inatek
##isaal
##isooch
##isple
##etaid
##esan
##iyent
##iyeshan
##iyaaja
##iyograaph
##iyaaghar
##iting
##itiks
##itair
nehar
##illai
##ilona
##phin
##phiya
##ekin
##ekas
##ekta
##ekabaar
##aimars
##tarb
##aphit
##aphood
##apheyar
khae
khetee
khajaane
khaaton
khaatir
prekt
preg
praadhikaran
praasangik
kaming
kamara
kamitee
shav
shid
shanka
shakt
sheph
shev
shinai
shaatir
shaaleen
ekne
jachk
##aadhee
##aamon
##aamataur
##aamagree
##aammaar
##aisamen
rahasy
##ainfo
##ayoon
jeevee
smailee
smrti
aapshan
aapadaon
smaartaph
bhur
bhaat
bhang
bhakt
bhula
bhroon
bhindee
##eechee
##agaadee
##agiree
##eshiyan
##eshaalay
##aavaadee
##aavhaatsep
##ole
##oliya
##aasar
##aasej
##dhaanjali
##aapane
##aapoorn
##beekvik
##ejament
tops
tough
vaalo
##leetar
apk
apako
aplaayans
##aveed
##avoch
##avaadee
##avaahee
stree
stand
stoks
##jeer
##jeev
kaarp
kaarb
##roeds
takaata
##aahai
##aahik
##eedon
##eliyaan
##elasee
pahar
##eenee
##eenon
ena
enth
enkar
##aiting
##yooai
##emm
emavee
emastaar
emino
##akeeb
##ogee
##matai
dee30
deetek
yoom
anam
anant
anauns
samit
samast
samanv
samakaksh
##achen
##achup
##unais
##seev
##aareek
jeebeeoes
unm
unapar
dilaks
##okaar
milaavat
millain
##aakt
##aakaaree
##chhar
##chhat
##osp
sabane
sabha
sabuk
hui
##tishan
##tions
lagaanee
lekhan
alau
aleksa
altis
##aabahaar
distarb
##ishesh
##ishabaajee
##teesh
##teeriyal
tarkee
tarakeeb
eplaee
epayah
epagoogal
##imaane
##imeted
bank
seep
seee
seeele
##oote
ghaatee
gharav
veval
skid
skvid
skaich
skailp
baitaree3
baitareeis
##ido
##idron
jaroo
kaamayah
teer
##orts
##utu
deniyal
badhenge
spail
spoon
speks
##aipaid
megaapiksalar
##janing
maikr
moped
jaanakaree
jaanaboojh
bloks
blaidar
blochk
baate
hammair
raima4
phraind
aaeeo
aaeesh
aaeene
kusheen
##oman
##omet
mahak
##istret
intaratenament
behar
grasit
pheecharsasaimasang
##yarthee
padhon
padhaaya
eksept
storaj
209
prosaisar
badakis
##andal
##anding
maarata
maarakar
##rib
agps
plest
plaib
plaix
##yaadaatar
chhadee
chhodee
chhalaang
dhal
dhanee
dhvast
dhuen
##ankee
jabaav
achaar
vargee
varking
khaase
khaasis
divyaan
phlir
##udev
esap
esapee
eseks
esadablyoo
espaayar
##ustee
##usiv
##hatak
emeechaprosesar
1020
sapor
vikret
donet
selar
selars
selaphish
bachaatee
khare
##auraanik
adhooree
adhisooch
sugan
163
1699
elon
elasee
elavaee
eleksa
elbam
1399
13499
##asheet
##ashaastr
##iphar
##iphaayar
##iphlip
##staart
##storai
sima1
senadisk
beeel
beeyar
beebar
beest
tres
326
322
3200mah
brik
bril
braayan
braiai
bresalet
vairs
vaivaah
cheekh
kalyaan
haindamed
balaatkaar
bahaav
bahatee
vishraam
vishaakt
bikai
bikega
banaengee
banavaakar
##umph
##umbh
aask
ona8
only
kolh
kraas
kraud
vobizain
dijipaid
dijiphlip
##ooly
veesee
veeyar
veetek
roen
##basichs
aks
##ophis
##ophonai
##havaalee
##airh
##airation
snapaid
ots
##areyaratel
meme
##phony
vajr
11000
1111
thaan
thes
thake
thop
##8080
saaman
##gaahartj
kapaalabh
jalane
jalatee
jalava
notiphai
ilek
snaipab
desho
baajara
edroyad
edasens
mutaab
siraka
padana
pheeyars
pheego
glos
##igs
bajaj
daraar
jinjar
motarraad
teeno
##eksajeee
philms
philmakaar
lebar
14nm
phreel
phulke
sarvaikal
ephapeees
maisoor
maisenj
ordin
opharamejan
opharaphlipakaart
pee9
peeeph
peeechadee
pee70
pee470
peeyoosh
tekakranch
gaileks
##vanaplas
itunais
nikoteen
preeordar
mandee
##aijoo
##intan
imb
imaar
imch
eyaretal
jagamag
daalar
daalon
vyaakh
pahunchegee
sanas
netr
netaon
netrah
kombee
ee670
beechon
letin
bharega
paareek
selpheej
taimalaips
##aiksan
30gb
asuvidha
aarch
aareks
aarabeeaee
##riyaatrik
sarvises
suneet
sunaamee
100mah
jeneks
sekyoo
leej
kulla
najaara
jeetana
atal
atul
oparetaron
paarlar
pro7
purje
bards
laitv
avyavasthit
shikshit
##akhas
##akhaane
##ronaij
rikt
bechate
sochee
214
500mb
ard
arp
arabee
arora
haarane
##romaig
197
195
1960
19veen
suparav
meediyotek
silva
surakshaatmak
##ikalpeey
draig
bhejenge
paanchaveen
bilon
17999
rakhengee
jiofi
batanon
protaicht
salekshan
koshika
##point
kainsil
kainsal
jodatee
jodeedaar
vidhe
vidhaan
saitalait
khulata
khulate
riporton
riportas
kanaad
kanasol
suparahit
traansapl
traansaper
##rena
nihaar
samajhaata
dama
damp
phaile
odiya
odisee
raajap
raajama
lainen
laining
2899
2880
aaidee
esa300
otometed
diskaunts
yaaden
draivs
ganjaapan
riset
chipasait
telalait
teliskop
udyamee
##rtt
238
2390
23mp
##aigg
22000
22999
chamade
chamacham
269
268
2610
vishvabhar
vishvakap
sambhaala
##obik
aaeg
roke
##aichom
tootee
##archars
##parinaam
osmo
jhun
jholee
jhanda
aamane
ivory
kaips
haeeve
haeespeed
chaitabot
kshudr
##ghr
dabaate
##yamayee
lakshit
homapej
giyaroskop
lada
pletin
je4
jehan
##egar
rajistree
abhyarthee
298
295
basu
bastee
kameeshan
girana
raidaseph
teleek
shodhaarthiyon
3199
3150
3140
pakane
pakadee
sadupayog
sadaabahaar
jamane
emabeee
baikapainal
virodhee
drag
drdh
drsht
siteebaink
##a179
pramukhata
helikoptar
insta
##oophars
saajid
##rosis
pandit
shops
ai1
ai2o
kaaling
ivents
umradaraaj
30000
aanshik
ghataana
sevaayojan
seement
seemaen
sainik
saintro
kharche
##apheechars
pahachaanana
popakorn
saundak
utarana
400emapee2
reeseev
reestaart
haardave
adig
tanj
kenya
daya
romoo
aatiph
aatishabaajee
pahanie
maadhuree
275
2799
2736
vichaaradhaara
bhaagy
bhaagamabhaag
gujarane
baithata
niyok
niyaasin
eksaklusiv
iphonai7
aiditor
brainded
machh
441
442
gurej
##a552
menyu
loha
lohe
lovai
yogg
reskyoo
raahil
150seesee
joron
vebastor
prashnapatr
eksesibilitee
slots
##oelidee
kompit
chaahateen
likho
belj
60000
emaeetee
4170
4100mah
penadraiv
ektiveted
imphaarmeshan
phormoole
kvikar
haids
haidalaimp
pharaah
##laian
ankush
ankita
ringo
phainains
pall
palloo
##ohan
aquos
monte
monastar
hatane
seedaan
jhatak
vinim
vinigar
now
nois
novel
##atraee
bijanesamens
bainailli
##onstr
sidaan
prakriyaon
pletaphorms
chinaar
aalaava
seeeees
maapane
neeteesh
baayeen
baayolojee
650seesee
maaleetee
polit
poling
dukhad
prasaadhan
bhoolana
1991
khoje
timaix
6700
kathaon
sensetiv
dotakom
sangathit
dhamakee
gixx
loomiks
loomiyaa
sajaavatee
eksa80
prophails
aaipee68
lamhon
rassee
rasaayanon
ajab
pedal
aavashyakataanusaar
pratyaksh
pratyaaro
niss
5500
oonchaiyon
chayanakarta
nideshaalay
egreek
durbhaagy
durlabh
mitaashee
vailentain
##558
46mm
paakistaanee
820s
gole
golph
jiom
tike
enjels
poochhatee
taiksiyon
saiarchh
392
39000
draivaron
daudana
emaiyooai
kairon
jeevon
##edeez
printing
chunaavon
maithyoo
vilay
vilupt
yaatraon
inaphiniks
250nm
5799
ishk
ishyoo
masheenen
aatmanir
saikal
saansad
mudane
hatae
lautaane
injeeniyars
729
700mah
maigjeen
kaaten
marsedeez
gadhee
sanvidhaan
sveekaarate
testar
skeems
aaeedeesee
sansaadhanon
daydrai
shaukeens
grild
eenaam
toota
tootate
teleevijans
satta
bonnaiv
yooesesadee
chhathee
chhatha
2300mah
pablisitee
tuar
tuaring
sviphtakee
aaaitomotiv
##yahaan
phogalaimps
350nm
stikars
dilivareej
5200
mydri
myaammaar
kavrd
gaadhee
ichichi
miksar
kleenikal
nakul
gainairation
iraphaan
aaainar
paveliyan
chatur
chataee
churaee
rainsam
raingalar
chakkaragh
naha
sharai
machchharad
multi
resho
eplikeshans
gaison
##aankit
badalega
sanaraij
jaivee
laikop
ainviz
ainthan
kansept
riphar
kesing
beets
morning
##geegaahatrj
aspataalon
baahy
##koptar
introd
aaeeemeksa179
dashakon
obaama
ubaramoto
baaghon
tantrika
pheelding
dorsee
mandara
teksaas
ema7
dhaarak
shortakats
heyarastail
twaiait
veekalee
chontrol
chopar
bahaaduree
e910
gaarn
gaarament
steelabard
sansthaon
mujhamen
daiskt
dupleeket
jangalee
pyootar
tivaaree
##aichtor
ulloo
sooryoday
charanabaddh
chhupaaya
karansee
utsaahee
maanavata
pheeling
sinkronaij
saavadhaaneepoorvak
sch77
vainuai
asthaee
otometikalee
pholding
ghuma
ghumaakar
ghumaen
dhokhe
hospitals
dushparinaam
erina
chidiyaaghar
eksare
veriphaid
sinemaiks
viphalata
ruee
tredishanal
pashchaat
shataranj
maalikaana
gamaage
jaayake
kasooree
bigadane
bigadega
muskara
paikejing
ematee6735em
tairane
tairaakee
chikanaee
loding
tahalana
asaphalataon
gaifor
naixian
phiesta
phansa
kairektars
brows
kanghee
mesejing
sulabh
##astaartar
raamabaan
ekseeleromeetar
vee5es
oksaid
4x2
e311
ginatee
laajamee
saimson
saimmasang
tailaichom
shubham
dhakane
drshyon
bihe
aarms
vingd
##megaahartj
kobaalta4
9499
bokaih
dephinishan
gurujee
gurugraam
offairs
dediketed
phyoojan
anachek
preevilej
vidyaarthee
jhelana
amazonbasichs
khaamiyaaja
prabhu
##otherepist
vaibrent
tatkaaleen
arjit
ejukeshanal
livaihind
byomakesh
mureed
pustakon
chabaana
##ara320
phenkane
heritej
linaks
laaparavaah
tagada
tirachhee
triv
triumph
chaimpavan
steekars
pahanaen
eksa25
kikastaartar
zarur
meridiyan
jeeela552
traivaling
##asamaveyar
parvat
nepaalee
spektra
thairoed
1400emeech
watairplay
ronaald
##iaiw
anjaan
spaimars
mangae
869
birds
pramaanit
shaastreey
deetels
trelar
imx3
sikhaane
aaphis
khuphiya
shaakaahaaree
pratiraksha
yuvatee
yuvatiyaan
pharnishing
esasee7731jee
risarcharon
##amitaabh
hoshiyaar
phlorida
barpheele
pilaane
zedateeee
ghira
muskaraate
muskaraahat
aaeeemeksa386
elapeedeedeeaar
audio
putalee
pyorasel
xch90
kheton
nikalega
straitejee
shraddhaanjali
broked
laarva
laharen
laharaate
tishyoo
##byureted
prateeksha
davalapar
muskuraate
ritarns
aansuon
vestarn
##asmaartaphons
inchhais
uttam
bonevile
siddhaanton
pheekee
chahete
samaya
moments
elaantra
lagavaen
kaabiliyat
aarkitekt
torchalait
gubbaara
rashiya
ekatrit
aaeeeso
chhamponai
1024x600
thinabuk
romachhidron
emesema8916
8199
lemineshan
nalikaon
ribe
phedareshan
phedaral
seremik
distreebyootar
eligens
ikanomee
ikalau
faiaturai
doobane
asahaneey
phainensing
chaandeemal
employeej
e35ke
gathabandhan
toornaament
spainish
blashon
##aidaisk
dhaanche
dijaayara
dijaayara320
teleephonee
vinamr
vinirmaan
birangee
baaboo
m812
maadhav
nyaayaalay
sophiya
##agooglai
samose
kraikars
ikonomiks
rekhaankit
3840x2160
reetelars
budhaape
phisalane
bemisaal
jupitair
naatakon
nakshe
pailes
worldphonai
x596
shreeniv
steroyad
episod
madarabord
thainkyoo
avashoshit
parsanailitee
naiws18
jigyaas
laahiru
laahiroo
marchent
raiviaiw
##awhatsapp
phokal
emaarapee
sabavoophar
sabavoophars
seedhiyaan
verito
sudhaara
elgoridam
vyanjanon
konphigar
esa201
esa205
kaipasiteev
ikonomee
sannyaasee
needaralainds
bauntee
daulod
idaiapad
jyoti
larnig
nukeele
kauntarap
galataphahamee
prayoktaon
##asikyoritee
##552kl
altraavoyalet
asamarthata
megaapikasal
deeteka50
heksaakor
joohee
mooshak
oeleks
kedeedee
##phekcharing
jeevaanuon
altaaba
baichalar
ghategee
pratighanta
intanaral
ordars
manhage
muaavaje
chipachipe
vividhata
480×854
prosesara1
revotron
kaarnival
720gunaa1280piksal
##surfair
shauch
rahasyamayee
bhoogol
enadeee
sammilit
upalaksh
seeoeaee
phraide
##uddeen
philosaphee
bachkup
##asheeld
indipendent
khareedadaaron
aaaina7
maiteeriyal
prayogashaala
esasee9832
avarodhak
aiksalaromeetar
briged
baasketabol
gaavasakar
hunar
jastin
lelaind
raunak
zb552kl
nelsan
preedetar
prijma
bhigokar
sarkulet
utkrsht
subba
pighal
daunapement
oktopas
baayoteknolojee
oonghane
predisesar
aujaar
barsilona
daigraiai
daanyee
gupachup
heleekoptar
jiraaph
jubaan
oemajee
paiviliyan
sintabar
vainturai
whaiail
yotaaphon
chaiptar
chimpain
khasakhas
kamobesh
shaartakat
stekaholdars
streching
abhayaaran
lagjoorias
mahaakumbh
plaaneyaratel
bahuvikalpeey
thirimaane
edaptar
phulavijan
preebuking
netabuks
arthash
nyootrelitee
suparaheero
kaipasitar
sikyuritee
ailitaidaisk
olimpik
snaipadragana
360×3
anguliyon
kaabarehaidret
enjelis
imarjensee
tyaunhaaree
lacheelaapan
vinirmaataon
bixby
f05
jiyoks
naarmal
suthare
sanalait
saaptaahik
thith
vaseem
wabaitainfo
xplorai
yupix
##akvaartar
kepalar
phaunten
aurangaabaad
kishamish
digano
neharoo
prektis
pregn
dee303
millainni
vevalenth
kusheenagar
plesteshan
plaibaik
vikretaon
elavaeeeph
braiaizai
vaivaahik
snapaidraigan
ordinens
netraheen
##romaignetik
vidheyak
traansaplaant
drshtikon
gixxair
pratyaaropan
egreekalchar
aatmanirbhar
daydraiam
bonnaivillai
mydrivairs
rainsamaveyar
chakkaraghinnee
ainvizion
daisktop
gaiforchai
saimsonait
livaihindustan
020
1mm
1jeeechajed
4m
4see
467
4plas
5m
565
680
6eks
6990
7aaree
760
8eks
860
aach
ajan
aang
aare
a53
bt
bab
besh
bau
biks
bip
bus
bend
bich
baund
bons
bamp
butee
brij
bion
boojh
bvoy
dant
dra
daimp
duch
delo
dental
dts
ear
eth
evaree
erob
eeeks
fo
fp
fit
gait
galee
gaind
gros
greet
greek
gapp
gyaar
haat
hist
hetal
high
ion
ile
i10
ijar
ibairry
jaa
jaat
jata
jale
jail
jaiv
jola
jantu
jvaar
jvain
jaiksan
kb
kak
kaad
kle
kaayar
know
lb
l2
laan
lay
lid
laalee
laikt
laayee
laaha
lankaee
lailai
leechee
mb
mog
mim
mrd
moolee
mbps
nv
ning
niyar
narm
novo
naitik
naapa
naishanal
nadiyon
odh
oval
ovan
oeeem
p6
paat
pist
poch
p41
pleej
papp
pogo
pauraanik
rat
rab
raik
rum
radaar
rush
reyar
rekt
rub
rink
rug
raavat
rools
r558
sx
sarav
s11
soh
sooj
s21
t8
tem
teree
tyooshan
ukh
udhaar
vaa
veen
vul
vektar
vetar
w7
w300
w2016
warr
xm
x41
x500
y3
yad
yod
yatin
yairh
z7
zf
zip
z80
z10
z25
रस
ला
##du
##daree
##daid
##hane
##hait
##yaaj
##yord
##yukt
##a40
##ayav
##ns
##otar
##oid
##jat
##jaik
##jatan
##lik
##latee
##laava
##leshan
##lig
##tl
##too
##paas
##paavar
##pament
##ppam
##kya
##ksh
##kor
##kort
##know
##rj
##rch
##roo
##ramb
##retar
##rraitis
##ging
##gaasan
##gaileksee
##ero
##egr
##sk
##sis
##sing
##siyaan
##samain
##ujan
##460
##byoolt
##iq
##iais
##ibo
##ietiv
##maik
##mesh
##ments
##vy
##vat
##vag
##61
##626
##wag
##wittair
##world
##950
##71280
##350
##3mm
##890
##2x
##2tee
##x1920
##x1536
##fraiaidom
##zil
##zeshan
##दर
##eeth
##aaait
##aiad
##araam
##arent
##arish
##anen
##anaath
##anaav
##angee
##anoki
haiis
haiyah
##inet
##inent
##akatee
##akals
##akuchh
##akaastar
##aketu
##ato
##atal
##ataib
##onalain
##onmesh
##ahaik
##ahaj
##ahale
##ahaane
##ahasun
##aarar
##aaren
##aaraam
##aarola
##alen
##alaee
##alav
##aleen
##altee
##aleshvar
mepal
ke1
kepee
ke80
kevin
##ch4
##chur
##enal
##eniyan
##amon
##amay
##amaik
##ameen
##amos
##amahal
##amsung
##amauj
keeles
ishy
##oob
##ooga
##oopee
phaas
phav
phest
phrom
phaayat
pheeke
##uroo
##uraid
##aaniya
##aankee
##shot
##shaadee
##apata
##apaanee
##apost
##apls
##adaim
##adot
##adra
##adillee
koph
koain
koaala
kohanee
seth
sejas
karok
karaakar
karaachee
##aatree
kagaar
kile
kila
##aseen
##asard
ditar
dite
dijanee
##anel
##anetiv
##abo
##abon
##abina
##abodh
parap
paraab
paraag
paridh
parchee
paraintal
##aalak
##aalaind
##aalinee
##aalyooshan
##aeebol
chonch
chest
cher
chakh
chcht
chairee
chaiye
chvt
chaadar
inah
inalain
iname
inakript
inbyoolt
##isan
##isaid
##eteeem
##eso
##esars
hop
hos
horijon
##orik
##orgh
##iyaat
##iyolojee
##itij
##ataya
nev
##phe
##phet
##phree
##phaid
##phirai
##phainal
##phaabet
##phankshan
##ekst
##eksha
##panik
##aimee
##taranetiv
##apha
##aphanding
khaee
khag
khalab
khaanee
khayaal
praid
prajan
prabal
prakshep
kamaaya
kamaen
kamyootar
shi
shen
shail
sharan
shaphal
shisht
shubha
shiron
shroph
shamitaabh
shaalinee
##gayong
ekv
ekal
ekava
ekaant
ekyoot
ekjeekyootiv
ekta2
##aadan
##aadoon
##aadveep
##aartj
rahoon
##ainament
##ainium
##ayik
##ayakram
##ayooj
jeeja
jee32
heedar
heere
##aiktar
smaatr
aapa
aapaat
aapareting
bhaan
bhaashan
bhoora
bhujan
bhalaee
##agn
##agaree
##agij
##agosh
##ols
##olan
##olais
##olait
##ollo
##ajo
##ajor
##ajjit
##ajald
##adhaee
##aapakon
##beem
##otorola
##otonin
toon
toph
topee
tost
vaalv
apaphrant
##odeen
##ukhee
kaimaree
##avin
##avosh
stb
staip
stich
stailo
staimp
##jeeb
##jeevan
kaaryaan
kaaranav
##round
##aahaar
##eedish
##anty
##antum
##antrol
##elar
pahiya
##eenaava
##ediks
enee
enar
eneks
enkript
##aitrik
##shanik
nashe
##emaitik
##emphesabuk
##ogar
##ogareeb
dee810
yoopeees
yooeksa
keematakampanee
ann
aniy
anaboks
anareed
anjeer
samaartaphon
samuchit
##achee
##achaibook
##achche
##achetan
##unai
##seema
upamah
jeebeepeees
jeebeeriyar
unhee
unity
unraiad
unchaee
apanepan
dilaatee
milanee
##aayu
##aakon
##aakistaan
##aakampanee
##chhit
##chhang
sabamen
huve
##ulai
kahie
lagakar
lagaaye
laghu
leki
alasee
alaave
##aajar
##aajoo
##aajab
dislaik
##isha
##teeph
##teern
taraajoo
##akae
##akaen
eprechar
bangal
banaarasee
seeriya
baidam
ghana
ghaas
ghoshan
verik
baadalon
baadhaen
skop
skoop
skran
baitareeyah
baitareelenovo
endoyad
##idents
teej
tee1
teesh
tee760
##iteez
##utair
yoojas
badhengee
##aavash
sparsh
speling
##aipar
##aipod
inchabaitaree
maikap
mohare
mobeekvik
blend
blaink
blauj
dispaich
thaga
phrent
phraij
aaeeye
aaeekon
aaeeseee
aaeeris
aaeebro
aaeeaeeem
##omo
maha
mahaam
##istant
ranga
rananeetik
intaraikshan
##opt
##akaran
##akarmee
gren
graph
graib
pheecharsa1
doyal
doharee
padhie
yashar
ekseph
206
2025
bads
badahaj
kva
##aids
##ando
##andv
##andha
maars
maarval
plaana
chhap
chhata
chhips
12990
detro
taibee
taira
saranem
sarkular
dooshit
##aayade
jabong
chalengee
##aunta
korban
koraphrant
koronaree
korbyureted
##oophee
divya
divaasej
##eekand
uthee
utteern
est
esi
eseph
esavee
espekt
estron
##usb
##usets
##ooda
echaee
modane
modem
##trum
##trakshan
baikon
nayappam
10r
10w
10es
10gb
sapl
sapphirai
##tivo
##ivij
##ivedee
chaaho
##alaen
##endroid
maitar
divaisis
dinakar
vikhy
##aindal
##ainding
philar
##hartj
##haraadoon
##varg
haalaaki
donglai
selekshan
bachaee
kharraate
kharagosh
4jeeeph
nirbha
bataie
chaaro
suee
sudeep
opal
devan
devel
deharaadoon
##aishiyam
elp
elen
elop
eliph
elpha
eltis
##ashree
apanaee
##iphaing
photegr
bee1
beetee
tru
tron
trikon
trachk
tritaichh
321
bra
brel
peshe
##indair
indivij
balk
bahate
bahus
bahum
bahubh
bika
bikenge
##aneesh
##2014
##umaaree
##umandal
sahelee
lagaenge
vanapls
amee
amrt
klaun
kloth
ond
onasel
##aagrast
krsh
kroor
kritik
harj
hariyaan
haradam
harman
voyalet
veeoosee
emapee1
emapee8
routair
akad
akkee
##usht
##ophat
snooj
##aareph
bahutere
2520
25kmpl
motiyaab
thamb
thailee
##801
saamooh
1510
##yaanak
##charaijar
noton
notiphaee
iliyaana
snaipar
snaipadee
baajoo
eded
edablyoo
edeptar
edavarataijing
dikhaanee
geegaahatar
kalard
therepist
padhee
padengee
pheevar
pheemel
roopeis
maarkar
maarking
maarkande
glen
gloo
glaid
gladi
chukaakar
9990
##igareshan
maheeno
##enja
bajata
bajaana
aanevaala
darsha
phirate
paasabuk
speedamaastar
jineva
cheentiyon
intair
legen
badalava
aadhaarabhoot
##aprat
##aprad
svaan
sveedish
shaamalee
##aakarshak
maisajing
oral
opharis
peet
peelee
peeoes
pee15
pee77
khilaana
rejolyoo
rejistens
rejyolyooshan
yooesabee2
dhyaanapoor
##armeshan
okeenaava
##intair
dvandv
dvivedee
imen
impals
kampr
kampaartament
kampaleet
kampeniyan
eyaralain
jagaane
daalega
jarooratamand
vyaas
##105
rango
pahunchenge
rileks
rilaiks
kabool
##authee
maisejavhaatsep
##abhaasha
koma
ee7
eeyoo
eegal
ee35
eeoes
ee2o
bharata
taimpard
minis
chunnee
3030
3jee7
asaahee
asankhy
806
dyoolasim
aarya
aarabeesee
sunn
suntaik
sundaree
1008
100es
pasar
jenayooaee
lokesh
kult
##ensiv
atoot
kareeban
spesej
daunalods
nokiyaa
probook
puraat
purifi
bukamaark
baras
baratan
barason
baratane
portas
##ephaee
aayega
aayodeen
##echatee
glaasa4
painel
avish
aveted
avench
avadhaar
avachetan
phingarapr
##rona
##ronichs
bechata
laipakeyar
laipataib
ripor
sochenge
21000
182
ovaraal
ovaralod
ovarakl
500jeebee
500chch
500seesee
aramaan
aravind
diskavar
diskanekt
haarman
nyoor
1925
1958
opshanal
silekshan
silikan
jedes
slaaait
200jeebee
##121
##128
tareekaa
gemin
gemars
##ooks
jaheer
judenge
bhejatee
bhejanee
paanchava
paanchave
biling
bildar
176
baitsamain
konon
dooradarshan
dooradaraaj
##paling
spesiphikeshanis
bandhee
protektar
kshamat
##iketar
sankship
sankraamak
vihaar
aadam
5020
24000
24emem
ghoshanaen
saiting
sheyard
##30s
##306
##305
instaiks
khulatee
##ayooveejeee
kanvenshanal
suparanet
aphasar
haasy
haasyaas
metis
metelik
nigal
aavaas
aavars
##kath
kilov
samajhatee
phailaee
bitaaya
raajane
4030
miree
renjar
2800mah
edishans
aai7
aai5
saudee
##athanon
postakaard
navrat
navonmesh
maimang
badhaya
badhaenge
maatrtv
ganaraaj
720x1440
72071280
risaikil
telar
telap
telim
telaget
udaaya
kisakee
kisaka
deejeaee
2399
2250
bhaashee
265
rokar
rokakar
uthaata
uthaatee
uthaie
aaaiphalain
aphreekan
ostr
jhoom
jhandee
majabooree
kaipachar
baalkee
sarakaaren
stailist
sikke
masse
dabing
dabaana
dabae
dabba
echateeemel
phitanas
eksapeed
eksaper
homashop
nikaalata
##a200
##egj
##67em
kyoot
kyoo77
sophtel
aho
andoo
chhode
prabhaavon
jimma
pojee
291
basen
staindabaee
##xynos
ematee8783
brauzar
niyama1
##aachusets
teleekam
##box
311
318
##itham
jeetee3
seeting
seetabel
sadiyon
##eelata
jamaav
##avaala
malteeeyar
virus
pairson
draama
masharoom
##a100
aateen
jaikleen
phaastaphood
prashaant
prashvaas
##roskop
pahachaanee
phaisilitee
phaisalon
ai5
aixynos
kaalpanik
aprat
paids
ophison
traiktars
60fps
gujara
ghatata
redamee4
olx
451
458
sonoo
sainy
sainap
saintiph
997
pahachaanakar
mukhyaalay
saunds
saundabaar
sportas
40000
400seesee
kodia
65000
6590
6592
ads
adda
351
3560
raaton
raatri
ditoks
498
495
pahanatee
pahanaava
##258
beeesee
27999
##aaveree
phorevar
hotwav
deeliv
saatvik
paulo
dhanabaad
hinj
machhu
jenaretar
##timai
##timaan
70gb
seekhata
glov
laabhaprad
respaans
saphalataon
pakadata
kainavasa6
##tiphaee
pentar
imphinitee
imphokom
phormal
kvikachaarj
mee5
voting
peeesa4
enteebaik
michalee
michron
pote
potaishiyam
vyaayaamon
ematee6755
ematee6732
ematee6752
ematee6767em
vitaaminon
railee
##aayalet
346
348
345
3400mah
5000emeech
4200
prayatn
vigyaanee
mirror
moolabhoot
vins
vinegar
charchil
maangana
noisai
baingan
baingaluroo
vels
velapheyar
aathrraitis
sidgh
chintaon
varldakap
aaiden
##chaarjing
376
379
373
3760
3777
aalto
maapadand
prograamar
string
poliyo
polaind
phaliyaan
inphekshan
bhoolateen
prayaasarat
1997
1995
raiady
katha
katoph
##galuru
sensiteev
sangr
sangathanon
dhamanee
dhamakiyon
sajjan
eksa6
eksa30
1080x1920piksal
pepars
uchchatam
bhugatana
edavartaijing
levals
ajanta
sabskripshan
budgait
555
oteepee
##anjas
makkhee
sangeetakaaron
##riphaid
suvyavasthit
patrakaar
flair
nonavej
sveek
betiyon
54nm
##aksil
abhinav
imojeej
siyaar
6600
vyooph
mp1
emesasee
elatee2000
samparkon
chekap
464
4600
echapeevee
jivee
tikaton
embiyat
aarts
enjvoy
enjilis
dablyoodablyoo
dablyooseedee
taiksat
managair
max2
jataaya
jataane
jataate
maneesha
soorat
soorya
##touchh
##eephaid
stokahom
jebra
393
3930
daudakar
chikane
emai4
gahanon
kairol
kairotin
sailaanee
chadhakar
you
youth
##ubhooti
chaalaakee
boing
381
bulaane
glonas
glonos
taigor
mejabaanee
todana
maithilee
thakke
5790
hrdayarog
vipakshee
playair
premachand
lautate
7200
steshans
maiganet
maigapi
kaatate
ruka
alarts
gaddhon
vaayumandal
sanvedan
aaiphona6
sveekaarane
sveekaaryata
testee
prakaashak
prakaashakon
dhoondha
sanyojan
periskop
gudiya
blogar
eenatee
##ametiks
29990
khaenge
spring
1440×2560
robots
eviyeshan
garbhapaat
pablikeshan
##ayoojar
traeep
misr
mising
byooteephai
638
vaats
bhaun
bhajan
bhayaanak
narv
mainyuphaik
350seesee
raiparaund
yooaeeemaee
bots
botoks
rooee
holi
holid
5299
pankha
miksee
miksad
miksing
kaimaro
kaimarek
kaimarais
lekhakon
kleenjar
deevaanee
gainek
aiktivet
aaaipareshan
egjotik
dubala
poshit
churaaya
ema550
peediton
droing
nateejatan
rainasamaveyar
padaartho
pinj
rivok
ubhare
chotee
hors
120fps
teknoloj
daayitv
nahaana
naheem
reedijain
phiksing
sharaarat
sakaaraatmakata
kailoreej
mithaiyon
prasiddhi
gaisen
hausale
solt
solaar
srav
##flinai
badalegee
sviching
jaiw
sheeghr
notabuks
ainaal
ainfiaild
nimbal
saahity
kanstrakshan
ekselaromeetar
beetane
beetata
750seesee
kopeerait
injekt
5jeeechajed
himaanshu
##adarak
ambaar
hilane
hilaana
taeeap
tarbop
aashaavaadee
dasha
primo
teekhe
sportivo
pichon
pichakaaree
68ps
dyooo
7731
chool1
##eteee
krispee
mandar
mandal
##3322
privenshan
doharaaya
pojishaning
limitaid
instrakshan
baareekee
kaaleerona
pranaal
imarjing
766
niyoin
##ektivet
e93
kuroop
x1s
403ppi
naagaalaind
manjoor
ematee6737em
krietar
pyoor
##bhaarateey
maastarakaard
lahanga
saadiyaan
jaruraton
ullaas
ichchhit
facht
fachts
enimetar
maanavon
797
a72
a7000
reemiks
##afaiai
traansaporteshan
schramb
cheteshvar
sammaanit
asthir
shani
phaibroeds
baakaayada
bindaas
ergo
eriksan
renabo
kendron
##anasheelata
shakhsiyat
ikatthe
semeephainal
eksa5maiks
a97
keemotherepee
paathayakram
toorijm
samaajashaastr
kornaphl
kornaring
kriyaen
240×
240x320
sachcha
laimon
kanphyooj
kanphyoojan
jutaane
meelon
nichod
deeesajee
tahalen
dailitai
phanse
eksapreshan
indoneshiyan
phaayaraphlaee
aivok
paimaanon
chutakul
invent
khinchaee
dhadakane
dhadakanon
maigniphaing
astabal
sultaan
vauchars
chenjing
chenjej
khidakiyon
khidakiyaan
1536
nitro
sateekata
karnaph
khurad
enaalisis
monokok
paymaint
raamapaal
##ushalata
ginaane
quantum
treeton
shubhaarambh
##aleephaayar
aayuvarg
jhootha
baandhane
phabata
dibaakar
dibba
dibbaab
chm10
asamanjas
raajasthaanee
objektiv
getave
hevee
vaakyon
boke
kheech
sukhaane
##larain
kekada
chlip
chliq
donktaree
dominor
riekt
anachaaha
pratiyogee
peepeetee
jhelanee
961600
buzz
daakhile
meenoo
sudheen
vasaayukt
staibalaijar
doshon
chhilake
kanpharmeshan
f1s
gaayika
losalais
tenis
ghataen
skaeep
manobal
jatilata
draiganatel
roophalain
##aaaiyad
chooha
eksa300
drshtiheen
jaagate
##ataapraapt
chour
chois
staayalo
baadhaon
megaapaksil
ajeebogareeb
traivalar
##928
##asvaip
chhaanabeen
sneh
sneha
phishing
ghusap
ghusane
12345
senkend
klaints
dijitalee
ilektonik
ilektromaignetik
maskyular
oont
ridair
soond
semeekand
kaarravaahee
deetel
threding
imx2
imx258
artharaitis
sikhaate
neksatabit
91nm
aaphtar
gtch4
raeed
ukas
shaakhaon
smokee
stenaphord
takaraane
phleksa2
yuvaavastha
esasee7731see
haadasa
urus
urja
vista
baadhak
barpheelee
pilaen
synch
moischaraij
##aleeko
mukadame
kaaryakushalata
buddhim
muskaraane
apamaanajanak
apeeling
harakaton
khilaunon
jhuka
pareekshaen
straitajee
straitijee
goonth
laharon
##abred
##abraand
dhulaee
metaabolik
muskuraahat
daayagraam
dulaar
evaranot
hatheliyon
laaainch
tango
ekaagr
##arashel
bahuaayaamee
emateeke65
emateeke6737
manamutaav
kunjee
sphoorti
sivaay
##apichhale
empaleephaayar
baratana
dhamaniyaan
bidala
gejet
rielatee
haisiyat
aniyamitata
dhvaniyon
sapleements
thinkpad
aparaadhabodh
vijitars
gadabadiyon
phijiyotherepist
emesema8976
automatich
eeee
gopaal
leman
mchafaiai
mchlarain
sindhee
waiar
serotonin
hobeej
bhigoen
##beeneshan
dhaakad
ampaayaron
maanyataapraapt
nikatatam
jedee552
gunaa1280
kanvart
telugu
pyooreephaayar
narsing
naayakon
alloy
kolambo
sanjeeda
asahaj
injiniyars
polaroid
tauliya
inasulin
shishuon
ekedamik
kahalaane
kahalaata
blashar
kripto
kampyooteks
kaaryaalayon
2048x1536
baabat
jhagade
jhagada
maakret
mastaing
raichord
tiago
tiny
tinejars
vaasudev
bhuja
ghabaraen
badamaash
sarjikal
estrojan
998chch
twinpad
ematee6582em
selebritee
g9198
naatakeey
haiadphonais
chhargai
chharaharee
mobiliyo
trasted
maansaahaar
ephishient
avashoshan
supara4
suparachaarj
313seesee
namotail
sanvaarane
kandishanar
bambee
fullhd
naseeb
naseehat
meharabaanee
phangshaning
##abachche
cht100
khajoor
shuddhi
deeseetee
kaampane
ilaiktronik
peeenaar
ripeyaring
panapate
gairejej
dahaad
jharane
taumr
yooteeaee
yooteelitee
aaeemaik
subhadra
3jee4jed
173ps
salaamat
kyoo4502
galataphaham
prayokta
flymai
mt6580
altraavaayalet
mt6750t
chomputaix
deeteka60
gubbaare
gubbaaron
jhonk
vaayalin
haidreted
##apaavaraphul
shaitarasheeld
anubhooti
samrddh
teeenatee
dhruvee
taibalat
mukabala
minimaij
jedasee521
lacheele
mainyoophaikcharing
deerghakaalik
shubhakaamanaen
genhoo
gangaaraam
jakhm
mijaaj
toothap
paripakv
khokhale
bhunaane
mahaabaleshvar
sarogesee
echaseeaeeel
kanektivit
eevent
aiasyjait
rimooval
bageeche
multaanee
abhinetriyon
dulhaniya
gavarnament
saiberiyan
temprechar
isujoo
karishma
ch459
hovarabord
khalanaayak
praamaanik
ghotaala
momentam
mahaaprabandhak
eksanos
##airgy
aaradeepee
chommando
michalaana
phainenshal
melenoma
inphotenment
eeyarabads
pablishars
intigret
jaagarukata
silebriteez
bhraantiyon
daahine
jaadhav
oseeaar
yaiar
chakatte
aapaatakaaleen
stainaphord
yoosabee
hamalaavar
hamashakals
cheepaset
sarvottam
volkswag
sujhae
instityoot
raajamaarg
risepshan
kyoo417
malteestaarar
motorchychlai
mahatvakaankshee
reeplesament
sinthetik
haidrojan
pharamaish
mahaanagaron
symphony
ovarachaarjing
huraaken
priyajanon
6e928
aandolan
fuail
first
gosip
iksigo
kingsatan
lusso
maphalar
saanketik
tegra
tuv300
whats
yajars
##jhalaahat
##baadhit
##vindoj
keertimaan
chodai
chult
chumb
inaphormeshan
shaktiyon
bhaatiya
toughbook
##aveediyo
standard
anaunsament
megaapiksalaraim
jaanaboojhakar
badakismatee
divyaangon
adhisoochana
##asheets
vairsys
kraudaphanding
vajraasan
kapaalabhaati
snaipabrij
##igsaigg
phreelaans
vyaakhya
atalaantik
protaichtaid
traansaperent
jhunjhalaahat
kshudragrah
saundakek
beljiyam
##onstreshan
sch7731
browsair
biheviyar
zarurat
ronaaldo
samayaseema
maadhavaanee
shauchaalay
4maitik
bipaasha
buteek
duchati
deloit
greeting
gyaarah
laahaur
pappoo
rugn
ukhaad
warranty
yoddha
लाख
ishyor
koainigsaigg
##asardiyon
ditechebal
prajanan
prakshepit
shubhachint
jee3260
smaatraran
bhujangaasan
kaaryaanv
kaaranavash
huvei
baidamintan
yasharaaj
badahajamee
vikhyaat
nirbhaya
photegraaphee
indivijual
motiyaabind
gladiator
dhyaanapoorvak
ee353
purifiair
avadhaarana
ovaraklok
sankshipt
haasyaaspad
navratri
ganaraajy
kodiaq
enteebaikteeriyal
dablyooseedeeeme
maigapixail
schramblair
dibbaaband
9616003322
jedee552keel
jedasee521teeel
volkswagain
1s
1tb
2s
2is
3ch
411
4emapee
419
4mm
437
4inch
4aaee
4matich
5k
5th
5chch
567
570
5990
5sai
6th
780
7ps
740
7deesee
870
935
au
aaree
aalee
aanka
aandhee
a89
aroma
aiyai
b1
baa
beed
base
but
bush
basee
bonee
bavaal
beshar
bakaree
btm
d2
daa
dak
daik
doot
dest
danka
daast
daavat
dasp
datta
datt
daage
eet
eend
eros
egres
e89
eese
eroma
erena
ft
f8
fais
fort
fast
foks
f850
g2
gree
gant
garee
geek
goj
gaayar
g65
gaing
gordan
gogo
h2
hz
hik
hay
hate
hant
hanee
haash
hij
haamee
haayab
hunt
hauj
hastee
hetu
iz
ivo
jv
jot
jars
jiyon
jool
juj
jaalee
jaama
jbl
kt
kg
kaate
krai
kaij
kund
kkt
kinkoo
kaileeph
kx450
kadhaee
lab
lis
lor
lord
loks
lolee
laama
lautee
lib
laang
lilee
lupt
mg
mane
mph
maaree
moree
mig
math
maach
maala
maayam
morn
mooment
moodee
np
naaree
naip
naun
naana
naut
naadee
nakh
nivaar
naiya
naarth
nyum
oj
ovee
oyan
ochr
p5
pie
piya
pip
pom
p99
peree
pilar
pendent
q400
r9
r5
raan
run
radi
rost
reh
ratai
rtik
ratn
sj
saee
sais
sana
sop
sast
soree
saakh
s20
saag
sich
srt
sxy
sents
savai
sistar
saaga
tie
tamen
tiyar
tyon
tphonai
triph
tave
tindar
tyoot
taasee
tainee
tiphin
taneesh
u8
ux
uch
ugr
vu
vana
vach
voom
vina
v12
vendar
vaang
v18
valo
veds
vxi
wp
whit
word
waii
wichk
wisai
wikilaiaks
wintair
xos
xainium
yel
yath
y55
y31
yors
z90
z37
z70
zamaana
zindagee
कर
##do
##dan
##dat
##dik
##dlai
##daasht
##hn
##hole
##yaav
##yara
##yaana
##yaasa
##ypai
##yula
##ygn
##yaakaaree
##aed
##a50
##a2016
##niya
##niyaan
##night
##o1
##oonch
##jr
##joo
##jiyon
##jaise
##jdai
##laal
##liya
##led
##log
##lens
##laudee
##latai
##laaki
##laimy
##ty
##tel
##trich
##paap
##pale
##pitar
##plai
##pahalee
##paithee
##kw
##koo
##kad
##kaim
##kos
##kle
##ktiv
##kaant
##kaitis
##kisee
##kmph
##ketabol
##knot
##rad
##raim
##rail
##raaph
##room
##reta
##rino
##gth
##getar
##garmee
##sch
##uar
##uph
##uais
##uel
##ueshan
##uart
##48
##bil
##bud
##brij
##iee
##ien
##maat
##maee
##mps
##mons
##maikrosopht
##ving
##vaaree
##vaise
##viv
##vaadee
##vita
##vaamee
##vaachee
##680
##630
##wavai
##97
##9ai
##73
##750
##7450
##1es
##1dee
##321
##85
##880
##817
##29
##xch
##xus
##xiaomi
##x240
##ff
##fee
##fun
##fort
##fochus
##fachaibook
##findair
##fjdai
##za
##zo
##zing
##×7
##×480
##िक
##ाव
##कर
##eeee
##eeyar
##aagauratalab
##ari
##arim
##areno
##araman
##arings
##araadhik
##aroola
##arokt
##ariging
##andh
##anament
##anishan
##anchai
##anidra
haibar
haild
haijeen
haibit
haisilikon
haispeed
##inq
##inaar
##inals
##insa
##inaiss
##akk
##akaan
##akain
##akrom
##aktars
##athee
##atars
##ataip
##atool
##atosh
##atoy
##atino
##atroniks
##atwittair
##onor
##ahed
##ahok
##aheds
##ahaileeph
##aarn
##aaraee
##aarilaayans
##alin
##alaik
##aliyon
##alth
##alamb
##alokar
##alekin
kete
##chay
##yag
##yashuda
##enar
##entaree
##enyor
##enchai
##amaart
##amatee
##amaip
##amne
##amaint
##amaala
##amadhee
##amachchh
keedon
isl
isk
phik
phaad
phaak
phoom
phyooj
pheb
phaahe
phauj
phendars
##ure
##uru
##urais
##aanir
##aanst
##aanyoom
##shin
##shti
##shth
##shetr
##apot
##apro
##apair
##apahale
##adet
##adaas
##adaay
##adoor
##adual
##adij
##adraigan
##adhavaalee
koy
koval
koyam
kopht
koson
karb
karekt
kareg
karele
karela
karnal
karachhee
##aatal
##aatyam
kay
kaj
kauon
aurat
##ikh
##ikaaree
kireet
##asur
##asaphar
##asibal
##asoorat
##asubah
diais
dihaidreshan
##abin
##abik
##aboot
##abood
##abodee
##abatan
##abastar
##abajat
parachh
parikrama
paridr
##aeee
##aeebee
ch4
chai
chaap
chog
chaab
chud
chang
chair
chost
chaahee
chooj
chaba
chachhai
chbs
chaashan
chygn
inish
inasaan
inasen
inador
inasikyor
##iss
##eth
##etree
##esat
##esayoo
##eskop
homee
##oreks
##oriyal
##iyaal
##iyata
##iyaad
##iyaaj
##iyaapaid
##iyograaphee
bheege
##itel
##itchh
##itosh
##itebal
##itaasking
##ilo
##ilatee
##ilaon
##phal
##phis
##phom
##phaimee
##ekj
##ekars
##ekals
##aimiks
##aimaint
##aphin
##aphor
khad
khaat
khed
khaare
khvaab
khaayee
khojee
khumaar
khambe
prai
praat
praj
praanj
pridai
kameej
gaen
gaut
shu
shaas
shod
shait
shut
shainee
shift
eka
ekaj
ekjeen
ekma
ekseem
sako
##aathaaren
jaoon
##ha4
##hayah
phona
phonais
phonaye
##aadaar
##aartee
##aamain
##aamaajik
##aamaikrosopht
##aamayik
##akegee
rahie
rahoongee
##aina
##ayo
##ayar
##ayoom
##ayolooshan
jeeb
jee2
jeeee
jeeem
jeeelee
jeeech
jeejed
jeeeee
heetar
##aikly
smaar
smood
smoodee
smaataphon
aapabee
aapshans
aaparaadhik
smaartron
bhan
bhol
bhaata
bhut
bhop
bhunee
bhastr
bhaabhee
##agl
##agais
##agship
##agaamee
##agaard
##agaileksee
##agarmiyon
smaartaphonon
smaartaphonis
##aavot
##olish
##olament
##aja
##ajaise
##aasaan
##aastee
##aaskar
##aasoshal
##ateeshan
##ateepee
##dhu
##dharmee
##ingham
##adhar
##adhik
##adhit
##adhaaree
##aup
##aayavaachee
##aapar
##ara2
##beees
##ejing
##otr
##otv
##otal
##otel
##othar
##otakom
##ota5
toy
toona
apash
aprechar
apasaid
##odam
##odrs
##arsal
##uka
##ukara
##ukti
kaimikal
kaimistree
kaimbrij
##avon
##avik
##aveek
##avaayar
##avelee
##avheel
staal
stir
stent
stikee
stambh
stuart
##jeet
##jee5
kaare
kaaree
kaaravaan
##rochk
takiye
takkara
##uparokt
##eediyokon
##antron
##eliya
##elavelee
pahuch
##eeno
##eenes
##eendr
##ailaind
ench
entr
##aitair
##yoojar
##yooechadee
naz
##emeks
##emasee
##ema2
##embo
emab
emiyo
emechajed
emayoo
ematek
##mation
dee1
deeye
deepeeaee
yoob
yooriya
yooeno
yooveee
yooeches
keematariging
anaam
anud
anuch
anglai
aneeta
anaspes
samaee
sameep
samakaaleen
##geehartj
##achars
##acheyar
##achaud
##achard
##uns
##unishth
##seeai
pheecharavhaatsep
upeksha
joya
joks
joharee
unknow
dilaate
##okee
##okal
mileniyam
milanas
##aayo
##aayurved
##aakr
##aakaara
##aakuchh
abaut
##chhed
##chhaiss
##osiet
sabhy
huye
husain
##tij
##tich
##tiair
##tigai
##ulet
##uletar
##ulsai
kaho
kahengee
lagataar
lagaie
dilleeh
lekan
alo
alorm
algor
##aajo
##aaben
##aabor
##aabhaas
distr
disalaik
##ishap
##ishiya
##ishcharaijar
taras
tarun
ephee
epto
##imar
##imiya
banaavatee
see4
seees
seeel
seeram
seeget
seeaaradee
##saron
##ootha4
baid
bairomeetar
baidoo
bairiyaatrik
##oort
gh4
ghis
ghasee
ghost
ghoos
ghiree
ghadiyon
ghild
ghadiyaan
ghadhavaalee
upalabdha
baadhy
skip
skvai
skoopee
baitareemaikromaiks
baitareerilaayans
endevar
endomet
##ipal
##ipaal
kaamana
kaamagoogal
kaamaphesabuk
kaamavhaatsep
teeaee
##uts
##utpaad
denkee
megaabait
spee
spar
spaart
spaay
spektar
spainal
speer
sprochk
inchakaimara
megaapiksals
maikag
maikraam
mocha
moishcharaijar
karenapane
jaano
jaang
jaanakee
jaanenge
jaangh
baaraat
blo
blaind
blool
blass
hamasaphar
raimix
raimotai
phrils
phrekchar
phrenchai
##her
##heyar
aaeee
aaee4
aaeeen
aaeejee
aaeevee
aaee30
aaeeeenes
kus
kudar
##omb
mahaka
mahang
mahipaal
##ists
##iston
maikrokaard
rangee
ranasibal
intarapr
intarsep
intarektiv
intarapraij
bez
beree
bebas
beroj
##opr
##opaadh
gray
grand
graunt
pheecharsahaalaanki
pheecharsalenovo
padhatee
padhaane
storon
storars
20veen
2026
proser
##peeyar
badauda
badasoorat
kvail
kveek
kveree
##aidin
##aidiya
##aidlai
##aidalar
maarati
##rix
##righ
laisis
aguaee
agnis
agasta
plaish
plachai
platin
chhidee
chhuda
chhape
chhapa
dhaka
dhuna
dhyaana
##veekaar
detaa
deteen
phrantal
phrantakaimara
pheecharaphesabuk
pheecharakhabar
dekaakor
sardiyaan
saraasar
dool
##aayadi
##aunjee
korp
varj
varbal
varks
varjin
varkig
khaasiyata
divyaanee
##esabaar
kaardas
phlaing
phlikar
##eekyoo
##apeeriya
##udai
##udar
##udair
ese
esabee
##ojak
theekath
echabee
echa8
modiphaid
modeephaid
##trans
baiking
baikakavar
1012
10vaan
sapaat
##ivai
maine
##endaij
mairee
roopon
roopay
roopaantaran
vash
dino
viktar
vikaaron
##astiks
##astainding
##ainda
phild
##varsh
dont
kharaash
##aura
nirth
chaarleej
adhaar
adhiniyam
subr
suitai
open
opain
skreena1
167
elaj
eloom
eliyan
elooga
13000
1350
##asho
##ashar
##ashch
##ashel
##asheyar
##ashaayar
##ashild
achchaiss
##iphake
simbiyan
bee3
bee5
beeing
beeed
beeaeees
beebeeem
trd
traas
trood
traks
travail
prataap
pratima
329
325
3220
3245
laenge
brikee
brembo
vai3
vaiph
dikod
naamacheen
indika
kaliyon
kalaatmak
kalapur
maichyor
apanao
balaik
balaino
bahata
bahare
bikhara
banavaaya
dekhega
dekhanee
dekhiye
##raib
khelata
khelegee
##aashm
##aasheesh
amold
adhikaadhik
klabd
kloting
kleding
kanektiviteep
kanektiviteeis
onara
##aagaree
##aagharon
kola
kolon
kolet
kolonee
kolejan
kolaajan
##akshetr
##teviya
kriy
kramaan
haragij
voyar
dijaind
blootootha4
veeyoo
veebar
rosh
robo
rohatak
akg
akai
akord
akoola
akamal
##ushti
##ophiks
##havosh
piksalaar
piksalamaastar
khareedata
khareedatee
khareedakar
otp
otaakor
otople
otokaar
##arechar
2550
maanon
motaarola
vajood
vajarn
118
1125
11990
11jee5
geela
geegeehartj
thi
thaam
thok
thaanee
thair
thodam
thukara
##ooments
1512
15999
15990
veediyovhaatsep
##yaanon
##yaansh
##yaankan
alage
##ichais
jalate
nota5
##aayarekt
##erans
##thi
##thinq
##alaint
ediyon
eddee
edoptar
muth
siremik
pichhade
dikhaayee
jaroorata
shreekaant
padaathaaren
chaarjd
roopeol
roopeutpaad
vhikal
glaans
##ijiyam
chukeen
##reg
darakin
nirmal
##avartee
teena
##eksel
##eksasee
##amental
lev
levee
14r
kaaranaame
badalavaane
##aprasth
##apreshar
epheks
epha10
ephateepee
svaayat
##aakarmee
##aakarmiyon
opharing
peeel
pee50
khila
khilaaya
khilaate
graahakee
graahako
rejaalyooshan
rejayolooshan
##aansament
khudaee
khudagar
tvos
##ostik
##ostet
##arman
paela
paoonga
##502
itharanet
aagya
aagyaakaaree
nikotin
nikaayon
preeinst
viketon
manzil
##aijaree
dvi
imoshanal
kampreshan
kampteeshan
eyarasim
eyarakan
eyarabas
##oleebol
aaeephona7
jagane
jaguar
pratiro
daalenge
vyakit
##10r
yoono
yooneev
pahunchaee
pahunchae
rediyas
redietar
rediyent
umar
sanabarn
kabje
##ajeevan
lairee
laiich
##atakhat
maisejon
##abhoomi
kombeeneshan
ee20
eevo
beechob
bharatan
taiming
3010
assee
asainament
asveekaar
jaisai
aarake
aarayoo
aaratiyaan
aarteeph
##riyosis
daunagred
##908
suno
sunaate
sunoge
jagahen
apaded
jeniphar
seksee
leegal
leela
leemar
loketar
lokasabha
##aasted
##ensament
##ormal
atend
atithi
atamos
atapata
motobot
##akrip
paarikh
surgai
sureelee
bolie
tabaad
tabeey
tabboo
barg
baraak
##ephatee
kantinyoo
kantenar
aayaralaind
dijainon
dijainaron
oesayah
##echyor
prodyoos
prodkt
painaar
painig
paints
najaraana
plaanayah
plaanaapako
plaanarilaayans
laitas
avin
avant
vidyaalay
vidarbh
vindaskreen
shikan
pleph
bechega
varsha
varsho
majhole
majadoor
217
184
186
18499
##aadhy
phesub
hissedaar
arn
arest
diskaunta
##hagat
samasaamayik
haaramon
yu50
yuvaan
nyoorol
1980
1988
aparaadhee
haathiyon
silkee
jedeks
jeda8
slik
noget
##ikalpana
volv
voltee
volyum
phaayadais
gemapaid
guntar
judega
##ablaik
##aaharanon
174
1799
17veen
kong
taipaii
minats
dooragaamee
hedakvaartar
topiks
topavaij
salooja
sankuch
viaan
aadar
aankana
244
243
242
sheyaraholdars
instagr
janch
janit
upayogakat
kanya
traansaph
##abeet
nib
nihit
nirodhak
aavaag
aavrt
##katik
samajho
samajhega
samajhanee
damak
dampaling
antarman
phailaate
phailaakar
odit
bitiya
muhar
mi4
285
bainko
bainkok
aaibro
aaieso
saubhaagy
##athair
esa9
esa11
##khaane
yaaddaasht
pratishtha
gauraiya
maimory
halla
halava
jeevanabhar
##eeto
720s
risaav
##eejulee
teleskop
kaaryakaal
kaaryakshetr
ritesh
ritika
udaar
udatee
kisamen
kisaanon
rikorded
deeje
237
##aigmax
2200mah
andaralain
andaraarm
266
2680
2630
rojam
koolid
##braand
1080gunaa
ejing
ejents
aaaiphishiyal
aaaiphareyaratel
jhaag
jhund
shorooms
shoroomon
haeed
haeesha
haeedr
lamborgh
lambreta
analimeted
raveendr
##40i
paartisip
masala
dabe
eksapenshan
gore
eemadee
eemapee
eemojee
homabatan
maasoom
paisiv
ladana
ladaakoo
jeree
jeaaradee
kyoo11
kyooretar
##yoominas
ahinsa
andaaz
chhodatee
sharminda
staron
chomfort
pov
pochh
besis
singlai
##haasan
297
2950
2960
2900mah
ememoonch
ememavheel
ememachaud
lensej
##uvidh
ematee817
brausing
##aachaaree
ailai
ailantr
prayogon
shodhaarthee
31000
3160
sadaiv
##eeleshan
jamatee
maitrik
maitaalik
haikaphon
malteepl
malteeling
ikoboost
viruddh
pairf
pairetid
motoroy
taareek
mashav
braandon
laivendar
laivastreem
##a16
chhootis
dileep
rets
juganoo
heliyam
##veniya
##venshan
##rosin
baindej
bainda2
baindavid
shopchl
airos
haanlaaki
apagredebal
sambadhit
traikapaid
rediyodharmee
300h
300mb
gujaara
veels
veelabes
praimar
dokomo
dokkos
ghataee
ghatiya
ghatanaak
kheleen
klaasikal
oliyo
4590
kromaboks
kromabit
sainsar
sainikon
saingayong
singalakor
9900
kiraana
mukhyat
utarakar
raktas
400mah
karavaakar
kodeks
notai7
vheelacheyar
haardaboot
kontekst
##leekom
adaj
adajaan
adalt
adchom
rogisakee
tanu
3500mah
raaten
raatabhar
myoojikal
kavaring
aatom
toking
3333
jaanchate
jaanchana
goa
vijet
vijibal
vijibilitee
vijayav
uthaegee
279
maeelon
sindhu
bhaagana
chaubee
chauka
niyukti
nishchint
nishchay
hotalon
hotsp
hotastaar
hotknot
aavaajaahee
aidrino
saataveen
##quito
pravaas
pravartan
machal
machaate
linkaidin
446
449
4400
saphedee
jaden
menar
menshan
menaka
mental
menastreem
703
loshan
logaut
lohiya
8500
daayarekshan
madhu
yogaachaary
seekhatee
rimaind
vebatool
##dr4
epleekeshans
ulte
ijaad
ijjat
kompetibal
##adonon
likhata
bele
belava
belsa
600i
600chch
600mah
600x10
##yota
##aamineshan
417
413
418
laaloo
peng
penaltee
tanaavamukt
tanaavagrast
garg
gari
kaang
middlai
midnight
phormoolon
mee4
pharraate
paasavards
staarch
kaith
kaitagaree
enteeb
enteesept
potee
santok
bhavy
phainsee
raitar
342
3430
maalya
##ohak
poorvak
poorvaagrah
monoh
monasoon
monooks
424
428
hatya
hatha
hatthe
nauveen
zainfais
snaipadrain
marj
marod
esemaeepee
kostayoom
namaskaar
namoona
sentaron
aakaaron
kheenchen
##ijanal
mirara3
moolat
moolyaankan
vintar
vinod
modalsa
maangega
##atraayal
bijanesamain
velid
lavan
kainsaron
4kitakait
heeroj
melaveyar
chinh
378
aalam
munaro
maapata
striyon
strep
strips
straang
striming
strenth
baayotin
toning
polimar
burst
dasaven
eeyararings
magaramachchh
bhoola
sudhaaren
sudhaarana
826
appis
6750
6795
paryaavar
paryaayavaachee
dots
sangat
sangam
dhamakiyaan
sajaaya
eksa81
aaipeeel
aaipee67
aaipee65
1080x1920p
desan
desaee
desibal
rasag
bhugatane
svaasthya
sadasyata
edavaanst
ajooba
pedikyor
sangeeta
kamajoriyon
maipal
rodar
554
aimajon
##704
makais
makadee
optiks
##nalikhit
flaix
flagship
##vasaneey
baithegee
betaar
##amaga
nivedan
vaataraple
analokd
84gb
##77ech
bhoomi
489
kaartilej
6610
vigyaapanadaata
durupayog
iyarapees
sambhaalakar
gathit
emeseteee
daitail
daitaichtor
eekaiyaan
eekosistam
matadaata
praistigai
aanandadaayak
465
etmas
teeephesaee
jioch
jioks
kleening
tikadee
tikkee
##avev
##uchation
angaaron
bachaegee
kaabulee
darshaate
poochho
poochhie
bails
dablyoo121
taiksa
manae
endaraaaiyad
sootakes
395
pikaasa
pikanik
seens
seeniyars
daudaane
daudengee
kairiyars
projekts
hansa
hanse
hansakar
chaalaan
chaalit
chaalakon
jeevaashm
vartanee
relagaadee
382
buland
bulaakar
bulimiya
seejanal
lokalaijeshan
phankshaning
phankshanaalitee
lainding
prints
##othainik
diteld
maithametiks
gulaam
gulajaar
gulaamee
saadhana
vilsan
yaatraen
aashankaon
baanhon
baante
baandhe
saikend
chhaatrav
talaashana
439
4300
mude
mudie
janmajaat
aira
airchail
dogaree
rukana
rukatee
khoen
beeemad
gadabada
sanskaar
sansaadhan
hairitej
khyaati
bloking
kaidee
kaiyon
shreniyon
rolaut
rolaand
##plor
aayojanon
tootata
tootega
tootegee
varchasv
varchualee
mtnl
sataata
phijool
chamakate
sujhaavon
phoolana
shaheedon
yooese
evree
evota5
roteshan
pholet
##ayooes
631
graindar
532
1gbps
hits
hitamain
##ainganee
e76
phaayaring
220d
roobee
##etivitee
holol
holivud
526
521
kavaayad
mohalle
dole
dolby
iching
saavadhaaniyon
lepard
paanda
paanvon
##azai
nakaara
##aselphee
deevaane
gainaisis
irchtch
arthaat
paironishiya
soha
slaidasho
egjit
parivart
ema535
altraa
chhipaaya
chhipakalee
brodakaastar
aadhunikatam
drops
pestree
rainon
painoramik
ubis
ubalee
ubair
uber
##sman
##smaart
dishaanir
horar
daayen
daayanem
jonaathan
nahaate
charakhee
sharaaratee
itailik
1800890
sadaken
reshamee
smartwatchh
smartthinq
sahayogiyon
prasidgh
gaischar
z530
mahaaraaja
sraav
bosketabol
##aankhon
##aanksha
dipharent
diphogar
tipsatar
pharms
pharmaveyar
aatankavaadee
pareekshanon
gillee
nimnalikhit
saahasee
110seesee
kansl
riphain
chrush
ekselomeetar
moraigmax
sarphig
jeda630
cheng
2600mhz
jajbe
693
950xl
naakhushee
taeevaanee
taeeping
intrudair
##phrant
guentar
teekha
e120
taalate
mauthavosh
threejee
779
lakzaree
lakadiyaan
riailitee
##arno
iii
taajamahal
privatai
doharaana
aairist
limitars
omanee
##gunaa480
##gunaa75
aiksidents
pachamadhee
phebrik
##astars
pranay
bhatakata
769
76990
peeklaudee
##ataarohan
chonjr
chopastik
chaukor
e91
kuriyan
kursiyaan
steelar
##iptas
haidalaits
ematee6737vee
paachak
sukha
chuppee
doongee
esesaree
esids
maastars
fwd
neelam
neelagiree
##velyu
##aanvit
ip54
kamphyoojan
chhupaane
kandeeshans
kandeeshaning
897
bejels
bejalaphree
nippal
printars
samarthit
320gunaa480
793
a79
mooving
raits
sinkaee
lego
vains
aaropon
ematee6595
offlinai
vastunishth
988
deedeeaar
deedeeaeees
deedeeaara4
havaeej
##odhakartaon
pholdars
deeteesee
yoorin
ghumaane
daarshanik
dushmanee
lipos
lubhaana
##aboost
kamaandar
yoonibaaaidee
sinemaagharon
sarkas
sarkals
saspend
ikatthee
m3x
ragh
raged
kamyoonitee
kamyooniket
a93
a9x
gamai
gamais
mmwavai
viyareval
##batoor
kasane
vyaapaarik
kingsman
yunaited
##a62
kaaryavaahee
jhalakatee
tarbochaar
baantate
rookh
phejd
klokavaij
snapchhat
aixtr
jutaaya
phelyor
##gavhaatsep
tahalate
00pm
molabhaav
##32ech
##x73
phijee
phansaane
ganitaphon
midanaeet
aivarej
brokar
dubale
kangan
paiment
phaimalee
chutakiyaan
inviteshan
khinchav
ema370
botalen
ajeebo
poratroniks
ulajhee
ulajhe
watchhos
929
longityood
enaalesis
enaalitiks
##abhaaratee
asistens
supreema2
anuvaadit
##onomik
thaharana
sanshleshan
vishvavidyaalayon
daayanos
quichk
susajjit
##attiyaan
khichudee
baareekiyon
kshanik
taina
phaarmoola
##ichklaimy
asamiya
sangharshon
aarmar
dapha
ejeeem
sroton
949
font
gaidens
gaidalains
chilla
virodhaabhaas
aanchal
dedalain
##phoras
kaaryabhaar
kaaryashaala
emadeeaar
maikenik
bhaageedaaron
esasee7727
vasant
phanding
shakai
shatal
alphaabet
alphaanyoom
##istrad
##istraada
vaibret
yooneebaaaidee
arjent
reesel
baayomaitrik
096
joojhate
murga
nano
nanhe
nanophonai
tena
tenor
tenasent
sampoornata
geetika
jatilataon
deevaaren
kamphartebal
phenkana
sanvedanasheelata
datek
fz300
fz1000
heraald
linux
triaayaamee
teedeepee
##instaagraam
choojee
milegaakampanee
eksa28
chhookar
bandald
museeb
vastuen
drshtibaadhit
aalochanaon
jaagane
laukee
zaroorat
bhraman
royatars
kyoo5ke
heldeephaimee
polishd
kyaanki
launj
##asamsung
parvataarohan
chhaanakar
manamohak
suneeta
praathamikataon
riekshans
tyooring
parishkrt
chintan
vegas
moonlight
senked
majabooran
jiophonai
daphtaron
baket
bakaul
bakavaas
mangaaya
ridam
ridijain
seminaar
selibreshan
thril
kantrold
sikhaee
sikhaata
sikhaatee
jutae
nishkarshon
aaphars
henesee
tayashuda
taaskabaar
ukhad
eksasee60
yuvatiyon
sletabuk
suparakaars
jurmaane
film
url
##allair
praaniyon
disturb
jarnalijm
mojilla
maikrosophat
indraprasth
saampon
impres
aarambhik
prototypai
daijan
daioksaid
kandha
kandaktar
wrap
x240i
yangastars
phiskar
chchlaian
inkd
megaahart
moischaraijing
196ppi
raajakot
raajakumaaree
riphreshd
aaeeemeksa362
aushadhee
aichu
daaktar
hindi
loopas
laasting
putr
pyoravyoo
xchaint
haill
praiktikal
jee6200
grhinee
vidhip
halachalon
abhivaadan
adrshy
daansar
goonj
goonge
chhae
chhaunk
enajeetee
vairnaiai
haindaling
muskuraen
039
aansarash
evarest
hangaree
hathiyaaron
q7n
raiging
siaam
sireej
ujaagar
vesait
waibstorai
##arashot
darjanabhar
kaitaring
brodakaasting
moovaments
hawk
hidaayat
haayaring
kuntha
kunjal
nakalachee
pheeka
indeek
empiyar
anoothe
milkha
seebeeaara
lephtinent
aaeeemeksa298
snaipadraigana200
7777
aabhaasee
pheyaraphon
chheente
kaarlaks
enivarsiree
baijal
162ps
##storej
ameeraat
thinkaped
peejeeo
rikogn
ulajhanen
kanavartar
dushprabhaavon
havaala
jaalas
liyone
waiak
waiaikly
zaibronichs
pherabar
parosane
chookana
tomaito
gherata
artifich
kanvartar
roopeepal
aarkaivs
chidachida
boostarajet
magich
narsaree
naayalon
ubharee
##etrikal
##aphreedam
khaalis
jauharee
bevakoophee
saraahaneey
sanjeed
jenerat
paintothainik
jhaanken
kompiteetars
sulajhaate
svaroopon
abhivyakt
e7700
##yulas
##bheet
kampeetee
kampeetishan
enavaayar
bandaron
thailets
intaillig
asurakshit
aarateeaar
braujars
480gunaa800piksal
naukariyaan
miraralink
maadalon
naina
ohiyo
podakaast
q331
##520teeel
kachhue
bhujaon
emeeech
ema812
optimaij
paavarapvaint
kraikar
geegah
inphraastrakchar
siphaarishen
daavon
g310r
jalaen
mosquito
niyati
pailets
raaginee
saarthakata
##gadoo
phuhaar
shaabdik
shreenaath
straiaming
veyarebal
thagane
dhaalana
esajeeaee
ritaayard
0loleepop
daasun
jpg
jigyaasa
luees
marchendaij
sagaee
taangon
ugaaya
##awfjdai
##ringing
meharotra
phurtee
phursat
emaaraee
##ognito
epeeen
korateks
elarjan
klojd
##802q
kabootaron
komentree
ikonamee
duboen
visphotak
proparteej
hippo
jyoorik
jyoopitar
jyotish
kwh
kwid
nukeelee
pappu
vudan
##628
##aiyai
shilpa
bhadde
bhaampakar
##avindoj
##oganito
yooena62
subhaash
16000emeech
organaijeshan
tvitars
salaamatee
saumya
saumpee
udyamon
kyoo4501
aiarphonais
gujaarate
angrejon
naitworks
dashahare
michrosdxch
rookhepan
bevakoophiyaan
translatai
dairekt
dairektar
frontiair
i4jee
kooraj
oelidee
oobad
paayenge
rtu
reelonch
vaayales
##ativai
phosphoras
shaitarashild
jeesapee
jeevaanu
##avour
##aahamaare
yooveebee
anubhaag
samrddhi
##achaineej
upakramon
ghatega
agnaashay
beebeesee
pratighante
lagavaana
kriminal
atmos
nyoorons
jedasee520teeel
muaavaja
ematee6795tee
2jee4eks
gatisheelata
signals
signaturai
revotork
poornataya
chillaane
vasoolatee
uttejak
lacheela
mainyoophaikcharar
kaarnivaal
chontinaintal
syaanojenamod
dentistree
dreganatraayal
maps
mapmy
s302
soojhaboojh
keliphorniya
phodane
##apeteeem
##adoodh
inakoganito
bhidant
apaarchar
##okrain
##aaksaid
skalpachar
kaardiyak
kanektivatee
maiganijiyam
adhyaapak
kalpanaon
##aagonal
edalts
maltitaasking
maltistraada
rimoovar
midilavet
rijarveshan
multistrad
abhinetriyaan
ematee6592em
uchhalakar
gavarnens
kreep
kankad
tajur
tentekals
z630s
##rari
##vijaard
##akoold
karmash
##aapallee
enahensament
enateeesasee
sampaadit
unichom
unichychlai
mojev
graiain
granthi
ekseksa177ech
ekseksa132ech
chaartard
elkohal
trilum
svingaarm
showroom
aaiemeksa2
aibd
baayopik
sabsidaree
viliyams
riphlaiks
nelapent
nelapolish
haiparaloop
launchhair
udaaseenata
chhidakaav
bodo
lotapot
miyaamee
mardaanee
sonikamaastar
tetanas
teedablyooes
uhs
ubhaarane
wxg
yojanaabad
##uramurg
prinsipal
shelph
eklips
enapeeseeai
emeksa5
anapek
spalendo
hamptee
dhankakar
uthegee
otharaijd
eyarodaayanaimiks
imphletar
mishrit
bullitt
kansalting
durghatanaagrast
phirojashaah
tee830emapee2
aashcharyajanak
tandurust
aachaary
bentalee
dagamaga
eejaad
fbchhaiss
gd9ai
gogal
sateesh
sipaahee
taneja
taavars
vuman
wqhd
yamaada
##inaphokas
phaayabar
shiddat
enthanee
emaveeja
yoomojee
anamol
samanvay
##chhargai
gharavaalon
phraindaship
aaeeshaido
##omaniya
esapekt
esadablyooaara
saportiv
beeelake
aksesareej
memeaaree
jinjarabred
imaaraton
sanasanee
arddhash
kanaadaee
teliskopik
kaipsool
drags
pallavee
montegoo
maaleetee720
loomiyaa430
tuarar
chaturthee
laikopeen
ripharbishd
muskaraen
imx386
ikalaute
kauntarapvaint
kedeedeeaee
whaiailaid
arthashaastr
snaipadragana801
pregnensee
aangan
biksabee
baundree
bionich
ijaraayal
mogaapiksal
r558qu
veenas
zf6
##skool
##vagandha
##6261dee
phavv
paraabainganee
paridhaanon
horijontal
khalabalee
shishtaachaar
ekvila
ekta2phit
enarolament
yoopeeesasee
yooeksa305
aniyantrit
verikor
tee120
teeshart
mahaamaaree
chhipsait
estronots
echaeevee
saplaayars
devanaagaree
harjaana
hariyaanavee
edablyoo1
geegaahatarj
puraatatv
##echateesee
avenchura
phingaraprit
aadamiyon
telapaip
telimetiks
ostriya
eksaperiment
teleekamyoon
seetabelt
saintiphik
machhuaaron
sveekaara
vyoophaindar
kairolina
jaiwail
tarbopaavar
240×320
chutakule
kheechane
1234567
imx214
dhruveey
toothapest
ishyorens
shubhachintak
kaaryaanvayan
aaleeshaan
besharam
btm7450
destineshan
daastaan
erosp
egresiv
foksavaigan
gantavy
hikai
haayabaay
jarsee
kaijual
kaileephorniya
kx450f
loleepaap
maayamaing
npchi
pomailo
radio
sj1
tiego
tameng
triphala
tyootoriyal
taaseer
voomen
whitai
waiibo
wichkaidlai
z3735
##ktivaitis
##atoshiba
##ahaileephaiks
##alambaee
ketegaree
##enyoraship
koyambatoor
diaisail
##aboodaar
paridrshy
chogaint
chudail
chaashanee
chygnus
##oreksiya
##phomeshan
praanjal
shuturamurg
ekajut
ekjeenos
ekseemor
aapabeetee
bholoo
bhopaal
bhastrika
##otharm
anudaan
anuchchhed
anaspesiphaid
unknown
milanasaar
eptoyad
seeaaradeeaee
ghaseet
skvaiyar
speerit
sprochkait
maikraamaiks
bloolait
phrenchaijee
intaraprenyoraship
intarseptar
##opaadhyaay
##right
agnisaar
theekathaak
echa818
nirthak
eloominiyam
travailmatai
darakinaar
epha103
svaayatt
preeinstold
eyarakandeeshan
beechobeech
bharatanaatyam
aarteephishiyal
tabeeyat
kantinyooas
phesubak
sankuchan
aavrttiyon
teleskopik
andaraarms
lamborghini
paartisipet
chomfortaich
ememoonchaee
ememavheelabes
ememachaudaee
malteepleks
malteelingual
motoroyaal
shopchluais
ghatanaakram
adajaaniya
vijayavaada
hotspot
600x1024
enteeseptik
monooksaid
zainfaistival
esemaeepeeel
dishaanirdesh
daayanemik
esasee7727esee
chchlaianair
aushadheey
aansarasheet
hawkaiyai
artifichial
intailligainchai
mapmyindi
gd9aiawfjdai
btm7450ruchf
wichkaidlaiak
080
050
012
070
055
014
053
2ps
2nm
2mimee
2keemat
3mm
3nm
4d
4l
4ch
4bee
4tr
4mb
4mimee
4geegaahartj
5p
5e
5f
5yoo
5megaapiksal
6l
6k
637
6nm
618
7eks
7mm
770
7veen
7fps
7aareph
880
8ke
8inch
967
9ven
941
966
aars
achh
aaka
aint
aio
aitar
aaul
auth
ainch
a6000
around
bis
baim
bree
baane
balab
boree
bost
beedee
bantee
baasee
bua
bchchi
dy
db
d5
dz
daee
date
dand
doks
daand
damee
daib
davai
doge
dcht
daakoo
daaga
d810
ddr4
e0
eeen
ehat
e20
eep
eeks
e11
erij
e17
eyoovee
eesaee
eesa
eesasee
fr
fv
f6
fin
fab
fant
fair
fold
f10
fath
fochus
f800
fastr
fivai
gn
ge
gaath
giv
goree
gaate
gij
gig
gaakar
grom
gahal
guch
gto
g24
gx7
gyaanee
hf
het
haam
hej
huk
hir
haaree
haare
hint
haneek
hae
hsp
hachk
hvel
havaad
i8
iyon
ival
ibol
i908
jr
jes
jesh
jant
jase
joop
jiyaan
jolee
janon
jamaan
jailee
jila
jaarj
janeshvar
jetee
jordan
jotik
kn
kaas
kaap
kaata
kalee
kaaph
kaag
kati
kaadha
kindar
kunt
kaayade
kaaveree
lx
lan
lir
lop
lavar
lahaal
laayans
liyonee
luna
laeen
lochk
m9
mx
mha
ming
maaj
mort
myon
marm
mikee
m11
magan
matan
matr
m9s
m2018
mtouchh
mooments
mchhargai
n2
naa
nad
nab
naad
nake
niyon
naara
najee
naalee
naiks
nio
nook
ninda
naijar
nativai
oy
oe
oil
ooj
orient
oord
oaares
omaan
ogs
oaarajee
ozo
pn
pv
pish
pim
paun
palee
paash
ponee
puti
pacha
pagee
p55
pachh
pinch
pors
piyars
peenee
qwair
rb
rm
rsh
rane
ror
raath
reek
rus
rast
rooth
raadh
raagee
ristr
ratane
rchom
raijing
rudr
riging
saay
saata
saip
sood
saadee
saink
saard
sadame
ts
t9
tana
ted
tiks
taane
talab
tut
tud
toree
tash
tens
toos
tonik
tonai
tikon
taint
taala
tijan
taahir
tadak
taabad
tichklaimy
u2
u1200
vad
vadh
vem
varee
vost
v50
vyas
vaadiyon
vchch
vyooj
veena
vaing
vings
vmal
veding
vvt
vaayada
vheyar
valaint
voleebol
wh
wu
wash
w15
w2018
wright
xq
x50
xaiss
x300
x86
yoch
york
yaamee
yudd
yaao
z8
zest
zonai
zmax
zakk
¨ringing
##db
##dree
##dain
##dog
##dual
##dij
##dabl
##dpi
##duniya
##hs
##haal
##hot
##haalee
##haadee
##haaron
##helar
##yuv
##ao
##a65
##ny
##nk
##niyon
##nkhala
##notai
##ohit
##jh
##jj
##jg
##ji
##jane
##jaal
##jant
##jiyo
##jabee
##jaade
##jiyaomee
##lu
##lan
##len
##lis
##lit
##laip
##liv
##liph
##link
##laud
##lins
##laijar
##lains
##lipakaart
##lyoominas
##tt
##tg
##tch
##tain
##tual
##taaron
##poo
##petaitis
##paberee
##peteeem
##k3
##kal
##kit
##kain
##kait
##kim
##khat
##kair
##khad
##kaiv
##kamp
##kaiy
##kveyar
##rin
##raar
##rya
##rist
##rang
##rikal
##reted
##rvaad
##gis
##gel
##gus
##garmiyon
##gonomik
##ereej
##e2tee
##sn
##ss
##su
##sx
##sais
##sitent
##sensar
##sulai
##uz
##uan
##uum
##4v
##47
##4es
##4jee
##baar
##baj
##badh
##bars
##bim
##bolee
##bilitee
##beree
##baalon
##beriya
##ii
##iga
##ichar
##iaint
##ichhale
##iaae
##ibeem
##imation
##maal
##maart
##main
##may
##maadh
##mob
##mita
##mastair
##merik
##vd
##vr
##viyo
##vaid
##vep
##vans
##vens
##vidh
##vaigyaanikon
##6x
##640
##615
##wh
##wg
##wb
##wik
##wikilaiaks
##7seesee
##110
##132
##390
##3seesee
##820
##540
##570
##517
##5x9
##23
##ximit
##x13
##x96
##x1200
##fan
##firai
##zee
##zail
##zmo
##×8
##रदर
##तर
##मो
##टल
##µm
##eeya
##eemat
##eevan
##eela
##eeriyar
##aaa
##aaon
##aaoo
##aaaee
##aapanee
##aaaik
##aagaj
##aiw
##aies
##aiavour
##araan
##araat
##ares
##arlee
##arel
##arail
##aroj
##araana
##araash
##areedee
##araiting
##ann
##anaip
##ange
##anikon
##anaasth
##andhit
##anumaanit
haij
hai3
hairo
haiart
haija
haiaapako
##inor
##inaim
##inamen
##inaj
##iniyaan
##inug
##akav
##akaane
##akaay
##aktaree
##akut
##akhe
##akreen
##aktiv
##akhar
##akriy
##akolojee
##akamee
##akahee
##akumaar
##akvain
##atod
##atait
##ataaj
##atoor
##atus
##atest
##atonai
##atendo
##oniyam
##onishanal
##ahd
##aho
##ahai
##ahat
##ahad
##ahate
##ahaara
##ahala
##ahaasha
##ahonor
##aarodee
##aaraapat
##aaravee
##alat
##alal
##alaish
##aliph
##aliyaan
##aliye
##alapur
##ality
##aliptas
mech
meth
meva
mephe
ket
kesh
kejee
kemp
kepl
kerosin
##chn
##cheen
##chaaj
##chid
##chaip
##chop
##chakr
##chks
##chorn
##chms
##chuts
##yash
##yavee
##yavan
##yajaning
##yabheet
##enan
##enik
##enjee
##enadee
##enom
##enig
##eneemiya
##amo
##ams
##amak
##amais
##ameed
##amem
##ameshan
##amich
##amint
##amaiks
##amug
##amoled
##amaijoo
keeph
keevee
keevar
isp
isaman
isaliye
##ooa
##oof
##oohon
##ooke
phad
phatee
phid
phart
phiph
phich
phech
phahar
phendar
phode
##uran
##uraal
##ureshan
##urfair
##aani
##aanadaar
##aanja
##aanagar
##sho
##shya
##shaka
##shep
##sharm
##apit
##apake
##apol
##apod
##apant
##apakaart
##apods
##apahalee
##apenaasonik
##adane
##addh
##addee
##adeshan
##adaun
##adaayee
##adroyad
koon
koko
kojant
koenig
selee
seti
seven
karl
karaav
karaanee
karektar
karaaye
##heem
kaen
auro
auron
auraten
##ikaart
##ikesh
##ikala
##ikaran
##ikulet
kitee
kichen
##asin
##asaal
##asaad
##asant
##aseshan
##asonik
##astra
##asaayee
##asakrai
##asaamaany
##asambhav
dirai
ditaich
diektivet
##aneshan
##anechar
##aneshanal
##abaee
##abata
##abek
##abaab
##aboy
##aborn
##abbat
##abekyoo
##abahut
##abaareek
##abattiyaan
parp
parok
parajee
paramee
paraant
parikalpana
hainn
hains
haingar
##aaliya
##aalakom
chb
ch9
ch7
ch8
chf
chaim
chaaya
chood
chtr
chaur
chrai
cholo
chrd
chokar
chuaan
chinkoo
chasai
chaakan
chustee
chyavan
inn
inhee
inhe
inking
inalaiph
inkripshan
inakrip
inhelar
yaha
##iskee
##isarchars
##etas
##ettee
##etaij
##eteriya
##estee
##esitee
##esaimasang
##esents
hov
how
hoth
hotan
holas
hogen
##oraijd
##iyaane
##iyaatee
##iyaayah
##itan
##itars
##itail
##itron
##itaon
##itikal
##itaamin
##itaijeshan
##itailitee
##atag
neph
##iliya
##ilva
##phil
##phol
##pharee
##phlaish
##phobik
##eksar
##ekchual
##ekza
##pantee
##paniyaan
##aima
##aphaad
##apher
##aphoks
##aphanam
##aphaibar
khap
khab
khos
khalee
kholee
khoy
khuch
presh
prid
progr
prahaar
praphul
prateekshit
prapaat
praipaid
prshth
praadhy
kamala
kamabaik
kamae
kametee
kambain
gaz
gavaah
shaad
shir
shank
shenj
sheks
shaiv
shatr
shaikshan
shekh
shiyaomee
shooroo
shaido
shettee
##gavej
ekp
eke
ekaras
lievidh
sakhee
sakale
sakeen
sakaten
##aathin
##reed
##reeliya
jaem
phonaped
phonabadee
##aadaayak
##aadity
##aamat
##aameetar
rahanee
##ainshan
##ainos
##ainiyam
##ainikal
##ayood
##ayans
##ayootar
jee7
jeeen
jeedee
jeere
jeeke
jeeela
jeedabl
##atepal
##atemm
##ateleekom
##aiko
smilai
aapana
aaparet
##anachar
##anavid
##aphons
bhatee
bhiya
bhans
bhune
bhoosee
bhoole
bhuvee
bhaseen
##001
##agal
##agaart
##agaah
##agem
##agaadiyon
##agren
##agapur
##eshee
##eshiyal
smaartaphonaye
smaartaphonagoogal
smaartaphonakhabar
smaartaphonaleeko
##aavah
##aavaar
##aavale
##aavaaree
##aavadhi
##olith
##ajin
##ajain
##ajob
##ajiyaomee
##ajyaadaatar
##aasik
##aaspad
##aasyoot
##aasvaamee
##ateem
##ateeph
##dhya
##dham
##dhanon
##ingo
##ingal
##inging
##adhaam
##adhumeh
##auee
##auth
##aula
##aapaan
##aapakee
##aapaka
##aapaag
##aapuree
##aapplai
##araf
##beeen
##beepee
##ejd
##ejon
##ejik
##ejmoo
##ottar
##otos
##otsaip
tour
toing
toka
towair
##leevijan
apake
apavaah
apathit
apollo
apreeliya
##alebal
##odiya
##ukaava
##ukemiya
##ukshetr
##avaaya
##avok
##avaay
##avaise
##avyon
##avaanon
##avindar
##avarth
staph
stait
staaree
ster
steph
stuti
streek
##jeevar
kaarag
kaaragaar
kaarpor
kaarapet
kaarakhaane
##romat
##roks
takiya
takhane
##aahal
##aahit
##adeen
##adeeda
##adeekee
##adeevaaree
##upur
##upama
##eedakom
##eedaabaad
##eedillee
##antaan
##eleph
##eliyal
##elahasun
##eenental
##ede
##editee
##eda2
##edavarataijing
##ailop
enual
enabee
enavee
enkor
##aits
##aiti
##aitiks
##aitibilitee
##yooem
##yoochar
##yoopament
##shanee
##iksee
##emar
##emaar
##emes
##emistree
##emoto
##egaship
eme
emar
emasee
emejan
emaipaid
emoelidee
bhaaradv
##ogik
##irat
##iriyal
##iranon
##iraasan
##irooa
dee6
deeya
deeyoo
deeyon
deeeks
deegar
deeotee
dee750
yooe
yoo2
yooee
yooreen
yooesadee
anh
anaath
anim
anuj
anaadi
anahel
anvita
anakahee
sampr
samaayojan
samatal
samoohon
##geega
##ache
##achch
##aching
##achenjar
##achking
##achtivai
##achtion
##unich
##undar
##seepee
rupay
rupayon
upae
upavij
upaapachay
jeebeeprosesar
jos
join
uno
unhon
undu
naeejeeriya
dilava
dilakash
##oke
##oktar
##oksee
##okaimp
##okokal
milan
milaap
milim
milkee
mileejulee
##aayoon
##aayakon
##aakiya
##aaksar
##aakaree
##aakisee
##aakathit
abakee
##chhain
##chhart
##chhrom
##osist
sabask
sabmit
sabandhit
sabasakrai
humm
hujoor
hulu
##tig
##ulit
##ulla
##ulaint
##ulinam
kahega
kahegee
kahala
kahiye
laganee
##enta
##entee
##ented
alto
alway
altaranetiv
usame
usairs
##alabandee
##alabled
##alabhaasan
##aabajee
##aabahut
lonchakhabar
disak
distres
disabanr
disakanekt
disphankshan
disilva
##ishch
##ishalee
##ishiyam
##teej
##teem
tarz
tartal
targait
tarraar
##ayer
epaye
##imt
##imaag
banaan
banaay
banengee
banoge
banarjee
seej
see3
seeodee
seeemo
seephol
seeyooem
##sare
##saril
##sardiyon
##ootooth
bair
bairee
baiaut
baizail
gh5
gham
ghiya
ghera
ghamand
vegan
upalabdhiyaan
##tagauratalab
baadaamee
##akoee
##akoin
skaay
skim
skov
skaimars
skaindal
baitareeelajee
baitareekampanee
endoth
##iport
##ipoorti
##idm
##idaas
##idiya
##idev
jarak
jardee
jariee
kaamad
tee2
teejan
tee33
teegor
##iteevitee
##uten
##uthe
aisaa
yoojeda2
megaavot
badhaanee
spaik
spem
spash
sprok
spachai
spalit
spaimar
spaiktr
spraiad
spilat
spero
##janktivaitis
##iyaree
maikan
maiktro
maikejmoo
moin
mohan
jaanush
baarabekyoo
blaas
blaak
blank
blejar
baatem
hamanen
hamaaraapat
dispoj
dispales
##iyopl
##iyoporosis
phraikshan
phrains
##hepetaitis
aayad
aaeeb
aaeeph
aaeeyoo
aaeeeph
aaeeees
aaeeesapee
aaeeeches
aaeelet
aaeeelasee
##deek
##deekee
raheem
##omm
##omail
##ominee
[...]
